{
  "version": "1.0",
  "truncation": null,
  "padding": null,
  "added_tokens": [
    {
      "id": 0,
      "content": "<pad>",
      "single_word": false,
      "lstrip": false,
      "rstrip": false,
      "normalized": false,
      "special": true
    },
    {
      "id": 1,
      "content": "<sos>",
      "single_word": false,
      "lstrip": false,
      "rstrip": false,
      "normalized": false,
      "special": true
    },
    {
      "id": 2,
      "content": "<eos>",
      "single_word": false,
      "lstrip": false,
      "rstrip": false,
      "normalized": false,
      "special": true
    },
    {
      "id": 3,
      "content": "<unk>",
      "single_word": false,
      "lstrip": false,
      "rstrip": false,
      "normalized": false,
      "special": true
    }
  ],
  "normalizer": null,
  "pre_tokenizer": {
    "type": "ByteLevel",
    "add_prefix_space": false,
    "trim_offsets": true,
    "use_regex": true
  },
  "post_processor": null,
  "decoder": {
    "type": "ByteLevel",
    "add_prefix_space": true,
    "trim_offsets": true,
    "use_regex": true
  },
  "model": {
    "type": "BPE",
    "dropout": null,
    "unk_token": "<unk>",
    "continuing_subword_prefix": null,
    "end_of_word_suffix": null,
    "fuse_unk": false,
    "byte_fallback": false,
    "ignore_merges": false,
    "vocab": {
      "<pad>": 0,
      "<sos>": 1,
      "<eos>": 2,
      "<unk>": 3,
      "!": 4,
      "\"": 5,
      "#": 6,
      "$": 7,
      "%": 8,
      "&": 9,
      "'": 10,
      "(": 11,
      ")": 12,
      "*": 13,
      "+": 14,
      ",": 15,
      "-": 16,
      ".": 17,
      "/": 18,
      "0": 19,
      "1": 20,
      "2": 21,
      "3": 22,
      "4": 23,
      "5": 24,
      "6": 25,
      "7": 26,
      "8": 27,
      "9": 28,
      ":": 29,
      ";": 30,
      "<": 31,
      "=": 32,
      ">": 33,
      "?": 34,
      "@": 35,
      "A": 36,
      "B": 37,
      "C": 38,
      "D": 39,
      "E": 40,
      "F": 41,
      "G": 42,
      "H": 43,
      "I": 44,
      "J": 45,
      "K": 46,
      "L": 47,
      "M": 48,
      "N": 49,
      "O": 50,
      "P": 51,
      "Q": 52,
      "R": 53,
      "S": 54,
      "T": 55,
      "U": 56,
      "V": 57,
      "W": 58,
      "X": 59,
      "Y": 60,
      "Z": 61,
      "[": 62,
      "\\": 63,
      "]": 64,
      "^": 65,
      "_": 66,
      "`": 67,
      "a": 68,
      "b": 69,
      "c": 70,
      "d": 71,
      "e": 72,
      "f": 73,
      "g": 74,
      "h": 75,
      "i": 76,
      "j": 77,
      "k": 78,
      "l": 79,
      "m": 80,
      "n": 81,
      "o": 82,
      "p": 83,
      "q": 84,
      "r": 85,
      "s": 86,
      "t": 87,
      "u": 88,
      "v": 89,
      "w": 90,
      "x": 91,
      "y": 92,
      "z": 93,
      "{": 94,
      "|": 95,
      "}": 96,
      "~": 97,
      "¡": 98,
      "¢": 99,
      "£": 100,
      "¤": 101,
      "¥": 102,
      "¦": 103,
      "§": 104,
      "¨": 105,
      "©": 106,
      "ª": 107,
      "«": 108,
      "¬": 109,
      "®": 110,
      "¯": 111,
      "°": 112,
      "±": 113,
      "²": 114,
      "³": 115,
      "´": 116,
      "µ": 117,
      "¶": 118,
      "·": 119,
      "¸": 120,
      "¹": 121,
      "º": 122,
      "»": 123,
      "¼": 124,
      "½": 125,
      "¾": 126,
      "¿": 127,
      "À": 128,
      "Á": 129,
      "Â": 130,
      "Ã": 131,
      "Ä": 132,
      "Å": 133,
      "Æ": 134,
      "Ç": 135,
      "È": 136,
      "É": 137,
      "Ê": 138,
      "Ë": 139,
      "Ì": 140,
      "Í": 141,
      "Î": 142,
      "Ï": 143,
      "Ð": 144,
      "Ñ": 145,
      "Ò": 146,
      "Ó": 147,
      "Ô": 148,
      "Õ": 149,
      "Ö": 150,
      "×": 151,
      "Ø": 152,
      "Ù": 153,
      "Ú": 154,
      "Û": 155,
      "Ü": 156,
      "Ý": 157,
      "Þ": 158,
      "ß": 159,
      "à": 160,
      "á": 161,
      "â": 162,
      "ã": 163,
      "ä": 164,
      "å": 165,
      "æ": 166,
      "ç": 167,
      "è": 168,
      "é": 169,
      "ê": 170,
      "ë": 171,
      "ì": 172,
      "í": 173,
      "î": 174,
      "ï": 175,
      "ð": 176,
      "ñ": 177,
      "ò": 178,
      "ó": 179,
      "ô": 180,
      "õ": 181,
      "ö": 182,
      "÷": 183,
      "ø": 184,
      "ù": 185,
      "ú": 186,
      "û": 187,
      "ü": 188,
      "ý": 189,
      "þ": 190,
      "ÿ": 191,
      "Ā": 192,
      "ā": 193,
      "Ă": 194,
      "ă": 195,
      "Ą": 196,
      "ą": 197,
      "Ć": 198,
      "ć": 199,
      "Ĉ": 200,
      "ĉ": 201,
      "Ċ": 202,
      "ċ": 203,
      "Č": 204,
      "č": 205,
      "Ď": 206,
      "ď": 207,
      "Đ": 208,
      "đ": 209,
      "Ē": 210,
      "ē": 211,
      "Ĕ": 212,
      "ĕ": 213,
      "Ė": 214,
      "ė": 215,
      "Ę": 216,
      "ę": 217,
      "Ě": 218,
      "ě": 219,
      "Ĝ": 220,
      "ĝ": 221,
      "Ğ": 222,
      "ğ": 223,
      "Ġ": 224,
      "ġ": 225,
      "Ģ": 226,
      "ģ": 227,
      "Ĥ": 228,
      "ĥ": 229,
      "Ħ": 230,
      "ħ": 231,
      "Ĩ": 232,
      "ĩ": 233,
      "Ī": 234,
      "ī": 235,
      "Ĭ": 236,
      "ĭ": 237,
      "Į": 238,
      "į": 239,
      "İ": 240,
      "ı": 241,
      "Ĳ": 242,
      "ĳ": 243,
      "Ĵ": 244,
      "ĵ": 245,
      "Ķ": 246,
      "ķ": 247,
      "ĸ": 248,
      "Ĺ": 249,
      "ĺ": 250,
      "Ļ": 251,
      "ļ": 252,
      "Ľ": 253,
      "ľ": 254,
      "Ŀ": 255,
      "ŀ": 256,
      "Ł": 257,
      "ł": 258,
      "Ń": 259,
      "á»": 260,
      "áº": 261,
      "Ġt": 262,
      "ng": 263,
      "Ġc": 264,
      "Ãł": 265,
      "ĠÄ": 266,
      "ĠÄĳ": 267,
      "Ġn": 268,
      "há»": 269,
      "hÃ": 270,
      "Ġv": 271,
      "Ġl": 272,
      "Æ°": 273,
      "Ġm": 274,
      "Ġ,": 275,
      "Ġb": 276,
      "Ã³": 277,
      "Ġ.": 278,
      "Ġk": 279,
      "iá»": 280,
      "háº": 281,
      "Ã´": 282,
      "Ã¡": 283,
      "nh": 284,
      "Ġs": 285,
      "Ġtr": 286,
      "Æ°á»": 287,
      "áº¡": 288,
      "á»Ļ": 289,
      "Ġng": 290,
      "Ġg": 291,
      "ĠlÃł": 292,
      "áº¿": 293,
      "Ã´i": 294,
      "ĠvÃł": 295,
      "Ġh": 296,
      "Ġthá»": 297,
      "áº£": 298,
      "Ãª": 299,
      "Ġr": 300,
      "hÃº": 301,
      "á»Ļt": 302,
      "Ġp": 303,
      "Ġd": 304,
      "ĠÄĳá»": 305,
      "Ġnh": 306,
      "ĠtÃ´i": 307,
      "qu": 308,
      "Ġcá»": 309,
      "Ġvá»": 310,
      "Ġmá»Ļt": 311,
      "áº¥": 312,
      "ĠcÃ³": 313,
      "ĠkhÃ": 314,
      "Ġch": 315,
      "hÃºng": 316,
      "Ãªn": 317,
      "ĠcÃ¡": 318,
      "Ġth": 319,
      "Ã¬": 320,
      "¯ng": 321,
      "Ġnhá»": 322,
      "á»ĳ": 323,
      "iá»ĩ": 324,
      "Ã¢": 325,
      "Ġhá»": 326,
      "Ŀi": 327,
      "Æ¡": 328,
      "Ľi": 329,
      "Ġnhá»¯ng": 330,
      "Ġtháº": 331,
      "Ġcá»§": 332,
      "ĠchÃºng": 333,
      "Ġcá»§a": 334,
      "´ng": 335,
      "iáº¿": 336,
      "Ġtá»": 337,
      "áº¡n": 338,
      "Ġta": 339,
      "Ã£": 340,
      "ĠcÃ¡c": 341,
      "ĠnÃł": 342,
      "Ġqu": 343,
      "iá»ģ": 344,
      "ĠkhÃ´ng": 345,
      "Æ°á»£": 346,
      "ĠnÃ³": 347,
      "á»Ł": 348,
      "áº§": 349,
      "ong": 350,
      "áºŃ": 351,
      "Æ°á»Ŀi": 352,
      "á»±": 353,
      "Ġgi": 354,
      "ĠÄĳÃ³": 355,
      "Ġx": 356,
      "iá»ģu": 357,
      "ĠngÆ°á»Ŀi": 358,
      "Ġbáº¡n": 359,
      "Ġkh": 360,
      "áº¥t": 361,
      "áº¡i": 362,
      "Ġtrong": 363,
      "Ġthá»ĥ": 364,
      "Æ°á»£c": 365,
      "uy": 366,
      "ĠnÃły": 367,
      "ĠÄĳÃ£": 368,
      "Ġchá»": 369,
      "Äĥ": 370,
      "ĠÄĳÆ°á»£c": 371,
      "ĠthÃ": 372,
      "Ã¢y": 373,
      "ĠnhÆ°": 374,
      "Ġhá»į": 375,
      "ot": 376,
      "Ġ&": 377,
      "Ġpháº": 378,
      "Ġvá»Ľi": 379,
      "Ġngh": 380,
      "quot": 381,
      "Ġcho": 382,
      "an": 383,
      "VÃł": 384,
      "ay": 385,
      "Ġra": 386,
      "Ġsáº": 387,
      "Ġsá»±": 388,
      "Ġgiá»": 389,
      "ĠmÃł": 390,
      "ĠlÃłm": 391,
      "ch": 392,
      "Ã´ng": 393,
      "áº±": 394,
      "Ġnháº": 395,
      "ang": 396,
      "ĠphÃ": 397,
      "Ġá»Ł": 398,
      "iÃªn": 399,
      "á»į": 400,
      "áº±ng": 401,
      "ĠÄĳá»ĥ": 402,
      "Ġcáº£": 403,
      "Ġvá»ģ": 404,
      "ÃŃ": 405,
      "Ã¬nh": 406,
      "Ġsáº½": 407,
      "Ġbá»": 408,
      "uá»ĳ": 409,
      "iá»ĥ": 410,
      "Æ¡n": 411,
      "iáº¿t": 412,
      "£i": 413,
      "ĠÄĳiá»ģu": 414,
      "Ä©": 415,
      "áº·": 416,
      "Ġtháº¿": 417,
      "ĠT": 418,
      "Ġlá»": 419,
      "Ġho": 420,
      "on": 421,
      "Æ°á»Ľ": 422,
      "áº¿n": 423,
      "áº§u": 424,
      "Ġtá»«": 425,
      "áº¯": 426,
      "Ãłnh": 427,
      "Ġkhi": 428,
      "©ng": 429,
      "uyá»": 430,
      "anh": 431,
      "ĠkhÃ¡": 432,
      "Ã¹": 433,
      "Ġsá»ĳ": 434,
      "inh": 435,
      "±c": 436,
      "ĠnÃ³i": 437,
      "áº§n": 438,
      "ao": 439,
      "Ġdá»": 440,
      "ai": 441,
      "Ġcháº": 442,
      "©c": 443,
      "iá»ĩn": 444,
      "ĠchÃ": 445,
      "Ãº": 446,
      "ĠnÄĥ": 447,
      "ĠÄĳáº¿n": 448,
      "Ġtháº¥": 449,
      "Ġ1": 450,
      "ĠhÃ": 451,
      "Ġ?": 452,
      "Ġpháº£i": 453,
      "ĠnhÃ": 454,
      "iá»ĩc": 455,
      "Æ°á»Ŀ": 456,
      "Æ°á»Ľc": 457,
      "ÄĲ": 458,
      "Ã²": 459,
      "Ġráº±ng": 460,
      "ĠvÃło": 461,
      "ĠgÃ¬": 462,
      "Æ°á»Ŀng": 463,
      "ĠÄĳang": 464,
      "Ãłn": 465,
      "Ġmá»": 466,
      "Ġviá»ĩc": 467,
      "au": 468,
      "Ġláº¡i": 469,
      "ĠváºŃ": 470,
      "Ġtháº¥y": 471,
      "ĠnghÄ©": 472,
      "ĠÄĳá»Ļ": 473,
      "Ġráº¥t": 474,
      "ĠcÃ¡ch": 475,
      "Ã½": 476,
      "in": 477,
      "ĠhÆ¡n": 478,
      "Ġná»": 479,
      "áº¥y": 480,
      "ĠC": 481,
      "Ġnhiá»ģu": 482,
      "Æ°Æ¡": 483,
      "Ãłi": 484,
      "¢n": 485,
      "Ġháº": 486,
      "áº£n": 487,
      "Ã¹ng": 488,
      "Ġthá»±c": 489,
      "iáº¿n": 490,
      "ĠÄĳáº§u": 491,
      "TÃ´i": 492,
      "Æ°Æ¡ng": 493,
      "¥t": 494,
      "ĠÄĳÃ¢y": 495,
      "Ġ-": 496,
      "Ġhá»įc": 497,
      "Ġcon": 498,
      "ĠkhÃ¡c": 499,
      "ķi": 500,
      "Ã¢u": 501,
      "á»įi": 502,
      "Ġchá»ī": 503,
      "áº¡o": 504,
      "Ġsá»": 505,
      "áº¿u": 506,
      "ĠcÃ´ng": 507,
      "ĠtrÃªn": 508,
      "á»ĵ": 509,
      "ĠcÃ¡i": 510,
      "Ã¡c": 511,
      "ĠnÃło": 512,
      "Ġbiáº¿t": 513,
      "áº¿t": 514,
      "ĠvÃ¬": 515,
      "ĠÄĳá»ģ": 516,
      "ung": 517,
      "ĠchÃŃ": 518,
      "uyá»ĩ": 519,
      "Ãłng": 520,
      "Ġphá»": 521,
      "iá»ĩu": 522,
      "ĠphÃ¡": 523,
      "Nh": 524,
      "ĠnÄĥm": 525,
      "Å©ng": 526,
      "Æ¡i": 527,
      "uá»ĳn": 528,
      "ĠÄĳi": 529,
      "Ġthá»©": 530,
      "Ġdá»¥": 531,
      "ĠthÃłnh": 532,
      "á»Ļc": 533,
      "Ġ:": 534,
      "Ġ--": 535,
      "áº¯t": 536,
      "Æ°ng": 537,
      "ĠcÅ©ng": 538,
      "ĠnhÃł": 539,
      "ChÃºng": 540,
      "uá»Ļc": 541,
      "ĳng": 542,
      "Ġbá»ĭ": 543,
      "Ġto": 544,
      "ĠM": 545,
      "áº»": 546,
      "Ġquan": 547,
      "Ġkho": 548,
      "Ġmuá»ĳn": 549,
      "ĠsÃ¡": 550,
      "ĠtháºŃ": 551,
      "eo": 552,
      "em": 553,
      "ĠnháºŃ": 554,
      "ĠmÃ¬nh": 555,
      "hi": 556,
      "Ġtrá»": 557,
      "¯a": 558,
      "Ġnháº¥t": 559,
      "Ġká»": 560,
      "NhÆ°ng": 561,
      "ĠN": 562,
      "Æ°á»Ł": 563,
      "Ġtáº¡o": 564,
      "áº«": 565,
      "Æ°á»Łng": 566,
      "ĠB": 567,
      "ĠÄĳá»Ļng": 568,
      "Ġtá»ĳ": 569,
      "Ġgiá»Ľi": 570,
      "ĠchÃŃnh": 571,
      "ĠnhÆ°ng": 572,
      "Ġlo": 573,
      "ĠnÃªn": 574,
      "Ġgiáº£": 575,
      "á»Łi": 576,
      "ĠváºŃy": 577,
      "áº·t": 578,
      "§n": 579,
      "ģn": 580,
      "Ãły": 581,
      "Ġlá»Ľ": 582,
      "¬nh": 583,
      "Ãªu": 584,
      "ĠhÃ¬nh": 585,
      "Æ°a": 586,
      "Ã²n": 587,
      "ıi": 588,
      "iá»ĥu": 589,
      "Ġhiá»ĩn": 590,
      "ĠtÃŃ": 591,
      "Ġgiá»Ŀ": 592,
      "Ã¢n": 593,
      "Ġsá»ĳng": 594,
      "uyá»ĩn": 595,
      "Ġtiáº¿": 596,
      "Ġtáº¡i": 597,
      "ĠnháºŃn": 598,
      "Ġmá»įi": 599,
      "Ã¡i": 600,
      "Æ°á»£ng": 601,
      "áº¥n": 602,
      "Ġnáº¿u": 603,
      "er": 604,
      "uá»": 605,
      "ĠH": 606,
      "¬n": 607,
      "Ġquy": 608,
      "Ġcuá»Ļc": 609,
      "Ã©": 610,
      "Ġcáº§n": 611,
      "ĥn": 612,
      "am": 613,
      "Ġhay": 614,
      "Ã¡n": 615,
      "Ġtá»±": 616,
      "áº·c": 617,
      "áºŃp": 618,
      "uáºŃ": 619,
      "Ġ2": 620,
      "á»ĵi": 621,
      "ĠthÃ¬": 622,
      "Ã¢m": 623,
      "ĠÄĳá»ĭ": 624,
      "00": 625,
      "ĠÄĲ": 626,
      "ĠÄĳá»ĵ": 627,
      "Ġtáº¥t": 628,
      "ĠÃ´ng": 629,
      "Ġáº¥y": 630,
      "en": 631,
      "Ġtá»Ľi": 632,
      "Ġbá»Łi": 633,
      "Ġtheo": 634,
      "Ġbáº¯t": 635,
      "ĠcÃ²n": 636,
      "iá»ĥm": 637,
      "ĠnhÃ¬n": 638,
      "Ġlá»Ľn": 639,
      "ĠA": 640,
      "ĠÄĳÃ¡": 641,
      "ĠcÃ¹ng": 642,
      "áº«n": 643,
      "Ġbáº±ng": 644,
      "ĠÃ½": 645,
      "Ġcáº£m": 646,
      "iá»ĥn": 647,
      "Ġtáº¿": 648,
      "Ãºc": 649,
      "Ġdá»¥ng": 650,
      "Ġcá»©": 651,
      "ĠlÃªn": 652,
      "ĠtháºŃt": 653,
      "Ġsau": 654,
      "ĠgiÃ¡": 655,
      "Ġbáº£n": 656,
      "ĠcÃ¢u": 657,
      "Ġanh": 658,
      "Ġtin": 659,
      "Ġsao": 660,
      "Ġqua": 661,
      "Ġthá»Ŀi": 662,
      "Ġchuyá»ĩn": 663,
      "Ġkhá»": 664,
      "Ġtrá»Ł": 665,
      "ĠS": 666,
      "iá»ĩm": 667,
      "Ġbá»Ļ": 668,
      "Ã´n": 669,
      "ĠnhÃ¢n": 670,
      "ĠngÃły": 671,
      "ĠcÆ¡": 672,
      "Ġhá»Ļ": 673,
      "Ġsinh": 674,
      "Äĥn": 675,
      "Ġkháº": 676,
      "ĳi": 677,
      "Ĺi": 678,
      "¥c": 679,
      "ĠthÃŃ": 680,
      "áº£ng": 681,
      "áº£nh": 682,
      "ĠnÄĥng": 683,
      "Ġsá»Ń": 684,
      "ĠphÃ¡t": 685,
      "ĠtrÆ°á»Ľc": 686,
      "ĠnÆ°á»Ľc": 687,
      "ia": 688,
      "ĠÄĳá»ķi": 689,
      "iá»ĩt": 690,
      "ĠtoÃłn": 691,
      "ĠmÃ¡": 692,
      "Ã¬m": 693,
      "Ġpháº§n": 694,
      "ĠnÆ¡i": 695,
      "Ġgia": 696,
      "Ġdo": 697,
      "ĠthÃ´ng": 698,
      "Ġdá»±": 699,
      "Ġnhau": 700,
      "ĠtÃ¬m": 701,
      "ar": 702,
      "Ġmá»Ľi": 703,
      "Ġthay": 704,
      "Ġy": 705,
      "Ġváº¥n": 706,
      "ĠÄĳá»ĭnh": 707,
      "Ġhá»ĩ": 708,
      "ĠtrÆ°á»Ŀng": 709,
      "Ġnghá»": 710,
      "ĠnhiÃªn": 711,
      "ĠtÃŃnh": 712,
      "Ġph": 713,
      "iá»ħ": 714,
      "ĠtrÃ¬nh": 715,
      "Ġmáº¡": 716,
      "Ġtá»ĳt": 717,
      "ĠtÆ°á»Łng": 718,
      "Ġkáº¿t": 719,
      "Äĥng": 720,
      "ĠváºŃt": 721,
      "ĠlÃ½": 722,
      "ĠhÃłng": 723,
      "Ġhá»ıi": 724,
      "¿t": 725,
      "ĠP": 726,
      "Ġháº¡": 727,
      "£p": 728,
      "ĠK": 729,
      "á»±c": 730,
      "ĠmÃ¡y": 731,
      "Ġáº£nh": 732,
      "á»ĳi": 733,
      "uáºŃt": 734,
      "ĠTÃ´i": 735,
      "ĠthÃ¡": 736,
      "Ġhá»£p": 737,
      "ĠL": 738,
      "áº¡t": 739,
      "Ġmáº·t": 740,
      "¯c": 741,
      "NÃ³": 742,
      "ĠhÃłnh": 743,
      "Ġtiáº¿p": 744,
      "Ġná»¯a": 745,
      "Ġkinh": 746,
      "ÄĲÃ¢y": 747,
      "³ng": 748,
      "Ġgian": 749,
      "Ġthá»©c": 750,
      "Ġhá»Ļi": 751,
      "Ġtrá»į": 752,
      "Ġvá»ĭ": 753,
      "áºŃy": 754,
      "Ġthiáº¿t": 755,
      "áº¹": 756,
      "Ãło": 757,
      "Ġchiáº¿": 758,
      "áº¥u": 759,
      "uyÃªn": 760,
      "Ńa": 761,
      "Ġá»": 762,
      "Ġxem": 763,
      "Ġliá»ĩu": 764,
      "Ġrá»ĵi": 765,
      "Ġtrá»įng": 766,
      "ĠhoÃ¡": 767,
      "uá»ķi": 768,
      "ĠthÃŃch": 769,
      "ĠcÃ´": 770,
      "áº©": 771,
      "áº£o": 772,
      "ĩnh": 773,
      "ĠÄĳá»ĵng": 774,
      "iá»ħn": 775,
      "Ġgiáº£i": 776,
      "iÃªu": 777,
      "Ġtráº»": 778,
      "ĠlÆ°á»£ng": 779,
      "Ġhai": 780,
      "ĠÄĳo": 781,
      "ĠquÃ¡": 782,
      "Ġai": 783,
      "Ġngá»": 784,
      "ĠthÆ°á»Ŀng": 785,
      "Ġbáº¥t": 786,
      "ĠvÃłi": 787,
      "áº½": 788,
      "ĠÄĳá»ģu": 789,
      "ĠtiÃªn": 790,
      "ĠG": 791,
      "ĠÄĳá»ĳi": 792,
      "ĠsÃ¡ng": 793,
      "á»Ļng": 794,
      "Ġtráº£": 795,
      "Ġhiá»ĥu": 796,
      "ĠtÃ¢m": 797,
      "Ġnay": 798,
      "ÄĲÃ³": 799,
      "Ġloáº¡i": 800,
      "Ġgiá»ĳng": 801,
      "VÃ¬": 802,
      "áº£y": 803,
      "Ġláº§n": 804,
      "Ġcá»©u": 805,
      "ĠthÃº": 806,
      "Ġthá»ĳng": 807,
      "ĭch": 808,
      "Ġbá»ĩnh": 809,
      "Ġbao": 810,
      "Báº¡n": 811,
      "Ġ3": 812,
      "Ã²ng": 813,
      "ĠviÃªn": 814,
      "Ãºng": 815,
      "£y": 816,
      "Ġnghá»ĩ": 817,
      "iá»ģn": 818,
      "ĠÄĳiá»ĥm": 819,
      "hÃºt": 820,
      "Ġngo": 821,
      "ĠnghÄ©a": 822,
      "Ġgá»įi": 823,
      "ĠTr": 824,
      "Ġnhá»ı": 825,
      "VáºŃy": 826,
      "áº¯ng": 827,
      "ĠÄĳÆ°a": 828,
      "Ġxu": 829,
      "ĠhoÃłn": 830,
      "ĠtÆ°Æ¡ng": 831,
      "Ġnghiá»ĩm": 832,
      "Ġquáº£": 833,
      "ĠtÃ¡c": 834,
      "ĠÄĳÆ°á»Ŀng": 835,
      "ĠD": 836,
      "uyá»ĥn": 837,
      "or": 838,
      "Ġváº«n": 839,
      "uyá»ĩt": 840,
      "Å©": 841,
      "Ġcá»ĳ": 842,
      "Äĥm": 843,
      "Ġxáº£y": 844,
      "Tr": 845,
      "uyá»ģn": 846,
      "á»ĳc": 847,
      "Ġchiáº¿c": 848,
      "ĠthuáºŃt": 849,
      "Má»Ļt": 850,
      "Ġbiá»ĩt": 851,
      "ĠÃŃ": 852,
      "ĠdÃ¹ng": 853,
      "ĠÄĳáº¡i": 854,
      "al": 855,
      "há»¯ng": 856,
      "ĠbÃªn": 857,
      "Ġtá»«ng": 858,
      "Ġhoáº·c": 859,
      "ĠdÃ¢n": 860,
      "Ġtriá»ĥn": 861,
      "Ġchuyá»ĥn": 862,
      "iá»ĩp": 863,
      "ĠlÃºc": 864,
      "Ã£o": 865,
      "Ġdiá»ħn": 866,
      "Ġtrá»ĭ": 867,
      "Ġquyáº¿t": 868,
      "«ng": 869,
      "Ġcao": 870,
      "Ġnghe": 871,
      "Ġthu": 872,
      "Ãºp": 873,
      "ĠÄĥn": 874,
      "Ġdáº¡": 875,
      "uÃ´n": 876,
      "uá»ĳc": 877,
      "Ġtuyá»ĩt": 878,
      "áº¯c": 879,
      "Ġcáº§u": 880,
      "Ġtá»ķ": 881,
      "Ġmá»Ĺi": 882,
      "uá»ĳi": 883,
      "Ġvi": 884,
      "Ġkhoáº£ng": 885,
      "Ġlá»±c": 886,
      "Ġkáº¿": 887,
      "Ġcháº¥t": 888,
      "Ġphá»¥": 889,
      "ĠÃ¡": 890,
      "ĠbÃ¡": 891,
      "áº¥p": 892,
      "im": 893,
      "CÃ³": 894,
      "Ġlá»Ŀi": 895,
      "ĠgiÃ¡o": 896,
      "ĠÄĳáº¥t": 897,
      "ĠgiÃºp": 898,
      "es": 899,
      "²ng": 900,
      "Ġem": 901,
      "ĠÆ¡n": 902,
      "Ãµ": 903,
      "©a": 904,
      "Ġtrung": 905,
      "Ġchá»§": 906,
      "áº©n": 907,
      "Ġbáº£o": 908,
      "Há»į": 909,
      "Ġná»¯": 910,
      "Ġkháº£": 911,
      "Ġtiáº¿n": 912,
      "os": 913,
      "Ġháº¿t": 914,
      "ĠphÃ²ng": 915,
      "Æ°á»Ľi": 916,
      "ĠR": 917,
      "el": 918,
      "ĠtÃ¬nh": 919,
      "ĠchÆ°a": 920,
      "ĠnghiÃªn": 921,
      "hÃ´ng": 922,
      "Ġxuáº¥t": 923,
      "Æ°á»Ľng": 924,
      "ĠVÃł": 925,
      "Ġxe": 926,
      "Ġmang": 927,
      "á»¹": 928,
      "ĠliÃªn": 929,
      "ĠphÃ¢n": 930,
      "Ġtranh": 931,
      "ĠbÃłi": 932,
      "ĠkhÃ³": 933,
      "ĠÄĳÆ¡n": 934,
      "áº¯n": 935,
      "ĠnÃ£o": 936,
      "ĠtáºŃp": 937,
      "Ġtruyá»ģn": 938,
      "¥p": 939,
      "Ġtuá»ķi": 940,
      "ĠÄĳÃºng": 941,
      "ĠÄĳiá»ĩn": 942,
      "ĠphÆ°Æ¡ng": 943,
      "ĠbÃ¬nh": 944,
      "ÄĲiá»ģu": 945,
      "ĠÄĳáº·t": 946,
      "©m": 947,
      "ĠtÆ°á»£ng": 948,
      "iÃª": 949,
      "Ġtay": 950,
      "uá»ĳng": 951,
      "Ġbiáº¿n": 952,
      "uá»ĵ": 953,
      "Ġtiá»ģn": 954,
      "Ġgiá»¯a": 955,
      "ĠyÃªu": 956,
      "Ġsáº£n": 957,
      "©p": 958,
      "Ġtiáº¿ng": 959,
      "Ġtho": 960,
      "ĠbÃ©": 961,
      "áº·p": 962,
      "Ġngay": 963,
      "Ġquyá»": 964,
      "Ġkhoa": 965,
      "áºŃn": 966,
      "ĠhÃ£y": 967,
      "áº¡c": 968,
      "áº§m": 969,
      "Ġláº¥y": 970,
      "Ġbá»ı": 971,
      "Náº¿u": 972,
      "ĠtrÃŃ": 973,
      "et": 974,
      "Ġnháº¡": 975,
      "ĠxÃ£": 976,
      "Ng": 977,
      "Ġgáº§n": 978,
      "Ġhoáº¡t": 979,
      "Nhá»¯ng": 980,
      "Ġchiáº¿n": 981,
      "Ġthá»ĭ": 982,
      "Ġkhu": 983,
      "ĠÄĳÃ¡ng": 984,
      "ĠsÃ¡ch": 985,
      "Ġphi": 986,
      "ĠI": 987,
      "Ġpháº©m": 988,
      "ĠthÃ¢n": 989,
      "ĠphÃ¡p": 990,
      "Ġhiá»ĩu": 991,
      "ĠkhÃŃ": 992,
      "Ġcuá»ĳi": 993,
      "ĠÄĳá»Ŀi": 994,
      "ĠchÆ¡i": 995,
      "Tháº": 996,
      "Ã£y": 997,
      "Ġ5": 998,
      "Ġmáº¥t": 999,
      "Ġminh": 1000,
      "uyáº¿t": 1001,
      "Ġsá»©c": 1002,
      "á»Ļi": 1003,
      "Ġká»ĥ": 1004,
      "Ġso": 1005,
      "ĠhÃ´": 1006,
      "ĠMá»¹": 1007,
      "įng": 1008,
      "ĠV": 1009,
      "uá»ĵn": 1010,
      "Ġmáº¡nh": 1011,
      "ĠkÃŃ": 1012,
      "at": 1013,
      "Ġnghiá»ĩp": 1014,
      "Ã³c": 1015,
      "is": 1016,
      "ĠngoÃłi": 1017,
      "Khi": 1018,
      "ĠÃŃt": 1019,
      "Ġdáº«n": 1020,
      "ĠláºŃp": 1021,
      "ĠtÃłi": 1022,
      "ĠÄĳáº¥y": 1023,
      "ĠmÃ´": 1024,
      "¯p": 1025,
      "«a": 1026,
      "ĠloÃłi": 1027,
      "Ġká»³": 1028,
      "Ġbá»©c": 1029,
      "Ġtinh": 1030,
      "Ġrá»": 1031,
      "ĠluÃ´n": 1032,
      "uáºŃn": 1033,
      "Ġ4": 1034,
      "Ġdá»±ng": 1035,
      "ĠxÃ¢y": 1036,
      "ĠQ": 1037,
      "ĠtiÃªu": 1038,
      "Ã©t": 1039,
      "Ġphá»ĳ": 1040,
      "Ġchá»į": 1041,
      "ĠtÃªn": 1042,
      "ĠvÃ´": 1043,
      "Ġcá»Ļng": 1044,
      "ĠvÄĥn": 1045,
      "ĠÃ¢m": 1046,
      "Ġchá»©ng": 1047,
      "Ġtá»Ń": 1048,
      "ic": 1049,
      "ĠhÆ°á»Ľng": 1050,
      "Ġhá»ĵ": 1051,
      "áºŃt": 1052,
      "Ġnháº¡c": 1053,
      "ĠJ": 1054,
      "Ġthá»Ń": 1055,
      "Ġviáº¿t": 1056,
      "ap": 1057,
      "ĠÄĳÃ¢u": 1058,
      "Ġchá»©c": 1059,
      "ĠnguyÃªn": 1060,
      "Ġkiáº¿n": 1061,
      "Ġquá»ĳc": 1062,
      "ua": 1063,
      "Ġá»©ng": 1064,
      "Ġvá»Ŀi": 1065,
      "Ġchá»įn": 1066,
      "Ġgiáº£n": 1067,
      "Ġquyá»ģn": 1068,
      "Ġcháº¿": 1069,
      "Ġba": 1070,
      "ĠÄĳáº·c": 1071,
      "Ġbá»ĳ": 1072,
      "Ġcháº¿t": 1073,
      "ĠtÆ°": 1074,
      "iáº¿m": 1075,
      "ĠbÃło": 1076,
      "Ġmáº¡ng": 1077,
      "Ġcáº¥p": 1078,
      "Ġsuy": 1079,
      "ĠÃ": 1080,
      "Ġtriá»ĩu": 1081,
      "ĠbÃł": 1082,
      "³m": 1083,
      "ĠtÄĥng": 1084,
      "Trong": 1085,
      "Ġvá»¥": 1086,
      "Ġtháº§n": 1087,
      "Ġná»ģn": 1088,
      "ĠÄĳáº¡o": 1089,
      "Ġláº½": 1090,
      "ĠÄĳá»©a": 1091,
      "£n": 1092,
      "il": 1093,
      "áº¡p": 1094,
      "ĠsÄ©": 1095,
      "Ġkhá»ıi": 1096,
      "áº£m": 1097,
      "Ġchu": 1098,
      "ĠmÃłu": 1099,
      "CÃ¡c": 1100,
      "á»Ń": 1101,
      "as": 1102,
      "Ġdi": 1103,
      "ĠÄĳÃ¡nh": 1104,
      "Ġcá»¥": 1105,
      "Ġmáº¹": 1106,
      "Ġgáº·p": 1107,
      "ĠthÃ¡ng": 1108,
      "¯n": 1109,
      "ĠdÆ°á»Ľi": 1110,
      "Ġtá»ĵ": 1111,
      "it": 1112,
      "ol": 1113,
      "ªm": 1114,
      "áº¥m": 1115,
      "ĠchÃºt": 1116,
      "Ġxuá»ĳng": 1117,
      "áº¹p": 1118,
      "ĠW": 1119,
      "Ġgáº¯ng": 1120,
      "Ã¢ng": 1121,
      "áº§y": 1122,
      "Ġ..": 1123,
      "áºŃu": 1124,
      "ĠF": 1125,
      "ĠphÃ©p": 1126,
      "Ġquanh": 1127,
      "ĠnhÃ³m": 1128,
      "Ġdá»ĭch": 1129,
      "Ġmá»Ł": 1130,
      "Ġvá»±c": 1131,
      "ĠxÃ¡c": 1132,
      "Ġkhiáº¿n": 1133,
      "ĠE": 1134,
      "Ġdá»¯": 1135,
      "ĠÃ¡n": 1136,
      "Ġ%": 1137,
      "Ġchia": 1138,
      "ĠChÃºng": 1139,
      "Ġbay": 1140,
      "Ã¡ch": 1141,
      "000": 1142,
      "¢u": 1143,
      "Ġtham": 1144,
      "ĠthÃªm": 1145,
      "ĠtrÃ²": 1146,
      "Ġthuyáº¿t": 1147,
      "Ġmá»©c": 1148,
      "Ġnhanh": 1149,
      "Ġquay": 1150,
      "ĠthÃ´": 1151,
      "Ġdáº¡ng": 1152,
      "ĠchÃº": 1153,
      "Ġcháº¡": 1154,
      "ĠÄĳÃłn": 1155,
      "Ġcá»±c": 1156,
      "Ã³ng": 1157,
      "ĠgÃ¢y": 1158,
      "ĠrÃµ": 1159,
      "Ġvá»įng": 1160,
      "Ġ10": 1161,
      "Ġnguá»ĵn": 1162,
      "ĠAnh": 1163,
      "ĠvÃ¹ng": 1164,
      "Ġhoáº¡": 1165,
      "Ġcáº£nh": 1166,
      "áº«u": 1167,
      "ĠÄĳáº¹p": 1168,
      "ĠbÃ¡o": 1169,
      "Ġtá»¥c": 1170,
      "Ã¨": 1171,
      "ĠdÃ¹": 1172,
      "ĠgiÃ¡c": 1173,
      "Ġcháº¯c": 1174,
      "ĠsÃ¡t": 1175,
      "ĠcÃłng": 1176,
      "Ġxa": 1177,
      "Ġdá»ħ": 1178,
      "vÃł": 1179,
      "ĠÄĳá»§": 1180,
      "BÃ¢y": 1181,
      "ĠcÃ¢y": 1182,
      "ĠbÃ¢y": 1183,
      "áº¯m": 1184,
      "ĠvÃŃ": 1185,
      "Ã¡t": 1186,
      "iÃªng": 1187,
      "Ġtrang": 1188,
      "KhÃ´ng": 1189,
      "Ġphim": 1190,
      "Ġnhá»Ľ": 1191,
      "ĠphÃŃa": 1192,
      "Ġbiá»ĥu": 1193,
      "ĠhÆ°á»Łng": 1194,
      "Æ°u": 1195,
      "ĠhÃ´m": 1196,
      "ĠÄĳoáº¡n": 1197,
      "Ġduy": 1198,
      "Ġ...": 1199,
      "Ġchá»ĭ": 1200,
      "Ġ19": 1201,
      "Ġ20": 1202,
      "ĠvÅ©": 1203,
      "ĠkÃ¬": 1204,
      "Ġcháº³ng": 1205,
      "le": 1206,
      "ĠtrÃ¡i": 1207,
      "Ġkiá»ĥm": 1208,
      "Ġláº¡": 1209,
      "ĠthÆ°Æ¡ng": 1210,
      "ter": 1211,
      "Ķng": 1212,
      "§ng": 1213,
      "ho": 1214,
      "ĠNg": 1215,
      "ĠdÃłi": 1216,
      "ĠvÃ²ng": 1217,
      "ĠQuá»ĳc": 1218,
      "Ńt": 1219,
      "ĠluáºŃn": 1220,
      "Ġngá»¯": 1221,
      "Ġpháº£n": 1222,
      "ĠÄĳÃ´i": 1223,
      "Thá»": 1224,
      "Ġtu": 1225,
      "ĠÄĳáº§y": 1226,
      "uyáº¿n": 1227,
      "Ġdá»¥c": 1228,
      "Ġlá»£i": 1229,
      "áº£i": 1230,
      "Ġkia": 1231,
      "Ġgiáº£m": 1232,
      "HÃ£y": 1233,
      "Ġthuá»ĳc": 1234,
      "ĠtháºŃm": 1235,
      "Ġkiáº¿m": 1236,
      "Ġty": 1237,
      "Ġvu": 1238,
      "Ġvá»«a": 1239,
      "ĠchÃ¢n": 1240,
      "ĠtÃŃch": 1241,
      "ĠtrÄĥm": 1242,
      "ĠthÆ°": 1243,
      "us": 1244,
      "ĠthÃ´i": 1245,
      "apos": 1246,
      "and": 1247,
      "ac": 1248,
      "Æ°á»¡": 1249,
      "Ġ;": 1250,
      "ĠTrung": 1251,
      "ĠÄĳÃ¬nh": 1252,
      "iáº¿u": 1253,
      "Ġháº¡n": 1254,
      "Ãłu": 1255,
      "Ġgiao": 1256,
      "ĠbÆ°á»Ľc": 1257,
      "Ġlá»ĩ": 1258,
      "Ġlai": 1259,
      "ĠÄĳÃ´": 1260,
      "Ġ6": 1261,
      "Tháº¿": 1262,
      "ĠsÃ¢u": 1263,
      "Ġtá»ī": 1264,
      "hÃ¡": 1265,
      "ĠmÃ´i": 1266,
      "ĠtoÃ¡n": 1267,
      "Ġtráº£i": 1268,
      "Ġtrá»Ŀi": 1269,
      "iá»ģm": 1270,
      "Ġtá»ĵn": 1271,
      "ED": 1272,
      "Ġdiá»ĩn": 1273,
      "Ġrá»Ļng": 1274,
      "Ġgiá»¯": 1275,
      "Ġphá»¥c": 1276,
      "Ġthanh": 1277,
      "įc": 1278,
      "ĠmÃ£": 1279,
      "ĠlÃ£": 1280,
      "ĠdÃłnh": 1281,
      "Ġná»ĳi": 1282,
      "ĠÄĳá»ĭa": 1283,
      "ĠÄĳoÃ¡n": 1284,
      "om": 1285,
      "ĠlÃ²ng": 1286,
      "ad": 1287,
      "Ġthuá»Ļc": 1288,
      "uá»ĳt": 1289,
      "ĠriÃªng": 1290,
      "Ġchi": 1291,
      "Ġvá»ĩ": 1292,
      "Ġtáº¡p": 1293,
      "Ġsá»£": 1294,
      "Ġmáº¯t": 1295,
      "ĠÄĳá»©ng": 1296,
      "Ġháº§": 1297,
      "Ġ!": 1298,
      "Ġmá»¥c": 1299,
      "Ġná»ķi": 1300,
      "ĠTh": 1301,
      "Ġdáº¡y": 1302,
      "Ġphá»§": 1303,
      "ĠO": 1304,
      "Ġsai": 1305,
      "Ġváº»": 1306,
      "ĠÄĳáº¡t": 1307,
      "ĠcÄĥn": 1308,
      "ĠnghÃ": 1309,
      "ĠthÃºc": 1310,
      "Ġká»¹": 1311,
      "ĠluáºŃt": 1312,
      "Ġsáº»": 1313,
      "ob": 1314,
      "Ġmáº«u": 1315,
      "Ġxung": 1316,
      "Ġtá»ĳi": 1317,
      "Ġlá»ĭch": 1318,
      "ur": 1319,
      "ĠPhi": 1320,
      "ĠÃ¡nh": 1321,
      "ĠbÃłn": 1322,
      "ĠÄĳá»įc": 1323,
      "Ġlá»Ľp": 1324,
      "ĠCh": 1325,
      "Ġtrá»¥": 1326,
      "Ġká»·": 1327,
      "ĠY": 1328,
      "Ġyáº¿u": 1329,
      "Ãłm": 1330,
      "Ġkháº¯p": 1331,
      "Ġvui": 1332,
      "ĠtrÃ´ng": 1333,
      "Ġkhoáº»": 1334,
      "Ġtiáº¿t": 1335,
      "ĠchÆ°Æ¡ng": 1336,
      "Ġcháº¡y": 1337,
      "Ġngá»ĵi": 1338,
      "ĠgÃ¡i": 1339,
      "ĠphÃŃ": 1340,
      "ĠphÃºt": 1341,
      "ĠcáºŃu": 1342,
      "Ġcuá»ĳn": 1343,
      "Ġmá»ĳi": 1344,
      "áº·ng": 1345,
      "ĠkÃ©": 1346,
      "Ġbuá»ķi": 1347,
      "Ġsáº¯c": 1348,
      "hÃºc": 1349,
      "Æ°á»£t": 1350,
      "Ġtrá»£": 1351,
      "Ġcháº¯n": 1352,
      "Ġsuá»ĳt": 1353,
      "Ġháº§u": 1354,
      "Ġkiá»ĩn": 1355,
      "ra": 1356,
      "á»±a": 1357,
      "--": 1358,
      "ew": 1359,
      "Ġbiá»ĥn": 1360,
      "ĠtrÃºc": 1361,
      "ĠmÃ¹": 1362,
      "ÃĶng": 1363,
      "Ġchung": 1364,
      "ĠHo": 1365,
      "Ġ7": 1366,
      "li": 1367,
      "ĠngÃ´n": 1368,
      "Ġmua": 1369,
      "Ġdoanh": 1370,
      "Ġkiá»ĥu": 1371,
      "ĠsÆ°": 1372,
      "Ġ8": 1373,
      "ĠTED": 1374,
      "Ġcá»Ńa": 1375,
      "eb": 1376,
      "Ġáº": 1377,
      "ĠváºŃn": 1378,
      "Ġ9": 1379,
      "ĠcÃ¡nh": 1380,
      "Ġ&#": 1381,
      "ĠkhÃ¡m": 1382,
      "Ġsá»Ł": 1383,
      "Ġngáº¡c": 1384,
      "Ġtháº£": 1385,
      "ĠxÃºc": 1386,
      "ĠxÃ©t": 1387,
      "ĠrÃłng": 1388,
      "ĠlÃ¢u": 1389,
      "oo": 1390,
      "Ġthoáº¡i": 1391,
      "Ġtuáº§n": 1392,
      "ĠbÃ¡n": 1393,
      "Ġpháº¡": 1394,
      "áº±m": 1395,
      "oi": 1396,
      "Ġhiá»ĥm": 1397,
      "áº¡nh": 1398,
      "Ġhá»ĵi": 1399,
      "Giá»": 1400,
      "ĠchÃ¡": 1401,
      "ĠlÃŃ": 1402,
      "Ġcáº¥u": 1403,
      "Ãºt": 1404,
      "Ġnhiá»ĩm": 1405,
      "ĠNÃ³": 1406,
      "Æ°á»¡ng": 1407,
      "Ġphá»©c": 1408,
      "ĠthiÃªn": 1409,
      "ĠkÃŃch": 1410,
      "Anh": 1411,
      "Ġcung": 1412,
      "á»įn": 1413,
      "Ä©nh": 1414,
      "Ġnáº±m": 1415,
      "ĠchuyÃªn": 1416,
      "Ġchá»¥p": 1417,
      "ĠnháºŃp": 1418,
      "Ġ200": 1419,
      "Ġla": 1420,
      "ĠbÃ³ng": 1421,
      "áº¡ng": 1422,
      "ĠBáº¡n": 1423,
      "uá»·": 1424,
      "ĠngÃ´i": 1425,
      "á»įc": 1426,
      "ÄĲá»": 1427,
      "Bá»Łi": 1428,
      "ĠthÃ¡i": 1429,
      "Ġcáº¡nh": 1430,
      "Ġkáº»": 1431,
      "¯u": 1432,
      "ĠÄĳá»Ļc": 1433,
      "Ġviá»ĩn": 1434,
      "Ġháº¡nh": 1435,
      "ĠbÄĥng": 1436,
      "Ġhá»¯u": 1437,
      "áº¿p": 1438,
      "Ġghi": 1439,
      "ĠhoÃł": 1440,
      "ĠngÃłnh": 1441,
      "Ġchá»©": 1442,
      "Ġchá»Ĺ": 1443,
      "ĠtrÆ°á»Łng": 1444,
      "Ġváº½": 1445,
      "Ġkhá»§ng": 1446,
      "ĠtháºŃp": 1447,
      "ĠÃŃch": 1448,
      "µn": 1449,
      "Ġgá»": 1450,
      "iÃªm": 1451,
      "ĠÄĳa": 1452,
      "ıng": 1453,
      "Xin": 1454,
      "háº¿": 1455,
      "Ġchuáº©n": 1456,
      "ĠbÃ¡c": 1457,
      "Ġtra": 1458,
      "Th": 1459,
      "ĠphÃºc": 1460,
      "ĠquÃ½": 1461,
      "Ġthiáº¿u": 1462,
      "Ġchá»ĭu": 1463,
      "Ġhá»ģ": 1464,
      "ĠháºŃ": 1465,
      "NgÆ°á»Ŀi": 1466,
      "Ġláº¯ng": 1467,
      "Ġxanh": 1468,
      "Ġtáº¥m": 1469,
      "áº©y": 1470,
      "Ġtá»ĩ": 1471,
      "ĠChÃ": 1472,
      "Ġsáºµn": 1473,
      "Ġniá»ĩm": 1474,
      "ĠhÃ¡": 1475,
      "ĠnhiÃªu": 1476,
      "Ġpháº¡m": 1477,
      "Ġtá»©c": 1478,
      "ri": 1479,
      "Ã¡m": 1480,
      "ĠkhÄĥn": 1481,
      "Ġtrai": 1482,
      "ĠKhÃ´ng": 1483,
      "ĠtÃ¡i": 1484,
      "Sau": 1485,
      "ĠÄĳau": 1486,
      "un": 1487,
      "Ġan": 1488,
      "Ġsáº¯p": 1489,
      "Ãºi": 1490,
      "ĠÃ¡p": 1491,
      "ĠhÆ¡i": 1492,
      "ro": 1493,
      "áº¡ch": 1494,
      "Ġdung": 1495,
      "¥n": 1496,
      "uÃ´i": 1497,
      "Ã³n": 1498,
      "Ġchá»ĳng": 1499,
      "Ġláº¡c": 1500,
      "á»ĳng": 1501,
      "Ġtháº¥t": 1502,
      "Ãªm": 1503,
      "Táº¥t": 1504,
      "Ġmáº·c": 1505,
      "ĠNhÆ°ng": 1506,
      "Ġmong": 1507,
      "Ġcáº£i": 1508,
      "Ġdá»±a": 1509,
      "ĠÄĳÃ³ng": 1510,
      "ĠchÃ¢u": 1511,
      "NhÆ°": 1512,
      "Ġxá»Ń": 1513,
      "Vá»": 1514,
      "Cáº£m": 1515,
      "Ġlá»±a": 1516,
      "Ġtrá»±c": 1517,
      "á»Ļn": 1518,
      "á»Ńi": 1519,
      "á»ŀ": 1520,
      "NÃªn": 1521,
      "ĠÄĳá»Ļi": 1522,
      "«u": 1523,
      "Ġban": 1524,
      "ĠbÃ¡nh": 1525,
      "ĠháºŃu": 1526,
      "Ġcá»ķ": 1527,
      "Ġtá»ķng": 1528,
      "Ġxin": 1529,
      "Ġkhá»ķ": 1530,
      "Ġná»Ļi": 1531,
      "Ġkháº¯c": 1532,
      "ĠvÆ°á»£t": 1533,
      "ĠmáºŃt": 1534,
      "Ġda": 1535,
      "Ġxáº¥u": 1536,
      "Ġtáº§m": 1537,
      "ĠchÄĥm": 1538,
      "ĠNew": 1539,
      "Ġáº©n": 1540,
      "Ġtá»·": 1541,
      "Táº¡i": 1542,
      "Ġdáº§n": 1543,
      "ĠtoÃł": 1544,
      "ĠÃ´": 1545,
      "Ġgá»Ńi": 1546,
      "ÃŃch": 1547,
      "©t": 1548,
      "Ġthiá»ĩn": 1549,
      "Ġhá»©ng": 1550,
      "Ġháº¡t": 1551,
      "ĠÄĲá»": 1552,
      "Ġtim": 1553,
      "Ġ30": 1554,
      "¨o": 1555,
      "re": 1556,
      "Ġnguy": 1557,
      "¤n": 1558,
      "Ġhy": 1559,
      "ĠlÆ°u": 1560,
      "Ġdanh": 1561,
      "Ġtráº¡ng": 1562,
      "Ġchiá»ģu": 1563,
      "Ġnhiá»ĩt": 1564,
      "ĠlÃ£nh": 1565,
      "Ġw": 1566,
      "ĠÄĳá»Ļt": 1567,
      "Ã¡nh": 1568,
      "Ġdáº§u": 1569,
      "Ch": 1570,
      "Ġniá»ģm": 1571,
      "Ġtá»Ļi": 1572,
      "ĠnghÃ¨o": 1573,
      "Ġnhiá»ħ": 1574,
      "net": 1575,
      "Ġnáº¡n": 1576,
      "Ġngoáº¡i": 1577,
      "Giá»Ŀ": 1578,
      "ĠcáºŃn": 1579,
      "ĠIn": 1580,
      "Ġsang": 1581,
      "Ġáº¤n": 1582,
      "Ġ100": 1583,
      "Ġchá»¯a": 1584,
      "Ġin": 1585,
      "Ġcha": 1586,
      "ĠkÃŃnh": 1587,
      "Ġung": 1588,
      "ĠÄĳáº¥u": 1589,
      "Ġxo": 1590,
      "id": 1591,
      "Chá»": 1592,
      "Ġdáº¥u": 1593,
      "ĠÄĳáº©y": 1594,
      "Thá»±c": 1595,
      "Ã¡ng": 1596,
      "ĠÄĲÃ³": 1597,
      "Ġá»ķ": 1598,
      "ĠSt": 1599,
      "Ġná»Ĺi": 1600,
      "ĠghÃ": 1601,
      "ĠhÃ¡t": 1602,
      "Ġmay": 1603,
      "Ġ50": 1604,
      "Ġthá»§": 1605,
      "ĠkÃ©o": 1606,
      "Ã£i": 1607,
      "Ġngá»§": 1608,
      "ĠÄĳen": 1609,
      "ĠthÃ¡ch": 1610,
      "ĠkhÃ¡ch": 1611,
      "Ġtáº¯c": 1612,
      "Ġ15": 1613,
      "ĠÄĲá»Ļ": 1614,
      "Ġgiáº¥y": 1615,
      "ĠChÃ¢u": 1616,
      "ĠngÆ°á»£c": 1617,
      "ĠnuÃ´i": 1618,
      "Ġgá»ĵ": 1619,
      "iáº¿p": 1620,
      "Ġbáº¡i": 1621,
      "ĠÆ°á»Ľc": 1622,
      "īnh": 1623,
      "±ng": 1624,
      "Łi": 1625,
      "VÃ¢ng": 1626,
      "Ġchá»¯": 1627,
      "ĠTÃ¢y": 1628,
      "Ġquáº£n": 1629,
      "ĠsoÃ¡t": 1630,
      "ah": 1631,
      "Ġlá»Ĺi": 1632,
      "Ġtiá»ĩn": 1633,
      "ĠlÄ©nh": 1634,
      "Ġcá»Ń": 1635,
      "Ġnghi": 1636,
      "Ġná»Ńa": 1637,
      "ig": 1638,
      "Ġmáº¯c": 1639,
      "ist": 1640,
      "th": 1641,
      "Ġhoáº¡ch": 1642,
      "ĠmÆ¡": 1643,
      "ran": 1644,
      "Ġgá»ĵm": 1645,
      "Ġnhiá»ħm": 1646,
      "ĵng": 1647,
      "ĠdÆ°Æ¡ng": 1648,
      "Ġtá»ĳc": 1649,
      "Ġkhiá»ĥn": 1650,
      "ÄĲá»ĥ": 1651,
      "Ġtáº£": 1652,
      "ĠsÃ³c": 1653,
      "Ġcáº¯t": 1654,
      "op": 1655,
      "Ãµi": 1656,
      "ternet": 1657,
      "ĠgÃ³": 1658,
      "Ġháº¡i": 1659,
      "Ġgiáº¿t": 1660,
      "háºŃt": 1661,
      "Ġtháº³ng": 1662,
      "ĠMá»Ļt": 1663,
      "ĠU": 1664,
      "ĠÄĳá»ĳ": 1665,
      "Ġquen": 1666,
      "ed": 1667,
      "ĠbÃły": 1668,
      "ĠdÃ¢y": 1669,
      "ĠquÃ¢n": 1670,
      "ĠtÃłu": 1671,
      "Ġca": 1672,
      "Ġkhá»ĳi": 1673,
      "TháºŃt": 1674,
      "ĠÄĳÃ´ng": 1675,
      "ĠÄĳÃŃch": 1676,
      "ĠNhá»¯ng": 1677,
      "Ġchiáº¿u": 1678,
      "ing": 1679,
      "ĠlÆ°á»Ľi": 1680,
      "ĠÄĳá»©c": 1681,
      "CÃ¡i": 1682,
      "Ġgen": 1683,
      "Ġnhá»Ŀ": 1684,
      "Ġtháº¥p": 1685,
      "ĠdÃ²ng": 1686,
      "ard": 1687,
      "ĠmÃª": 1688,
      "ag": 1689,
      "áº¯p": 1690,
      "Ġbáº§u": 1691,
      "Ġthi": 1692,
      "ĠCÃ³": 1693,
      "Ġngá»Ŀ": 1694,
      "ĠcÆ°": 1695,
      "ĠÄĳÃªm": 1696,
      "ĠniÃªn": 1697,
      "ĠlÃ¡i": 1698,
      "ĠX": 1699,
      "ĠÄĳá»ķ": 1700,
      "ĠdÃłng": 1701,
      "ĠphÃ³ng": 1702,
      "Sá»±": 1703,
      "ĠcÆ°á»Ŀi": 1704,
      "Ġkhai": 1705,
      "ĠsÃłng": 1706,
      "Ġhá»Ĺ": 1707,
      "Ġcháº·": 1708,
      "lo": 1709,
      "Ġngáº¯n": 1710,
      "Ġrá»ĳi": 1711,
      "Ġxáº¿p": 1712,
      "Ġcháº¥p": 1713,
      "Ġgá»ĳc": 1714,
      "á»ĵng": 1715,
      "ĠtáºŃn": 1716,
      "Ġphong": 1717,
      "ĠnÃ´ng": 1718,
      "Ġgáº¥p": 1719,
      "ĠÄĲÃ¢y": 1720,
      "ĠÄĳem": 1721,
      "Ġ/": 1722,
      "ĠÄĳá»¡": 1723,
      "Ġbáº¡o": 1724,
      "ĠgiÃ¢y": 1725,
      "Ġláº¯m": 1726,
      "ĠsÃ¢n": 1727,
      "Ġká»ī": 1728,
      "ĠbÃŃ": 1729,
      "ĠtrÃ¡ch": 1730,
      "Ġgáº¯n": 1731,
      "Ġvai": 1732,
      "ĠcÃ¡o": 1733,
      "Ġbá»ĳn": 1734,
      "ĠcÃ¢n": 1735,
      "91": 1736,
      "ton": 1737,
      "ĠÄĳá»£i": 1738,
      "93": 1739,
      "CÃ´": 1740,
      "Ńm": 1741,
      "ĠngÃłn": 1742,
      "ĠtÃ´n": 1743,
      "Ġsu": 1744,
      "Ġpháº«u": 1745,
      "ey": 1746,
      "áº§ng": 1747,
      "ÃĿ": 1748,
      "ĠhÃłi": 1749,
      "Ġ12": 1750,
      "ĠxuyÃªn": 1751,
      "ab": 1752,
      "ĠthÆ¡": 1753,
      "ĠÃĤ": 1754,
      "Ġnháº£y": 1755,
      "Ġchuyáº¿n": 1756,
      "ĠsiÃªu": 1757,
      "Ġhoa": 1758,
      "Ġdá»«ng": 1759,
      "ĠAl": 1760,
      "Tá»": 1761,
      "Ġthá»¥": 1762,
      "ĠThá»": 1763,
      "uá»Ĺi": 1764,
      "Ńn": 1765,
      "ĠkÄ©": 1766,
      "ĠmÃłn": 1767,
      "ĠHÃ£y": 1768,
      "Ġnghá»ĭ": 1769,
      "Má»": 1770,
      "ak": 1771,
      "ĠkÃ½": 1772,
      "Ġweb": 1773,
      "Ġlao": 1774,
      "Ġtáº§ng": 1775,
      "Ġchim": 1776,
      "Ġgiai": 1777,
      "ĠÄĳáº£m": 1778,
      "oh": 1779,
      "Ġáº£o": 1780,
      "Ġtáº£i": 1781,
      "Ã¡o": 1782,
      "Ġháº¥p": 1783,
      "deo": 1784,
      "Ġvideo": 1785,
      "Ġphá»ķ": 1786,
      "av": 1787,
      "Ã¨n": 1788,
      "ine": 1789,
      "ork": 1790,
      "ou": 1791,
      "Ġkhá»Łi": 1792,
      "ĠngÄĥn": 1793,
      "ĠtÃ¹": 1794,
      "Ġnháº¯c": 1795,
      "ĳn": 1796,
      "Ġrá»«ng": 1797,
      "³n": 1798,
      "Ġchá»īnh": 1799,
      "Äĳ": 1800,
      "oc": 1801,
      "¹ng": 1802,
      "ĠgÃ³c": 1803,
      "Ġtháº£i": 1804,
      "ĠkhÃ¡i": 1805,
      "iáº¿ng": 1806,
      "ĠhÃºt": 1807,
      "ĠnghiÃªm": 1808,
      "Ġhá»Ļp": 1809,
      "ĠNh": 1810,
      "Ġluyá»ĩn": 1811,
      "ĠmÃ³n": 1812,
      "Ġnam": 1813,
      "ĠkÃª": 1814,
      "Ġá»ķn": 1815,
      "ĠÃĤu": 1816,
      "ĠkhuÃ´n": 1817,
      "ĠlÃ¡": 1818,
      "ĠgiÃłu": 1819,
      "ĠtÃŃn": 1820,
      "ĠYork": 1821,
      "son": 1822,
      "ĠcáºŃp": 1823,
      "ĠNam": 1824,
      "Ġchuá»Ļt": 1825,
      "han": 1826,
      "obot": 1827,
      "ĠInternet": 1828,
      "ģm": 1829,
      "ĠgiÃł": 1830,
      "Má»įi": 1831,
      "Ġcoi": 1832,
      "Ġliá»ĩt": 1833,
      "ĠngÃ¢n": 1834,
      "ĠÄĳá»ı": 1835,
      "ĠÄĳÃ¡m": 1836,
      "Ġtuyáº¿n": 1837,
      "ĠpháºŃn": 1838,
      "Ġtáº¥n": 1839,
      "Ġtháº¯ng": 1840,
      "ĠChÃº": 1841,
      "ĠHá»į": 1842,
      "Ġtrao": 1843,
      "Ġtrá»«": 1844,
      "Rá»ĵi": 1845,
      "te": 1846,
      "ĠÄĳáº£o": 1847,
      "Ġhuá»·": 1848,
      "Ġtai": 1849,
      "ĠGi": 1850,
      "ill": 1851,
      "Ġnáº·ng": 1852,
      "ĠmÃ´n": 1853,
      "Ġnhu": 1854,
      "Ġxá»": 1855,
      "ĠTáº¡i": 1856,
      "Ġchá»©a": 1857,
      "Ġháº³n": 1858,
      "ĠKá»": 1859,
      "Vá»Ľi": 1860,
      "ĠdáºŃy": 1861,
      "Ġmá»ģm": 1862,
      "ĠNáº¿u": 1863,
      "ĠHoa": 1864,
      "ĠvÃ¢n": 1865,
      "Do": 1866,
      "ĠnÃ³ng": 1867,
      "Tuy": 1868,
      "Ġmáº¥y": 1869,
      "Ã³t": 1870,
      "ĠphÃ¹": 1871,
      "ĠchÃ³": 1872,
      "Ġmáº¡ch": 1873,
      "ĠchÃ³ng": 1874,
      "ĠchÃ¡u": 1875,
      "Chá»ī": 1876,
      "LÃłm": 1877,
      "Ġá»ĳng": 1878,
      "ĭp": 1879,
      "Ġmáº½": 1880,
      "ĠBáº¯c": 1881,
      "ĠmÃ¹a": 1882,
      "ĠÄĳiá»ĥn": 1883,
      "Ġbuá»Ļc": 1884,
      "Ġquyá»ĥn": 1885,
      "ĠsÃ³ng": 1886,
      "ĠtrÃ¹ng": 1887,
      "ĠdÆ°á»¡ng": 1888,
      "Ġthiá»ĩu": 1889,
      "ĠmÃ¡u": 1890,
      "Ġtuá»": 1891,
      "Ġ18": 1892,
      "ĠhÃ£i": 1893,
      "Ġlinh": 1894,
      "Ho": 1895,
      "£o": 1896,
      "ĠcÅ©": 1897,
      "Ġrá»Ŀi": 1898,
      "Ġtháº£o": 1899,
      "ĠChÃºa": 1900,
      "ĠsÆ¡": 1901,
      "áº¡m": 1902,
      "Ġchá»§ng": 1903,
      "VÃŃ": 1904,
      "ĠkhÃ¡n": 1905,
      "Ġuá»ĳng": 1906,
      "ĠdÃµi": 1907,
      "tr": 1908,
      "ĠÄĳiÃªn": 1909,
      "ik": 1910,
      "Ġtáº£ng": 1911,
      "Ġrobot": 1912,
      "Ġchá»Ŀ": 1913,
      "Ġlá»ĵ": 1914,
      "Ġtá»ĵi": 1915,
      "Ġlá»Ļ": 1916,
      "Ã²i": 1917,
      "Ġ40": 1918,
      "um": 1919,
      "Ġloáº¡n": 1920,
      "Ġláº§m": 1921,
      "ie": 1922,
      "Ġvá»¯ng": 1923,
      "ĠÄĳÃ¡p": 1924,
      "Ġbuá»ĵn": 1925,
      "¥m": 1926,
      "ĠÄĲiá»ģu": 1927,
      "Ġmáº¯n": 1928,
      "ow": 1929,
      "Ġsá»Ńa": 1930,
      "©u": 1931,
      "Ġo": 1932,
      "ĠkhÃ´": 1933,
      "ĠthÆ°á»Łng": 1934,
      "á»ĳt": 1935,
      "ĠgÃ³p": 1936,
      "Ġlan": 1937,
      "ĠTrÃ¡i": 1938,
      "ĠKá»³": 1939,
      "ĠtÆ°á»Ŀng": 1940,
      "ĠtrÃ¡nh": 1941,
      "ĠTháº¿": 1942,
      "Ġkhá»ķng": 1943,
      "ich": 1944,
      "Ġmiá»ħn": 1945,
      "ĠÄĳÃ³i": 1946,
      "Ġkhoáº£n": 1947,
      "ĠÄĳÃ¨n": 1948,
      "Ġláº¡nh": 1949,
      "Cháº": 1950,
      "Hiá»ĩn": 1951,
      "Ġf": 1952,
      "ĠchÃłng": 1953,
      "ĠmÃ¡i": 1954,
      "Ġá»§ng": 1955,
      "Ġtá»ķn": 1956,
      "ĠMar": 1957,
      "ĠcÆ¡n": 1958,
      "Ġbáº£ng": 1959,
      "Ġtráº¯ng": 1960,
      "ĠTrong": 1961,
      "Ġtá»Ļc": 1962,
      "Ġláº«n": 1963,
      "ord": 1964,
      "Qu": 1965,
      "Ġmáº£nh": 1966,
      "Ġ25": 1967,
      "ev": 1968,
      "ĠÄĳá»īnh": 1969,
      "áº¥c": 1970,
      "Ġdiá»ĩu": 1971,
      "Ġtá»Ŀ": 1972,
      "Ľm": 1973,
      "ĠnÃºi": 1974,
      "Ġphá»ıng": 1975,
      "Ġtiá»ĥu": 1976,
      "ĠÄĳÃło": 1977,
      "ul": 1978,
      "ĠtrÃ¬": 1979,
      "Ġbá»ģ": 1980,
      "ĠÄĲÃ´ng": 1981,
      "Ġgiá»įng": 1982,
      "Ġtá»ĳn": 1983,
      "Ġáº¥n": 1984,
      "Ńnh": 1985,
      "ĠtráºŃn": 1986,
      "ĠÃ¡o": 1987,
      "Ġtrá»ĵng": 1988,
      "ĠquÃªn": 1989,
      "ĠCÃ¡c": 1990,
      "Ġháº£o": 1991,
      "Ġgiá»ıi": 1992,
      "ĠrÆ¡i": 1993,
      "CÃ¢u": 1994,
      "Ġdu": 1995,
      "Ġquáº£ng": 1996,
      "ĠNgÆ°á»Ŀi": 1997,
      "ĠmÃ£i": 1998,
      "Ġcháº¡m": 1999,
      "Ã¹a": 2000,
      "ĠChá»": 2001,
      "CÃ²n": 2002,
      "Ġcáº§m": 2003,
      "Ġkim": 2004,
      "Ġcá»¡": 2005,
      "VÃło": 2006,
      "Ġkhuáº©n": 2007,
      "Ġbang": 2008,
      "ĠbáºŃt": 2009,
      "Ġvá»ĳn": 2010,
      "Ġbá»ģn": 2011,
      "Ġpháº¥n": 2012,
      "ĠnghÃ¬n": 2013,
      "ĠsÃ¡nh": 2014,
      "Cho": 2015,
      "Ġtiá»ģm": 2016,
      "ĠÄĳÆ°Æ¡ng": 2017,
      "istan": 2018,
      "ĠkhoÃ¡": 2019,
      "ĠhÃ´n": 2020,
      "ĠlÆ°Æ¡ng": 2021,
      "Ġnghá»ī": 2022,
      "ĠvÃłng": 2023,
      "Ġcháº¥m": 2024,
      "Ġchiáº¿m": 2025,
      "Ġhoáº£ng": 2026,
      "Ġmá»Ŀi": 2027,
      "Ġnáº¯m": 2028,
      "ĠkhÃŃch": 2029,
      "áº³ng": 2030,
      "Ġcam": 2031,
      "Má»Ĺi": 2032,
      "ub": 2033,
      "Ġhiá»ĥn": 2034,
      "Ġvá»£": 2035,
      "Ġbá»¯a": 2036,
      "Ġphá»ĳi": 2037,
      "Ġngá»«ng": 2038,
      "Ġhi": 2039,
      "ĠhÃło": 2040,
      "ĠÄĳiá»ĩu": 2041,
      "ĠlÃłng": 2042,
      "Ġvá»¡": 2043,
      "Ġlá»Ńa": 2044,
      "Con": 2045,
      "ĠVÃ¬": 2046,
      "Ġthá»ĭt": 2047,
      "ly": 2048,
      "ĠtÃ¡ch": 2049,
      "ĠvÄ©": 2050,
      "Ġgháº¿": 2051,
      "Ġhá»ķ": 2052,
      "Ġ11": 2053,
      "Ġquáº§n": 2054,
      "ĠxÆ°Æ¡ng": 2055,
      "la": 2056,
      "áº·m": 2057,
      "Ġchuá»Ĺi": 2058,
      "Ġná»ķ": 2059,
      "ĠrÃºt": 2060,
      "ĠdÆ°á»Ŀng": 2061,
      "ĠÄĳá»«ng": 2062,
      "ĠHá»ĵi": 2063,
      "ent": 2064,
      "Ġong": 2065,
      "Ġká»ĭch": 2066,
      "Ġkháº©u": 2067,
      "ĠbiÃªn": 2068,
      "ĠsÃ³t": 2069,
      "Ġcháº£y": 2070,
      "oog": 2071,
      "ib": 2072,
      "ĠÄĳáº±ng": 2073,
      "ĠThÃ¡": 2074,
      "ĠgiÃ³": 2075,
      "ĠKhi": 2076,
      "Ġsá»Ľm": 2077,
      "Ġloáº¡t": 2078,
      "ĠthoÃ¡t": 2079,
      "ĠcháºŃm": 2080,
      "Ġchá»ĵng": 2081,
      "ian": 2082,
      "Ġsáº¡ch": 2083,
      "ĠtÃłn": 2084,
      "Ġtáº¯t": 2085,
      "ĠdÄ©": 2086,
      "ĠÃĶng": 2087,
      "Pháº": 2088,
      "ĠVáºŃy": 2089,
      "ĠbÃ¨": 2090,
      "Ġgiáº¥c": 2091,
      "ÃŃnh": 2092,
      "ĠÄĲáº¡i": 2093,
      "ĠtÃ´": 2094,
      "oogle": 2095,
      "ChÃ": 2096,
      "Ã³m": 2097,
      "ĠVÃ¢ng": 2098,
      "ir": 2099,
      "Ġláº·p": 2100,
      "Ġtháº§": 2101,
      "Ġnghá»ģ": 2102,
      "ĳt": 2103,
      "Ġgá»£i": 2104,
      "Ġsuáº¥t": 2105,
      "io": 2106,
      "ĠmÅ©": 2107,
      "man": 2108,
      "Tá»«": 2109,
      "if": 2110,
      "Ġquá»¹": 2111,
      "Ġkhá»©": 2112,
      "Æ°Æ¡i": 2113,
      "Ġ80": 2114,
      "az": 2115,
      "ex": 2116,
      "ry": 2117,
      "Ġlá»ĳi": 2118,
      "ĠtrÆ°ng": 2119,
      "ĠphÃª": 2120,
      "Ġlá»Ĺ": 2121,
      "ack": 2122,
      "Ġngáº¡i": 2123,
      "ĠchÃ¬": 2124,
      "ĠtÃºi": 2125,
      "ĠsÃ´ng": 2126,
      "ĠnhÃ©": 2127,
      "ep": 2128,
      "ĠtÃ¡n": 2129,
      "Ġtráº¡i": 2130,
      "ick": 2131,
      "ud": 2132,
      "±m": 2133,
      "Ġtrá»¯": 2134,
      "Ġnguyá»ĩn": 2135,
      "Ráº¥t": 2136,
      "Ġdáº·m": 2137,
      "ĠAn": 2138,
      "ĠQu": 2139,
      "Ta": 2140,
      "Ġkiá»ĩm": 2141,
      "ĠthÆ°á»Ľc": 2142,
      "ĠCon": 2143,
      "NgÃły": 2144,
      "©n": 2145,
      "ĠÄĳÄĥng": 2146,
      "Ġviá»ħn": 2147,
      "Thá»©": 2148,
      "Ġcá»Ŀ": 2149,
      "áº·n": 2150,
      "¢m": 2151,
      "ĠnÃ©": 2152,
      "Ġquang": 2153,
      "Ġsá»¹": 2154,
      "ĠÄĳuá»ķi": 2155,
      "Ä©a": 2156,
      "ĠkhÃ¡ng": 2157,
      "ĠCáº£m": 2158,
      "ĵi": 2159,
      "ĠcÃł": 2160,
      "ĠnÃ¢ng": 2161,
      "Ġnháº¹": 2162,
      "ĠTá»": 2163,
      "ĠbÆ¡i": 2164,
      "ut": 2165,
      "Ġvá»ı": 2166,
      "Ġbá»¥": 2167,
      "ĠGoogle": 2168,
      "ĠkÃ©m": 2169,
      "Ġnháº¯n": 2170,
      "ĠghÃ©p": 2171,
      "ĠcÃº": 2172,
      "ĠthÄĥm": 2173,
      "Æ°á»¡i": 2174,
      "iv": 2175,
      "Ġsá»ĳt": 2176,
      "ĠphiÃªn": 2177,
      "Ġ60": 2178,
      "ohn": 2179,
      "Váº¥n": 2180,
      "Ġthá»Ł": 2181,
      "Ġráº»": 2182,
      "est": 2183,
      "Ġkhoáº£nh": 2184,
      "Ġtháº£m": 2185,
      "Ġhu": 2186,
      "tÃ´i": 2187,
      "ĠtÃłng": 2188,
      "ĠnháºŃt": 2189,
      "TrÃªn": 2190,
      "Ġváº¿t": 2191,
      "Ġláº·ng": 2192,
      "Ġná»Ĺ": 2193,
      "Ġthoáº£": 2194,
      "Gi": 2195,
      "he": 2196,
      "Ġbá»įn": 2197,
      "Ġhoang": 2198,
      "one": 2199,
      "ĠsÃ¡u": 2200,
      "Ġxoay": 2201,
      "NÄĥm": 2202,
      "Ġcan": 2203,
      "Ġlá»įc": 2204,
      "ĠtrÃ²n": 2205,
      "ans": 2206,
      "á»įt": 2207,
      "art": 2208,
      "TrÆ°á»Ľc": 2209,
      "Ġtrá»ĳng": 2210,
      "Ġbá»Ŀ": 2211,
      "ĠhÃ¹ng": 2212,
      "Ġháº¹": 2213,
      "ĠBr": 2214,
      "ĠPhÃ¡": 2215,
      "ĠÄĳiá»ĩp": 2216,
      "ins": 2217,
      "¥u": 2218,
      "ĠAr": 2219,
      "ĠÆ°u": 2220,
      "ĠNháºŃt": 2221,
      "bon": 2222,
      "ĠÄĳáº³ng": 2223,
      "ĠLÃłm": 2224,
      "ĠmÃ¹i": 2225,
      "ĠÄĳáº¿": 2226,
      "Ġvoi": 2227,
      "Ġngáº«u": 2228,
      "Ġlá»¥c": 2229,
      "Ġdoáº¡": 2230,
      "BÃł": 2231,
      "ĠZ": 2232,
      "ĠÄĳam": 2233,
      "ĠbÃ²": 2234,
      "ĠlÃłnh": 2235,
      "ĠCÃ´": 2236,
      "uá»µ": 2237,
      "amp": 2238,
      "ook": 2239,
      "aw": 2240,
      "ĠlÃŃnh": 2241,
      "ec": 2242,
      "§i": 2243,
      "ĠÄĳá»±ng": 2244,
      "Ãºa": 2245,
      "ÄĲÆ°á»£c": 2246,
      "ell": 2247,
      "NhÃ": 2248,
      "Ġthá»«a": 2249,
      "ĠthuáºŃn": 2250,
      "Ġtháº¡": 2251,
      "IV": 2252,
      "ĠÄĲáº¥t": 2253,
      "ĠthÃ¡c": 2254,
      "Liá»ĩu": 2255,
      "ĠrÃ¡c": 2256,
      "Ġthuá»·": 2257,
      "ĠBá»Łi": 2258,
      "ĠÄĳoÃłn": 2259,
      "±a": 2260,
      "Ġcáº¥y": 2261,
      "chÃºng": 2262,
      "Ľt": 2263,
      "Ġma": 2264,
      "Ġpr": 2265,
      "ÄĲáº§u": 2266,
      "uá»ĵng": 2267,
      "ĠtrÃŃch": 2268,
      "ion": 2269,
      "ĠnhuáºŃn": 2270,
      "Ġthang": 2271,
      "Ġcháº·t": 2272,
      "ĠHIV": 2273,
      "eg": 2274,
      "ĠÄĳáº¡p": 2275,
      "Ġhá»įp": 2276,
      "Ġgiáº£ng": 2277,
      "era": 2278,
      "ĠÄĳe": 2279,
      "Ġtan": 2280,
      "ert": 2281,
      "ĠlÆ°á»£c": 2282,
      "Ġmiáº¿ng": 2283,
      "ĠlÃ£ng": 2284,
      "ĠcÃ£i": 2285,
      "Ġnhá»±a": 2286,
      "Æ°á»Ŀn": 2287,
      "ore": 2288,
      "de": 2289,
      "ĠtáºŃt": 2290,
      "Ġláº¯p": 2291,
      "Ġkháº¥u": 2292,
      "ĩt": 2293,
      "Ġ16": 2294,
      "ĠAf": 2295,
      "Ġcháº·n": 2296,
      "ĠIs": 2297,
      "50": 2298,
      "Ġthai": 2299,
      "ĠhÃ¨": 2300,
      "ĠgiÃ¡m": 2301,
      "ĠngoÃ¡i": 2302,
      "ein": 2303,
      "Ġhuy": 2304,
      "ĠchÃło": 2305,
      "Ġlá»ħ": 2306,
      "Ġmá»«ng": 2307,
      "ĠÄĳÃ²i": 2308,
      "Ġngang": 2309,
      "ĠyÃªn": 2310,
      "ess": 2311,
      "Ġáº¢": 2312,
      "ChÃŃnh": 2313,
      "Viá»ĩc": 2314,
      "Ġhuá»ĳng": 2315,
      "Ġdiá»ĩt": 2316,
      "ĠtháºŃn": 2317,
      "uá»Ļn": 2318,
      "Ġ$": 2319,
      "Ġu": 2320,
      "Ġmáº¡i": 2321,
      "ĠmÃ¢y": 2322,
      "Ġthao": 2323,
      "Ġcáº£n": 2324,
      "NÃ³i": 2325,
      "Ġ199": 2326,
      "ĠÄĲá»©c": 2327,
      "ĠhÆ°Æ¡ng": 2328,
      "Ġtá»¥": 2329,
      "ĠthÃ¹": 2330,
      "ĠSh": 2331,
      "all": 2332,
      "ĠmÃ¬": 2333,
      "á»ĳn": 2334,
      "Ġdá»ĭ": 2335,
      "Ġsá»ķ": 2336,
      "ĠxoÃ¡": 2337,
      "Ġko": 2338,
      "Ġtri": 2339,
      "ĠchÃ©p": 2340,
      "ĠAD": 2341,
      "áº©u": 2342,
      "Ġ90": 2343,
      "ĠAfg": 2344,
      "Hay": 2345,
      "ĠÄĳÃ¹a": 2346,
      "Ġvong": 2347,
      "ĠÄĳá»ĳng": 2348,
      "Ġtháº¥u": 2349,
      "Ġsá»£i": 2350,
      "orn": 2351,
      "uc": 2352,
      "ĠvÃº": 2353,
      "ĠtrÃłn": 2354,
      "ĠcÃ¡t": 2355,
      "ge": 2356,
      "rus": 2357,
      "Ġcáº·p": 2358,
      "Ġcá»©ng": 2359,
      "ĠVá»": 2360,
      "Cuá»ĳi": 2361,
      "Ľn": 2362,
      "ĠtÃ¡": 2363,
      "Ġtá»ı": 2364,
      "ĠCar": 2365,
      "ĠÃ¡m": 2366,
      "ff": 2367,
      "ĠmáºŃp": 2368,
      "ĠJohn": 2369,
      "Ã¨o": 2370,
      "Ġ201": 2371,
      "ĠtuyÃªn": 2372,
      "Ġmá»±c": 2373,
      "Ġbom": 2374,
      "ĠcÃ¡m": 2375,
      "Ġnháº±m": 2376,
      "Ġ14": 2377,
      "Ġphiáº¿u": 2378,
      "les": 2379,
      "Ġbi": 2380,
      "ĠsÃºng": 2381,
      "ĠkhÃŃa": 2382,
      "Ġnhá»ĭp": 2383,
      "Ngay": 2384,
      "ĠEm": 2385,
      "Ġbá»ĳi": 2386,
      "Ġbáº¯n": 2387,
      "ĠtrÃło": 2388,
      "Ġhiáº¿m": 2389,
      "Ġsá»¥p": 2390,
      "ĠchÃ¡n": 2391,
      "ĠADN": 2392,
      "Bá»": 2393,
      "ĠtiÃªm": 2394,
      "Ġ70": 2395,
      "LÃºc": 2396,
      "ĠkÃªu": 2397,
      "ĠhÃł": 2398,
      "ĠmÃ³c": 2399,
      "nhÆ°ng": 2400,
      "Ġngá»įn": 2401,
      "att": 2402,
      "Ã´m": 2403,
      "Ġkhung": 2404,
      "Ġlá»«a": 2405,
      "Ġprot": 2406,
      "ĠÃ³c": 2407,
      "Ġliá»ģn": 2408,
      "Ġtriáº¿t": 2409,
      "Ġdá»ĳi": 2410,
      "ĠhoÃłng": 2411,
      "Ã©p": 2412,
      "ĠPhÃ¡p": 2413,
      "ĠAfghan": 2414,
      "CÃ¡ch": 2415,
      "ip": 2416,
      "ĠXin": 2417,
      "áºŃc": 2418,
      "Ġ13": 2419,
      "ĠbÃ©o": 2420,
      "Ġgá»Ĺ": 2421,
      "ĠcÃ´n": 2422,
      "ĠÄĳua": 2423,
      "Ġcá»¥c": 2424,
      "Æ°á»£u": 2425,
      "NhÃł": 2426,
      "ĠAi": 2427,
      "CÃ´ng": 2428,
      "KhÃ¡": 2429,
      "od": 2430,
      "yl": 2431,
      "Ľp": 2432,
      "Ġgam": 2433,
      "Ġthá»Ŀ": 2434,
      "ris": 2435,
      "Ġ0": 2436,
      "ĠmÆ°a": 2437,
      "âĢ": 2438,
      "ĠcÄĥng": 2439,
      "Ġbá»ķ": 2440,
      "ĠCal": 2441,
      "Ġkháº£o": 2442,
      "Ġtháº§y": 2443,
      "ĠbáºŃc": 2444,
      "Ġhá»ĳi": 2445,
      "Ġmáº¡c": 2446,
      "ĠGiá»": 2447,
      "Ġthoáº£i": 2448,
      "CÃ¡m": 2449,
      "ĠÄĳáºŃp": 2450,
      "Ġnáº¥m": 2451,
      "ĠlÅ©": 2452,
      "ĠngÆ°á»¡ng": 2453,
      "ĠTháºŃt": 2454,
      "¯t": 2455,
      "ĠâĢ": 2456,
      "Ġchá»ĳt": 2457,
      "Ġmá»ı": 2458,
      "ĠSá»±": 2459,
      "NA": 2460,
      "eet": 2461,
      "ĠÃ¡c": 2462,
      "Ġchá»ĳi": 2463,
      "ail": 2464,
      "ers": 2465,
      "ĠKen": 2466,
      "ĠtÃ¡o": 2467,
      "Ġthuyá»ģn": 2468,
      "Ġhuáº¥n": 2469,
      "CÅ©ng": 2470,
      "ĠmÃ©t": 2471,
      "Theo": 2472,
      "ĠThÃ¡i": 2473,
      "Ġtráº§m": 2474,
      "ĠrÆ°á»£u": 2475,
      "ĠnhÅ©ng": 2476,
      "Ġ17": 2477,
      "ÄĲá»ĳi": 2478,
      "Ġá»Ĵ": 2479,
      "Ġhá»Ĺn": 2480,
      "¯m": 2481,
      "ĠAm": 2482,
      "ĠghÃ©t": 2483,
      "ee": 2484,
      "ĠFran": 2485,
      "Ġá»©c": 2486,
      "LÃł": 2487,
      "Ġbiá»ĩn": 2488,
      "Ġbáº£y": 2489,
      "Ġkhuyáº¿n": 2490,
      "ĠhÃ²": 2491,
      "ĠÃģ": 2492,
      "ĠvÃ¢ng": 2493,
      "Ġsong": 2494,
      "ĠBáº£n": 2495,
      "NÃło": 2496,
      "ĠÄĳáº¯t": 2497,
      "ĠnÃºt": 2498,
      "Ġche": 2499,
      "ĠCÃ´ng": 2500,
      "Ġtá»īnh": 2501,
      "Hoáº·c": 2502,
      "ĠngÃ³n": 2503,
      "Ġcá»ı": 2504,
      "ĠIran": 2505,
      "ĠchÃ¡y": 2506,
      "Thay": 2507,
      "Ġáº¡": 2508,
      "Ġtruy": 2509,
      "ĠphÃ¡n": 2510,
      "Ġhá»ĵn": 2511,
      "ĠThuá»µ": 2512,
      "MÃł": 2513,
      "Ġthá»į": 2514,
      "avid": 2515,
      "Ġxá»©ng": 2516,
      "á»Ŀi": 2517,
      "Ġmáº¡o": 2518,
      "ĠhÃ£": 2519,
      "ĠHar": 2520,
      "ĠAfghanistan": 2521,
      "ph": 2522,
      "ya": 2523,
      "ĠtÃºc": 2524,
      "Ġthiá»ĥu": 2525,
      "ond": 2526,
      "Ġháº¯n": 2527,
      "Nhiá»ģu": 2528,
      "Ġ21": 2529,
      "ĠÄĲÆ°á»£c": 2530,
      "£t": 2531,
      "ĠsÄĥn": 2532,
      "Ġgá»įn": 2533,
      "ĠLan": 2534,
      "log": 2535,
      "ĠmÅ©i": 2536,
      "ĵn": 2537,
      "Ġcá»¥t": 2538,
      "ĠgiáºŃn": 2539,
      "ĠkhÃ¡t": 2540,
      "DÃ¹": 2541,
      "land": 2542,
      "ov": 2543,
      "xy": 2544,
      "Ġá»ĵ": 2545,
      "ĠbÃ´ng": 2546,
      "Ġdinh": 2547,
      "Ġcá»Ĺ": 2548,
      "ĠCÃ¡i": 2549,
      "Ġtrá»©ng": 2550,
      "Ġtháº¡ch": 2551,
      "Ġprotein": 2552,
      "Ġmai": 2553,
      "Ġkhiáº¿p": 2554,
      "Ai": 2555,
      "ach": 2556,
      "Ġtia": 2557,
      "ĠdÃły": 2558,
      "Ġthiá»ĩp": 2559,
      "Ã£n": 2560,
      "ĠthuÃª": 2561,
      "Ġrá»§i": 2562,
      "Vá»ģ": 2563,
      "ĠÃł": 2564,
      "ĠÄĳáº¯n": 2565,
      "Ġnáº¥u": 2566,
      "Ġru": 2567,
      "eria": 2568,
      "Ġcá»Ļt": 2569,
      "Ġlá»Ļn": 2570,
      "Ġmá»Ļ": 2571,
      "ĠmÃ²": 2572,
      "Ġbinh": 2573,
      "ĠhÆ°á»Ľc": 2574,
      "Ġxong": 2575,
      "ĠHai": 2576,
      "ĠthÃ¡nh": 2577,
      "Ġbá»Ļt": 2578,
      "ĠbÃ£i": 2579,
      "Ġkáº¹": 2580,
      "ĠgiÃłnh": 2581,
      "ÄĲÃºng": 2582,
      "ĠCan": 2583,
      "ĠÄĲÃºng": 2584,
      "ĠtÃ³c": 2585,
      "ĠbÃ³": 2586,
      "ĠngÅ©": 2587,
      "Æ°á»Ľt": 2588,
      "ĠLiÃªn": 2589,
      "ĠÄĳá»ĳc": 2590,
      "ta": 2591,
      "Ĺng": 2592,
      "ĠÄĳÃłi": 2593,
      "Ġtruyá»ĩn": 2594,
      "ĠrÄĥng": 2595,
      "ĠxÆ°a": 2596,
      "ĠphÃ³": 2597,
      "ĠTV": 2598,
      "Ġcháº©n": 2599,
      "ĠDo": 2600,
      "Ġ198": 2601,
      "ĠÄĳá»ĳt": 2602,
      "Hai": 2603,
      "Ġdá»įc": 2604,
      "iá»ĩng": 2605,
      "ĠmÃ¡t": 2606,
      "ark": 2607,
      "Ġthuáº§n": 2608,
      "ĠNhÃł": 2609,
      "ti": 2610,
      "Ġbáº¡c": 2611,
      "Ġhuyáº¿t": 2612,
      "ĠrÆ°á»¡i": 2613,
      "ĠTáº¥t": 2614,
      "ĠnÆ¡": 2615,
      "Ġmiá»ģn": 2616,
      "Ġro": 2617,
      "Ġchá»«ng": 2618,
      "ĠChi": 2619,
      "rael": 2620,
      "Ġtáº·ng": 2621,
      "ĠÄĳÄ©a": 2622,
      "ĠgÆ°Æ¡ng": 2623,
      "Ã½t": 2624,
      "Cháº³ng": 2625,
      "Ġáº¥m": 2626,
      "Ġhiáº¿n": 2627,
      "Ġráº¯c": 2628,
      "ĠxÃ¢m": 2629,
      "Ġnháº¥n": 2630,
      "enn": 2631,
      "ĠnÃ©m": 2632,
      "gh": 2633,
      "Ġi": 2634,
      "ĠvÆ°á»Ŀn": 2635,
      "ĠngÃłi": 2636,
      "Ġnhá»ī": 2637,
      "ain": 2638,
      "Ġcá»ĳt": 2639,
      "ico": 2640,
      "ock": 2641,
      "Ġtrá»Ļn": 2642,
      "iáº¿c": 2643,
      "Ġxáº¡": 2644,
      "ĠkhÃ³c": 2645,
      "ĠÃĿ": 2646,
      "Ġláº»": 2647,
      "Ġthan": 2648,
      "ĠquÃª": 2649,
      "Ã¹i": 2650,
      "ama": 2651,
      "Ġ500": 2652,
      "Ã¨m": 2653,
      "įt": 2654,
      "Ġcáº©n": 2655,
      "aceb": 2656,
      "Ġtuá»³": 2657,
      "ĠIsrael": 2658,
      "Háº§u": 2659,
      "Ġngu": 2660,
      "ĠdÃŃnh": 2661,
      "ĠSc": 2662,
      "ĠPháº": 2663,
      "acebook": 2664,
      "Kho": 2665,
      "Ph": 2666,
      "co": 2667,
      "Ġmiá»ĩng": 2668,
      "ĠrÃło": 2669,
      "ĠÄĳá»Ľn": 2670,
      "ara": 2671,
      "ada": 2672,
      "Ġtáº¡m": 2673,
      "Ġbáº¯c": 2674,
      "Ġtháº©m": 2675,
      "ina": 2676,
      "Ġtuá»ĩ": 2677,
      "ĠmiÃªu": 2678,
      "Ã¡y": 2679,
      "Ġchai": 2680,
      "ĠÄĳÃ³n": 2681,
      "ĠBá»Ļ": 2682,
      "Ġ24": 2683,
      "Ġháº¹n": 2684,
      "CáºŃu": 2685,
      "Ġmáº©u": 2686,
      "Ġsa": 2687,
      "Ġngáº§m": 2688,
      "Ġlá»ıng": 2689,
      "Ġphá»ķi": 2690,
      "Ġcá»ĳc": 2691,
      "ID": 2692,
      "³i": 2693,
      "ĠtÃ²": 2694,
      "ĠgÃł": 2695,
      "ĠnhÃ¡": 2696,
      "ĠÄĳÃ¡y": 2697,
      "áº©m": 2698,
      "Ġnháº¡y": 2699,
      "ĠÄĳáºŃu": 2700,
      "Ġblog": 2701,
      "ann": 2702,
      "ĠTo": 2703,
      "ĠvuÃ´ng": 2704,
      "ĠÆ¡i": 2705,
      "Ġbáº¡ch": 2706,
      "Ġhiá»ĩp": 2707,
      "Ġháº¡ng": 2708,
      "Ġthoáº£ng": 2709,
      "tein": 2710,
      "ĠcÆ°á»Ŀng": 2711,
      "ĠlÃ£o": 2712,
      "ĠBra": 2713,
      "ĠSan": 2714,
      "ley": 2715,
      "Ġgame": 2716,
      "ĠtÃ¢y": 2717,
      "há»ĩ": 2718,
      "Ġly": 2719,
      "ĠkiÃªn": 2720,
      "ĠtrÃ´i": 2721,
      "Ġhá»ĳ": 2722,
      "ĠquÃ¡i": 2723,
      "ĠFacebook": 2724,
      "iforn": 2725,
      "Báº±ng": 2726,
      "st": 2727,
      "Ġthá»£": 2728,
      "Ġrá»ĵ": 2729,
      "ĠdÃłn": 2730,
      "Ã£ng": 2731,
      "Ġhoáº¡i": 2732,
      "ĠCaliforn": 2733,
      "HÃ´m": 2734,
      "Sáº½": 2735,
      "lin": 2736,
      "Ġtráº¯c": 2737,
      "Ġpin": 2738,
      "ĠquÃ¡n": 2739,
      "ĠCháº": 2740,
      "Ġháº±ng": 2741,
      "Pháº§n": 2742,
      "ĠCalifornia": 2743,
      "ĠtÃ³m": 2744,
      "ĠnÆ°á»Ľng": 2745,
      "Ġleo": 2746,
      "Ġhá»©a": 2747,
      "Ġcháº¥n": 2748,
      "ĠMÄ©": 2749,
      "amb": 2750,
      "ĠÄĳáº£ng": 2751,
      "ĠlÃ¢y": 2752,
      "Ġtráº¡m": 2753,
      "ĠquÃ©t": 2754,
      "ĠgiÆ°á»Ŀng": 2755,
      "ĠgiÃły": 2756,
      "ĠnÃ©t": 2757,
      "ĠngÃ£": 2758,
      "Ġngá»±a": 2759,
      "ek": 2760,
      "ma": 2761,
      "ĠÄĳeo": 2762,
      "ĠrÃ´": 2763,
      "Ġnho": 2764,
      "ĠchÄĥng": 2765,
      "ĠCá»±c": 2766,
      "und": 2767,
      "ĠlÆ°ng": 2768,
      "Ã¬a": 2769,
      "ĠxÃŃ": 2770,
      "ĠTw": 2771,
      "ĠBa": 2772,
      "alk": 2773,
      "Cá»": 2774,
      "Ġtuyáº¿t": 2775,
      "Ġmáº»": 2776,
      "Ġ197": 2777,
      "ĠmÃ£n": 2778,
      "nÃ³": 2779,
      "ĠtÄ©nh": 2780,
      "Ġváº¯c": 2781,
      "Ġtiáº¿c": 2782,
      "ĠDNA": 2783,
      "ĠÄĳáº¿m": 2784,
      "pp": 2785,
      "ĠmÃ¨o": 2786,
      "ĠGeo": 2787,
      "ass": 2788,
      "exico": 2789,
      "ce": 2790,
      "og": 2791,
      "³c": 2792,
      "á»ĩ": 2793,
      "Ġninh": 2794,
      "ĠkÃ¨m": 2795,
      "ĠtrÄĥng": 2796,
      "ĠMc": 2797,
      "ith": 2798,
      "Ġbá»¥ng": 2799,
      "ĠtÃ¡m": 2800,
      "Ġcong": 2801,
      "ĠdÃ²": 2802,
      "ĠdÃ¡n": 2803,
      "áº«y": 2804,
      "anda": 2805,
      "«n": 2806,
      "ĠlÄĥn": 2807,
      "ĠdÃ£": 2808,
      "Ġhá»ıng": 2809,
      "ĠCá»": 2810,
      "ĠCol": 2811,
      "ĠIra": 2812,
      "ate": 2813,
      "ĠgÃ³i": 2814,
      "ber": 2815,
      "oáº¡i": 2816,
      "ron": 2817,
      "Ġtuy": 2818,
      "ĠquÃł": 2819,
      "ĠkhuyÃªn": 2820,
      "TháºŃm": 2821,
      "ĠThe": 2822,
      "ThÃ": 2823,
      "ĠÃ©p": 2824,
      "Ġtiá»ĩc": 2825,
      "Ġvinh": 2826,
      "Ġtráº§n": 2827,
      "áº«m": 2828,
      "Ġemail": 2829,
      "Ngh": 2830,
      "ite": 2831,
      "Ġgá»¡": 2832,
      "ĠlÃ´i": 2833,
      "ĠhÆ°": 2834,
      "Ġgiáº¥u": 2835,
      "ĠthÃ³i": 2836,
      "uá»¹": 2837,
      "Ġ300": 2838,
      "ĠRob": 2839,
      "IDS": 2840,
      "oÃłi": 2841,
      "Ġcá»±": 2842,
      "Ġlá»ģ": 2843,
      "Ġlá»ĩnh": 2844,
      "Ġdá»©t": 2845,
      "ÄĲÃ£": 2846,
      "Ġmá»Ŀ": 2847,
      "ĠMexico": 2848,
      "ĠChar": 2849,
      "zil": 2850,
      "ĠlÃ¢m": 2851,
      "Ġtrá»ĳn": 2852,
      "Ġngon": 2853,
      "ĠgÃ£": 2854,
      "Ġheo": 2855,
      "Ġtá»ĭ": 2856,
      "Ġ2000": 2857,
      "Ġphiá»ģn": 2858,
      "ĠÃļ": 2859,
      "Ġcá»¥m": 2860,
      "ĠchÃ¬m": 2861,
      "ĠCanada": 2862,
      "Ġtung": 2863,
      "Ġlu": 2864,
      "Ġláº·n": 2865,
      "ĠbÃ£o": 2866,
      "ĠdÆ°": 2867,
      "ĠNhÃ": 2868,
      "ath": 2869,
      "ĠlÃ£m": 2870,
      "ĠkÃªnh": 2871,
      "Cuá»Ļc": 2872,
      "sh": 2873,
      "Ġim": 2874,
      "Ġand": 2875,
      "ĠbuÃ´n": 2876,
      "Ã¡p": 2877,
      "Ġngá»įt": 2878,
      "ĠgÃµ": 2879,
      "ĠÄĳá»±c": 2880,
      "Ġkhao": 2881,
      "DP": 2882,
      "dam": 2883,
      "ky": 2884,
      "ĠgiÆ¡": 2885,
      "ĠBá»": 2886,
      "ĠDavid": 2887,
      "ĠNga": 2888,
      "ford": 2889,
      "ler": 2890,
      "ĠÆ°": 2891,
      "Ġcáº¥t": 2892,
      "Ġdao": 2893,
      "ĠthÄĥng": 2894,
      "ĠgiÃ¡n": 2895,
      "Ġmá»ĩnh": 2896,
      "ĠHy": 2897,
      "Ġvirus": 2898,
      "NhÃ¬n": 2899,
      "ĠÃļc": 2900,
      "ĠsÃłn": 2901,
      "ĠMich": 2902,
      "Ġkhoan": 2903,
      "Ġthuáº¿": 2904,
      "ram": 2905,
      "á»ĥ": 2906,
      "ĠtrÆ°a": 2907,
      "Ġhang": 2908,
      "ĠhÃłm": 2909,
      "Ġthá»ķi": 2910,
      "quang": 2911,
      "ĠquÃŃ": 2912,
      "ĠAIDS": 2913,
      "ĠPh": 2914,
      "ĠLiá»ĩu": 2915,
      "ĠcÃºm": 2916,
      "ondon": 2917,
      "Ġcar": 2918,
      "Ġlang": 2919,
      "ĠbáºŃn": 2920,
      "Ġbáº¿p": 2921,
      "ĠdÃ¡ng": 2922,
      "ind": 2923,
      "Ġsá»¯a": 2924,
      "Giá»ĳng": 2925,
      "ĠBrazil": 2926,
      "tin": 2927,
      "ĠtÆ°Æ¡i": 2928,
      "Ġva": 2929,
      "ĠlÃµi": 2930,
      "ĠbÃ¹ng": 2931,
      "Ġxinh": 2932,
      "aul": 2933,
      "ĠBer": 2934,
      "ĠRáºŃp": 2935,
      "ĠChá»ī": 2936,
      "mÃł": 2937,
      "ĠtÃ¢n": 2938,
      "ĠlÃłn": 2939,
      "ĠdÆ°á»£c": 2940,
      "Æ°á»£n": 2941,
      "ĠLondon": 2942,
      "Ġbá»¥i": 2943,
      "Láº§n": 2944,
      "Ġcáº¥m": 2945,
      "Ġnáº£y": 2946,
      "Ġsan": 2947,
      "Ġngáº¯m": 2948,
      "ĠrÃ©t": 2949,
      "ĠphÃ¬": 2950,
      "ÄĲÃ´i": 2951,
      "Ġá»ŀ": 2952,
      "ĠquÃ¡t": 2953,
      "ĠKenya": 2954,
      "oy": 2955,
      "ric": 2956,
      "Ġtáº¯m": 2957,
      "Ġbu": 2958,
      "á»Ļm": 2959,
      "Ġtháº»": 2960,
      "Ġháº£i": 2961,
      "ĠÄĲiá»ĥn": 2962,
      "Ġkhá»ī": 2963,
      "ĠPal": 2964,
      "ĠtuÃ½": 2965,
      "Ġcamera": 2966,
      "30": 2967,
      "Ġliá»ģu": 2968,
      "ĠlÆ°á»Ŀng": 2969,
      "ĠsÆ°u": 2970,
      "Ġtá»§": 2971,
      "ĠTa": 2972,
      "ĠMon": 2973,
      "ĠSp": 2974,
      "Ġ196": 2975,
      "Ġoxy": 2976,
      "má»Ļt": 2977,
      "ĠÆ°a": 2978,
      "ĠcÆ°á»Ľi": 2979,
      "Ġmuá»Ĺi": 2980,
      "Ã³i": 2981,
      "ĠMo": 2982,
      "hing": 2983,
      "Ġthá»ĭnh": 2984,
      "itter": 2985,
      "ling": 2986,
      "ĠâĢĵ": 2987,
      "Cáº£": 2988,
      "iz": 2989,
      "©o": 2990,
      "ĠlÆ°á»Ľt": 2991,
      "Ġsay": 2992,
      "ĠsÆ¡n": 2993,
      "ĠrÃ£i": 2994,
      "ĠHá»Ļi": 2995,
      "ĠthÃ¡p": 2996,
      "ĠLe": 2997,
      "ĠchÃºa": 2998,
      "ĠkhÃ´n": 2999,
      "Cháº¯c": 3000,
      "ren": 3001,
      "ĠtrÆ°á»£t": 3002,
      "ĠthÃ¹ng": 3003,
      "VÃłi": 3004,
      "Ġnháº«n": 3005,
      "ĠCO": 3006,
      "ĠMá»įi": 3007,
      "ĠÄĲá»«ng": 3008,
      "ĠIraq": 3009,
      "Ġná»Ł": 3010,
      "Ġnan": 3011,
      "ĠngáºŃp": 3012,
      "Ġngá»ĳc": 3013,
      "Ġnháº¯m": 3014,
      "Ġtrá»¥c": 3015,
      "ĠBan": 3016,
      "ĠthÃ¡m": 3017,
      "Ġthua": 3018,
      "ĠkÃŃn": 3019,
      "20": 3020,
      "báº¡n": 3021,
      "ĠtÆ°á»Ľng": 3022,
      "Ġná»ĳt": 3023,
      "Ġthá»īnh": 3024,
      "ĠphÃº": 3025,
      "ĠnÃłng": 3026,
      "Ġgiam": 3027,
      "ĠchÃ¢m": 3028,
      "ĠthÃŃnh": 3029,
      "Ġpha": 3030,
      "ĠKinh": 3031,
      "Ġ400": 3032,
      "Ġbá»ĳt": 3033,
      "Ġfeet": 3034,
      "Pháº£i": 3035,
      "LÃ½": 3036,
      "ĠdÃ¡m": 3037,
      "Ġquá»": 3038,
      "ĠquÃ£ng": 3039,
      "ĠxÃ³m": 3040,
      "ÄĲáº¿n": 3041,
      "ĠNig": 3042,
      "ĠBl": 3043,
      "ĠBill": 3044,
      "ĠRos": 3045,
      "ham": 3046,
      "Ġdáº¯t": 3047,
      "ĠTháº": 3048,
      "ĠBar": 3049,
      "Ġkhá»Ľp": 3050,
      "SA": 3051,
      "ĠcáºŃy": 3052,
      "Ġcuá»Ļn": 3053,
      "Ġnáº¯ng": 3054,
      "Ġsung": 3055,
      "Ġthiá»ĩt": 3056,
      "ana": 3057,
      "ĠphÃ¡i": 3058,
      "Ġ150": 3059,
      "by": 3060,
      "ĠlÃ´ng": 3061,
      "ĠbÆ¡": 3062,
      "Ġrau": 3063,
      "Æ°á»Ľp": 3064,
      "Ġtoáº£": 3065,
      "ĠPar": 3066,
      "ĠthÃ¡o": 3067,
      "ĠGDP": 3068,
      "lip": 3069,
      "Ġpháº¡t": 3070,
      "ĠTwitter": 3071,
      "Ķi": 3072,
      "Ġmáº¡n": 3073,
      "Ġbong": 3074,
      "ĠtrÃł": 3075,
      "Ġgáº¥u": 3076,
      "ĠTim": 3077,
      "ĠnhÃ£n": 3078,
      "áº»o": 3079,
      "Ġháº§m": 3080,
      "ĠChris": 3081,
      "ÄĲá»«ng": 3082,
      "KhÃ¡n": 3083,
      "DÄ©": 3084,
      "To": 3085,
      "ne": 3086,
      "Ġtuyá»ĥn": 3087,
      "ĠcÆ°á»¡ng": 3088,
      "ĠÄĳuÃ´i": 3089,
      "Ġná»į": 3090,
      "ĠdÃ£y": 3091,
      "Ġvá»Ł": 3092,
      "Ġkhuy": 3093,
      "ĠkhÆ¡i": 3094,
      "ony": 3095,
      "ĠBÃ¢y": 3096,
      "ĠSau": 3097,
      "ĠKho": 3098,
      "ĠJo": 3099,
      "ĠTá»ķ": 3100,
      "Máº·c": 3101,
      "áº¿ch": 3102,
      "ĠchÆ°á»Ľc": 3103,
      "olf": 3104,
      "ĠWas": 3105,
      "Gáº§n": 3106,
      "Ġti": 3107,
      "ĠÄĳÃ¢m": 3108,
      "Ġsli": 3109,
      "Ġnhá»Ł": 3110,
      "Ġbá»Ľt": 3111,
      "ĠMáº¹": 3112,
      "ĠBos": 3113,
      "Ã©o": 3114,
      "ĠTrá»Ŀi": 3115,
      "Ġthuáº«n": 3116,
      "ĠThiÃªn": 3117,
      "ood": 3118,
      "instein": 3119,
      "ver": 3120,
      "Ġe": 3121,
      "ngel": 3122,
      "ĠlÃ¡t": 3123,
      "Ġmuá»Ļn": 3124,
      "ani": 3125,
      "ĠSao": 3126,
      "Ġhá»ĩt": 3127,
      "HoÃ¡": 3128,
      "ĠchÃ¬a": 3129,
      "Káº¿t": 3130,
      "Tiáº¿p": 3131,
      "der": 3132,
      "ĠlÃ²": 3133,
      "ĠlÃ¹i": 3134,
      "Ġbá»į": 3135,
      "ĠthÆ°a": 3136,
      "Ġchá»Ł": 3137,
      "Ġchá»¥c": 3138,
      "Ġranh": 3139,
      "Ġmá»ĩt": 3140,
      "ĠÄĳiÃªu": 3141,
      "Ġlog": 3142,
      "ĠGre": 3143,
      "ĠDÆ°Æ¡ng": 3144,
      "ĠGeor": 3145,
      "Báº¥t": 3146,
      "ael": 3147,
      "Ġj": 3148,
      "á»Ĵ": 3149,
      "Ġhoáº£": 3150,
      "Ġmá»¹": 3151,
      "ĠBang": 3152,
      "Ġláº¡m": 3153,
      "ĠhÃ²n": 3154,
      "Ġslide": 3155,
      "CÃ¹ng": 3156,
      "Ġcac": 3157,
      "Ġvua": 3158,
      "ĠbÃºt": 3159,
      "Ġngá»±c": 3160,
      "Ġpháº³ng": 3161,
      "Ġná»£": 3162,
      "ĠÄĳá»ĵi": 3163,
      "ĠAb": 3164,
      "ĠEd": 3165,
      "ĠthÃ´n": 3166,
      "urg": 3167,
      "ĠYou": 3168,
      "ĠHoáº£": 3169,
      "ĠGiÃ¡o": 3170,
      "Khoáº£ng": 3171,
      "hington": 3172,
      "vÃ¬": 3173,
      "xi": 3174,
      "§m": 3175,
      "Ġváº¹": 3176,
      "Æ°Æ¡n": 3177,
      "ĠmÃºa": 3178,
      "ĠkhÃºc": 3179,
      "Ġtráº¥n": 3180,
      "ĠgÃ¡nh": 3181,
      "ĠÄĳá»Ľi": 3182,
      "Ġnháº·": 3183,
      "ĠCáºŃp": 3184,
      "Ġsá»©": 3185,
      "hom": 3186,
      "ĠNha": 3187,
      "Ġá»ĵn": 3188,
      "ug": 3189,
      "za": 3190,
      "Ġmáº¥u": 3191,
      "Ġsá»ĳc": 3192,
      "ĠMI": 3193,
      "Ġká»ĭp": 3194,
      "ĠBe": 3195,
      "ort": 3196,
      "ĠViá»ĩn": 3197,
      "ĠChÃŃnh": 3198,
      "ĠThá»±c": 3199,
      "Ġcarbon": 3200,
      "ka": 3201,
      "Ġváº£i": 3202,
      "Ġrung": 3203,
      "Ġcá»Łi": 3204,
      "Ġmá»ıi": 3205,
      "ĠSm": 3206,
      "ett": 3207,
      "Ġrá»ħ": 3208,
      "ĠJam": 3209,
      "Chuyá»ĩn": 3210,
      "ĠWashington": 3211,
      "site": 3212,
      "Ġduyá»ĩt": 3213,
      "á»ĳm": 3214,
      "áºŃm": 3215,
      "Ġnghiá»ĩn": 3216,
      "ĠMá»": 3217,
      "ĠBen": 3218,
      "ĠHÃł": 3219,
      "are": 3220,
      "ola": 3221,
      "ander": 3222,
      "ike": 3223,
      "ĠkhÃ´i": 3224,
      "Em": 3225,
      "Máº¹": 3226,
      "cÃ³": 3227,
      "ĠhÆ°u": 3228,
      "ĠrÃ¡p": 3229,
      "Ġcá»ĳi": 3230,
      "ĠthÃ¢m": 3231,
      "ĠMáº·t": 3232,
      "Ġnghá»ĭch": 3233,
      "Ġngoan": 3234,
      "ĠTEDx": 3235,
      "Ġinternet": 3236,
      "Ġwebsite": 3237,
      "ĠFranc": 3238,
      "ĠhÃ£ng": 3239,
      "ĠNigeria": 3240,
      "ĠbÃª": 3241,
      "Ġkhiáº¿m": 3242,
      "ĠCho": 3243,
      "ĠNÃły": 3244,
      "Ġkháº³ng": 3245,
      "ĠTrÆ°á»Ŀng": 3246,
      "Ġhá»ĵng": 3247,
      "Ġnháº·t": 3248,
      "HÆ¡n": 3249,
      "Ná»": 3250,
      "Ġa": 3251,
      "Ġcuá»ĵng": 3252,
      "ĠvÃ¢y": 3253,
      "ĠlÆ°á»¡ng": 3254,
      "ĠmÃ¢u": 3255,
      "Ġnhiáº¿p": 3256,
      "Ġtha": 3257,
      "Ġmá»ĵ": 3258,
      "inc": 3259,
      "ĠCuá»Ļc": 3260,
      "ĠÄĳá»ĭch": 3261,
      "lex": 3262,
      "CÆ¡": 3263,
      "ier": 3264,
      "Ġgan": 3265,
      "Ġsáº¯t": 3266,
      "ĠkhÃ³i": 3267,
      "illi": 3268,
      "ĠWik": 3269,
      "ĠphÃŃm": 3270,
      "ĠThá»ķ": 3271,
      "tress": 3272,
      "ube": 3273,
      "Ġháº¹p": 3274,
      "ĠVá»Ľi": 3275,
      "Bá»©c": 3276,
      "Ġcacbon": 3277,
      "ĠMIT": 3278,
      "lan": 3279,
      "ĠvÆ°Æ¡n": 3280,
      "ĠláºŃt": 3281,
      "Ġráº¯n": 3282,
      "ones": 3283,
      "Ġ1000": 3284,
      "ĠBro": 3285,
      "ĠLá»": 3286,
      "Ġco": 3287,
      "ĠÄĳÃłm": 3288,
      "Ġmáº£ng": 3289,
      "Ġkhuyáº¿t": 3290,
      "ĠÄĳÃ¡o": 3291,
      "ĠPak": 3292,
      "ĠLos": 3293,
      "Ġ35": 3294,
      "Thá»Ŀi": 3295,
      "Ġ2008": 3296,
      "ÄĳÃ³": 3297,
      "PS": 3298,
      "ld": 3299,
      "ros": 3300,
      "ĠÄĳáº»": 3301,
      "Ġnon": 3302,
      "Ġlong": 3303,
      "Ġgá»ĳi": 3304,
      "Ġcá»«u": 3305,
      "ĠphÃ´": 3306,
      "ĠkhoÃ¡i": 3307,
      "ĠBÃł": 3308,
      "ĠHá»": 3309,
      "ĠHá»įc": 3310,
      "ĠLa": 3311,
      "ĠÄĳoan": 3312,
      "Ġrá»Ńa": 3313,
      "ast": 3314,
      "Thá»Ń": 3315,
      "Ok": 3316,
      "§a": 3317,
      "Ġcáº¡n": 3318,
      "Ġstress": 3319,
      "ĠBÃ¬nh": 3320,
      "ĠThÆ°á»£ng": 3321,
      "ĠOK": 3322,
      "edia": 3323,
      "ĠGiá»Ŀ": 3324,
      "homas": 3325,
      "up": 3326,
      "ward": 3327,
      "Ġtáº§n": 3328,
      "ĠcÆ°á»Ľp": 3329,
      "Ġmanh": 3330,
      "ĠbÃ¹": 3331,
      "Ġsáº¡n": 3332,
      "ĠdÃ¢m": 3333,
      "Ġdáº»o": 3334,
      "ĠmÃłng": 3335,
      "ĠThÃ": 3336,
      "Ġmá»ĵi": 3337,
      "ĠchÃŃn": 3338,
      "ĠNa": 3339,
      "ĠSch": 3340,
      "ĠPhá»": 3341,
      "Ġ45": 3342,
      "ica": 3343,
      "olly": 3344,
      "ĠÄĲá»ĥ": 3345,
      "ĠFrancis": 3346,
      "ĠPakistan": 3347,
      "Bao": 3348,
      "een": 3349,
      "ĠNhÆ°": 3350,
      "ĠÄĳáº¡n": 3351,
      "ĠláºŃn": 3352,
      "Ġtreo": 3353,
      "ĠtrÃ¢n": 3354,
      "Ġhack": 3355,
      "Ġdáº¡o": 3356,
      "Ġdáº£i": 3357,
      "ĠCr": 3358,
      "Ġlá»ĩch": 3359,
      "Ġváº¹n": 3360,
      "ok": 3361,
      "ve": 3362,
      "¥ng": 3363,
      "Ġcáº¯m": 3364,
      "ĠÄĳáº¡c": 3365,
      "Ġlá»£n": 3366,
      "ĠHig": 3367,
      "ald": 3368,
      "ash": 3369,
      "ichard": 3370,
      "ĠbÆ¡m": 3371,
      "RÃµ": 3372,
      "ck": 3373,
      "yn": 3374,
      "ĠtÃ´ng": 3375,
      "Ġcáº¯p": 3376,
      "ĠvÄ©nh": 3377,
      "Ġde": 3378,
      "Ġlá»Ŀ": 3379,
      "ĠÄĳá»ģn": 3380,
      "ĠNá»": 3381,
      "ĠquyÃªn": 3382,
      "ĠLu": 3383,
      "apt": 3384,
      "ĠNgÃłi": 3385,
      "trong": 3386,
      "Bá»Ļ": 3387,
      "pe": 3388,
      "ĩn": 3389,
      "Ġbá»įc": 3390,
      "Ġbáº¯p": 3391,
      "Ġkiá»ĩt": 3392,
      "ĠnhÃłng": 3393,
      "ĠkhiÃªu": 3394,
      "ĠCÃ²n": 3395,
      "ĠMa": 3396,
      "ĠHÃłn": 3397,
      "ĠHiá»ĩp": 3398,
      "ami": 3399,
      "ĠDar": 3400,
      "ĠRe": 3401,
      "ice": 3402,
      "ĠEinstein": 3403,
      "ĠtuÃ¢n": 3404,
      "ĠStev": 3405,
      "Ġgene": 3406,
      "Ġkáº¹o": 3407,
      "Ġkáº¹t": 3408,
      "ĠbuÃ½t": 3409,
      "Ġkhuynh": 3410,
      "com": 3411,
      "lor": 3412,
      "ox": 3413,
      "rist": 3414,
      "ĠvÃ©": 3415,
      "Ġláº¥p": 3416,
      "ĠmÃ²n": 3417,
      "Ġbia": 3418,
      "Ġham": 3419,
      "Ġhuyá»ģn": 3420,
      "Ġdá»įn": 3421,
      "Ġnháº§m": 3422,
      "ĠCá»Ļng": 3423,
      "ĠBáº£o": 3424,
      "ĠHe": 3425,
      "ĠGPS": 3426,
      "rid": 3427,
      "ĠTá»«": 3428,
      "Ġ2010": 3429,
      "ound": 3430,
      "ĠÄĳai": 3431,
      "Ġmic": 3432,
      "á»Ļp": 3433,
      "ĠÄĳá»Ĺ": 3434,
      "Ġtháº¯c": 3435,
      "ĠgiÃ£n": 3436,
      "ĠAngel": 3437,
      "ĠPhÃ": 3438,
      "ester": 3439,
      "ation": 3440,
      "ĠÃĢ": 3441,
      "ĠchÃºc": 3442,
      "acc": 3443,
      "ĠOb": 3444,
      "ĠThá»©": 3445,
      "ĠHaiti": 3446,
      "ĠPháº£i": 3447,
      "TÆ°Æ¡ng": 3448,
      "ft": 3449,
      "Ġamp": 3450,
      "Ġvay": 3451,
      "ĠlÅ©ng": 3452,
      "ĠmÆ°á»Ŀi": 3453,
      "ĠtrÃº": 3454,
      "Ġga": 3455,
      "ĠráºŃp": 3456,
      "ĠxÃ¡m": 3457,
      "Ġná»ģ": 3458,
      "ĠNe": 3459,
      "Ġtá»±a": 3460,
      "ĠRáº¥t": 3461,
      "ela": 3462,
      "ĠÃĶi": 3463,
      "NhÃ¢n": 3464,
      "rÃºt": 3465,
      "win": 3466,
      "ĭnh": 3467,
      "ĠcÆ°Æ¡ng": 3468,
      "Ġmá»įc": 3469,
      "Ġthá»ķ": 3470,
      "Ġdá»Ł": 3471,
      "ĠchÄĥn": 3472,
      "ĠthÃ©p": 3473,
      "Ġmá»ıng": 3474,
      "ern": 3475,
      "ĠPaul": 3476,
      "ĠEl": 3477,
      "ĠOk": 3478,
      "Ġcá»±u": 3479,
      "&#": 3480,
      "10": 3481,
      "Ba": 3482,
      "RI": 3483,
      "di": 3484,
      "ĠnÃªu": 3485,
      "ĠvÆ°á»£ng": 3486,
      "Ġdá»ĳc": 3487,
      "ĠÄĳá»£t": 3488,
      "ĠkhÃ©o": 3489,
      "Ġtháº±ng": 3490,
      "ĠCÃ¡ch": 3491,
      "ĠCÃ¡m": 3492,
      "Ġ23": 3493,
      "ĠKh": 3494,
      "ĠLáº¡p": 3495,
      "Ġngá»«a": 3496,
      "org": 3497,
      "Ġ75": 3498,
      "eph": 3499,
      "ÃĢ": 3500,
      "ĠnÃ¡t": 3501,
      "ĠlÆ°á»£t": 3502,
      "ĠsÃ´i": 3503,
      "ĠdÅ©ng": 3504,
      "Ġcháº£": 3505,
      "ĠNA": 3506,
      "uá»³": 3507,
      "end": 3508,
      "ĠKhÃ¡": 3509,
      "ĠhÃ´i": 3510,
      "ide": 3511,
      "Ġst": 3512,
      "Ġráº½": 3513,
      "Ġvá»Ĺ": 3514,
      "Ġqui": 3515,
      "ĠxÃ´i": 3516,
      "Ġchá»£": 3517,
      "Ġmá»ī": 3518,
      "amin": 3519,
      "ĠAt": 3520,
      "ĠPr": 3521,
      "ĠthoÃ¡i": 3522,
      "ity": 3523,
      "ĠAnd": 3524,
      "ĠHarv": 3525,
      "ĠCharles": 3526,
      "Kh": 3527,
      "Máº·t": 3528,
      "khÃ´ng": 3529,
      "ney": 3530,
      "Ġnáº£n": 3531,
      "Ġhung": 3532,
      "ĠmÃły": 3533,
      "ĠhoÃłi": 3534,
      "ĠphÃ¡c": 3535,
      "ĠHáº£i": 3536,
      "ĠPet": 3537,
      "Ġháº¡ch": 3538,
      "ĠDer": 3539,
      "Å©i": 3540,
      "old": 3541,
      "Cá»©": 3542,
      "Nhá»": 3543,
      "Phá»": 3544,
      "Ġvang": 3545,
      "ĠtráºŃt": 3546,
      "Ġdá»Ļi": 3547,
      "ott": 3548,
      "Ġrad": 3549,
      "Ġbá»Ĺng": 3550,
      "ĠTalk": 3551,
      "ĠbÃ¡ch": 3552,
      "ĠRá»ĵi": 3553,
      "ates": 3554,
      "Ġ194": 3555,
      "ĠNghá»ĩ": 3556,
      "ĠChiáº¿n": 3557,
      "ago": 3558,
      "Ġtháº§m": 3559,
      "ĠnÃ©n": 3560,
      "ĠFrank": 3561,
      "ĠiPh": 3562,
      "bert": 3563,
      "Ġtiá»ħn": 3564,
      "ĠÄĳáº½": 3565,
      "ĠvÃµ": 3566,
      "Ġmen": 3567,
      "Ġbáº¥y": 3568,
      "ĠgÃ¡c": 3569,
      "Ġchua": 3570,
      "ĠxÄĥng": 3571,
      "Ġnghiá»ĩt": 3572,
      "ĠTá»±": 3573,
      "Ġtrá»«u": 3574,
      "lie": 3575,
      "Ġ2007": 3576,
      "Má»¥c": 3577,
      "uck": 3578,
      "ĠxÃŃu": 3579,
      "ĠGeorge": 3580,
      "PM": 3581,
      "ner": 3582,
      "Ġvan": 3583,
      "Ġmuá»ĳi": 3584,
      "ĠbÃ¬a": 3585,
      "Ġngháº": 3586,
      "Ġhá»¥t": 3587,
      "Ġná»¥": 3588,
      "ens": 3589,
      "Ġpho": 3590,
      "ish": 3591,
      "Ġcá»ķng": 3592,
      "Loáº¡i": 3593,
      "PhÃ": 3594,
      "TED": 3595,
      "ean": 3596,
      "lad": 3597,
      "ĠÄĳÃł": 3598,
      "há»į": 3599,
      "ĠlÆ¡": 3600,
      "Ġláº¯c": 3601,
      "Ġtháº³m": 3602,
      "ĠxÃ©": 3603,
      "ĠxÃŃch": 3604,
      "ĠMal": 3605,
      "low": 3606,
      "ipedia": 3607,
      "Ġruá»ĵi": 3608,
      "ĠiPhone": 3609,
      "Sá»ĳ": 3610,
      "Tin": 3611,
      "nhá»¯ng": 3612,
      "´n": 3613,
      "Ġá»ĳc": 3614,
      "ĠlÃºa": 3615,
      "Ġmá»Ļng": 3616,
      "Ã¡u": 3617,
      "ĠsÃºc": 3618,
      "Ġtrá»Ļm": 3619,
      "Ġgiáº·t": 3620,
      "ĠhÃ³c": 3621,
      "ĠCáºŃu": 3622,
      "ĠNob": 3623,
      "ĠApp": 3624,
      "ary": 3625,
      "Trung": 3626,
      "imer": 3627,
      "Ġsoáº¡n": 3628,
      "Ġvá»¥n": 3629,
      "ĠMichael": 3630,
      "HÃłng": 3631,
      "Há»ĩ": 3632,
      "ThÃ´ng": 3633,
      "cel": 3634,
      "toc": 3635,
      "Ġá»ĳm": 3636,
      "ĠmÆ°Æ¡i": 3637,
      "ĠbÆ°á»Ľ": 3638,
      "ĠgÅ©i": 3639,
      "ĠrÅ©": 3640,
      "Ġthe": 3641,
      "ĠxÆ°á»Łng": 3642,
      "ĠxÆ°á»Ľng": 3643,
      "Ġchá»£t": 3644,
      "ĠTom": 3645,
      "ĠThomas": 3646,
      "ĠtÃŃm": 3647,
      "ĠTrans": 3648,
      "atch": 3649,
      "ĠJu": 3650,
      "ĠNgh": 3651,
      "ĠInd": 3652,
      "umb": 3653,
      "Ġof": 3654,
      "ĠThÃ¡nh": 3655,
      "ĠObama": 3656,
      "HÃ¬nh": 3657,
      "TÃªn": 3658,
      "Ġal": 3659,
      "Ġáº¿ch": 3660,
      "á»©c": 3661,
      "ĠmÆ°á»£n": 3662,
      "ĠtrÃ¡ng": 3663,
      "Ġngáº«m": 3664,
      "ania": 3665,
      "ÃŃt": 3666,
      "Ã¹m": 3667,
      "Ġcháº½": 3668,
      "ĠhÃ©t": 3669,
      "ĠÄĳá»Ļn": 3670,
      "Ġ---": 3671,
      "ĠkhoÃ¡ng": 3672,
      "Ġ22": 3673,
      "ĠSah": 3674,
      "ĠDi": 3675,
      "ĠJos": 3676,
      "ĠNgÃ¢n": 3677,
      "ĠOh": 3678,
      "Ġ99": 3679,
      "thal": 3680,
      "ivi": 3681,
      "ĠHarvard": 3682,
      "BÃªn": 3683,
      "Ká»ĥ": 3684,
      "náº¿u": 3685,
      "pt": 3686,
      "ĠcÆ°á»£c": 3687,
      "ĠvÃ¡n": 3688,
      "ĠlÃ¢n": 3689,
      "Ġbáº©n": 3690,
      "ĠtrÃ¡n": 3691,
      "ĠÄĳá»ĩ": 3692,
      "ĠnhÆ°á»Ŀng": 3693,
      "Ġcá»ĳng": 3694,
      "Ġquáº·c": 3695,
      "áº±n": 3696,
      "Ġdá»Ĺ": 3697,
      "ink": 3698,
      "ĠnhÃło": 3699,
      "ĠNháº": 3700,
      "ĠBig": 3701,
      "Ġquyáº¿n": 3702,
      "ĠAdam": 3703,
      "ĠRom": 3704,
      "ĠRobert": 3705,
      "ĠSmith": 3706,
      "ĠWikipedia": 3707,
      "BÃłi": 3708,
      "cÃ´": 3709,
      "eah": 3710,
      "ue": 3711,
      "ĠlÃ¡nh": 3712,
      "Ġmáº¿n": 3713,
      "Ġbáº¥m": 3714,
      "ÄĲiá»ĥm": 3715,
      "ĠgÃ¬n": 3716,
      "ĠCam": 3717,
      "ĠbÃ¡m": 3718,
      "Ġnháº¡t": 3719,
      "iss": 3720,
      "icon": 3721,
      "ĠFre": 3722,
      "ĠOr": 3723,
      "Ġ2009": 3724,
      "QuÃ¡": 3725,
      "berg": 3726,
      "Ġlá»ģu": 3727,
      "ĠFrancisco": 3728,
      "Ġhacker": 3729,
      "ĠAngeles": 3730,
      "ĠNobel": 3731,
      "May": 3732,
      "PA": 3733,
      "Sao": 3734,
      "mp": 3735,
      "uk": 3736,
      "ĳc": 3737,
      "ĠsÃ´": 3738,
      "Ġsho": 3739,
      "Ġhiáº¿p": 3740,
      "ota": 3741,
      "Ġsáº¯m": 3742,
      "Ġná»ĵng": 3743,
      "ĠsÃ¡o": 3744,
      "oran": 3745,
      "ali": 3746,
      "ĠRichard": 3747,
      "Ġrá»Ĺng": 3748,
      "ĠmÃ£nh": 3749,
      "ĠÃ´m": 3750,
      "Ġxá»ī": 3751,
      "ĠChá»§": 3752,
      "attan": 3753,
      "Ġruá»Ļt": 3754,
      "ĠParis": 3755,
      "ĠKhoa": 3756,
      "ĠNASA": 3757,
      "tocin": 3758,
      "dro": 3759,
      "ix": 3760,
      "ĠcÃłi": 3761,
      "ĠnÃ´": 3762,
      "ĠlÃ¹ng": 3763,
      "Ġluá»¹": 3764,
      "Ġnhá»ĩn": 3765,
      "ĠchÃ´n": 3766,
      "Ġmá»ķ": 3767,
      "Ġphun": 3768,
      "ĠLÃł": 3769,
      "ĠGab": 3770,
      "Ġ36": 3771,
      "ĠNgÃły": 3772,
      "ush": 3773,
      "hÃ¡u": 3774,
      "azon": 3775,
      "Ġlogic": 3776,
      "Ġradio": 3777,
      "..": 3778,
      "Bá»ĳ": 3779,
      "len": 3780,
      "Ġváº¡ch": 3781,
      "Ġthung": 3782,
      "Ġgiá»įt": 3783,
      "ĠTor": 3784,
      "Ġlá»ĵng": 3785,
      "Ġtháº¥m": 3786,
      "ĠAlex": 3787,
      "ĠGr": 3788,
      "ĠxuÃ¢n": 3789,
      "ĠWeb": 3790,
      "Ġ2005": 3791,
      "Quan": 3792,
      "udio": 3793,
      "aptop": 3794,
      "ĠSahara": 3795,
      "cri": 3796,
      "eh": 3797,
      "tor": 3798,
      "ĠsÃ©t": 3799,
      "Ġtriá»ĩt": 3800,
      "ĠrÃ£": 3801,
      "Ġvá»Ŀ": 3802,
      "ĠthÆ°á»£ng": 3803,
      "ĠxÄĥm": 3804,
      "Ġlá»¡": 3805,
      "ĠCop": 3806,
      "ĠMÃ¬nh": 3807,
      "hia": 3808,
      "ĠNÄĥm": 3809,
      "ĠDan": 3810,
      "ĠDÃ¢n": 3811,
      "eth": 3812,
      "Ġchá»įc": 3813,
      "ace": 3814,
      "ĠHoÃł": 3815,
      "rop": 3816,
      "Chiáº¿c": 3817,
      "Ġinch": 3818,
      "ĠNhÄ©": 3819,
      "Ġhuynh": 3820,
      "ĠhÃ£m": 3821,
      "bur": 3822,
      "me": 3823,
      "tÃ´": 3824,
      "xin": 3825,
      "Ġoh": 3826,
      "ĠtÃª": 3827,
      "Ġtivi": 3828,
      "ĠvÃ²i": 3829,
      "ĠlÄĥng": 3830,
      "ĠlÃ©o": 3831,
      "ĠmÃ³ng": 3832,
      "ĠbÃ³c": 3833,
      "Ġrun": 3834,
      "Ġcá»į": 3835,
      "anhattan": 3836,
      "ĠCÆ¡": 3837,
      "ĠLeg": 3838,
      "ĠGu": 3839,
      "raham": 3840,
      "age": 3841,
      "azz": 3842,
      "heimer": 3843,
      "ĠDarwin": 3844,
      "ĠDerek": 3845,
      "cript": 3846,
      "An": 3847,
      "Nháº": 3848,
      "our": 3849,
      "ria": 3850,
      "wood": 3851,
      "zheimer": 3852,
      "Ġáº©m": 3853,
      "ĠÄĳc": 3854,
      "ĠvÃ²": 3855,
      "Ġquáº¡": 3856,
      "ant": 3857,
      "ĠTiáº¿n": 3858,
      "ĠCl": 3859,
      "ĠMan": 3860,
      "ĠMad": 3861,
      "ĠManhattan": 3862,
      "erry": 3863,
      "Ġtá»±u": 3864,
      "Ġ27": 3865,
      "ĠSÄ©": 3866,
      "Ġvá»ĭnh": 3867,
      "ilicon": 3868,
      "Cha": 3869,
      "ĠAlzheimer": 3870,
      "Ġoxytocin": 3871,
      "ToÃłn": 3872,
      "ĠGreen": 3873,
      "ĠSteve": 3874,
      "Báº£n": 3875,
      "ca": 3876,
      "cago": 3877,
      "ja": 3878,
      "line": 3879,
      "ss": 3880,
      "ĠÃ¡i": 3881,
      "Ġtuá»·": 3882,
      "Ġli": 3883,
      "Ġvá»©t": 3884,
      "Ġchá»Ľp": 3885,
      "ĠkhiÃªm": 3886,
      "Ġcháº±m": 3887,
      "Ġmá»³": 3888,
      "ĠCÃ¢u": 3889,
      "ĠLib": 3890,
      "ala": 3891,
      "ĠRw": 3892,
      "ĠVen": 3893,
      "ĠQuá»¹": 3894,
      "ĠchuÃ´ng": 3895,
      "ĠWor": 3896,
      "ĠkÃ¬a": 3897,
      "ĠCarol": 3898,
      "ĠAmazon": 3899,
      "ĠJames": 3900,
      "SD": 3901,
      "ThÃ¡": 3902,
      "gs": 3903,
      "Ġnáº¿p": 3904,
      "ĠlÆ°á»¡i": 3905,
      "Ġluá»ĵng": 3906,
      "Ġlaptop": 3907,
      "Ġbá»ĳc": 3908,
      "Ġkm": 3909,
      "Ġngáº©n": 3910,
      "ĠÄĳÃ³m": 3911,
      "ĠxÃł": 3912,
      "ĠTiáº¿ng": 3913,
      "ĠchÃ¹": 3914,
      "ĠHaw": 3915,
      "Ġ26": 3916,
      "ĠSe": 3917,
      "ĠSy": 3918,
      "ĠSub": 3919,
      "oster": 3920,
      "ĠII": 3921,
      "uss": 3922,
      "Ġnhiá»ħu": 3923,
      "oca": 3924,
      "ĠChicago": 3925,
      "ĠBoston": 3926,
      "ĠvÃµng": 3927,
      "Láº¥y": 3928,
      "mm": 3929,
      "tit": 3930,
      "Ġ000": 3931,
      "ĠkiÃªng": 3932,
      "ĠngÆ°ng": 3933,
      "Ġgáº¡ch": 3934,
      "Ġron": 3935,
      "Ġtháº¯t": 3936,
      "Ġbá»ĵi": 3937,
      "ĠhoÃłnh": 3938,
      "Ġdá»ĭp": 3939,
      "air": 3940,
      "ĠHay": 3941,
      "iá»ħu": 3942,
      "ĠÄĳoáº¡t": 3943,
      "ĠWal": 3944,
      "Thiáº¿t": 3945,
      "ThÃłnh": 3946,
      "ĠMark": 3947,
      "ĠMartin": 3948,
      "Ġ1990": 3949,
      "Ġlui": 3950,
      "ĠRwanda": 3951,
      "Dá»": 3952,
      "TÆ°á»Łng": 3953,
      "fi": 3954,
      "per": 3955,
      "vá»": 3956,
      "Ġáº¥u": 3957,
      "Ġcent": 3958,
      "ĠÄĳÃºc": 3959,
      "ĠÄĳuá»ĳi": 3960,
      "Ġvacc": 3961,
      "Ġsá»į": 3962,
      "ĠgáºŃy": 3963,
      "ĠTal": 3964,
      "ĠnhÃ³c": 3965,
      "ĠMe": 3966,
      "ĠkhoÄĥn": 3967,
      "Æ°á»Łi": 3968,
      "ĠAd": 3969,
      "ĠLat": 3970,
      "Ġngá»Ľ": 3971,
      "ĠÄĳÃ´la": 3972,
      "rian": 3973,
      "ĠStan": 3974,
      "ĠThá»Ŀi": 3975,
      "Ġtuá»µ": 3976,
      "Ġ250": 3977,
      "Ġnano": 3978,
      "rew": 3979,
      "£m": 3980,
      "Ńng": 3981,
      "Ġcu": 3982,
      "ĠÄĳáºŃm": 3983,
      "Ġgolf": 3984,
      "oth": 3985,
      "Ġbá»ĥ": 3986,
      "ĠhoÃ£n": 3987,
      "ĠhÃŃt": 3988,
      "Ġmá»¡": 3989,
      "ĠSam": 3990,
      "imb": 3991,
      "Nghá»ĩ": 3992,
      "athan": 3993,
      "Ġrá»ī": 3994,
      "ĠEn": 3995,
      "Ġ600": 3996,
      "ĠháºŃn": 3997,
      "Ġhydro": 3998,
      "ĠNhÃ¢n": 3999,
      "ĠMont": 4000,
      "ĠTá»ķng": 4001,
      "illiam": 4002,
      "ridge": 4003,
      "Al": 4004,
      "ez": 4005,
      "lick": 4006,
      "thá»": 4007,
      "Ġtiá»ĩm": 4008,
      "Ġváº£": 4009,
      "Ġngá»Ļt": 4010,
      "Ġnhá»§": 4011,
      "ĠnÃłn": 4012,
      "ĠÄĲáº£ng": 4013,
      "ĠSinh": 4014,
      "ĠGates": 4015,
      "ĠDel": 4016,
      "Nghe": 4017,
      "NgoÃłi": 4018,
      "ure": 4019,
      "ĠghÃª": 4020,
      "ĠUy": 4021,
      "ÄĳÃ¢y": 4022,
      "Ġhá»ķng": 4023,
      "ĠApple": 4024,
      "ĠTranscript": 4025,
      "ĠSubtit": 4026,
      "ĠSubtitles": 4027,
      "TÃ¬nh": 4028,
      "mer": 4029,
      "ny": 4030,
      "oft": 4031,
      "½n": 4032,
      "Ġon": 4033,
      "Ġcanh": 4034,
      "ĠÄĳiá»ģn": 4035,
      "Ġvá»Ļi": 4036,
      "Ġlam": 4037,
      "ĠbÄĥn": 4038,
      "Ġbáº§y": 4039,
      "ĠgÃ£y": 4040,
      "Ġgom": 4041,
      "Ġchuyá»ģn": 4042,
      "ĠgiáºŃt": 4043,
      "ĠCo": 4044,
      "emen": 4045,
      "ĠAc": 4046,
      "ĠSw": 4047,
      "ĠGal": 4048,
      "ĠDá»±": 4049,
      "ĠViá»ĩt": 4050,
      "ĠJon": 4051,
      "ust": 4052,
      "ĠOx": 4053,
      "iano": 4054,
      "ĠiP": 4055,
      "ĠnhÃ¡nh": 4056,
      "Ġquá»·": 4057,
      "ĠBrow": 4058,
      "Ġngháº½n": 4059,
      "Báº¯t": 4060,
      "lar": 4061,
      "ĠÆ°Æ¡ng": 4062,
      "Ġváº¥t": 4063,
      "Ġbáº©m": 4064,
      "Ġgien": 4065,
      "Ġhoan": 4066,
      "ĠCoca": 4067,
      "ĠgiÃ¡p": 4068,
      "ĠPark": 4069,
      "ĠKoran": 4070,
      "Ġ2004": 4071,
      "red": 4072,
      "ida": 4073,
      "QuÃ½": 4074,
      "Bá»ĩnh": 4075,
      "ĠTimes": 4076,
      "Ġmicro": 4077,
      "Phá»¥": 4078,
      "Lá»": 4079,
      "Mar": 4080,
      "na": 4081,
      "ster": 4082,
      "ÃĤ": 4083,
      "Ġor": 4084,
      "Ńi": 4085,
      "Ġlá»į": 4086,
      "Ġmáº§m": 4087,
      "Ġbáº»": 4088,
      "ĠsÃºp": 4089,
      "ĠtrÃºng": 4090,
      "Ġdáº¡i": 4091,
      "ĠchÃły": 4092,
      "ĠthiÃªng": 4093,
      "Ġbá»ĵ": 4094,
      "ĠTas": 4095,
      "Ġdá»ĩt": 4096,
      "ini": 4097,
      "ĠCE": 4098,
      "ĠBáº±ng": 4099,
      "ale": 4100,
      "ĠJack": 4101,
      "ĠFlor": 4102,
      "Ġ95": 4103,
      "Ġ2006": 4104,
      "ĠÄĳá»ĳm": 4105,
      "ĠCháº³ng": 4106,
      "NÆ¡i": 4107,
      "OK": 4108,
      "TÃ¡c": 4109,
      "car": 4110,
      "Æ¯": 4111,
      "Ġuy": 4112,
      "ĠÃło": 4113,
      "ĠtÃ¹ng": 4114,
      "Ġváº·t": 4115,
      "Ġlá»Ļt": 4116,
      "ĠsÆ°á»Ľng": 4117,
      "Ġráº¡p": 4118,
      "ĠÄĳá»¥ng": 4119,
      "Ġnhá»ĭ": 4120,
      "ĠnÃ³n": 4121,
      "ĠxÃ¡ch": 4122,
      "ĠTÆ°": 4123,
      "ĠhÃ´ng": 4124,
      "int": 4125,
      "inson": 4126,
      "ĠMRI": 4127,
      "enz": 4128,
      "esh": 4129,
      "ĠphiÃªu": 4130,
      "Ġphá»ĳt": 4131,
      "ĠJe": 4132,
      "ĠChrist": 4133,
      "ĠNÃ³i": 4134,
      "Ġxoáº¯n": 4135,
      "Tá»ķ": 4136,
      "Ġxá»©": 4137,
      "GiÃ¡o": 4138,
      "Ġ1960": 4139,
      "ĠHá»£p": 4140,
      "ĠGabby": 4141,
      "ĠvÃ²m": 4142,
      "Cáº§n": 4143,
      "David": 4144,
      "Qua": 4145,
      "Tá»ĳt": 4146,
      "uel": 4147,
      "Ġuá»ĳn": 4148,
      "Ńp": 4149,
      "ĠvÆ°Æ¡ng": 4150,
      "Ġrá»Ļn": 4151,
      "ĠrÃ¬a": 4152,
      "Ġtá»ĭch": 4153,
      "Ġque": 4154,
      "ongo": 4155,
      "ÄĲáº¥y": 4156,
      "ĠBur": 4157,
      "ĠBab": 4158,
      "Ġ28": 4159,
      "ĠKing": 4160,
      "ĠLÃ½": 4161,
      "alia": 4162,
      "ĠWilliam": 4163,
      "Ġ195": 4164,
      "ĠTheo": 4165,
      "Ġ2003": 4166,
      "ĠStar": 4167,
      "Ġ1970": 4168,
      "NghÄ©a": 4169,
      "ĠNhÃ¬n": 4170,
      "ĠPalest": 4171,
      "LoÃłi": 4172,
      "chá»": 4173,
      "go": 4174,
      "váºŃy": 4175,
      "we": 4176,
      "Ġclip": 4177,
      "Ġmá»ĳc": 4178,
      "Ġbiáº¿m": 4179,
      "Ġthá»ĳt": 4180,
      "ĠdáºŃp": 4181,
      "ĠkhÃ¹ng": 4182,
      "ĠcÃ¡p": 4183,
      "Ġtháº¯n": 4184,
      "Ġkhan": 4185,
      "Ġkhen": 4186,
      "Ġnháº¥p": 4187,
      "Ġcáº£ng": 4188,
      "ĠCamb": 4189,
      "ĠMy": 4190,
      "ĠMac": 4191,
      "Ġká»ģ": 4192,
      "enry": 4193,
      "ĠSim": 4194,
      "ĠKhá»": 4195,
      "ĠKar": 4196,
      "ĠGo": 4197,
      "ĠGand": 4198,
      "Ġ32": 4199,
      "ĠDá»": 4200,
      "ĠRio": 4201,
      "ĠVan": 4202,
      "ile": 4203,
      "ĠWhi": 4204,
      "ĠWat": 4205,
      "Ġ65": 4206,
      "omb": 4207,
      "ĠChÃł": 4208,
      "ĠChuyá»ĩn": 4209,
      "ThÆ°á»Ŀng": 4210,
      "igh": 4211,
      "igami": 4212,
      "ther": 4213,
      "Ġ120": 4214,
      "own": 4215,
      "ĠtÃ´m": 4216,
      "Ġ2011": 4217,
      "NghiÃªn": 4218,
      "izza": 4219,
      "Ġvaccine": 4220,
      "Ġorigami": 4221,
      "BÆ°á»Ľc": 4222,
      "ChÃº": 4223,
      "Tube": 4224,
      "ger": 4225,
      "khi": 4226,
      "to": 4227,
      "Ġel": 4228,
      "Ġlau": 4229,
      "Ġbá»±c": 4230,
      "ĠbÃºa": 4231,
      "Ġkem": 4232,
      "Ġkáº½": 4233,
      "Ġpiano": 4234,
      "Ġcá»§ng": 4235,
      "ĠTuyá»ĩt": 4236,
      "ĠnhÃ£": 4237,
      "ÄĲÆ¡n": 4238,
      "ĠchÃŃp": 4239,
      "ĠnhÃłm": 4240,
      "ĠMic": 4241,
      "Ġkhoai": 4242,
      "Ġká»ĩ": 4243,
      "ĠNor": 4244,
      "ĠBÃłi": 4245,
      "ĠAh": 4246,
      "Ġsá»Ńng": 4247,
      "ĠPháºŃt": 4248,
      "ĠLad": 4249,
      "Ġá»§i": 4250,
      "ĠthoÃ¡ng": 4251,
      "ĠWar": 4252,
      "ĠUg": 4253,
      "outh": 4254,
      "Äĳá»ĥ": 4255,
      "ĠchÃ³c": 4256,
      "ĠZe": 4257,
      "ect": 4258,
      "ThÃªm": 4259,
      "Ġax": 4260,
      "ĠÄĳá»ĩm": 4261,
      "ĠTasman": 4262,
      "Dá»±": 4263,
      "ba": 4264,
      "lu": 4265,
      "ĠtÄĥm": 4266,
      "ĠÄĳinh": 4267,
      "ĠmÃ©p": 4268,
      "Ġkáº¹p": 4269,
      "ĠsÆ°á»Ŀn": 4270,
      "ĠtrÃ¹m": 4271,
      "ĠchÆ°á»Ľng": 4272,
      "Ġtam": 4273,
      "Ġxá»Ļn": 4274,
      "ĠchoÃ¡ng": 4275,
      "ĠTes": 4276,
      "Ġdá»ĵn": 4277,
      "Ġmá»Ľ": 4278,
      "ĠBush": 4279,
      "Ġphe": 4280,
      "ĠphÆ¡i": 4281,
      "Ġvá»ĭt": 4282,
      "Tráº»": 4283,
      "NguyÃªn": 4284,
      "Ġrá»¡": 4285,
      "ĠThÃłnh": 4286,
      "ĠYemen": 4287,
      "Giá»įng": 4288,
      "ĠhÃ¡i": 4289,
      "unt": 4290,
      "ĠghÃ©": 4291,
      "ĠthÆ¡m": 4292,
      "hana": 4293,
      "tron": 4294,
      "ĠhuÃ½t": 4295,
      "ght": 4296,
      "Ġstudio": 4297,
      "mpic": 4298,
      "AR": 4299,
      "Cola": 4300,
      "Kháº": 4301,
      "MÃ¡y": 4302,
      "NÆ°á»Ľc": 4303,
      "con": 4304,
      "lob": 4305,
      "van": 4306,
      "á»Ľ": 4307,
      "Ġtáº¡ng": 4308,
      "Ġtriá»ģu": 4309,
      "ĠtrÃ¨o": 4310,
      "Ġgai": 4311,
      "Ġgáº¡t": 4312,
      "Ġdai": 4313,
      "Ġthiá»ģn": 4314,
      "ĠCA": 4315,
      "ĠMay": 4316,
      "ĠNÃªn": 4317,
      "ĠBá»ĳ": 4318,
      "Ġtá»ĳng": 4319,
      "arah": 4320,
      "ĠKÃ¬": 4321,
      "ĠÄĳom": 4322,
      "Ġngá»¥c": 4323,
      "ĠGia": 4324,
      "Ġ3000": 4325,
      "ĠTrá»": 4326,
      "ĠmÃ´t": 4327,
      "Ġrá»Ĺi": 4328,
      "ille": 4329,
      "itz": 4330,
      "ĠFord": 4331,
      "ĠÄĲá»ı": 4332,
      "lyn": 4333,
      "iban": 4334,
      "Ġdá»ĭu": 4335,
      "ĠPháº§n": 4336,
      "rosoft": 4337,
      "ĠHiggs": 4338,
      "ĠbÆ°á»Ľm": 4339,
      "ĠWorld": 4340,
      "ĠOxford": 4341,
      "ĠUganda": 4342,
      "dy": 4343,
      "ĠÃ¢u": 4344,
      "ĭt": 4345,
      "ĠtÃºng": 4346,
      "ĠmÆ°u": 4347,
      "ĠngÆ°": 4348,
      "ĠhÃłn": 4349,
      "ĠrÃ¢u": 4350,
      "ĠrÃ¨n": 4351,
      "Ġtang": 4352,
      "Ġgieo": 4353,
      "otle": 4354,
      "ĠnhÃ©t": 4355,
      "ĠCongo": 4356,
      "ĠNL": 4357,
      "ĠNan": 4358,
      "ĠBu": 4359,
      "ĠSu": 4360,
      "Ġkháº©n": 4361,
      "Ġphiáº¿n": 4362,
      "ĠLED": 4363,
      "Ġtrá»įn": 4364,
      "ĠGen": 4365,
      "Trá»Ł": 4366,
      "ĠViá»ĩc": 4367,
      "Ġ1950": 4368,
      "eda": 4369,
      "Äĳiá»ģu": 4370,
      "ĠYouTube": 4371,
      "Nhá»Ŀ": 4372,
      "ĠLego": 4373,
      "ĠSyria": 4374,
      "ĠCambridge": 4375,
      "500": 4376,
      "kg": 4377,
      "ªnh": 4378,
      "Ġam": 4379,
      "įn": 4380,
      "Ġtáº©y": 4381,
      "Ġváº§n": 4382,
      "ĠbÃ³n": 4383,
      "Ġsc": 4384,
      "ĠhÆ°ng": 4385,
      "ĠdÃª": 4386,
      "ĠÄĳá»¥c": 4387,
      "ane": 4388,
      "ÃŃn": 4389,
      "ĠTuy": 4390,
      "ĠTá»ĳt": 4391,
      "onald": 4392,
      "ĠhÃ¢m": 4393,
      "ĠCy": 4394,
      "Ġháº»": 4395,
      "ĠMah": 4396,
      "Ġtrá»ħ": 4397,
      "Ġdol": 4398,
      "ĠPer": 4399,
      "ĠKim": 4400,
      "Ġngá»¥": 4401,
      "Ġngá»«": 4402,
      "ĠGhana": 4403,
      "Ġ33": 4404,
      "etro": 4405,
      "ati": 4406,
      "itch": 4407,
      "ĠWall": 4408,
      "ĠEric": 4409,
      "ĠChÃło": 4410,
      "ÄĲá»©a": 4411,
      "ower": 4412,
      "Giáº£": 4413,
      "ĠBrook": 4414,
      "ropy": 4415,
      "Tiáº¿ng": 4416,
      "lÃł": 4417,
      "oáº¡n": 4418,
      "ten": 4419,
      "ze": 4420,
      "¥i": 4421,
      "ĭa": 4422,
      "ĠÄĳÃ²n": 4423,
      "Ġváº¡n": 4424,
      "Ġbanh": 4425,
      "Ġbá»Ļc": 4426,
      "Ġgh": 4427,
      "Ġpizza": 4428,
      "Ġdáº¹p": 4429,
      "Ġcá»ĵn": 4430,
      "Ġvá»įt": 4431,
      "áº¥ng": 4432,
      "ĠcÃ³c": 4433,
      "ĠchiÃªm": 4434,
      "á»ĳp": 4435,
      "Ġxay": 4436,
      "ĠthÃ¨": 4437,
      "ÄĲÆ°á»Ŀng": 4438,
      "Ġphá»ĵng": 4439,
      "ĠMand": 4440,
      "eop": 4441,
      "Ġtrá»«ng": 4442,
      "ĠNÃło": 4443,
      "ero": 4444,
      "ĠAs": 4445,
      "ari": 4446,
      "ĠPl": 4447,
      "ĠLester": 4448,
      "ora": 4449,
      "ĠOly": 4450,
      "ĠHoÃłng": 4451,
      "right": 4452,
      "ChÆ°a": 4453,
      "Ġjazz": 4454,
      "anderthal": 4455,
      "ĠNeanderthal": 4456,
      "ĠPeter": 4457,
      "Ġshow": 4458,
      "BÃ¡c": 4459,
      "MT": 4460,
      "Ste": 4461,
      "ef": 4462,
      "fe": 4463,
      "mon": 4464,
      "sau": 4465,
      "thÃ": 4466,
      "ven": 4467,
      "´i": 4468,
      "Ġac": 4469,
      "ĠÆ°á»Ľt": 4470,
      "ĠÄĳÃ¨": 4471,
      "Ġváº¯ng": 4472,
      "Ġváº©n": 4473,
      "ĠlÃ´": 4474,
      "ĠlÃª": 4475,
      "Ġbuá»ĵng": 4476,
      "Ġser": 4477,
      "Ġrá»ĳt": 4478,
      "Ġpound": 4479,
      "ĠdÆ¡i": 4480,
      "Ġnha": 4481,
      "Ġvá»Ľ": 4482,
      "Ġchay": 4483,
      "Ġnhá»Ļ": 4484,
      "ĠnghiÃªng": 4485,
      "cho": 4486,
      "Ġbá»ĵn": 4487,
      "ĠTex": 4488,
      "ĠTony": 4489,
      "ĠphÃ¡o": 4490,
      "ĠMÃł": 4491,
      "ere": 4492,
      "ĠHenry": 4493,
      "Ġquad": 4494,
      "ĠShi": 4495,
      "ĠSing": 4496,
      "Ġngá»£i": 4497,
      "Ġngá»Ńi": 4498,
      "ĠTrÃªn": 4499,
      "aser": 4500,
      "Ġ2001": 4501,
      "ĠÃ´tÃ´": 4502,
      "thur": 4503,
      "oph": 4504,
      "ardo": 4505,
      "ĠXÃ´": 4506,
      "ulin": 4507,
      "ylv": 4508,
      "ĠâĢĶ": 4509,
      "ĠScot": 4510,
      "ĠJoe": 4511,
      "ĠPhÃ²ng": 4512,
      "ĠStanford": 4513,
      "ĠFlorida": 4514,
      "ĠMicrosoft": 4515,
      "á»Ľc": 4516,
      "ĠTexas": 4517,
      "12": 4518,
      "BM": 4519,
      "Ban": 4520,
      "enh": 4521,
      "hua": 4522,
      "Ġáº¥p": 4523,
      "Ġent": 4524,
      "á»«": 4525,
      "ĠnÃ¢u": 4526,
      "Ġnuá»ĳt": 4527,
      "ĠbÆ°u": 4528,
      "Ġbáº«y": 4529,
      "ĠkÃ¬m": 4530,
      "ĠngÃ¢y": 4531,
      "ĠdÆ°a": 4532,
      "Ġnhi": 4533,
      "Æ°á»£m": 4534,
      "Ġxáº£o": 4535,
      "ĠnhÃ´": 4536,
      "ĠChÃ¡u": 4537,
      "ĠBon": 4538,
      "ĠHans": 4539,
      "ĠAp": 4540,
      "ĠPat": 4541,
      "ĠLuáºŃt": 4542,
      "ĠTrÆ°á»Ľc": 4543,
      "ĠbÃ¡t": 4544,
      "Ġbá»ıng": 4545,
      "NgÆ°á»£c": 4546,
      "ĠVir": 4547,
      "Ġ....": 4548,
      "ĠHoward": 4549,
      "ĠUn": 4550,
      "agen": 4551,
      "ĠÃĤm": 4552,
      "ake": 4553,
      "Ġtháº¡o": 4554,
      "aniel": 4555,
      "Ná»ģn": 4556,
      "Ġonline": 4557,
      "ÃĤm": 4558,
      "Æ¯á»Ľc": 4559,
      "ĠthÃ¨m": 4560,
      "Ġentropy": 4561,
      "18": 4562,
      "200": 4563,
      "kins": 4564,
      "oot": 4565,
      "sulin": 4566,
      "¡c": 4567,
      "Ġtáº£o": 4568,
      "Ġcay": 4569,
      "ĠÄĳáº¯m": 4570,
      "Ġnáº¡p": 4571,
      "Ġbáº¿n": 4572,
      "Ġbáº©y": 4573,
      "áº¿m": 4574,
      "Ġrá»±c": 4575,
      "ĠdÃ¢ng": 4576,
      "ĠchiÃªn": 4577,
      "Ġthen": 4578,
      "Ã¬u": 4579,
      "Ġtao": 4580,
      "ĠquáºŃn": 4581,
      "Ġxáº¿": 4582,
      "Ġpháº¿": 4583,
      "chia": 4584,
      "ÄĲa": 4585,
      "ĠMÃ¡y": 4586,
      "ĠNord": 4587,
      "ĠÄĲÃ´i": 4588,
      "ĠSáº½": 4589,
      "ory": 4590,
      "ĠvirÃºt": 4591,
      "ĠJer": 4592,
      "ĠJim": 4593,
      "ole": 4594,
      "ĠWolf": 4595,
      "Ġ85": 4596,
      "GiÃ¡": 4597,
      "ĠBron": 4598,
      "ĠShak": 4599,
      "ĠxoÃ¡y": 4600,
      "ĠVá»ĭnh": 4601,
      "Ġ1980": 4602,
      "ĠAbraham": 4603,
      "ĠYout": 4604,
      "ollywood": 4605,
      "ĠchÃ¹m": 4606,
      "ĠTaliban": 4607,
      "ĠOlympic": 4608,
      "19": 4609,
      "40": 4610,
      "John": 4611,
      "MÃłu": 4612,
      "nes": 4613,
      "rap": 4614,
      "se": 4615,
      "ts": 4616,
      "Ġuá»·": 4617,
      "Ġcá»Ļ": 4618,
      "ĠnÃŃn": 4619,
      "Ġlay": 4620,
      "ĠngÆ°Æ¡i": 4621,
      "Ġgay": 4622,
      "Ġdiá»ģu": 4623,
      "Ġthiáº¿p": 4624,
      "Ġthuá»³": 4625,
      "Ġnhá»ĵi": 4626,
      "Ġkhiáº¿u": 4627,
      "ÄĲá»Ļt": 4628,
      "ÄĲá»ĵng": 4629,
      "ĠMu": 4630,
      "emp": 4631,
      "ĠBay": 4632,
      "ĠBol": 4633,
      "ĠÄĲáº¡o": 4634,
      "ĠSouth": 4635,
      "ĠKy": 4636,
      "ĠviÃªm": 4637,
      "ĠRock": 4638,
      "ĠVÆ°Æ¡ng": 4639,
      "ata": 4640,
      "Ġ2050": 4641,
      "rog": 4642,
      "agh": 4643,
      "Ġnhuá»Ļm": 4644,
      "ĠPhÃ¡t": 4645,
      "ĠluÃ¢n": 4646,
      "ĠBá»ĩnh": 4647,
      "ĠRosling": 4648,
      "ĠBrown": 4649,
      "Ġdollar": 4650,
      "Ġnhá»Ļn": 4651,
      "ĠYoutube": 4652,
      "CH": 4653,
      "bá»Łi": 4654,
      "da": 4655,
      "den": 4656,
      "ĠláºŃu": 4657,
      "ĠsÃ¹ng": 4658,
      "Ġtrinh": 4659,
      "Ġtrá»Ļi": 4660,
      "Ġgá»Ļp": 4661,
      "Ġtháº¯p": 4662,
      "ĠxÃ´": 4663,
      "ĠxÃ¡": 4664,
      "Ġxáº£": 4665,
      "ĠkhÄĥng": 4666,
      "Ġnghiá»ģn": 4667,
      "anz": 4668,
      "ĠTur": 4669,
      "ona": 4670,
      "ĠhÃ©": 4671,
      "ĠhÃ¢n": 4672,
      "ino": 4673,
      "ĠCÃ¹ng": 4674,
      "ĠCap": 4675,
      "ĠMor": 4676,
      "ĠMáº¡ch": 4677,
      "ĠHer": 4678,
      "Ã©n": 4679,
      "ĠÄĲa": 4680,
      "ĠÄĲÃ£": 4681,
      "ĠSi": 4682,
      "ĠLÃºc": 4683,
      "Ġ31": 4684,
      "ĠDe": 4685,
      "Ġkhuáº¥t": 4686,
      "Ġsoi": 4687,
      "ĠVÃ´": 4688,
      "ĠVÄĥn": 4689,
      "Ġ700": 4690,
      "Char": 4691,
      "Chá»§": 4692,
      "Chá»ĭ": 4693,
      "ever": 4694,
      "ĠArist": 4695,
      "Ġbá»ķng": 4696,
      "arket": 4697,
      "PhÆ°Æ¡ng": 4698,
      "urger": 4699,
      "ĠMá»Ĺi": 4700,
      "ĠNá»¯": 4701,
      "ĠLatin": 4702,
      "ĠNorden": 4703,
      "15": 4704,
      "Váº«n": 4705,
      "my": 4706,
      "rut": 4707,
      "yan": 4708,
      "Ãģ": 4709,
      "ĠÃ¢n": 4710,
      "á»·": 4711,
      "Ġtw": 4712,
      "Ġcai": 4713,
      "Ġlá»Ļi": 4714,
      "ĠlÆ°á»£m": 4715,
      "Ġmar": 4716,
      "Ġmá»įt": 4717,
      "Ġbáº¿": 4718,
      "Ġkeo": 4719,
      "Ġsáº¿p": 4720,
      "ĠsÃ³i": 4721,
      "ĠtrÃªu": 4722,
      "ĠngÃ´": 4723,
      "Ġngá»Ļ": 4724,
      "ĠgáºŃp": 4725,
      "Ġray": 4726,
      "Ġria": 4727,
      "ĠnhÄĥn": 4728,
      "Ġxen": 4729,
      "Ġdá»¡": 4730,
      "ĠMil": 4731,
      "ĠkhoÃ¡n": 4732,
      "Ġ29": 4733,
      "ĠÄĲan": 4734,
      "ĠÄĲá»ĵng": 4735,
      "ĠAir": 4736,
      "ĠSer": 4737,
      "ĠGore": 4738,
      "ĠDV": 4739,
      "ĠDa": 4740,
      "ĠDetro": 4741,
      "aland": 4742,
      "ĠRay": 4743,
      "elson": 4744,
      "eton": 4745,
      "Ġ55": 4746,
      "ison": 4747,
      "oll": 4748,
      "ĠWil": 4749,
      "ĠFor": 4750,
      "ĠNghe": 4751,
      "Ġchip": 4752,
      "ĠHoáº·c": 4753,
      "Ġ800": 4754,
      "reet": 4755,
      "Ġinsulin": 4756,
      "ĠGiÃ¡ng": 4757,
      "ĠGiá»Ľi": 4758,
      "Ġcuáº£": 4759,
      "lobal": 4760,
      "ĠScotland": 4761,
      "ĠAristotle": 4762,
      "ĠDetroit": 4763,
      "AM": 4764,
      "EC": 4765,
      "cÃ¡c": 4766,
      "gin": 4767,
      "gar": 4768,
      "kel": 4769,
      "mad": 4770,
      "tan": 4771,
      "§y": 4772,
      "Ġtua": 4773,
      "Ġcáº©u": 4774,
      "Ġne": 4775,
      "Ġnit": 4776,
      "Ġváº«y": 4777,
      "Ġlaser": 4778,
      "Ġsáº£nh": 4779,
      "ĠtrÆ°Æ¡ng": 4780,
      "Ġráº£i": 4781,
      "Ġdang": 4782,
      "ĠkhÃ©p": 4783,
      "ĠkhÃ¢u": 4784,
      "Ã¢t": 4785,
      "Ġkhe": 4786,
      "Ġbá»Ľi": 4787,
      "ĠTÃ¬nh": 4788,
      "ĠThÃ´ng": 4789,
      "Ġháº£": 4790,
      "ĠMos": 4791,
      "ĠMel": 4792,
      "ĠMill": 4793,
      "ĠBal": 4794,
      "ĠBrian": 4795,
      "ĠHill": 4796,
      "ĠAri": 4797,
      "Ġkhá»ĳn": 4798,
      "ĠSal": 4799,
      "ĠLong": 4800,
      "espe": 4801,
      "ĠVic": 4802,
      "Ġrá»ķ": 4803,
      "apore": 4804,
      "ĠEar": 4805,
      "ĠEur": 4806,
      "ĠOs": 4807,
      "lian": 4808,
      "ThÆ°a": 4809,
      "ĠhÃ¡n": 4810,
      "ĠStreet": 4811,
      "ĠUSD": 4812,
      "ave": 4813,
      "ĠGiai": 4814,
      "evin": 4815,
      "iana": 4816,
      "ansas": 4817,
      "ĠbÃ³p": 4818,
      "sha": 4819,
      "ĠBlack": 4820,
      "onesia": 4821,
      "ĠIndonesia": 4822,
      "burgh": 4823,
      "vá»Ľi": 4824,
      "ĠCEO": 4825,
      "ĠCyrus": 4826,
      "Ġháº»o": 4827,
      "ĠMandela": 4828,
      "ĠBronx": 4829,
      "arketing": 4830,
      "BC": 4831,
      "CÃ¡": 4832,
      "NÃ£o": 4833,
      "Sh": 4834,
      "bÃ¢y": 4835,
      "do": 4836,
      "hay": 4837,
      "ies": 4838,
      "ke": 4839,
      "nia": 4840,
      "rá»ĵi": 4841,
      "ux": 4842,
      "ĠtÆ¡": 4843,
      "ĠÄĳÃłng": 4844,
      "ĠnÃ£y": 4845,
      "Ġváº·n": 4846,
      "ĠlÆ°á»£n": 4847,
      "ĠngÆ¡i": 4848,
      "Ġgiáº¿ng": 4849,
      "Ġthá»ģ": 4850,
      "Ġdev": 4851,
      "Ġtá»¥t": 4852,
      "ĠxÃłi": 4853,
      "Ġchá»ĳn": 4854,
      "oto": 4855,
      "ĠTit": 4856,
      "ÄĲi": 4857,
      "Ġsá»ıi": 4858,
      "Ġkhoang": 4859,
      "ĠHá»ĩ": 4860,
      "ĠÄĲáº¿": 4861,
      "ence": 4862,
      "ĠAv": 4863,
      "Ġkhá»ĳc": 4864,
      "ĠSom": 4865,
      "ĠKáº¿t": 4866,
      "ĠDis": 4867,
      "ĠRo": 4868,
      "ĠVÃŃ": 4869,
      "oop": 4870,
      "Ġcháº·ng": 4871,
      "ĠPhÆ°Æ¡ng": 4872,
      "ĠphÃ´i": 4873,
      "ĠbÃ¹n": 4874,
      "celand": 4875,
      "ĠPalestine": 4876,
      "ĠWatson": 4877,
      "ĠLaden": 4878,
      "ĠShakespe": 4879,
      "80": 4880,
      "BI": 4881,
      "CC": 4882,
      "Chi": 4883,
      "Car": 4884,
      "Háº¯n": 4885,
      "PT": 4886,
      "bá»ĳt": 4887,
      "col": 4888,
      "ear": 4889,
      "ium": 4890,
      "jo": 4891,
      "Ġnáº¡": 4892,
      "Ġnuá»ĳi": 4893,
      "Ġnáº¯p": 4894,
      "Ġnáº¿m": 4895,
      "ĠvÃ¡ch": 4896,
      "ĠlÃ¡ch": 4897,
      "ĠliÃªng": 4898,
      "Ġmi": 4899,
      "ĠmuÃ´n": 4900,
      "Ġmarketing": 4901,
      "Ġsp": 4902,
      "Ġngáº¯t": 4903,
      "ĠngÃło": 4904,
      "ĠvÃłn": 4905,
      "ĠhÄĥng": 4906,
      "ĠhÃłu": 4907,
      "ĠrÃ²": 4908,
      "Ġráº·ng": 4909,
      "ĠÄĳá»įng": 4910,
      "ĠnhÆ°á»£c": 4911,
      "que": 4912,
      "Ġquáº¡t": 4913,
      "Ġxi": 4914,
      "ĠxÆ¡": 4915,
      "Ġkhiáº¿t": 4916,
      "ĠÄĳÃ£i": 4917,
      "á»įng": 4918,
      "Ġlá»©a": 4919,
      "Ġlá»Ńng": 4920,
      "ĠCD": 4921,
      "ĠMat": 4922,
      "ĠMur": 4923,
      "ĠBáº¯t": 4924,
      "Ġloa": 4925,
      "ĠHÃ´m": 4926,
      "ĠÄĲi": 4927,
      "ĠÄĲáº§u": 4928,
      "ĠÄĲiá»ĩn": 4929,
      "ĠÄĳá»ĵn": 4930,
      "Ġbá»Ļi": 4931,
      "ĠKn": 4932,
      "atar": 4933,
      "ilet": 4934,
      "Ġmáº¹o": 4935,
      "ĠEver": 4936,
      "ĠÄĲá»ĭa": 4937,
      "ĠGiáº£i": 4938,
      "ĠQuan": 4939,
      "ivers": 4940,
      "pha": 4941,
      "Ġlogo": 4942,
      "ĠbÃªnh": 4943,
      "Okay": 4944,
      "ĠCarolina": 4945,
      "ThÃ¡ng": 4946,
      "ĠMontana": 4947,
      "ĠZealand": 4948,
      "Ġtweet": 4949,
      "ĠDVD": 4950,
      "ĠVictor": 4951,
      "In": 4952,
      "MA": 4953,
      "SW": 4954,
      "hai": 4955,
      "oint": 4956,
      "ville": 4957,
      "Ġ+": 4958,
      "īa": 4959,
      "ĠtÃ¡t": 4960,
      "Ġclick": 4961,
      "ĠÄĳan": 4962,
      "ĠÄĳun": 4963,
      "ĠvÃ¡y": 4964,
      "Ġláº¥n": 4965,
      "Ġlen": 4966,
      "Ġmil": 4967,
      "Ġbon": 4968,
      "Ġkil": 4969,
      "Ġsuá»ĳi": 4970,
      "Ġhiáº¿u": 4971,
      "ĠdÃ¢u": 4972,
      "ĠquÄĥng": 4973,
      "ĠthÃª": 4974,
      "oton": 4975,
      "anth": 4976,
      "ĠTam": 4977,
      "ĠTed": 4978,
      "Ġdá»Ŀi": 4979,
      "ÄĲáº·c": 4980,
      "Ġtoa": 4981,
      "Ġtoilet": 4982,
      "eron": 4983,
      "ĠHollywood": 4984,
      "amine": 4985,
      "ĠÄĲÃ´": 4986,
      "ĠSá»©c": 4987,
      "ĠSilicon": 4988,
      "ĠPro": 4989,
      "Ġá»ª": 4990,
      "Ġ37": 4991,
      "Ġngoáº¡n": 4992,
      "TrÃ¡i": 4993,
      "ĠIr": 4994,
      "ĠVal": 4995,
      "Ġrá»ĩt": 4996,
      "Ġchui": 4997,
      "Ġchuá»Ļng": 4998,
      "ollo": 4999,
      "ĠEt": 5000,
      "ome": 5001,
      "ĠChiáº¿c": 5002,
      "ĠYo": 5003,
      "Ġ2002": 5004,
      "ĠStew": 5005,
      "Quay": 5006,
      "ĠCháº¯c": 5007,
      "Ġelec": 5008,
      "Ġscan": 5009,
      "ĠVirgin": 5010,
      "Ġdevil": 5011,
      "ĠShakespeare": 5012,
      "25": 5013,
      "Bill": 5014,
      "Hy": 5015,
      "Jo": 5016,
      "KhÃ": 5017,
      "VáºŃt": 5018,
      "bo": 5019,
      "din": 5020,
      "ech": 5021,
      "eat": 5022,
      "mi": 5023,
      "rin": 5024,
      "si": 5025,
      "sk": 5026,
      "ston": 5027,
      "ye": 5028,
      "¥a": 5029,
      "ĠÆ¡": 5030,
      "ĠÃªm": 5031,
      "Ġop": 5032,
      "ĠtÆ°á»Ľc": 5033,
      "Ġtáº¡c": 5034,
      "Ġcal": 5035,
      "Ġcáº¯n": 5036,
      "Ġcua": 5037,
      "ĠÄĳá»©t": 5038,
      "Ġchuá»ĳi": 5039,
      "ĠcÃ¡n": 5040,
      "ÄĲiá»ĩn": 5041,
      "ÄĲoáº¡n": 5042,
      "Ġná»©t": 5043,
      "ĠCáº£": 5044,
      "ĠMá»Ļc": 5045,
      "hic": 5046,
      "ĠNÆ°á»Ľc": 5047,
      "ĠBáº¥t": 5048,
      "Ġkhá»Ń": 5049,
      "aron": 5050,
      "ĠPop": 5051,
      "Ġá»ıi": 5052,
      "ĠDen": 5053,
      "Ġnháº¡o": 5054,
      "ĠIBM": 5055,
      "ĠIceland": 5056,
      "Ġ46": 5057,
      "ĠFer": 5058,
      "Ġ1930": 5059,
      "omp": 5060,
      "ewis": 5061,
      "ĠNewton": 5062,
      "agos": 5063,
      "Ġ1999": 5064,
      "ylon": 5065,
      "ĠAmy": 5066,
      "ĠnhÃ¡t": 5067,
      "ĠToÃłn": 5068,
      "Ġquá»µ": 5069,
      "ĠLá»Ľn": 5070,
      "ĠDelhi": 5071,
      "ĠGandhi": 5072,
      "thÃ¬": 5073,
      "Ġelectron": 5074,
      "BJ": 5075,
      "Kiá»ĥu": 5076,
      "Phi": 5077,
      "TÃŃnh": 5078,
      "Xem": 5079,
      "giá»": 5080,
      "har": 5081,
      "ni": 5082,
      "nie": 5083,
      "pi": 5084,
      "so": 5085,
      "ui": 5086,
      "ves": 5087,
      "¥y": 5088,
      "ĠÃ´i": 5089,
      "ħn": 5090,
      "ĠÄĳáº¡m": 5091,
      "ĠlÃ³t": 5092,
      "Ġbar": 5093,
      "Ġkiá»ģm": 5094,
      "ĠtrÃ³i": 5095,
      "Ġngáº£": 5096,
      "Ġthá»ĳn": 5097,
      "Ġcá»įc": 5098,
      "Ġhá»Ł": 5099,
      "Ġtá»Ľ": 5100,
      "Ġkhinh": 5101,
      "Ġdá»ĵi": 5102,
      "Ãºm": 5103,
      "Ġsá»©a": 5104,
      "ĠMer": 5105,
      "ĠMag": 5106,
      "ĠNÆ¡i": 5107,
      "ĠBÃ¡c": 5108,
      "ĠSand": 5109,
      "ĠKu": 5110,
      "ĠLau": 5111,
      "ĠLar": 5112,
      "ĠGold": 5113,
      "ĠDon": 5114,
      "TrÃ´ng": 5115,
      "ose": 5116,
      "ĠRed": 5117,
      "eland": 5118,
      "ĠVÃło": 5119,
      "ĠJac": 5120,
      "oly": 5121,
      "ĠWright": 5122,
      "ĠFri": 5123,
      "Ġcháº¡p": 5124,
      "Ġ1900": 5125,
      "ĠThay": 5126,
      "ChÃł": 5127,
      "Ġcafe": 5128,
      "eck": 5129,
      "Khoa": 5130,
      "ĠAtlan": 5131,
      "ĠSingapore": 5132,
      "ĠWolfram": 5133,
      "Ar": 5134,
      "CL": 5135,
      "Cá»Ļng": 5136,
      "Há»": 5137,
      "Tuyá»ĩt": 5138,
      "WK": 5139,
      "af": 5140,
      "aj": 5141,
      "aeda": 5142,
      "burg": 5143,
      "ij": 5144,
      "las": 5145,
      "nÃªn": 5146,
      "nik": 5147,
      "¨n": 5148,
      "¹n": 5149,
      "Ãįt": 5150,
      "ĠÂ": 5151,
      "Ġtáº»": 5152,
      "ngÆ°á»Ŀi": 5153,
      "Ġcáº¡o": 5154,
      "ĠcÆ°á»¡i": 5155,
      "ĠÄĳÃŃnh": 5156,
      "ĠnhÃº": 5157,
      "Ġnáº¿n": 5158,
      "Ġnáº·c": 5159,
      "Ġná»Ļp": 5160,
      "ĠvÆ°á»Ľng": 5161,
      "Ġlá»įt": 5162,
      "Ġbin": 5163,
      "ĠsÆ°á»Łi": 5164,
      "Ġtre": 5165,
      "ĠgÄĥng": 5166,
      "Ġha": 5167,
      "Ġthá»ı": 5168,
      "Ġthá»«ng": 5169,
      "Ġrong": 5170,
      "ĠdÃło": 5171,
      "Ġquáº©n": 5172,
      "ĠgiÃłn": 5173,
      "Ġxá»ĳp": 5174,
      "Ġnháº¥c": 5175,
      "ĠTay": 5176,
      "ĠTáº¡o": 5177,
      "ĠTanz": 5178,
      "Ġhoi": 5179,
      "ĠcháºŃt": 5180,
      "ĠCáº§u": 5181,
      "Æ°Æ¡c": 5182,
      "Ġsá»Ŀ": 5183,
      "ĠMike": 5184,
      "ĠMiss": 5185,
      "ĠBi": 5186,
      "ĠBob": 5187,
      "ĠBud": 5188,
      "ĠHan": 5189,
      "ĠHÃłnh": 5190,
      "ames": 5191,
      "ĠSk": 5192,
      "ĠSá»ĳ": 5193,
      "ĠphÃłn": 5194,
      "ĠLo": 5195,
      "ĠLin": 5196,
      "ĠLou": 5197,
      "ĠGÃ´": 5198,
      "ĠDÃ¹": 5199,
      "Há»įc": 5200,
      "eld": 5201,
      "ato": 5202,
      "Ġrá»Ľt": 5203,
      "Ġchá»įi": 5204,
      "ĠWi": 5205,
      "hop": 5206,
      "ĠphÃŃch": 5207,
      "row": 5208,
      "Ġngá»§i": 5209,
      "opia": 5210,
      "ĠÄĳá»ĳn": 5211,
      "ĠThá»ĳng": 5212,
      "ĠNhiá»ģu": 5213,
      "HoÃłn": 5214,
      "Ġok": 5215,
      "ĠQuÃ¢n": 5216,
      "ĠArg": 5217,
      "ĠZimb": 5218,
      "Ġ2012": 5219,
      "ĠChile": 5220,
      "Ġnguá»Ļi": 5221,
      "ĠColumb": 5222,
      "ThÃ¬": 5223,
      "NghÄ©": 5224,
      "ĠCharlie": 5225,
      "ĠLeon": 5226,
      "ational": 5227,
      "ĠAndrew": 5228,
      "BA": 5229,
      "DÆ°á»Ŀng": 5230,
      "Global": 5231,
      "Ráº±ng": 5232,
      "SÃ¡u": 5233,
      "Tá»±": 5234,
      "km": 5235,
      "mar": 5236,
      "táº¥t": 5237,
      "uit": 5238,
      "well": 5239,
      "yd": 5240,
      "³t": 5241,
      "ĠÃ´n": 5242,
      "Ġáº¯c": 5243,
      "Ġenz": 5244,
      "Ġtiá»ĩt": 5245,
      "Ġcáº±n": 5246,
      "ĠvÃ£": 5247,
      "ĠbÃ¬": 5248,
      "Ġbá»įt": 5249,
      "Ġgáº¯t": 5250,
      "Ġhao": 5251,
      "Ġcá»Ľ": 5252,
      "ĠthiÃªu": 5253,
      "Ġxáº¥p": 5254,
      "Ġchá»ĳc": 5255,
      "ĠTin": 5256,
      "uyá»ħn": 5257,
      "ÄĲÆ°Æ¡ng": 5258,
      "ĠClin": 5259,
      "Ġphá»Ľt": 5260,
      "ĠkhoÃ¡c": 5261,
      "Ġtrá»ĩ": 5262,
      "ĠNo": 5263,
      "ĠNelson": 5264,
      "ĠtÃŃt": 5265,
      "ering": 5266,
      "eryl": 5267,
      "ĠHam": 5268,
      "ame": 5269,
      "ĠLak": 5270,
      "Ġá»§": 5271,
      "ors": 5272,
      "TrÆ°á»Ŀng": 5273,
      "ĠRam": 5274,
      "ĠRand": 5275,
      "ĠVáº¥n": 5276,
      "ĠWe": 5277,
      "ters": 5278,
      "hoáº·c": 5279,
      "ĠNgÃ´i": 5280,
      "liz": 5281,
      "oid": 5282,
      "rey": 5283,
      "Chris": 5284,
      "ĠAlbert": 5285,
      "ĠAlpha": 5286,
      "ulia": 5287,
      "ĠChá»ĭ": 5288,
      "entina": 5289,
      "ĠArthur": 5290,
      "Ġ1984": 5291,
      "ĠScott": 5292,
      "inda": 5293,
      "ĠAlexander": 5294,
      "ĠJeff": 5295,
      "chá»ī": 5296,
      "ight": 5297,
      "ĠBrooklyn": 5298,
      "100": 5299,
      "CA": 5300,
      "Geo": 5301,
      "Gia": 5302,
      "Kinh": 5303,
      "St": 5304,
      "VÅ©": 5305,
      "bum": 5306,
      "lash": 5307,
      "way": 5308,
      "Ġtuá»Ļc": 5309,
      "ĠcÆ°a": 5310,
      "ĠÄĳiáº¿u": 5311,
      "ĠnhÃºng": 5312,
      "há»ĭ": 5313,
      "hÃ£y": 5314,
      "ĠvÃ¹i": 5315,
      "ĠtrÃ¡": 5316,
      "ĠtrÃłng": 5317,
      "Ġngáº¡o": 5318,
      "Ġngá»įc": 5319,
      "Ġgo": 5320,
      "Ġgáº¡o": 5321,
      "ĠvÃłnh": 5322,
      "ĠrÃ¬u": 5323,
      "Ġpop": 5324,
      "Ġposter": 5325,
      "ĠdÆ°ng": 5326,
      "Ġdáº³ng": 5327,
      "Ġvá»±ng": 5328,
      "Ġnhá»¥c": 5329,
      "Ġtháº£y": 5330,
      "iá»ģng": 5331,
      "Ġbá»ī": 5332,
      "Ġbá»Ŀi": 5333,
      "Ġlá»¥a": 5334,
      "Ġmá»ĭ": 5335,
      "ĠMatt": 5336,
      "ĠBot": 5337,
      "ĠBao": 5338,
      "ĠHu": 5339,
      "ĠÄĲá»Ļng": 5340,
      "ĠAus": 5341,
      "ĠgiÃ¡ng": 5342,
      "Ġdop": 5343,
      "Ġphanh": 5344,
      "ĠKi": 5345,
      "ĠKat": 5346,
      "ĠLang": 5347,
      "ĠLee": 5348,
      "Ġá»«": 5349,
      "ost": 5350,
      "etti": 5351,
      "NgÃ´n": 5352,
      "Ġkhuáº¿ch": 5353,
      "ĠIg": 5354,
      "Ġ48": 5355,
      "ican": 5356,
      "ĠJord": 5357,
      "Ġ2030": 5358,
      "use": 5359,
      "ĠThiáº¿t": 5360,
      "ĠYeah": 5361,
      "rab": 5362,
      "ĠTEDGlobal": 5363,
      "Ġgá»Ľm": 5364,
      "ĠhÃ¡o": 5365,
      "Vá»Ĺ": 5366,
      "ardy": 5367,
      "abeth": 5368,
      "Cháº¥t": 5369,
      "Quáº£": 5370,
      "ull": 5371,
      "iff": 5372,
      "ĠQuáº£ng": 5373,
      "ive": 5374,
      "ĠmÃ¬n": 5375,
      "ĠMoore": 5376,
      "ierra": 5377,
      "ĠThÃ´i": 5378,
      "ĠPhá»¥": 5379,
      "ĠHigh": 5380,
      "ĠKhÃ¡n": 5381,
      "ĠNghiÃªn": 5382,
      "ĠVenice": 5383,
      "ĠHawai": 5384,
      "ĠParkinson": 5385,
      "Ġaxit": 5386,
      "Ġghen": 5387,
      "enhagen": 5388,
      "Ãģnh": 5389,
      "ĠDisney": 5390,
      "ĠVirginia": 5391,
      "ĠTanzania": 5392,
      "lizabeth": 5393,
      "Dan": 5394,
      "DÆ°á»Ľi": 5395,
      "FG": 5396,
      "MÃ¹a": 5397,
      "RA": 5398,
      "Sp": 5399,
      "Sá»©c": 5400,
      "ThÃº": 5401,
      "eas": 5402,
      "fa": 5403,
      "hh": 5404,
      "mo": 5405,
      "ool": 5406,
      "rr": 5407,
      "tamin": 5408,
      "uáº§n": 5409,
      "zler": 5410,
      "ĩch": 5411,
      "ĠcÃłnh": 5412,
      "ĠÄĥ": 5413,
      "ĠÄĳáº·n": 5414,
      "Ġná»Ļ": 5415,
      "há»ģ": 5416,
      "Ġváº¯t": 5417,
      "Ġven": 5418,
      "ĠlÃ¡ng": 5419,
      "ĠmÃ¡c": 5420,
      "Ġmet": 5421,
      "ĠmÃ©o": 5422,
      "Ġbuá»ĵ": 5423,
      "Ġkg": 5424,
      "Ġkiá»ģu": 5425,
      "Ġgl": 5426,
      "Ġchinh": 5427,
      "Ġnhá»©c": 5428,
      "Ġnhá»įn": 5429,
      "Ġcá»§i": 5430,
      "Ġtá»Ł": 5431,
      "Ġpháº£": 5432,
      "ĠchoÃłng": 5433,
      "ĠTÃłi": 5434,
      "ĠTel": 5435,
      "Ġlá»¥t": 5436,
      "Ġhon": 5437,
      "Ġná»Ľi": 5438,
      "ĠCN": 5439,
      "ĠCÅ©ng": 5440,
      "ĠCas": 5441,
      "ĠchÃŃch": 5442,
      "ĠMas": 5443,
      "ĠNick": 5444,
      "ĠHiá»ĩn": 5445,
      "ĠAg": 5446,
      "ĠPower": 5447,
      "ĠKal": 5448,
      "ĠKÃŃnh": 5449,
      "ĠGil": 5450,
      "ĠDr": 5451,
      "Å©a": 5452,
      "alem": 5453,
      "Ġvitamin": 5454,
      "elp": 5455,
      "elly": 5456,
      "eter": 5457,
      "Ġnháº¡i": 5458,
      "Ġ44": 5459,
      "ics": 5460,
      "ĠJill": 5461,
      "ily": 5462,
      "ĠFar": 5463,
      "ĠNgay": 5464,
      "Thá»īnh": 5465,
      "usalem": 5466,
      "ĠPhil": 5467,
      "ops": 5468,
      "aze": 5469,
      "Giáº£i": 5470,
      "Ġtá»¥ng": 5471,
      "aine": 5472,
      "ĠToÃł": 5473,
      "ĠColomb": 5474,
      "ĠMoz": 5475,
      "ĠTháº§n": 5476,
      "ĠBosnia": 5477,
      "ĠGeorg": 5478,
      "ucks": 5479,
      "Ġalbum": 5480,
      "ĠCopenhagen": 5481,
      "ĠiPod": 5482,
      "ĠTeszler": 5483,
      "Kháº£": 5484,
      "ĠJerusalem": 5485,
      "Ġopera": 5486,
      "ĠArgentina": 5487,
      "ĠClinton": 5488,
      "Ġdopamine": 5489,
      "Ġbuá»ĵm": 5490,
      "IA": 5491,
      "JH": 5492,
      "LiÃªn": 5493,
      "Lá»Ŀi": 5494,
      "Oh": 5495,
      "Sá»Ń": 5496,
      "cá»": 5497,
      "gi": 5498,
      "ken": 5499,
      "lÃłm": 5500,
      "ned": 5501,
      "sy": 5502,
      "ÃĶi": 5503,
      "Ġah": 5504,
      "áº³n": 5505,
      "ĠcÃło": 5506,
      "ĠÄĳÆ°Æ¡c": 5507,
      "Ġná»±c": 5508,
      "Ġnáº¥c": 5509,
      "ĠlÆ°á»Ŀi": 5510,
      "ĠliÃªu": 5511,
      "Ġmu": 5512,
      "Ġman": 5513,
      "ĠmÃ´ng": 5514,
      "Ġbá»±": 5515,
      "ĠsÆ°Æ¡ng": 5516,
      "Ġsilicon": 5517,
      "Ġhuá»³": 5518,
      "Ġthá»ĳi": 5519,
      "Ġdiá»ħu": 5520,
      "Ġvá»īa": 5521,
      "Ġnhá»ĳt": 5522,
      "Ġquáº§y": 5523,
      "ĠTemp": 5524,
      "ÄĲá»Ļng": 5525,
      "ÄĲÃ¡ng": 5526,
      "Ġtoáº¡": 5527,
      "ĠMi": 5528,
      "ĠMin": 5529,
      "Ġkhoe": 5530,
      "hidi": 5531,
      "hiopia": 5532,
      "ĠBÄĥng": 5533,
      "ĠBir": 5534,
      "erom": 5535,
      "ĠÄĲáº¿n": 5536,
      "ena": 5537,
      "ĠPort": 5538,
      "ĠLine": 5539,
      "Ġviol": 5540,
      "ellow": 5541,
      "isa": 5542,
      "ĠJenn": 5543,
      "ĠJones": 5544,
      "oln": 5545,
      "ĠWow": 5546,
      "Ġ193": 5547,
      "ĠCha": 5548,
      "ĠkÃ©p": 5549,
      "ĠHoÃ¡": 5550,
      "reg": 5551,
      "Chiáº¿n": 5552,
      "ĠUá»·": 5553,
      "Má»Ľi": 5554,
      "oug": 5555,
      "ĠGiÃ¡": 5556,
      "iberia": 5557,
      "ĠCarl": 5558,
      "ĠCarn": 5559,
      "ĠJohnny": 5560,
      "ĠAmer": 5561,
      "ThÃŃ": 5562,
      "hammad": 5563,
      "ĠMá»¥c": 5564,
      "incoln": 5565,
      "ĠThÃ¬": 5566,
      "ĠLuÃ¢n": 5567,
      "ĠJoshua": 5568,
      "ĠBabylon": 5569,
      "ylvia": 5570,
      "PTCH": 5571,
      "ĠStewart": 5572,
      "ĠColumbia": 5573,
      "13": 5574,
      "70": 5575,
      "CÃłng": 5576,
      "Láº¡i": 5577,
      "Mich": 5578,
      "Rob": 5579,
      "TÃ³m": 5580,
      "men": 5581,
      "wich": 5582,
      "Ġáº£": 5583,
      "Ġao": 5584,
      "áº¤n": 5585,
      "ĠcÃºi": 5586,
      "ĠÄĳáº¯ng": 5587,
      "ĠÄĳáº§m": 5588,
      "Ġlung": 5589,
      "ĠlÃºng": 5590,
      "ĠlÃ©n": 5591,
      "Ġkiáº¿p": 5592,
      "nhÆ°": 5593,
      "áº¡y": 5594,
      "ĠgÃ¡n": 5595,
      "Ġgáº§y": 5596,
      "Ġgá»ĳm": 5597,
      "Ġráº£nh": 5598,
      "ĠrÃ¹a": 5599,
      "Ġdáº¡n": 5600,
      "Ġtaxi": 5601,
      "ĠnÃ³c": 5602,
      "Ġxáº»": 5603,
      "Ġchá»ķ": 5604,
      "ĠmÃłi": 5605,
      "cher": 5606,
      "ĠTer": 5607,
      "ĠchÃªnh": 5608,
      "ĠMov": 5609,
      "ĠNep": 5610,
      "ĠBell": 5611,
      "ĠHÃ¬nh": 5612,
      "ĠHung": 5613,
      "ĠHÃłng": 5614,
      "ĠHir": 5615,
      "ĠAR": 5616,
      "ĠSá»Ń": 5617,
      "ĠSky": 5618,
      "ĠSierra": 5619,
      "Ġphiá»ĩn": 5620,
      "Ġpherom": 5621,
      "ĠPau": 5622,
      "ĠPri": 5623,
      "ĠKhan": 5624,
      "Ġá»Ľt": 5625,
      "Ġ38": 5626,
      "Ġ350": 5627,
      "ĠTráº¯ng": 5628,
      "ĠxuÃ´i": 5629,
      "ĠDu": 5630,
      "ĠDaniel": 5631,
      "ĠbÃ¡u": 5632,
      "ello": 5633,
      "ila": 5634,
      "itt": 5635,
      "ĠWest": 5636,
      "ĠWalk": 5637,
      "ĠFort": 5638,
      "ĠEv": 5639,
      "acy": 5640,
      "urt": 5641,
      "ĠPhilad": 5642,
      "Ġ86": 5643,
      "Ġgá»¥c": 5644,
      "ChÆ°Æ¡ng": 5645,
      "ChÃło": 5646,
      "thay": 5647,
      "ĠgÃ³t": 5648,
      "ĠXem": 5649,
      "ĠsuÃ½t": 5650,
      "ĠThá»§": 5651,
      "ifer": 5652,
      "utan": 5653,
      "ĠVá»ģ": 5654,
      "Ġ130": 5655,
      "ĠGiá»ĳng": 5656,
      "ĠnhÃ¡y": 5657,
      "ĠCá»¥c": 5658,
      "ĠCá»©u": 5659,
      "ather": 5660,
      "kyo": 5661,
      "ĠLeone": 5662,
      "derson": 5663,
      "Ġmá»īa": 5664,
      "ĠJoseph": 5665,
      "Nháº¡c": 5666,
      "ĠiPad": 5667,
      "Ġacid": 5668,
      "ECD": 5669,
      "ĠVictoria": 5670,
      "ĠEthiopia": 5671,
      "ĠZimbab": 5672,
      "ĠHawaii": 5673,
      "Ġhuá»³nh": 5674,
      "PTCHA": 5675,
      "Bá»įn": 5676,
      "Cuá»ĳn": 5677,
      "HÃłnh": 5678,
      "MÃ´": 5679,
      "Máº¥y": 5680,
      "Má»ĳi": 5681,
      "Mark": 5682,
      "OL": 5683,
      "PhÃ¡": 5684,
      "Paul": 5685,
      "Quy": 5686,
      "SÃ¡ng": 5687,
      "Tiáº¿n": 5688,
      "Tuá»ķi": 5689,
      "grap": 5690,
      "off": 5691,
      "rge": 5692,
      "ule": 5693,
      "vÃŃt": 5694,
      "Äĳi": 5695,
      "Ġz": 5696,
      "ĠÆ°Æ¡i": 5697,
      "á»«ng": 5698,
      "Ġtáº¡": 5699,
      "ĠcÃ´i": 5700,
      "ĠcÄĥm": 5701,
      "ĠÄĳÆ°á»Ŀi": 5702,
      "ĠÄĳiá»ĥu": 5703,
      "Ġsá»Ļ": 5704,
      "Ġsáº¥u": 5705,
      "ĠngÃ¢m": 5706,
      "Ġhen": 5707,
      "Ġthá»ī": 5708,
      "Ġrock": 5709,
      "ĠchÃł": 5710,
      "Ġhá»©c": 5711,
      "Ġtháº£n": 5712,
      "Ġquáº¥n": 5713,
      "Ġgiáº§y": 5714,
      "ĠxÃ¬": 5715,
      "ĠxÃło": 5716,
      "otter": 5717,
      "Ġbá»ĩ": 5718,
      "ĠTÆ°Æ¡ng": 5719,
      "ĠTÃ¬m": 5720,
      "Ġcháº£o": 5721,
      "ĠchÃ©o": 5722,
      "ĠnhÃŃ": 5723,
      "ĠCÃ¡": 5724,
      "ĠCity": 5725,
      "Æ°Æ¡m": 5726,
      "Ġbá»ĭt": 5727,
      "ĠMT": 5728,
      "ĠBh": 5729,
      "erson": 5730,
      "ĠÄĲÃło": 5731,
      "ĠShe": 5732,
      "ĠSiberia": 5733,
      "ĠLincoln": 5734,
      "ĠGod": 5735,
      "Ġngoáº·t": 5736,
      "Ġvirut": 5737,
      "ĠbÃ©n": 5738,
      "ĠIt": 5739,
      "Ġ42": 5740,
      "ĠQatar": 5741,
      "ĠJay": 5742,
      "ĠJes": 5743,
      "ĠJane": 5744,
      "ĠJulia": 5745,
      "ĠEx": 5746,
      "ĠNghá»ĭ": 5747,
      "Ġtá»īa": 5748,
      "ĠlÃ£i": 5749,
      "ĠOp": 5750,
      "ĠOECD": 5751,
      "Ġ72": 5752,
      "Ġ96": 5753,
      "ooh": 5754,
      "rib": 5755,
      "ĠNews": 5756,
      "ĠÄĲá»ĭnh": 5757,
      "Ġcá»Ńu": 5758,
      "igan": 5759,
      "ÄĳÆ°á»£c": 5760,
      "Ġxá»ķ": 5761,
      "Ġoxi": 5762,
      "ula": 5763,
      "ulu": 5764,
      "uba": 5765,
      "ĠAnderson": 5766,
      "ĠQuÃ¡": 5767,
      "utnik": 5768,
      "NhÃ³m": 5769,
      "Ġ140": 5770,
      "ĠEmma": 5771,
      "ennis": 5772,
      "ĠToÃ¡n": 5773,
      "ĠBerkel": 5774,
      "Ġeur": 5775,
      "ĠBroad": 5776,
      "uper": 5777,
      "ĠPhá»¥c": 5778,
      "Ġmá»īm": 5779,
      "ladesh": 5780,
      "ĠGreenland": 5781,
      "ĠStarb": 5782,
      "ĠSimon": 5783,
      "ĠNorth": 5784,
      "ĠTasmanian": 5785,
      "ĠMaya": 5786,
      "ĠMuhammad": 5787,
      "shahidi": 5788,
      "ĠSomalia": 5789,
      "George": 5790,
      "Ġtá»Łm": 5791,
      "azeera": 5792,
      "ĠZimbabwe": 5793,
      "ĠBerkeley": 5794,
      "Adam": 5795,
      "CÄĥn": 5796,
      "Donald": 5797,
      "Há»ĵi": 5798,
      "OX": 5799,
      "So": 5800,
      "bor": 5801,
      "ble": 5802,
      "ih": 5803,
      "jamin": 5804,
      "mart": 5805,
      "tÃ´ng": 5806,
      "vÃło": 5807,
      "wen": 5808,
      "¹o": 5809,
      "Ġ=": 5810,
      "Ġion": 5811,
      "Ĥn": 5812,
      "ĠtÃ½": 5813,
      "ĠtÃ²i": 5814,
      "ĠcÆ°ng": 5815,
      "ĠcÃły": 5816,
      "ĠcÃºng": 5817,
      "ĠÄĳiáº¿c": 5818,
      "Ġváº§y": 5819,
      "Ġmáº§u": 5820,
      "Ġmá»Ļc": 5821,
      "Ġngá»±": 5822,
      "Ġnguá»µ": 5823,
      "Ġgas": 5824,
      "Ġhamb": 5825,
      "Ġrá»ĵng": 5826,
      "ĠráºŃm": 5827,
      "ĠdÃ¬": 5828,
      "ĠÄĳá»±": 5829,
      "ĠÄĳá»Ĺi": 5830,
      "Ġnham": 5831,
      "Æ¡c": 5832,
      "Ġquáº¥y": 5833,
      "ĠxÃ¡o": 5834,
      "ĠxÃ³t": 5835,
      "Ġgiá»¥c": 5836,
      "ĠTÃ¢m": 5837,
      "Ġhor": 5838,
      "Ã¹n": 5839,
      "ÄĲáº¡i": 5840,
      "ĠCamp": 5841,
      "ĠMau": 5842,
      "ĠsÃ¡p": 5843,
      "ĠNet": 5844,
      "ĠNike": 5845,
      "ĠBá»ĵ": 5846,
      "ĠBali": 5847,
      "ĠHav": 5848,
      "ĠÄĲá»ĵ": 5849,
      "ĠSus": 5850,
      "ĠSun": 5851,
      "ĠSud": 5852,
      "ĠSarah": 5853,
      "ĠmÃ¡nh": 5854,
      "ĠPenn": 5855,
      "ĠLaw": 5856,
      "ĠLewis": 5857,
      "ĠGh": 5858,
      "ĠTriá»ģu": 5859,
      "ĠTráº»": 5860,
      "ĠDub": 5861,
      "ĠRon": 5862,
      "Ġ5000": 5863,
      "ĠVi": 5864,
      "ĠJeop": 5865,
      "ĠJazeera": 5866,
      "ĠÃĶ": 5867,
      "aska": 5868,
      "iti": 5869,
      "ĠFOX": 5870,
      "Ġ192": 5871,
      "ĠNgoáº¡i": 5872,
      "ade": 5873,
      "ĠThÆ°Æ¡ng": 5874,
      "ĠThuáºŃt": 5875,
      "obi": 5876,
      "uron": 5877,
      "une": 5878,
      "Ġxoa": 5879,
      "ĠSteph": 5880,
      "opa": 5881,
      "ĠXanh": 5882,
      "Ġxá»ĭt": 5883,
      "ĠchÃ³p": 5884,
      "Ġ180": 5885,
      "Ġ185": 5886,
      "Ġhip": 5887,
      "ĠBrit": 5888,
      "egie": 5889,
      "Ġ160": 5890,
      "ĠKenned": 5891,
      "ĠTokyo": 5892,
      "Cá»¥": 5893,
      "ĠSputnik": 5894,
      "rence": 5895,
      "ĠBangladesh": 5896,
      "ĠLuther": 5897,
      "Khu": 5898,
      "ĠbÆ°á»Ľu": 5899,
      "thalate": 5900,
      "ĠrÃ£nh": 5901,
      "thá»±c": 5902,
      "ĠWhit": 5903,
      "ĠEarth": 5904,
      "ĠAtlanta": 5905,
      "ĠLeonardo": 5906,
      "ĠÄĥng": 5907,
      "elphia": 5908,
      "ĠColombia": 5909,
      "ĠCarnegie": 5910,
      "ĠPhiladelphia": 5911,
      "ĠStarbucks": 5912,
      "ĠStephen": 5913,
      "ĠKennedy": 5914,
      "99": 5915,
      "Cá»ĳ": 5916,
      "ChÃ¡u": 5917,
      "DA": 5918,
      "DÃ¢n": 5919,
      "Dá»±a": 5920,
      "EA": 5921,
      "Khá»": 5922,
      "MS": 5923,
      "NC": 5924,
      "SS": 5925,
      "Táº¥m": 5926,
      "bie": 5927,
      "ha": 5928,
      "lay": 5929,
      "lem": 5930,
      "med": 5931,
      "rick": 5932,
      "sc": 5933,
      "shi": 5934,
      "zÆ¡": 5935,
      "ħu": 5936,
      "Ġtest": 5937,
      "Ġcm": 5938,
      "Ġna": 5939,
      "ĠvÃ´i": 5940,
      "ĠvÃ¡c": 5941,
      "Ġviá»ģn": 5942,
      "Ġláº§y": 5943,
      "Ġbl": 5944,
      "ĠbÃ´i": 5945,
      "Ġbáº§m": 5946,
      "Ġsand": 5947,
      "Ġtriá»ħn": 5948,
      "ĠrÃł": 5949,
      "Ġpoly": 5950,
      "ĠduyÃªn": 5951,
      "Ġchiáº¿t": 5952,
      "Ġgiun": 5953,
      "ĠxÃ¢u": 5954,
      "Ġxáº¯n": 5955,
      "Ġchá»ĵn": 5956,
      "ĠTáº¡ng": 5957,
      "ait": 5958,
      "Ġcháº£i": 5959,
      "ĠchÃ©n": 5960,
      "ÄĲÃłn": 5961,
      "inburgh": 5962,
      "ĠMinh": 5963,
      "ember": 5964,
      "Ġtrá»Ľ": 5965,
      "Ġtrá»Ĺi": 5966,
      "ĠBel": 5967,
      "ĠBas": 5968,
      "ĠBert": 5969,
      "ĠHa": 5970,
      "ĠHad": 5971,
      "amas": 5972,
      "ĠÄĲÃ´n": 5973,
      "Ġkhá»ĳng": 5974,
      "ĠSiÃªu": 5975,
      "Ġyeah": 5976,
      "ĠPol": 5977,
      "ĠKhÃ": 5978,
      "ĠKam": 5979,
      "ĠKelly": 5980,
      "ĠLoáº¡i": 5981,
      "ĠGran": 5982,
      "aly": 5983,
      "ĠRobot": 5984,
      "ĠRog": 5985,
      "ette": 5986,
      "Nguá»ĵn": 5987,
      "Ġ58": 5988,
      "ĠVáºŃt": 5989,
      "apagos": 5990,
      "ild": 5991,
      "olas": 5992,
      "omen": 5993,
      "ĠThÆ°a": 5994,
      "ĠPhilip": 5995,
      "Ġghim": 5996,
      "opatch": 5997,
      "ĠAlice": 5998,
      "ava": 5999,
      "ĠchÃ³i": 6000,
      "eller": 6001,
      "Ġ1996": 6002,
      "Ġ1998": 6003,
      "Ġtá»¥i": 6004,
      "phone": 6005,
      "phere": 6006,
      "Ġhá»ĳc": 6007,
      "ĠBá»©c": 6008,
      "ĠMichigan": 6009,
      "ĠEdinburgh": 6010,
      "ĠCopern": 6011,
      "ĠHawk": 6012,
      "ĠGalapagos": 6013,
      "Tá»ķng": 6014,
      "ĠTasmania": 6015,
      "ĠNanopatch": 6016,
      "ĠnhÃ´m": 6017,
      "ĠApollo": 6018,
      "ĠEverest": 6019,
      "ĠLakota": 6020,
      "ĠHungary": 6021,
      "graphic": 6022,
      "ihad": 6023,
      "Ġhamburger": 6024,
      "Ben": 6025,
      "Háº³n": 6026,
      "Jos": 6027,
      "Kiáº¿n": 6028,
      "OPA": 6029,
      "Suy": 6030,
      "TS": 6031,
      "Táº¿": 6032,
      "cy": 6033,
      "eon": 6034,
      "nÃ´": 6035,
      "oz": 6036,
      "pu": 6037,
      "ray": 6038,
      "tt": 6039,
      "tim": 6040,
      "tháºŃt": 6041,
      "zona": 6042,
      "ĠáºŃp": 6043,
      "Ġooh": 6044,
      "Ġtá»Ļt": 6045,
      "ĠÄĳáº¯c": 6046,
      "Ġno": 6047,
      "Ġve": 6048,
      "ĠvÃ¡": 6049,
      "ĠvÅ©ng": 6050,
      "Ġviá»ĩt": 6051,
      "Ġláº«y": 6052,
      "ĠbÃłnh": 6053,
      "ĠbÃłng": 6054,
      "Ġbit": 6055,
      "ĠsáºŃp": 6056,
      "ĠngÆ°á»Ľc": 6057,
      "Ġngáº·t": 6058,
      "Ġnguyá»ĩt": 6059,
      "Ġgel": 6060,
      "ĠgáºŃt": 6061,
      "Ġgiá»ģng": 6062,
      "Ġghá»ģ": 6063,
      "Ġhel": 6064,
      "Ġthá»§ng": 6065,
      "Ġdáº¥n": 6066,
      "ĠnhÆ°á»£ng": 6067,
      "Ġrap": 6068,
      "ĠphÃ´ng": 6069,
      "ĠTáº¿": 6070,
      "aig": 6071,
      "airo": 6072,
      "Ġcháº±ng": 6073,
      "inn": 6074,
      "ĠMap": 6075,
      "eman": 6076,
      "ĠNÃ´": 6077,
      "ĠNair": 6078,
      "ĠNational": 6079,
      "ĠBá»ĳn": 6080,
      "ĠBoy": 6081,
      "ĠHol": 6082,
      "ĠSol": 6083,
      "ĠSad": 6084,
      "ĠSÃ¡u": 6085,
      "ĠSuper": 6086,
      "ial": 6087,
      "ĠKr": 6088,
      "ĠKevin": 6089,
      "ĠKansas": 6090,
      "ĠLáº¡t": 6091,
      "ĠLeb": 6092,
      "ĠquÃ¡ng": 6093,
      "ĠGar": 6094,
      "ĠTruyá»ģn": 6095,
      "ĠbÃ¡ng": 6096,
      "ĠRes": 6097,
      "ĠRoy": 6098,
      "Ġkhuáº¥y": 6099,
      "ĠIM": 6100,
      "ĠViáº¿t": 6101,
      "ĠES": 6102,
      "ĠOak": 6103,
      "ura": 6104,
      "Ġ74": 6105,
      "Ġ98": 6106,
      "unk": 6107,
      "Vá»ĭ": 6108,
      "ĠUshahidi": 6109,
      "ocr": 6110,
      "Ġox": 6111,
      "ĠAnas": 6112,
      "ĠQuay": 6113,
      "ĠQuÃ½": 6114,
      "Ġáº¢o": 6115,
      "Ġ1995": 6116,
      "ĠJohnson": 6117,
      "attle": 6118,
      "ĠCá»©": 6119,
      "ĠBern": 6120,
      "ĠEdward": 6121,
      "inceton": 6122,
      "ĠPrinceton": 6123,
      "umbai": 6124,
      "ĠNháº¥t": 6125,
      "osterone": 6126,
      "ĠJackson": 6127,
      "ĠTrá»ĭ": 6128,
      "opher": 6129,
      "ĠArizona": 6130,
      "giá»Ŀ": 6131,
      "ĠTempest": 6132,
      "ĠMovember": 6133,
      "ĠNepal": 6134,
      "ĠSudan": 6135,
      "ĠJeopardy": 6136,
      "14": 6137,
      "90": 6138,
      "AK": 6139,
      "Biá»ĥu": 6140,
      "Einstein": 6141,
      "HC": 6142,
      "Hiá»ĥn": 6143,
      "Káº¿": 6144,
      "RW": 6145,
      "SC": 6146,
      "Suá»ĳt": 6147,
      "Tá»ĳi": 6148,
      "Tuáº§n": 6149,
      "ax": 6150,
      "bao": 6151,
      "ct": 6152,
      "cent": 6153,
      "eith": 6154,
      "fur": 6155,
      "iel": 6156,
      "mÃ´n": 6157,
      "pháº": 6158,
      "rÃ´": 6159,
      "vis": 6160,
      "zz": 6161,
      "±n": 6162,
      "Ġet": 6163,
      "Ġamin": 6164,
      "ĠÆ¯á»Ľc": 6165,
      "Ġtáº£n": 6166,
      "Ġtáº·c": 6167,
      "ĠtÆ°á»Ľi": 6168,
      "ĠcÃ²i": 6169,
      "Ġcáº©m": 6170,
      "ĠÄĳáºŃy": 6171,
      "ĠÄĳáº¯p": 6172,
      "ĠnÃ¡o": 6173,
      "Ġvuá»ĳt": 6174,
      "Ġviáº¿ng": 6175,
      "Ġme": 6176,
      "Ġmao": 6177,
      "Ġmáº·n": 6178,
      "ĠbÃ£": 6179,
      "ĠsuÃ´n": 6180,
      "ĠtrÆ¡n": 6181,
      "ĠtrÃ¹": 6182,
      "Ġgram": 6183,
      "ĠhiÃªn": 6184,
      "Ġreo": 6185,
      "Ġnhai": 6186,
      "Ġcá»«": 6187,
      "Ġnhá»įc": 6188,
      "Ġtháº¹n": 6189,
      "á»±u": 6190,
      "Ġsáº¹o": 6191,
      "ĠphÃ¬nh": 6192,
      "ĠTÃªn": 6193,
      "ĠTah": 6194,
      "onto": 6195,
      "Ġná»ĵi": 6196,
      "ĠCor": 6197,
      "ĠCuá»ĳi": 6198,
      "ĠCairo": 6199,
      "Ġbá»ĭch": 6200,
      "ĠMáº·c": 6201,
      "ĠMáº¡ng": 6202,
      "ĠMumbai": 6203,
      "emy": 6204,
      "Ġká»µ": 6205,
      "ĠBeet": 6206,
      "ĠHel": 6207,
      "ĠÄĲÃłi": 6208,
      "ĠAch": 6209,
      "ĠSá»": 6210,
      "ĠPep": 6211,
      "ĠKháº": 6212,
      "ĠLai": 6213,
      "ĠLuc": 6214,
      "ĠGro": 6215,
      "ĠDie": 6216,
      "ĠDoug": 6217,
      "osau": 6218,
      "NgÃłnh": 6219,
      "Ġ52": 6220,
      "ater": 6221,
      "atur": 6222,
      "Ġ43": 6223,
      "ĠQua": 6224,
      "icus": 6225,
      "ĠEle": 6226,
      "Ġ190": 6227,
      "hoven": 6228,
      "omet": 6229,
      "ado": 6230,
      "ĠYÃªu": 6231,
      "rah": 6232,
      "ĠHoÃłn": 6233,
      "Ġ93": 6234,
      "Ġ900": 6235,
      "ĠlÃŃt": 6236,
      "ree": 6237,
      "ĠInter": 6238,
      "Chá»¯": 6239,
      "ĠXu": 6240,
      "ĠAlaska": 6241,
      "Tá»Ľi": 6242,
      "ÄĳÃ£": 6243,
      "ĠGiÃ¡m": 6244,
      "ump": 6245,
      "QuÃŃ": 6246,
      "ChÃ¢u": 6247,
      "ĠAnn": 6248,
      "Giai": 6249,
      "ĠprÃ´": 6250,
      "ĠâĢ¦": 6251,
      "ĠÃģo": 6252,
      "achel": 6253,
      "ĠBerlin": 6254,
      "ĠTime": 6255,
      "ĠPhá»ĳ": 6256,
      "PhÃŃa": 6257,
      "ĠCameron": 6258,
      "And": 6259,
      "field": 6260,
      "ĠCAPTCHA": 6261,
      "Ġenzy": 6262,
      "Ġviolin": 6263,
      "Michael": 6264,
      "Ġthá»īu": 6265,
      "ribati": 6266,
      "Ġtestosterone": 6267,
      "Bá»ĳn": 6268,
      "Cáº£nh": 6269,
      "Ed": 6270,
      "NG": 6271,
      "Peter": 6272,
      "Quyá»ģn": 6273,
      "Richard": 6274,
      "SB": 6275,
      "Sinh": 6276,
      "VÄĥn": 6277,
      "br": 6278,
      "cÅ©ng": 6279,
      "cou": 6280,
      "hm": 6281,
      "hol": 6282,
      "kr": 6283,
      "sw": 6284,
      "uz": 6285,
      "word": 6286,
      "yc": 6287,
      "Ġ)": 6288,
      "Ġq": 6289,
      "Ġen": 6290,
      "Ġáº§m": 6291,
      "Ġit": 6292,
      "ĠcÃ¢m": 6293,
      "ĠÄĳÃª": 6294,
      "Ġnang": 6295,
      "Ġnai": 6296,
      "Ġvv": 6297,
      "Ġlá»ĳ": 6298,
      "Ġlá»Ļng": 6299,
      "Ġliá»ħu": 6300,
      "Ġbo": 6301,
      "ĠkiÃªu": 6302,
      "Ġsáº¡c": 6303,
      "Ġngáº§n": 6304,
      "Ġnguá»": 6305,
      "ĠgÃ´n": 6306,
      "Ġgáº§m": 6307,
      "ĠhÆ°Æ¡": 6308,
      "ĠrÃ²ng": 6309,
      "ĠrÃ¡ch": 6310,
      "Ġdáº¥y": 6311,
      "Ġcá»Ĺi": 6312,
      "Ġchanh": 6313,
      "Ġquáº³ng": 6314,
      "Ġgiang": 6315,
      "Ġxá»Ł": 6316,
      "Ġchá»Ļ": 6317,
      "Ġchá»ķi": 6318,
      "ĠthÃ¢": 6319,
      "ĠthÃ¬nh": 6320,
      "Ġhá»įng": 6321,
      "Ġnháº½": 6322,
      "ĠTiá»ģn": 6323,
      "ÄĲáº·t": 6324,
      "ines": 6325,
      "ĠCuba": 6326,
      "Ġháº¯c": 6327,
      "Ġsá»¥t": 6328,
      "ĠMus": 6329,
      "ĠMÃ¹a": 6330,
      "ĠMama": 6331,
      "Ġtrá»ı": 6332,
      "Ġká»ĭ": 6333,
      "ĠNhá»": 6334,
      "ĠNathan": 6335,
      "ĠBáº£y": 6336,
      "ĠHal": 6337,
      "ĠHá»ĵng": 6338,
      "ĠÄĲÆ°a": 6339,
      "ĠÄĲá»ĳi": 6340,
      "ĠSn": 6341,
      "ĠSen": 6342,
      "ias": 6343,
      "Ġphao": 6344,
      "ĠKá»¹": 6345,
      "ĠKur": 6346,
      "ĠLáº§n": 6347,
      "Ġngá»£p": 6348,
      "ĠDick": 6349,
      "orm": 6350,
      "Trang": 6351,
      "ĠÃŃn": 6352,
      "alay": 6353,
      "alin": 6354,
      "imet": 6355,
      "oshi": 6356,
      "ĠRad": 6357,
      "ĠRid": 6358,
      "ĠIvan": 6359,
      "ister": 6360,
      "ĠQuyá»ģn": 6361,
      "ĠJers": 6362,
      "ĠbazÆ¡": 6363,
      "Ġláº½o": 6364,
      "ĠFox": 6365,
      "ĠEve": 6366,
      "ĠElizabeth": 6367,
      "hoo": 6368,
      "ustin": 6369,
      "Ġ64": 6370,
      "ĠThung": 6371,
      "ĠOli": 6372,
      "obs": 6373,
      "ring": 6374,
      "Ġbanjo": 6375,
      "ĠUr": 6376,
      "ington": 6377,
      "eyer": 6378,
      "Má»©c": 6379,
      "oud": 6380,
      "ĠYorker": 6381,
      "tech": 6382,
      "Ġfan": 6383,
      "QuÃ¢n": 6384,
      "ĠQuáº§n": 6385,
      "ĠhÃ¨n": 6386,
      "Ġ1994": 6387,
      "Ġgames": 6388,
      "ĠGiá»įng": 6389,
      "ĠScr": 6390,
      "anna": 6391,
      "anny": 6392,
      "Ġ1975": 6393,
      "ĠMcC": 6394,
      "ĠCá»§a": 6395,
      "ĠLá»ĭch": 6396,
      "ĠRomo": 6397,
      "...": 6398,
      "ĠSeattle": 6399,
      "Lá»ĭch": 6400,
      "ChÃºa": 6401,
      "ĠLesterland": 6402,
      "Charles": 6403,
      "garet": 6404,
      "ĠLouis": 6405,
      "ĠKiribati": 6406,
      "ĠCNN": 6407,
      "ĠSkype": 6408,
      "ĠJesus": 6409,
      "ĠÄĳá»±Æ¡c": 6410,
      "ĠHavard": 6411,
      "Ġsandwich": 6412,
      "ĠBeethoven": 6413,
      "ĠJersey": 6414,
      "AO": 6415,
      "Biáº¿t": 6416,
      "CÃ¢y": 6417,
      "GM": 6418,
      "James": 6419,
      "MG": 6420,
      "NÄĥng": 6421,
      "RG": 6422,
      "RNA": 6423,
      "SR": 6424,
      "Sá»": 6425,
      "Tim": 6426,
      "Thomas": 6427,
      "Women": 6428,
      "XL": 6429,
      "XÃ£": 6430,
      "cÃ²n": 6431,
      "cal": 6432,
      "cus": 6433,
      "ead": 6434,
      "iro": 6435,
      "ms": 6436,
      "rat": 6437,
      "rina": 6438,
      "tháº": 6439,
      "tel": 6440,
      "tháº¿": 6441,
      "tion": 6442,
      "uela": 6443,
      "¨ng": 6444,
      "²i": 6445,
      "ģu": 6446,
      "áºµn": 6447,
      "ĠÄĤn": 6448,
      "ĠÄĳÃºt": 6449,
      "ĠnÃ²ng": 6450,
      "Ġnáº¥ng": 6451,
      "ĠmiÃªn": 6452,
      "ĠmÄ©": 6453,
      "ĠmÆ°á»Ŀng": 6454,
      "Ġbe": 6455,
      "ĠbÃº": 6456,
      "Ġbus": 6457,
      "Ġki": 6458,
      "ĠkÃ¨n": 6459,
      "ĠtrÃºt": 6460,
      "Ġgáº·m": 6461,
      "Ġrá»įi": 6462,
      "Ġráº¡c": 6463,
      "Ġráº©y": 6464,
      "Ġpass": 6465,
      "ĠdÃ¨": 6466,
      "ĠthÃł": 6467,
      "Ġtá»©": 6468,
      "ĠxÃ³i": 6469,
      "Ġpháº«n": 6470,
      "Ġgiá»ħu": 6471,
      "Ġnháº¥m": 6472,
      "ĠTá»ĳi": 6473,
      "ĠTun": 6474,
      "ĠTÃŃnh": 6475,
      "aid": 6476,
      "aus": 6477,
      "Ġsá»«ng": 6478,
      "Ġbá»ĭp": 6479,
      "ĠMet": 6480,
      "ĠMass": 6481,
      "ĠMitch": 6482,
      "ĠNic": 6483,
      "ĠBM": 6484,
      "ĠBÃªn": 6485,
      "ĠloÃ©": 6486,
      "ĠHom": 6487,
      "ene": 6488,
      "ĠAng": 6489,
      "ĠAsh": 6490,
      "ĠArab": 6491,
      "Ġkhá»Ŀ": 6492,
      "ĠSylvia": 6493,
      "Ġphthalate": 6494,
      "ĠLi": 6495,
      "áº¹o": 6496,
      "Ġ34": 6497,
      "ĠTranh": 6498,
      "ĠDÄ©": 6499,
      "ĠDoh": 6500,
      "ĠDav": 6501,
      "ori": 6502,
      "Ġthuá»Ł": 6503,
      "imee": 6504,
      "iÃªt": 6505,
      "ĠIP": 6506,
      "Tháº¥y": 6507,
      "ĠVer": 6508,
      "Ġ450": 6509,
      "ĠJerry": 6510,
      "ĠWill": 6511,
      "ĠFGM": 6512,
      "Ġláº¡y": 6513,
      "ĠThÆ°": 6514,
      "ĠOn": 6515,
      "ĠOreg": 6516,
      "ĠChad": 6517,
      "lipp": 6518,
      "thew": 6519,
      "opy": 6520,
      "able": 6521,
      "inea": 6522,
      "illa": 6523,
      "aza": 6524,
      "ĠConn": 6525,
      "iva": 6526,
      "ĠArch": 6527,
      "Ġtháº¡c": 6528,
      "ĠIsland": 6529,
      "Ġ1997": 6530,
      "allon": 6531,
      "ĠCháº¿t": 6532,
      "ĠGeographic": 6533,
      "ĠMcG": 6534,
      "ĠMcK": 6535,
      "athon": 6536,
      "ĠPhÆ°á»£ng": 6537,
      "ĠbuÃ´ng": 6538,
      "ĠBlue": 6539,
      "ToÃł": 6540,
      "Ġkhuya": 6541,
      "ĠGreat": 6542,
      "ĠBeach": 6543,
      "ĠBenjamin": 6544,
      "ĠOkay": 6545,
      "ĠJulian": 6546,
      "ĠToronto": 6547,
      "ĠGrand": 6548,
      "ĠGuinea": 6549,
      "ĠTesla": 6550,
      "ĠPeru": 6551,
      "ĠShir": 6552,
      "aghetti": 6553,
      "Ġmarathon": 6554,
      "ĠEuropa": 6555,
      "Ġspaghetti": 6556,
      "ĠthÃªu": 6557,
      "otonin": 6558,
      "ĠFried": 6559,
      "ĠTaylor": 6560,
      "ĠJefferson": 6561,
      "ĠKatrina": 6562,
      "ĠJordan": 6563,
      "ĠBhutan": 6564,
      "ĠFOXO": 6565,
      "ĠBertie": 6566,
      "ĠHawking": 6567,
      "timore": 6568,
      "ĠDiego": 6569,
      "couver": 6570,
      "ĠhÆ°Æ¡u": 6571,
      "Ġpassword": 6572,
      "ĠDoha": 6573,
      "ĠOregon": 6574,
      "11": 6575,
      "75": 6576,
      "Fran": 6577,
      "LÆ°á»£ng": 6578,
      "Mong": 6579,
      "Niá»ģm": 6580,
      "SE": 6581,
      "Sai": 6582,
      "TÃłi": 6583,
      "Tiá»ģn": 6584,
      "Vi": 6585,
      "Xe": 6586,
      "XÃ©t": 6587,
      "bá»ĳn": 6588,
      "cÃ¡i": 6589,
      "eng": 6590,
      "eff": 6591,
      "fred": 6592,
      "ject": 6593,
      "ko": 6594,
      "ráº±ng": 6595,
      "rit": 6596,
      "tá»«": 6597,
      "¡y": 6598,
      "ĠÆ°á»Ľp": 6599,
      "áº¢": 6600,
      "Ġtem": 6601,
      "Ġteen": 6602,
      "ngh": 6603,
      "ĠcÃµi": 6604,
      "ĠÄĳiá»ģm": 6605,
      "ĠÄĳáº«m": 6606,
      "ĠÄĳáº¥ng": 6607,
      "ĠnÃ´i": 6608,
      "ĠnÃ´n": 6609,
      "Ġnáº·n": 6610,
      "ĠvÃ³c": 6611,
      "Ġlon": 6612,
      "Ġlink": 6613,
      "Ġmiá»ĩt": 6614,
      "Ġbáº§n": 6615,
      "ĠkiÃªm": 6616,
      "Ġsáº£y": 6617,
      "Ġsáº¥m": 6618,
      "Ġtro": 6619,
      "ĠtrÃ¢u": 6620,
      "Ġnguyá»ģn": 6621,
      "Ġgá»Łi": 6622,
      "ĠrÃłnh": 6623,
      "Ġráº¡ng": 6624,
      "Ġráº¡ch": 6625,
      "Ġprog": 6626,
      "Ġdáº«u": 6627,
      "ĠcÃ¡u": 6628,
      "Ġnhá»ķ": 6629,
      "Ġchá»ĩch": 6630,
      "otos": 6631,
      "anon": 6632,
      "anic": 6633,
      "ĠTiÃªn": 6634,
      "Ġhoáº¡n": 6635,
      "onacc": 6636,
      "ÄĲá»Ļ": 6637,
      "ÄĲáº¥t": 6638,
      "ĠCP": 6639,
      "ĠCao": 6640,
      "ĠCen": 6641,
      "ĠCur": 6642,
      "Ġsá»¡": 6643,
      "Nhiá»ĩm": 6644,
      "Ġtop": 6645,
      "ĠMÃ´i": 6646,
      "ĠMÃª": 6647,
      "ĠMoh": 6648,
      "ĠBiá»ĥn": 6649,
      "ĠBlo": 6650,
      "ĠHim": 6651,
      "ĠHáº¯n": 6652,
      "ĠHall": 6653,
      "ĠÄĲáº·c": 6654,
      "ĠAur": 6655,
      "ĠSÃ¡ng": 6656,
      "ĠcÆ¡m": 6657,
      "Ġphu": 6658,
      "ĠPier": 6659,
      "ĠKib": 6660,
      "ĠLÃ¢m": 6661,
      "Ġtrá»įt": 6662,
      "ĠGá»Ńi": 6663,
      "ĠGeh": 6664,
      "ĠTrÄĥng": 6665,
      "ĠTreas": 6666,
      "Ġxuáº©n": 6667,
      "ĠDÃłn": 6668,
      "TrÃ²": 6669,
      "alore": 6670,
      "ĠviÃª": 6671,
      "osh": 6672,
      "ĠRa": 6673,
      "ĠRod": 6674,
      "Ġthoa": 6675,
      "eta": 6676,
      "etown": 6677,
      "NgÃ¢n": 6678,
      "ĠIm": 6679,
      "Ġ54": 6680,
      "Ġrá»¥ng": 6681,
      "Ġ4000": 6682,
      "ĠQaeda": 6683,
      "ĠJan": 6684,
      "ĠJess": 6685,
      "app": 6686,
      "ita": 6687,
      "ĠFib": 6688,
      "ĠFBI": 6689,
      "Ġ2020": 6690,
      "ĠNguyÃªn": 6691,
      "act": 6692,
      "ĠChuyáº¿n": 6693,
      "Ġ77": 6694,
      "Ġ82": 6695,
      "Ġ97": 6696,
      "oir": 6697,
      "rie": 6698,
      "ĠÄĲá»Ŀi": 6699,
      "ideo": 6700,
      "ĠStir": 6701,
      "ĠState": 6702,
      "rane": 6703,
      "ĠUN": 6704,
      "ĠUkr": 6705,
      "agan": 6706,
      "ager": 6707,
      "Ġ125": 6708,
      "abad": 6709,
      "ĠAllen": 6710,
      "Tá»ī": 6711,
      "oul": 6712,
      "owitz": 6713,
      "Ġfile": 6714,
      "ChÃ¢n": 6715,
      "Ġcanxi": 6716,
      "ĠArt": 6717,
      "awa": 6718,
      "Ġ1992": 6719,
      "ĠEmily": 6720,
      "ĠhÃ£nh": 6721,
      "ĠxÃŃt": 6722,
      "ĠMcDonald": 6723,
      "athem": 6724,
      "ĠBá»Ŀ": 6725,
      "ĠRoss": 6726,
      "ĠBangalore": 6727,
      "Ná»Ĺi": 6728,
      "ĠSchw": 6729,
      "eeney": 6730,
      "ĠSteven": 6731,
      "ĠNghÄ©a": 6732,
      "ĠRome": 6733,
      "Ġshock": 6734,
      "ĠGrace": 6735,
      "ĠVenez": 6736,
      "Dá»¯": 6737,
      "ĠmicroRNA": 6738,
      "ĠVancouver": 6739,
      "ĠWarren": 6740,
      "ĠPlato": 6741,
      "Ġserotonin": 6742,
      "ĠKyoto": 6743,
      "Ġneuron": 6744,
      "ĠBaltimore": 6745,
      "KhÃ³": 6746,
      "Ġcalo": 6747,
      "Ġmá»ĭn": 6748,
      "Ġmetan": 6749,
      "ĠWalker": 6750,
      "ĠLawrence": 6751,
      "ĠRoger": 6752,
      "ĠNairobi": 6753,
      "ĠLebanon": 6754,
      "ĠOakland": 6755,
      "ĠTunis": 6756,
      "onacci": 6757,
      "ĠHimalay": 6758,
      "ĠTreasure": 6759,
      "ĠVenezuela": 6760,
      "60": 6761,
      "600": 6762,
      "AG": 6763,
      "BÃ¬nh": 6764,
      "Buá»ķi": 6765,
      "CE": 6766,
      "Di": 6767,
      "Eric": 6768,
      "GG": 6769,
      "Hiá»ĩu": 6770,
      "Ju": 6771,
      "Ken": 6772,
      "LuáºŃt": 6773,
      "LÃ²ng": 6774,
      "LuÃ´n": 6775,
      "MÃ¬nh": 6776,
      "Matt": 6777,
      "Nam": 6778,
      "Sam": 6779,
      "Táº¡o": 6780,
      "VÃ¹ng": 6781,
      "ire": 6782,
      "lÃª": 6783,
      "lav": 6784,
      "má»": 6785,
      "met": 6786,
      "va": 6787,
      "yo": 6788,
      "²m": 6789,
      "µng": 6790,
      "Ġ#": 6791,
      "ĠtÃº": 6792,
      "Ġcat": 6793,
      "ĠvÃª": 6794,
      "Ġláº©n": 6795,
      "Ġmá»Ļi": 6796,
      "ĠmÃºt": 6797,
      "Ġbáº¡t": 6798,
      "Ġsáº£i": 6799,
      "ĠsÃºt": 6800,
      "Ġsun": 6801,
      "ĠngÃ¡ch": 6802,
      "ĠgÃ²": 6803,
      "ĠgÃło": 6804,
      "ĠgÃ¡y": 6805,
      "Ġgallon": 6806,
      "Ġhun": 6807,
      "ĠrÆ°á»Łi": 6808,
      "Ġduá»Ĺi": 6809,
      "Ġdáº«m": 6810,
      "Ġtá»ĥ": 6811,
      "ĠquáºŃt": 6812,
      "ĠgiÃ²n": 6813,
      "ĠxÃ´ng": 6814,
      "ange": 6815,
      "Ġbá»¥c": 6816,
      "ĠTi": 6817,
      "ĠTy": 6818,
      "ĠTiáº¿p": 6819,
      "ĠTenn": 6820,
      "ĠTeh": 6821,
      "ÄĲÃ¢u": 6822,
      "ÄĲÆ°a": 6823,
      "ÄĲÃ¡m": 6824,
      "ĠMot": 6825,
      "ĠloÃł": 6826,
      "erb": 6827,
      "ĠHÃ¡t": 6828,
      "enberg": 6829,
      "ĠAaron": 6830,
      "ĠAimee": 6831,
      "ĠSil": 6832,
      "ĠSá»ĳng": 6833,
      "ĠSMS": 6834,
      "aren": 6835,
      "Ġyou": 6836,
      "Ġphai": 6837,
      "ĠPap": 6838,
      "ĠPink": 6839,
      "ĠPanth": 6840,
      "ĠPotter": 6841,
      "ĠKiáº¿n": 6842,
      "ĠKle": 6843,
      "ĠKeith": 6844,
      "ĠLim": 6845,
      "ĠLov": 6846,
      "ĠLock": 6847,
      "ĠGl": 6848,
      "ĠGan": 6849,
      "ĠGord": 6850,
      "ĠGaza": 6851,
      "ĠDol": 6852,
      "TrÃŃ": 6853,
      "ese": 6854,
      "ĠRáº±ng": 6855,
      "ĠRick": 6856,
      "ĠRuss": 6857,
      "Ġthoi": 6858,
      "NgÃ´i": 6859,
      "NgÃłi": 6860,
      "ĠIQ": 6861,
      "ĠIl": 6862,
      "ĠVol": 6863,
      "ĠVinc": 6864,
      "ition": 6865,
      "ĠFr": 6866,
      "ĠFellow": 6867,
      "ĠFDA": 6868,
      "ĠEc": 6869,
      "Thá»ĭ": 6870,
      "usd": 6871,
      "Ġ68": 6872,
      "EDI": 6873,
      "ĠnghÃªnh": 6874,
      "obyl": 6875,
      "obule": 6876,
      "ĠYale": 6877,
      "Ġ78": 6878,
      "lider": 6879,
      "rig": 6880,
      "rich": 6881,
      "riel": 6882,
      "ream": 6883,
      "Cheryl": 6884,
      "nett": 6885,
      "ĠStock": 6886,
      "ings": 6887,
      "ĠXÃ£": 6888,
      "ĠXÃ¢y": 6889,
      "aba": 6890,
      "ĠAlb": 6891,
      "Tá»©c": 6892,
      "aks": 6893,
      "Ġ404": 6894,
      "ĠMario": 6895,
      "Ġ110": 6896,
      "ibo": 6897,
      "mann": 6898,
      "manuel": 6899,
      "ife": 6900,
      "ecca": 6901,
      "ĠSher": 6902,
      "uce": 6903,
      "eech": 6904,
      "phen": 6905,
      "over": 6906,
      "ĠCá»ķ": 6907,
      "berry": 6908,
      "Ġquá»³": 6909,
      "ĠSaudi": 6910,
      "ĠJoel": 6911,
      "ĠBeat": 6912,
      "ĠJamai": 6913,
      "ĠWiki": 6914,
      "ernobyl": 6915,
      "Ġ1945": 6916,
      "ĠFranklin": 6917,
      "PhÃ¢n": 6918,
      "ĠSweeney": 6919,
      "ĠJonathan": 6920,
      "ĠGando": 6921,
      "ĠaxÃŃt": 6922,
      "ĠCAD": 6923,
      "Ġnitric": 6924,
      "ĠMurray": 6925,
      "Joe": 6926,
      "echn": 6927,
      "ĠDenis": 6928,
      "ĠnhÃºn": 6929,
      "Ġgluc": 6930,
      "ĠAmerican": 6931,
      "PhÃ¡t": 6932,
      "Ġhorm": 6933,
      "ĠSusan": 6934,
      "ĠDubai": 6935,
      "ĠCopernicus": 6936,
      "osaurus": 6937,
      "ĠOliver": 6938,
      "otoshop": 6939,
      "ĠFibonacci": 6940,
      "ĠStirling": 6941,
      "ĠTehran": 6942,
      "ĠPantheon": 6943,
      ".&": 6944,
      "45": 6945,
      "AV": 6946,
      "Am": 6947,
      "Báº£o": 6948,
      "BÃ¡o": 6949,
      "Cam": 6950,
      "Daniel": 6951,
      "Háº¡t": 6952,
      "Jon": 6953,
      "Jim": 6954,
      "Jenn": 6955,
      "Ká»": 6956,
      "MÆ°á»Ŀi": 6957,
      "Mart": 6958,
      "PH": 6959,
      "RC": 6960,
      "XÃ¢y": 6961,
      "báº±ng": 6962,
      "bin": 6963,
      "cháº": 6964,
      "let": 6965,
      "mail": 6966,
      "och": 6967,
      "pkins": 6968,
      "sia": 6969,
      "tz": 6970,
      "tic": 6971,
      "ww": 6972,
      "¡n": 6973,
      "£c": 6974,
      "µm": 6975,
      "ÃĶ": 6976,
      "Æł": 6977,
      "Ġ00": 6978,
      "ĠuyÃªn": 6979,
      "Ġáº£m": 6980,
      "áº¨n": 6981,
      "Ġter": 6982,
      "Ġcomp": 6983,
      "ĠÄĳÅ©a": 6984,
      "Ġná»įc": 6985,
      "ĠvÄĥng": 6986,
      "ĠvÃ£n": 6987,
      "Ġlanh": 6988,
      "Ġláº«m": 6989,
      "Ġmau": 6990,
      "Ġbiáº¿ng": 6991,
      "Ġson": 6992,
      "ĠsÆ°ng": 6993,
      "ĠgÃ¢n": 6994,
      "Ġgra": 6995,
      "Ġthá»¥c": 6996,
      "ĠrÃ¡n": 6997,
      "Ġdá»ĳt": 6998,
      "Ġchen": 6999,
      "Ġchuá»ĵng": 7000,
      "Ġhá»Ŀi": 7001,
      "Ġchá»Ńng": 7002,
      "Ġnháº£m": 7003,
      "ont": 7004,
      "Ġcháº¯t": 7005,
      "ĠnhÃ¬": 7006,
      "ĠMáº¯t": 7007,
      "ĠMed": 7008,
      "ĠMak": 7009,
      "ĠMeyer": 7010,
      "emala": 7011,
      "ĠNá»Ļi": 7012,
      "ĠBil": 7013,
      "ĠBah": 7014,
      "ĠHong": 7015,
      "ĠHÆ¡n": 7016,
      "ĠHáº§u": 7017,
      "ĠHas": 7018,
      "ĠÄĲÆ°á»Ŀng": 7019,
      "ĠÄĲáº¡t": 7020,
      "ĠAil": 7021,
      "ĠAli": 7022,
      "ĠSho": 7023,
      "ĠSáº¯p": 7024,
      "arry": 7025,
      "ĠPu": 7026,
      "ĠKay": 7027,
      "ĠLáº¡i": 7028,
      "ĠLen": 7029,
      "ĠLoÃłi": 7030,
      "ĠLike": 7031,
      "Ġngá»Ńa": 7032,
      "ĠGay": 7033,
      "ĠGáº§n": 7034,
      "ĠGer": 7035,
      "ĠGiÃª": 7036,
      "ĠTrÆ°á»Łng": 7037,
      "ĠDAR": 7038,
      "ĠÃ¡t": 7039,
      "esa": 7040,
      "esk": 7041,
      "Ãµm": 7042,
      "elli": 7043,
      "ĠIx": 7044,
      "Ġ53": 7045,
      "Ġ57": 7046,
      "ĠVÅ©": 7047,
      "ĠVik": 7048,
      "atz": 7049,
      "atemala": 7050,
      "Ġ47": 7051,
      "ĠJud": 7052,
      "Ġvá»¥ng": 7053,
      "ason": 7054,
      "oli": 7055,
      "ĠWh": 7056,
      "ĠEast": 7057,
      "ĠEss": 7058,
      "hoa": 7059,
      "oman": 7060,
      "ĠOtt": 7061,
      "urch": 7062,
      "ĠChÆ°Æ¡ng": 7063,
      "ĠChernobyl": 7064,
      "ĠYves": 7065,
      "ĠkÃ©n": 7066,
      "Ġ84": 7067,
      "rir": 7068,
      "rof": 7069,
      "Chá»©ng": 7070,
      "ĠStone": 7071,
      "aha": 7072,
      "thony": 7073,
      "ĠUCL": 7074,
      "aga": 7075,
      "Tá»«ng": 7076,
      "oux": 7077,
      "ĠNhiÃªn": 7078,
      "tral": 7079,
      "Ġfoot": 7080,
      "ĠMary": 7081,
      "extin": 7082,
      "ĠQuáº£n": 7083,
      "insky": 7084,
      "awi": 7085,
      "ĠVá»¥": 7086,
      "Bá»ı": 7087,
      "ĠCaltech": 7088,
      "ĠHarlem": 7089,
      "Ġ1989": 7090,
      "ĠSanta": 7091,
      "ambia": 7092,
      "ĠIrag": 7093,
      "Ġluáº©n": 7094,
      "ĠPalm": 7095,
      "ĠMoMA": 7096,
      "ĠKhoáº£ng": 7097,
      "ĠAbu": 7098,
      "astian": 7099,
      "oko": 7100,
      "ĠxÃ©n": 7101,
      "ĠJuli": 7102,
      "ĠFree": 7103,
      "ĠTora": 7104,
      "ThÃ¡ch": 7105,
      "Dá»ĭch": 7106,
      "vá»ģ": 7107,
      "ĠLatinh": 7108,
      "ĠJonas": 7109,
      "sterdam": 7110,
      "ĠWilliams": 7111,
      "ĠKhá»ĳi": 7112,
      "ĠWhite": 7113,
      "ĠTitus": 7114,
      "colate": 7115,
      "ĠLangley": 7116,
      "Speech": 7117,
      "ĠMozart": 7118,
      "Robert": 7119,
      "Ġpheromone": 7120,
      "ĠOprah": 7121,
      "shire": 7122,
      "ĠTahrir": 7123,
      "ĠPepsi": 7124,
      "ĠMitchell": 7125,
      "Ġprogeria": 7126,
      "ĠGehry": 7127,
      "ĠTenness": 7128,
      "ĠDolby": 7129,
      "Báº£y": 7130,
      "CP": 7131,
      "CÆ°á»Ŀi": 7132,
      "ChÃºc": 7133,
      "DR": 7134,
      "Dáº§u": 7135,
      "DÃ¹ng": 7136,
      "EG": 7137,
      "Hans": 7138,
      "IPA": 7139,
      "LÃªn": 7140,
      "Lee": 7141,
      "MÃ´i": 7142,
      "Má»Ł": 7143,
      "Máº¥t": 7144,
      "MED": 7145,
      "MRI": 7146,
      "SM": 7147,
      "TM": 7148,
      "TáºŃp": 7149,
      "Táº¡p": 7150,
      "Tho": 7151,
      "Talk": 7152,
      "ZK": 7153,
      "ban": 7154,
      "cÃ¢u": 7155,
      "cia": 7156,
      "jev": 7157,
      "kar": 7158,
      "key": 7159,
      "kansas": 7160,
      "lot": 7161,
      "mud": 7162,
      "moud": 7163,
      "ois": 7164,
      "sin": 7165,
      "stein": 7166,
      "sylv": 7167,
      "yon": 7168,
      "¡i": 7169,
      "¬a": 7170,
      "Ġar": 7171,
      "Ġis": 7172,
      "ĠÃºt": 7173,
      "Ġaw": 7174,
      "ım": 7175,
      "Ġtáº¥u": 7176,
      "ĠtÃºp": 7177,
      "ĠtuÃ´n": 7178,
      "Ġcá»Ļi": 7179,
      "ĠcáºŃt": 7180,
      "Ġcello": 7181,
      "Ġcopy": 7182,
      "ĠÄĳáº¥m": 7183,
      "Ġnung": 7184,
      "ĠnhÃºt": 7185,
      "Ġnoi": 7186,
      "ĠnÃ¡u": 7187,
      "ĠvÃ¡ng": 7188,
      "Ġláº§u": 7189,
      "ĠmÃŃ": 7190,
      "ĠsÃªn": 7191,
      "Ġsáº£o": 7192,
      "Ġtru": 7193,
      "ĠngÃ³": 7194,
      "ĠngÆ¡": 7195,
      "Ġngáº¥t": 7196,
      "Ġngáº¥m": 7197,
      "Ġgáº·t": 7198,
      "Ġrá»Ļ": 7199,
      "ĠrÆ¡": 7200,
      "Ġpen": 7201,
      "Ġdáº·n": 7202,
      "Ġnhoi": 7203,
      "ĠchiÃªu": 7204,
      "Ġthiá»ĥn": 7205,
      "Ġchá»¯ng": 7206,
      "ote": 7207,
      "ano": 7208,
      "any": 7209,
      "Ġgiá»Ł": 7210,
      "ĠTu": 7211,
      "ĠTá»Ń": 7212,
      "ĠTob": 7213,
      "ĠTarah": 7214,
      "ĠhoÃ¡n": 7215,
      "ĠhoÃ³c": 7216,
      "ĠcháºŃ": 7217,
      "ĠhÃ³t": 7218,
      "ĠCáº§n": 7219,
      "ĠCáº£nh": 7220,
      "ĠCoo": 7221,
      "ĠClo": 7222,
      "Ġháº±n": 7223,
      "Ġsá»¥c": 7224,
      "Ġsá»¥n": 7225,
      "Ġphá»ĵn": 7226,
      "Ġbá»ĭa": 7227,
      "Ġkhoáº£": 7228,
      "Ġkhoanh": 7229,
      "ĠkhoÃ¡t": 7230,
      "ĠNov": 7231,
      "ĠNBA": 7232,
      "ĠBo": 7233,
      "ĠBuá»ķi": 7234,
      "Ġloang": 7235,
      "ĠloÃ£ng": 7236,
      "ĠHi": 7237,
      "ĠHáº¡": 7238,
      "ĠÄĲáº¥y": 7239,
      "ĠSis": 7240,
      "ĠSara": 7241,
      "Ġdoo": 7242,
      "Ġyo": 7243,
      "ĠPy": 7244,
      "ĠPor": 7245,
      "ĠPas": 7246,
      "ĠKáº»": 7247,
      "ĠLáºŃp": 7248,
      "ĠLas": 7249,
      "Ġá»ľ": 7250,
      "ĠGit": 7251,
      "ĠGol": 7252,
      "ĠGri": 7253,
      "ĠGary": 7254,
      "ĠTriá»ĥn": 7255,
      "ĠDáº¡": 7256,
      "ĠDiana": 7257,
      "Trá»«": 7258,
      "ĠRyan": 7259,
      "eline": 7260,
      "ĠVua": 7261,
      "Ġrá»ĩ": 7262,
      "Ġrá»¥i": 7263,
      "Ġ41": 7264,
      "ĠÃģn": 7265,
      "asa": 7266,
      "aster": 7267,
      "ĠWoo": 7268,
      "ĠFed": 7269,
      "ĠEs": 7270,
      "ĠEcon": 7271,
      "leans": 7272,
      "ĠNgÆ°Æ¡i": 7273,
      "Ġ6000": 7274,
      "adi": 7275,
      "ĠOoh": 7276,
      "obo": 7277,
      "ĠChÆ°a": 7278,
      "ĠChen": 7279,
      "ĠTEDWomen": 7280,
      "ĠTEDMED": 7281,
      "ĠChÃ¢n": 7282,
      "Ġdaf": 7283,
      "Ġwatt": 7284,
      "Ġ10000": 7285,
      "ĠStein": 7286,
      "iger": 7287,
      "ingo": 7288,
      "ĠAlfred": 7289,
      "Tá»ĩ": 7290,
      "aki": 7291,
      "ough": 7292,
      "ĠKá»·": 7293,
      "ĠKá»ĥ": 7294,
      "umara": 7295,
      "ows": 7296,
      "icholas": 7297,
      "ĠChá»ĳng": 7298,
      "ĠThÃ¡p": 7299,
      "epler": 7300,
      "artz": 7301,
      "ĠArkansas": 7302,
      "ookie": 7303,
      "awatt": 7304,
      "ipp": 7305,
      "KhÃ¡i": 7306,
      "ĠHarry": 7307,
      "achus": 7308,
      "Phong": 7309,
      "Ġblogger": 7310,
      "ĠnhoÃ¡ng": 7311,
      "ĠColl": 7312,
      "ĠNhÃ³m": 7313,
      "ĠPhong": 7314,
      "inder": 7315,
      "ĠPalextin": 7316,
      "ĠRose": 7317,
      "etts": 7318,
      "ĠThÃŃ": 7319,
      "Nhá»Ľ": 7320,
      "ĠOrleans": 7321,
      "Ġ360": 7322,
      "ĠGuatemala": 7323,
      "ĠLiberia": 7324,
      "ĠSamuel": 7325,
      "Ġkáº½m": 7326,
      "ĠNorman": 7327,
      "untu": 7328,
      "ĠUnivers": 7329,
      "ĠMoses": 7330,
      "ĠOscar": 7331,
      "ĠMatthew": 7332,
      "Internet": 7333,
      "ĠIreland": 7334,
      "ĠLoan": 7335,
      "ĠGilbert": 7336,
      "ĠPennsylv": 7337,
      "ĠESG": 7338,
      "ĠBloom": 7339,
      "ĠviÃªc": 7340,
      "ĠAilen": 7341,
      "ĠEssex": 7342,
      "ĠToraja": 7343,
      "ĠTennessee": 7344,
      "ĠTarahumara": 7345,
      "ĠCooper": 7346,
      "ĠPennsylvania": 7347,
      "300": 7348,
      "98": 7349,
      "AS": 7350,
      "Bay": 7351,
      "BÃŃ": 7352,
      "DI": 7353,
      "Hz": 7354,
      "Há»Ļi": 7355,
      "Le": 7356,
      "PP": 7357,
      "Point": 7358,
      "Robot": 7359,
      "TD": 7360,
      "TÃ¬m": 7361,
      "Táº§m": 7362,
      "Tom": 7363,
      "Well": 7364,
      "Yeah": 7365,
      "box": 7366,
      "cm": 7367,
      "cam": 7368,
      "fli": 7369,
      "gg": 7370,
      "gen": 7371,
      "gie": 7372,
      "hr": 7373,
      "ios": 7374,
      "leton": 7375,
      "má»įi": 7376,
      "pson": 7377,
      "tail": 7378,
      "uch": 7379,
      "vi": 7380,
      "«m": 7381,
      "Ġest": 7382,
      "áº©ng": 7383,
      "ĠÄ©": 7384,
      "ĠÄĳáº£": 7385,
      "ĠÄĳong": 7386,
      "ĠÄĳÃ¹i": 7387,
      "Ġnáº¡i": 7388,
      "Ġneo": 7389,
      "Ġnáº¡t": 7390,
      "Ġnáº¥p": 7391,
      "ĠnÃ¡ch": 7392,
      "ĠnÃºm": 7393,
      "Ġváº¥p": 7394,
      "ĠlÃ¬nh": 7395,
      "Ġlá»ĳc": 7396,
      "Ġluá»ĵn": 7397,
      "ĠlÃ³ng": 7398,
      "Ġmem": 7399,
      "ĠmÄĥng": 7400,
      "Ã´c": 7401,
      "ĠsÃłnh": 7402,
      "ĠsÃ²": 7403,
      "ĠrÃ¢m": 7404,
      "Ġráº¯m": 7405,
      "Ġráº«y": 7406,
      "ĠdÃ©p": 7407,
      "Ġcá»£t": 7408,
      "ĠthuyÃªn": 7409,
      "Ġhá»īnh": 7410,
      "Ġxao": 7411,
      "ĠthÃ©t": 7412,
      "Ġchocolate": 7413,
      "che": 7414,
      "chi": 7415,
      "ĠTinh": 7416,
      "ĠTÃ¡m": 7417,
      "ĠTso": 7418,
      "Ġhop": 7419,
      "aire": 7420,
      "ĠhÃ¹": 7421,
      "ĠCa": 7422,
      "ĠCom": 7423,
      "ĠChÃºc": 7424,
      "Ġsá»§a": 7425,
      "Ġtour": 7426,
      "ĠMÃ£": 7427,
      "ĠMÆ°á»Ŀi": 7428,
      "ĠMÃłu": 7429,
      "ĠMathem": 7430,
      "ĠkhoÃ©": 7431,
      "ĠNar": 7432,
      "ĠNÃ£o": 7433,
      "ĠBy": 7434,
      "ĠBÃ³ng": 7435,
      "ĠBow": 7436,
      "erat": 7437,
      "ĠHot": 7438,
      "ĠHiá»ĩu": 7439,
      "ĠHamp": 7440,
      "aman": 7441,
      "ĠÄĲÃ¢u": 7442,
      "ĠÄĲá»Ļc": 7443,
      "ĠAz": 7444,
      "ĠAye": 7445,
      "ĠSá»Ł": 7446,
      "ĠSá»¹": 7447,
      "ĠSÃ¡ch": 7448,
      "ĠSri": 7449,
      "ĠSOPA": 7450,
      "ĠPic": 7451,
      "ĠPart": 7452,
      "ĠPost": 7453,
      "ĠKÃ´ng": 7454,
      "ĠKer": 7455,
      "ĠKiá»ĥm": 7456,
      "ĠKent": 7457,
      "ĠLab": 7458,
      "ĠLev": 7459,
      "ĠLáº¡y": 7460,
      "Ġvá»ĭn": 7461,
      "Ġá»Ŀ": 7462,
      "Ġngá»Ŀi": 7463,
      "ĠGG": 7464,
      "ĠGraham": 7465,
      "ĠDai": 7466,
      "ĠDiá»ħn": 7467,
      "ĠDor": 7468,
      "ĠDun": 7469,
      "ĠRu": 7470,
      "ĠRow": 7471,
      "ĠRiv": 7472,
      "elt": 7473,
      "elle": 7474,
      "ets": 7475,
      "ĠIK": 7476,
      "ats": 7477,
      "atica": 7478,
      "Ġrá»£": 7479,
      "icut": 7480,
      "ĠJar": 7481,
      "ilot": 7482,
      "iley": 7483,
      "its": 7484,
      "ites": 7485,
      "itra": 7486,
      "ĠWin": 7487,
      "ĠWood": 7488,
      "ĠFound": 7489,
      "ĠEng": 7490,
      "hod": 7491,
      "Ġ67": 7492,
      "adore": 7493,
      "Ġvá»ĩt": 7494,
      "ĠThula": 7495,
      "ĠOl": 7496,
      "ĠHopkins": 7497,
      "Ġ76": 7498,
      "ĠTEDTalk": 7499,
      "ebastian": 7500,
      "Ġ94": 7501,
      "Giá»¯a": 7502,
      "Tham": 7503,
      "Ġwater": 7504,
      "Chu": 7505,
      "Chuyáº¿n": 7506,
      "ĠIntel": 7507,
      "Ġ1500": 7508,
      "ĠnghiÃ£": 7509,
      "agu": 7510,
      "ĠbÃŃp": 7511,
      "eyn": 7512,
      "ĠAll": 7513,
      "ĠAlan": 7514,
      "ĠThá»Ń": 7515,
      "out": 7516,
      "Ġ1800": 7517,
      "Hoáº¡t": 7518,
      "trol": 7519,
      "ĠMaryl": 7520,
      "ĠMarsh": 7521,
      "ĠChá»Ŀ": 7522,
      "ĠChá»©c": 7523,
      "Pháº£n": 7524,
      "Ġtháº§u": 7525,
      "ĠBrand": 7526,
      "ĠBrad": 7527,
      "ĠBruce": 7528,
      "ĠShah": 7529,
      "ĠCarr": 7530,
      "ĠCarter": 7531,
      "ĠJohns": 7532,
      "Ġ2013": 7533,
      "KhÃ¡c": 7534,
      "Ġgamma": 7535,
      "ĠAmsterdam": 7536,
      "eek": 7537,
      "ĠLanka": 7538,
      "Ġ1985": 7539,
      "Ġ1988": 7540,
      "ĠSci": 7541,
      "annah": 7542,
      "ambi": 7543,
      "oga": 7544,
      "ogy": 7545,
      "itha": 7546,
      "oyager": 7547,
      "ĠBarb": 7548,
      "ĠBarack": 7549,
      "ToÃ¡n": 7550,
      "ĠBeau": 7551,
      "astle": 7552,
      "ĠCraig": 7553,
      "oke": 7554,
      "ĠAndr": 7555,
      "ĠMalay": 7556,
      "ĠJulie": 7557,
      "NháºŃn": 7558,
      "ĠLibya": 7559,
      "ĠBrowne": 7560,
      "ĠChristopher": 7561,
      "ĠPalestin": 7562,
      "ĠKarl": 7563,
      "ĠGoering": 7564,
      "ĠAhmed": 7565,
      "ecticut": 7566,
      "dyss": 7567,
      "Ġngá»«Æ¡i": 7568,
      "Stephen": 7569,
      "ĠBayes": 7570,
      "ĠSioux": 7571,
      "ĠMiller": 7572,
      "colm": 7573,
      "Ġmilimet": 7574,
      "ĠIráº¯c": 7575,
      "ĠYoung": 7576,
      "stone": 7577,
      "ĠWeibo": 7578,
      "ĠAustr": 7579,
      "moor": 7580,
      "ĠPowerPoint": 7581,
      "ĠHiroshi": 7582,
      "holm": 7583,
      "ĠScratch": 7584,
      "ĠConnecticut": 7585,
      "ĠKibera": 7586,
      "ĠJamaica": 7587,
      "Ġglucose": 7588,
      "ĠUCLA": 7589,
      "ĠFreeSpeech": 7590,
      "jevo": 7591,
      "lotte": 7592,
      "ĠcháºŃu": 7593,
      "Ġrá»ĩp": 7594,
      "achusetts": 7595,
      "flix": 7596,
      "ĠMathematica": 7597,
      "ĠMaryland": 7598,
      "16": 7599,
      "AT": 7600,
      "Be": 7601,
      "Buá»ĵn": 7602,
      "Bob": 7603,
      "Ca": 7604,
      "CÆ¡n": 7605,
      "CÃº": 7606,
      "Diá»ħn": 7607,
      "Google": 7608,
      "KB": 7609,
      "Miá»ħn": 7610,
      "OC": 7611,
      "OS": 7612,
      "Qaeda": 7613,
      "SF": 7614,
      "Sáº£n": 7615,
      "VÃ¢y": 7616,
      "aa": 7617,
      "bes": 7618,
      "cáº£m": 7619,
      "cop": 7620,
      "dit": 7621,
      "eus": 7622,
      "horn": 7623,
      "kh": 7624,
      "lau": 7625,
      "mÃ©t": 7626,
      "mond": 7627,
      "minder": 7628,
      "oon": 7629,
      "ráº¥t": 7630,
      "ress": 7631,
      "su": 7632,
      "táº¡i": 7633,
      "uh": 7634,
      "uchia": 7635,
      "vin": 7636,
      "wa": 7637,
      "west": 7638,
      "wait": 7639,
      "xter": 7640,
      "©y": 7641,
      "Ã©c": 7642,
      "Ã§a": 7643,
      "ĠÆ°Æ¡m": 7644,
      "ķng": 7645,
      "Ġcáº·n": 7646,
      "Ġcock": 7647,
      "ĠÄĳáº§n": 7648,
      "ĠÄĳÆ°á»Ľc": 7649,
      "Ġvon": 7650,
      "Ġváº¡t": 7651,
      "ĠvÆ°á»£n": 7652,
      "ĠlÆ°": 7653,
      "Ġlá»Ł": 7654,
      "Ġmeg": 7655,
      "ĠbÃ´": 7656,
      "Ġsuyá»ħn": 7657,
      "ĠtrÆ¡": 7658,
      "ĠtrÆ°á»Ľng": 7659,
      "ĠngÃł": 7660,
      "ĠngÃµ": 7661,
      "ĠngÃ³c": 7662,
      "ĠngÃ²i": 7663,
      "Ġngáº©ng": 7664,
      "Ġráº§u": 7665,
      "Ġráº§m": 7666,
      "Ġpar": 7667,
      "Ġdáº¿": 7668,
      "Ġdem": 7669,
      "Ġdáº¡t": 7670,
      "Ġdáº±n": 7671,
      "ĠÄĳá»ħ": 7672,
      "Ġcá»ıi": 7673,
      "Ġcá»ĵng": 7674,
      "Ġquáº·ng": 7675,
      "ĠgiÃ´ng": 7676,
      "ĠmÃło": 7677,
      "ĠTáºŃp": 7678,
      "ĠTar": 7679,
      "ĠTáº¡m": 7680,
      "oney": 7681,
      "ĠkhÃ¡nh": 7682,
      "ĠcháºŃp": 7683,
      "ĠchÃ¨o": 7684,
      "ĠchÃ¨n": 7685,
      "ĠhÃª": 7686,
      "ĠhÃ³m": 7687,
      "ÄĲá»Ļi": 7688,
      "Ġná»ĥ": 7689,
      "ĠCá»ĳ": 7690,
      "ĠCro": 7691,
      "ĠCIA": 7692,
      "ĠMÃły": 7693,
      "ĠMen": 7694,
      "ĠMid": 7695,
      "ĠMir": 7696,
      "ĠMBA": 7697,
      "hio": 7698,
      "ĠNI": 7699,
      "ĠNi": 7700,
      "ĠBÃ¡o": 7701,
      "ĠBach": 7702,
      "Ġloanh": 7703,
      "ĠHá»ĵ": 7704,
      "ĠHaz": 7705,
      "ĠHut": 7706,
      "ĠHind": 7707,
      "ĠÄĲá»ĳc": 7708,
      "ĠSa": 7709,
      "ĠSai": 7710,
      "ĠSel": 7711,
      "iag": 7712,
      "ars": 7713,
      "arin": 7714,
      "Ġyoga": 7715,
      "Ġphiá»ĩt": 7716,
      "ĠPan": 7717,
      "ĠPit": 7718,
      "ĠPur": 7719,
      "ĠPIPA": 7720,
      "ĠKos": 7721,
      "ĠKab": 7722,
      "ĠKiva": 7723,
      "ĠKepler": 7724,
      "ĠLá»Ŀi": 7725,
      "ĠLimb": 7726,
      "Ġngá»£m": 7727,
      "ĠGul": 7728,
      "ĠTrÃŃ": 7729,
      "ĠDanh": 7730,
      "ĠDave": 7731,
      "oro": 7732,
      "Truyá»ģn": 7733,
      "alie": 7734,
      "osev": 7735,
      "ely": 7736,
      "etas": 7737,
      "Ngoáº¡i": 7738,
      "ĠImp": 7739,
      "Tháº§y": 7740,
      "ĠVáº«n": 7741,
      "atÃ´ng": 7742,
      "atma": 7743,
      "ise": 7744,
      "icerat": 7745,
      "ĠJean": 7746,
      "ĠJustin": 7747,
      "ape": 7748,
      "apminder": 7749,
      "ĠÃįt": 7750,
      "itic": 7751,
      "ĠWy": 7752,
      "ĠWis": 7753,
      "ĠWind": 7754,
      "Ġ1991": 7755,
      "Ġ1993": 7756,
      "lev": 7757,
      "ĠNguá»ĵn": 7758,
      "ady": 7759,
      "ĠThanh": 7760,
      "ĠOxy": 7761,
      "ĠOdyss": 7762,
      "urn": 7763,
      "Ġ7000": 7764,
      "Ġ89": 7765,
      "ĠTEDster": 7766,
      "ĠchÃ¡nh": 7767,
      "Thuá»ĳc": 7768,
      "unch": 7769,
      "roÃ§a": 7770,
      "ĠÄĲá»£i": 7771,
      "reat": 7772,
      "ĠInst": 7773,
      "ĠStand": 7774,
      "ĠXáº¿p": 7775,
      "aby": 7776,
      "ĠThá»ĭ": 7777,
      "Äĳáº¿n": 7778,
      "hane": 7779,
      "ĠGiao": 7780,
      "ĠchÃ³t": 7781,
      "owan": 7782,
      "iflu": 7783,
      "ĠQuáº£": 7784,
      "Giao": 7785,
      "ĠShar": 7786,
      "Ġproton": 7787,
      "ipcar": 7788,
      "ĠHarris": 7789,
      "phua": 7790,
      "ovo": 7791,
      "Ġruá»Ļng": 7792,
      "Ġ1986": 7793,
      "ĠChild": 7794,
      "ĠScoop": 7795,
      "ĠBaxter": 7796,
      "nÃ³i": 7797,
      "asso": 7798,
      "ĠRobinson": 7799,
      "ĠCharlotte": 7800,
      "ĠMonter": 7801,
      "ĠGreg": 7802,
      "ortis": 7803,
      "Ġmá»ĵm": 7804,
      "ĠLá»ħ": 7805,
      "ĠNauy": 7806,
      "organ": 7807,
      "Ġ1940": 7808,
      "ĠIndiana": 7809,
      "ĠDiet": 7810,
      "uke": 7811,
      "ĠGuard": 7812,
      "ĠLibÄĥng": 7813,
      "ĠWalmart": 7814,
      "ĠCoch": 7815,
      "ĠDá»ĭch": 7816,
      "ĠBonnet": 7817,
      "rogen": 7818,
      "everly": 7819,
      "ĠmaratÃ´ng": 7820,
      "ĠWilson": 7821,
      "ĠMelinda": 7822,
      "Carol": 7823,
      "ĠTamiflu": 7824,
      "ĠJacqu": 7825,
      "ĠLinux": 7826,
      "ĠNoel": 7827,
      "ĠPhillip": 7828,
      "Ġeuro": 7829,
      "ĠBroadmoor": 7830,
      "NCRA": 7831,
      "ĠGrant": 7832,
      "ĠqÃºi": 7833,
      "Ġchá»Ļp": 7834,
      "ĠHomo": 7835,
      "ĠCentral": 7836,
      "ĠMoham": 7837,
      "má»Ĺi": 7838,
      "Ġcatadore": 7839,
      "ĠPapua": 7840,
      "ĠBahamas": 7841,
      "ĠIxaren": 7842,
      "ĠSarajevo": 7843,
      "ĠEconom": 7844,
      "ĠIKEA": 7845,
      "ĠFoundation": 7846,
      "ĠMalaysia": 7847,
      "ĠAustralia": 7848,
      "Ġcocktail": 7849,
      "iceratops": 7850,
      "24": 7851,
      "29": 7852,
      "AA": 7853,
      "Ah": 7854,
      "At": 7855,
      "Bon": 7856,
      "Báº¥y": 7857,
      "BÃ¡nh": 7858,
      "ET": 7859,
      "Fre": 7860,
      "Is": 7861,
      "Jeff": 7862,
      "Kevin": 7863,
      "Prin": 7864,
      "Quá»ĳc": 7865,
      "TB": 7866,
      "TH": 7867,
      "Tinh": 7868,
      "TiÃªu": 7869,
      "Ung": 7870,
      "Viá»ĩn": 7871,
      "VáºŃn": 7872,
      "Wow": 7873,
      "Yáº¿u": 7874,
      "bus": 7875,
      "cer": 7876,
      "eu": 7877,
      "fer": 7878,
      "fus": 7879,
      "gan": 7880,
      "gey": 7881,
      "gram": 7882,
      "hn": 7883,
      "hy": 7884,
      "ju": 7885,
      "jan": 7886,
      "kho": 7887,
      "lÃ´": 7888,
      "nd": 7889,
      "phÃ": 7890,
      "pin": 7891,
      "rl": 7892,
      "rett": 7893,
      "sá»±": 7894,
      "thia": 7895,
      "viá»ĩc": 7896,
      "val": 7897,
      "vet": 7898,
      "vent": 7899,
      "yota": 7900,
      "zero": 7901,
      "¢t": 7902,
      "Ġad": 7903,
      "Ġep": 7904,
      "Ķn": 7905,
      "ĠtÃºm": 7906,
      "ĠcÃ²": 7907,
      "Ġcoc": 7908,
      "Ġcortis": 7909,
      "ĠÄĳÄĥ": 7910,
      "ĠÄĳuá»": 7911,
      "Ġni": 7912,
      "ĠnÃ¨": 7913,
      "Ġlá»Ļc": 7914,
      "ĠlÃµm": 7915,
      "Ġbá»Ł": 7916,
      "Ġsh": 7917,
      "Ġsen": 7918,
      "Ġsal": 7919,
      "ĠtrÅ©ng": 7920,
      "Ġgt": 7921,
      "Ġganh": 7922,
      "Ġgeo": 7923,
      "ĠgÃ£i": 7924,
      "ĠhÅ©": 7925,
      "Ġthá»ģm": 7926,
      "Ãªt": 7927,
      "ĠrÃ¹ng": 7928,
      "ĠrÄĥn": 7929,
      "ĠrÃ³t": 7930,
      "Ġpa": 7931,
      "ĠdÃ³": 7932,
      "ĠdÃŃ": 7933,
      "ĠdiÃªm": 7934,
      "Ġnhan": 7935,
      "Ġnhen": 7936,
      "Ġvá»ĵng": 7937,
      "Ġvá»Ľt": 7938,
      "Ġchk": 7939,
      "Ġchang": 7940,
      "ĠchÆ°ng": 7941,
      "Ġchuá»ĵn": 7942,
      "Ġchat": 7943,
      "Ġnhá»ĳi": 7944,
      "Ġtá»£n": 7945,
      "ĠnÃłnh": 7946,
      "ĠquÃ¢y": 7947,
      "anistan": 7948,
      "Ġrain": 7949,
      "Ġgiá»ı": 7950,
      "Ġbá»«a": 7951,
      "ĠTÃłng": 7952,
      "ĠTÆ°á»Łng": 7953,
      "ĠTÃ¢n": 7954,
      "ĠTáº¡p": 7955,
      "aomi": 7956,
      "ĠnÄĥn": 7957,
      "ĠnhÃŃm": 7958,
      "ĠnhÃ³t": 7959,
      "Ġná»ī": 7960,
      "á»ĵn": 7961,
      "Nhiáº¿p": 7962,
      "Ġtoken": 7963,
      "ĠMP": 7964,
      "ĠMÃ´ng": 7965,
      "ĠMob": 7966,
      "ĠMell": 7967,
      "ĠMeg": 7968,
      "ĠMull": 7969,
      "his": 7970,
      "ĠNin": 7971,
      "ĠNÄĥng": 7972,
      "ĠNico": 7973,
      "ĠBP": 7974,
      "ĠBiáº¿n": 7975,
      "ĠBÃ¡n": 7976,
      "ĠBá»įn": 7977,
      "ĠBre": 7978,
      "ĠBBC": 7979,
      "ery": 7980,
      "ĠHit": 7981,
      "ĠHun": 7982,
      "ĠHum": 7983,
      "ĠÄĲÃ¡ng": 7984,
      "ĠAst": 7985,
      "ĠSI": 7986,
      "ĠSuy": 7987,
      "ĠSur": 7988,
      "ĠSolly": 7989,
      "arak": 7990,
      "ĠphÆ°á»Ľc": 7991,
      "ĠPC": 7992,
      "ĠPe": 7993,
      "ĠPac": 7994,
      "ĠPilot": 7995,
      "ĠKáº¿": 7996,
      "ĠKas": 7997,
      "ĠKid": 7998,
      "ĠKins": 7999
    },
    "merges": [
      [
        "á",
        "»"
      ],
      [
        "á",
        "º"
      ],
      [
        "Ġ",
        "t"
      ],
      [
        "n",
        "g"
      ],
      [
        "Ġ",
        "c"
      ],
      [
        "Ã",
        "ł"
      ],
      [
        "Ġ",
        "Ä"
      ],
      [
        "ĠÄ",
        "ĳ"
      ],
      [
        "Ġ",
        "n"
      ],
      [
        "h",
        "á»"
      ],
      [
        "h",
        "Ã"
      ],
      [
        "Ġ",
        "v"
      ],
      [
        "Ġ",
        "l"
      ],
      [
        "Æ",
        "°"
      ],
      [
        "Ġ",
        "m"
      ],
      [
        "Ġ",
        ","
      ],
      [
        "Ġ",
        "b"
      ],
      [
        "Ã",
        "³"
      ],
      [
        "Ġ",
        "."
      ],
      [
        "Ġ",
        "k"
      ],
      [
        "i",
        "á»"
      ],
      [
        "h",
        "áº"
      ],
      [
        "Ã",
        "´"
      ],
      [
        "Ã",
        "¡"
      ],
      [
        "n",
        "h"
      ],
      [
        "Ġ",
        "s"
      ],
      [
        "Ġt",
        "r"
      ],
      [
        "Æ°",
        "á»"
      ],
      [
        "áº",
        "¡"
      ],
      [
        "á»",
        "Ļ"
      ],
      [
        "Ġ",
        "ng"
      ],
      [
        "Ġ",
        "g"
      ],
      [
        "Ġl",
        "Ãł"
      ],
      [
        "áº",
        "¿"
      ],
      [
        "Ã´",
        "i"
      ],
      [
        "Ġv",
        "Ãł"
      ],
      [
        "Ġ",
        "h"
      ],
      [
        "Ġt",
        "há»"
      ],
      [
        "áº",
        "£"
      ],
      [
        "Ã",
        "ª"
      ],
      [
        "Ġ",
        "r"
      ],
      [
        "hÃ",
        "º"
      ],
      [
        "á»Ļ",
        "t"
      ],
      [
        "Ġ",
        "p"
      ],
      [
        "Ġ",
        "d"
      ],
      [
        "ĠÄĳ",
        "á»"
      ],
      [
        "Ġn",
        "h"
      ],
      [
        "Ġt",
        "Ã´i"
      ],
      [
        "q",
        "u"
      ],
      [
        "Ġc",
        "á»"
      ],
      [
        "Ġv",
        "á»"
      ],
      [
        "Ġm",
        "á»Ļt"
      ],
      [
        "áº",
        "¥"
      ],
      [
        "Ġc",
        "Ã³"
      ],
      [
        "Ġk",
        "hÃ"
      ],
      [
        "Ġc",
        "h"
      ],
      [
        "hÃº",
        "ng"
      ],
      [
        "Ãª",
        "n"
      ],
      [
        "Ġc",
        "Ã¡"
      ],
      [
        "Ġt",
        "h"
      ],
      [
        "Ã",
        "¬"
      ],
      [
        "¯",
        "ng"
      ],
      [
        "Ġn",
        "há»"
      ],
      [
        "á»",
        "ĳ"
      ],
      [
        "iá»",
        "ĩ"
      ],
      [
        "Ã",
        "¢"
      ],
      [
        "Ġ",
        "há»"
      ],
      [
        "Ŀ",
        "i"
      ],
      [
        "Æ",
        "¡"
      ],
      [
        "Ľ",
        "i"
      ],
      [
        "Ġnhá»",
        "¯ng"
      ],
      [
        "Ġt",
        "háº"
      ],
      [
        "Ġcá»",
        "§"
      ],
      [
        "Ġc",
        "hÃºng"
      ],
      [
        "Ġcá»§",
        "a"
      ],
      [
        "´",
        "ng"
      ],
      [
        "i",
        "áº¿"
      ],
      [
        "Ġt",
        "á»"
      ],
      [
        "áº¡",
        "n"
      ],
      [
        "Ġt",
        "a"
      ],
      [
        "Ã",
        "£"
      ],
      [
        "ĠcÃ¡",
        "c"
      ],
      [
        "Ġn",
        "Ãł"
      ],
      [
        "Ġ",
        "qu"
      ],
      [
        "iá»",
        "ģ"
      ],
      [
        "ĠkhÃ",
        "´ng"
      ],
      [
        "Æ°á»",
        "£"
      ],
      [
        "Ġn",
        "Ã³"
      ],
      [
        "á»",
        "Ł"
      ],
      [
        "áº",
        "§"
      ],
      [
        "o",
        "ng"
      ],
      [
        "áº",
        "Ń"
      ],
      [
        "Æ°á»",
        "Ŀi"
      ],
      [
        "á»",
        "±"
      ],
      [
        "Ġg",
        "i"
      ],
      [
        "ĠÄĳ",
        "Ã³"
      ],
      [
        "Ġ",
        "x"
      ],
      [
        "iá»ģ",
        "u"
      ],
      [
        "Ġng",
        "Æ°á»Ŀi"
      ],
      [
        "Ġb",
        "áº¡n"
      ],
      [
        "Ġk",
        "h"
      ],
      [
        "áº¥",
        "t"
      ],
      [
        "áº¡",
        "i"
      ],
      [
        "Ġtr",
        "ong"
      ],
      [
        "Ġthá»",
        "ĥ"
      ],
      [
        "Æ°á»£",
        "c"
      ],
      [
        "u",
        "y"
      ],
      [
        "ĠnÃł",
        "y"
      ],
      [
        "ĠÄĳ",
        "Ã£"
      ],
      [
        "Ġc",
        "há»"
      ],
      [
        "Ä",
        "ĥ"
      ],
      [
        "ĠÄĳ",
        "Æ°á»£c"
      ],
      [
        "Ġt",
        "hÃ"
      ],
      [
        "Ã¢",
        "y"
      ],
      [
        "Ġnh",
        "Æ°"
      ],
      [
        "Ġhá»",
        "į"
      ],
      [
        "o",
        "t"
      ],
      [
        "Ġ",
        "&"
      ],
      [
        "Ġp",
        "háº"
      ],
      [
        "Ġvá»",
        "Ľi"
      ],
      [
        "Ġng",
        "h"
      ],
      [
        "qu",
        "ot"
      ],
      [
        "Ġch",
        "o"
      ],
      [
        "a",
        "n"
      ],
      [
        "V",
        "Ãł"
      ],
      [
        "a",
        "y"
      ],
      [
        "Ġr",
        "a"
      ],
      [
        "Ġs",
        "áº"
      ],
      [
        "Ġs",
        "á»±"
      ],
      [
        "Ġg",
        "iá»"
      ],
      [
        "Ġm",
        "Ãł"
      ],
      [
        "ĠlÃł",
        "m"
      ],
      [
        "c",
        "h"
      ],
      [
        "Ã´",
        "ng"
      ],
      [
        "áº",
        "±"
      ],
      [
        "Ġn",
        "háº"
      ],
      [
        "a",
        "ng"
      ],
      [
        "Ġp",
        "hÃ"
      ],
      [
        "Ġ",
        "á»Ł"
      ],
      [
        "i",
        "Ãªn"
      ],
      [
        "á»",
        "į"
      ],
      [
        "áº±",
        "ng"
      ],
      [
        "ĠÄĳá»",
        "ĥ"
      ],
      [
        "Ġc",
        "áº£"
      ],
      [
        "Ġvá»",
        "ģ"
      ],
      [
        "Ã",
        "Ń"
      ],
      [
        "Ã¬",
        "nh"
      ],
      [
        "Ġsáº",
        "½"
      ],
      [
        "Ġb",
        "á»"
      ],
      [
        "u",
        "á»ĳ"
      ],
      [
        "iá»",
        "ĥ"
      ],
      [
        "Æ¡",
        "n"
      ],
      [
        "iáº¿",
        "t"
      ],
      [
        "£",
        "i"
      ],
      [
        "ĠÄĳ",
        "iá»ģu"
      ],
      [
        "Ä",
        "©"
      ],
      [
        "áº",
        "·"
      ],
      [
        "Ġtháº",
        "¿"
      ],
      [
        "Ġ",
        "T"
      ],
      [
        "Ġl",
        "á»"
      ],
      [
        "Ġh",
        "o"
      ],
      [
        "o",
        "n"
      ],
      [
        "Æ°á»",
        "Ľ"
      ],
      [
        "áº¿",
        "n"
      ],
      [
        "áº§",
        "u"
      ],
      [
        "Ġtá»",
        "«"
      ],
      [
        "áº",
        "¯"
      ],
      [
        "Ãł",
        "nh"
      ],
      [
        "Ġkh",
        "i"
      ],
      [
        "©",
        "ng"
      ],
      [
        "uy",
        "á»"
      ],
      [
        "a",
        "nh"
      ],
      [
        "ĠkhÃ",
        "¡"
      ],
      [
        "Ã",
        "¹"
      ],
      [
        "Ġs",
        "á»ĳ"
      ],
      [
        "i",
        "nh"
      ],
      [
        "±",
        "c"
      ],
      [
        "ĠnÃ³",
        "i"
      ],
      [
        "áº§",
        "n"
      ],
      [
        "a",
        "o"
      ],
      [
        "Ġd",
        "á»"
      ],
      [
        "a",
        "i"
      ],
      [
        "Ġc",
        "háº"
      ],
      [
        "©",
        "c"
      ],
      [
        "iá»ĩ",
        "n"
      ],
      [
        "Ġc",
        "hÃ"
      ],
      [
        "Ã",
        "º"
      ],
      [
        "Ġn",
        "Äĥ"
      ],
      [
        "ĠÄĳ",
        "áº¿n"
      ],
      [
        "Ġtháº",
        "¥"
      ],
      [
        "Ġ",
        "1"
      ],
      [
        "Ġ",
        "hÃ"
      ],
      [
        "Ġ",
        "?"
      ],
      [
        "Ġpháº",
        "£i"
      ],
      [
        "Ġn",
        "hÃ"
      ],
      [
        "iá»ĩ",
        "c"
      ],
      [
        "Æ°á»",
        "Ŀ"
      ],
      [
        "Æ°á»Ľ",
        "c"
      ],
      [
        "Ä",
        "Ĳ"
      ],
      [
        "Ã",
        "²"
      ],
      [
        "Ġr",
        "áº±ng"
      ],
      [
        "ĠvÃł",
        "o"
      ],
      [
        "Ġg",
        "Ã¬"
      ],
      [
        "Æ°á»Ŀ",
        "ng"
      ],
      [
        "ĠÄĳ",
        "ang"
      ],
      [
        "Ãł",
        "n"
      ],
      [
        "Ġm",
        "á»"
      ],
      [
        "Ġv",
        "iá»ĩc"
      ],
      [
        "a",
        "u"
      ],
      [
        "Ġl",
        "áº¡i"
      ],
      [
        "Ġv",
        "áºŃ"
      ],
      [
        "Ġtháº¥",
        "y"
      ],
      [
        "Ġngh",
        "Ä©"
      ],
      [
        "ĠÄĳ",
        "á»Ļ"
      ],
      [
        "Ġr",
        "áº¥t"
      ],
      [
        "ĠcÃ¡c",
        "h"
      ],
      [
        "Ã",
        "½"
      ],
      [
        "i",
        "n"
      ],
      [
        "Ġh",
        "Æ¡n"
      ],
      [
        "Ġn",
        "á»"
      ],
      [
        "áº¥",
        "y"
      ],
      [
        "Ġ",
        "C"
      ],
      [
        "Ġnh",
        "iá»ģu"
      ],
      [
        "Æ°",
        "Æ¡"
      ],
      [
        "Ãł",
        "i"
      ],
      [
        "¢",
        "n"
      ],
      [
        "Ġ",
        "háº"
      ],
      [
        "áº£",
        "n"
      ],
      [
        "Ã¹",
        "ng"
      ],
      [
        "Ġthá»",
        "±c"
      ],
      [
        "iáº¿",
        "n"
      ],
      [
        "ĠÄĳ",
        "áº§u"
      ],
      [
        "T",
        "Ã´i"
      ],
      [
        "Æ°Æ¡",
        "ng"
      ],
      [
        "¥",
        "t"
      ],
      [
        "ĠÄĳ",
        "Ã¢y"
      ],
      [
        "Ġ",
        "-"
      ],
      [
        "Ġhá»į",
        "c"
      ],
      [
        "Ġc",
        "on"
      ],
      [
        "ĠkhÃ¡",
        "c"
      ],
      [
        "ķ",
        "i"
      ],
      [
        "Ã¢",
        "u"
      ],
      [
        "á»į",
        "i"
      ],
      [
        "Ġchá»",
        "ī"
      ],
      [
        "áº¡",
        "o"
      ],
      [
        "Ġs",
        "á»"
      ],
      [
        "áº¿",
        "u"
      ],
      [
        "Ġc",
        "Ã´ng"
      ],
      [
        "Ġtr",
        "Ãªn"
      ],
      [
        "á»",
        "ĵ"
      ],
      [
        "ĠcÃ¡",
        "i"
      ],
      [
        "Ã¡",
        "c"
      ],
      [
        "ĠnÃł",
        "o"
      ],
      [
        "Ġb",
        "iáº¿t"
      ],
      [
        "áº¿",
        "t"
      ],
      [
        "Ġv",
        "Ã¬"
      ],
      [
        "ĠÄĳá»",
        "ģ"
      ],
      [
        "u",
        "ng"
      ],
      [
        "ĠchÃ",
        "Ń"
      ],
      [
        "uyá»",
        "ĩ"
      ],
      [
        "Ãł",
        "ng"
      ],
      [
        "Ġp",
        "há»"
      ],
      [
        "iá»ĩ",
        "u"
      ],
      [
        "ĠphÃ",
        "¡"
      ],
      [
        "N",
        "h"
      ],
      [
        "ĠnÄĥ",
        "m"
      ],
      [
        "Å",
        "©ng"
      ],
      [
        "Æ¡",
        "i"
      ],
      [
        "uá»ĳ",
        "n"
      ],
      [
        "ĠÄĳ",
        "i"
      ],
      [
        "Ġthá»",
        "©"
      ],
      [
        "Ġdá»",
        "¥"
      ],
      [
        "Ġth",
        "Ãłnh"
      ],
      [
        "á»Ļ",
        "c"
      ],
      [
        "Ġ",
        ":"
      ],
      [
        "Ġ-",
        "-"
      ],
      [
        "áº¯",
        "t"
      ],
      [
        "Æ°",
        "ng"
      ],
      [
        "Ġc",
        "Å©ng"
      ],
      [
        "Ġnh",
        "Ãł"
      ],
      [
        "C",
        "hÃºng"
      ],
      [
        "u",
        "á»Ļc"
      ],
      [
        "ĳ",
        "ng"
      ],
      [
        "Ġbá»",
        "ĭ"
      ],
      [
        "Ġt",
        "o"
      ],
      [
        "Ġ",
        "M"
      ],
      [
        "áº",
        "»"
      ],
      [
        "Ġqu",
        "an"
      ],
      [
        "Ġkh",
        "o"
      ],
      [
        "Ġm",
        "uá»ĳn"
      ],
      [
        "Ġs",
        "Ã¡"
      ],
      [
        "Ġtháº",
        "Ń"
      ],
      [
        "e",
        "o"
      ],
      [
        "e",
        "m"
      ],
      [
        "Ġnháº",
        "Ń"
      ],
      [
        "Ġm",
        "Ã¬nh"
      ],
      [
        "h",
        "i"
      ],
      [
        "Ġtr",
        "á»"
      ],
      [
        "¯",
        "a"
      ],
      [
        "Ġnháº",
        "¥t"
      ],
      [
        "Ġk",
        "á»"
      ],
      [
        "Nh",
        "Æ°ng"
      ],
      [
        "Ġ",
        "N"
      ],
      [
        "Æ°á»",
        "Ł"
      ],
      [
        "Ġt",
        "áº¡o"
      ],
      [
        "áº",
        "«"
      ],
      [
        "Æ°á»Ł",
        "ng"
      ],
      [
        "Ġ",
        "B"
      ],
      [
        "ĠÄĳá»Ļ",
        "ng"
      ],
      [
        "Ġt",
        "á»ĳ"
      ],
      [
        "Ġgiá»",
        "Ľi"
      ],
      [
        "ĠchÃŃ",
        "nh"
      ],
      [
        "ĠnhÆ°",
        "ng"
      ],
      [
        "Ġl",
        "o"
      ],
      [
        "Ġn",
        "Ãªn"
      ],
      [
        "Ġgi",
        "áº£"
      ],
      [
        "á»Ł",
        "i"
      ],
      [
        "ĠváºŃ",
        "y"
      ],
      [
        "áº·",
        "t"
      ],
      [
        "§",
        "n"
      ],
      [
        "ģ",
        "n"
      ],
      [
        "Ãł",
        "y"
      ],
      [
        "Ġlá»",
        "Ľ"
      ],
      [
        "¬",
        "nh"
      ],
      [
        "Ãª",
        "u"
      ],
      [
        "ĠhÃ",
        "¬nh"
      ],
      [
        "Æ°",
        "a"
      ],
      [
        "Ã²",
        "n"
      ],
      [
        "ı",
        "i"
      ],
      [
        "iá»ĥ",
        "u"
      ],
      [
        "Ġh",
        "iá»ĩn"
      ],
      [
        "Ġt",
        "ÃŃ"
      ],
      [
        "Ġgiá»",
        "Ŀ"
      ],
      [
        "Ã¢",
        "n"
      ],
      [
        "Ġsá»ĳ",
        "ng"
      ],
      [
        "uyá»ĩ",
        "n"
      ],
      [
        "Ġt",
        "iáº¿"
      ],
      [
        "Ġt",
        "áº¡i"
      ],
      [
        "ĠnháºŃ",
        "n"
      ],
      [
        "Ġm",
        "á»įi"
      ],
      [
        "Ã¡",
        "i"
      ],
      [
        "Æ°á»£",
        "ng"
      ],
      [
        "áº¥",
        "n"
      ],
      [
        "Ġn",
        "áº¿u"
      ],
      [
        "e",
        "r"
      ],
      [
        "u",
        "á»"
      ],
      [
        "Ġ",
        "H"
      ],
      [
        "¬",
        "n"
      ],
      [
        "Ġqu",
        "y"
      ],
      [
        "Ġc",
        "uá»Ļc"
      ],
      [
        "Ã",
        "©"
      ],
      [
        "Ġc",
        "áº§n"
      ],
      [
        "ĥ",
        "n"
      ],
      [
        "a",
        "m"
      ],
      [
        "Ġh",
        "ay"
      ],
      [
        "Ã¡",
        "n"
      ],
      [
        "Ġtá»",
        "±"
      ],
      [
        "áº·",
        "c"
      ],
      [
        "áºŃ",
        "p"
      ],
      [
        "u",
        "áºŃ"
      ],
      [
        "Ġ",
        "2"
      ],
      [
        "á»ĵ",
        "i"
      ],
      [
        "ĠthÃ",
        "¬"
      ],
      [
        "Ã¢",
        "m"
      ],
      [
        "ĠÄĳá»",
        "ĭ"
      ],
      [
        "0",
        "0"
      ],
      [
        "ĠÄ",
        "Ĳ"
      ],
      [
        "ĠÄĳá»",
        "ĵ"
      ],
      [
        "Ġt",
        "áº¥t"
      ],
      [
        "Ġ",
        "Ã´ng"
      ],
      [
        "Ġ",
        "áº¥y"
      ],
      [
        "e",
        "n"
      ],
      [
        "Ġtá»",
        "Ľi"
      ],
      [
        "Ġb",
        "á»Łi"
      ],
      [
        "Ġth",
        "eo"
      ],
      [
        "Ġb",
        "áº¯t"
      ],
      [
        "Ġc",
        "Ã²n"
      ],
      [
        "iá»ĥ",
        "m"
      ],
      [
        "ĠnhÃ",
        "¬n"
      ],
      [
        "Ġlá»Ľ",
        "n"
      ],
      [
        "Ġ",
        "A"
      ],
      [
        "ĠÄĳ",
        "Ã¡"
      ],
      [
        "Ġc",
        "Ã¹ng"
      ],
      [
        "áº«",
        "n"
      ],
      [
        "Ġb",
        "áº±ng"
      ],
      [
        "Ġ",
        "Ã½"
      ],
      [
        "Ġcáº£",
        "m"
      ],
      [
        "iá»ĥ",
        "n"
      ],
      [
        "Ġt",
        "áº¿"
      ],
      [
        "Ãº",
        "c"
      ],
      [
        "Ġdá»¥",
        "ng"
      ],
      [
        "Ġcá»",
        "©"
      ],
      [
        "Ġl",
        "Ãªn"
      ],
      [
        "ĠtháºŃ",
        "t"
      ],
      [
        "Ġs",
        "au"
      ],
      [
        "Ġgi",
        "Ã¡"
      ],
      [
        "Ġb",
        "áº£n"
      ],
      [
        "Ġc",
        "Ã¢u"
      ],
      [
        "Ġ",
        "anh"
      ],
      [
        "Ġt",
        "in"
      ],
      [
        "Ġs",
        "ao"
      ],
      [
        "Ġqu",
        "a"
      ],
      [
        "Ġthá»",
        "Ŀi"
      ],
      [
        "Ġch",
        "uyá»ĩn"
      ],
      [
        "Ġk",
        "há»"
      ],
      [
        "Ġtr",
        "á»Ł"
      ],
      [
        "Ġ",
        "S"
      ],
      [
        "iá»ĩ",
        "m"
      ],
      [
        "Ġb",
        "á»Ļ"
      ],
      [
        "Ã´",
        "n"
      ],
      [
        "ĠnhÃ",
        "¢n"
      ],
      [
        "Ġng",
        "Ãły"
      ],
      [
        "Ġc",
        "Æ¡"
      ],
      [
        "Ġhá»",
        "Ļ"
      ],
      [
        "Ġs",
        "inh"
      ],
      [
        "Äĥ",
        "n"
      ],
      [
        "Ġk",
        "háº"
      ],
      [
        "ĳ",
        "i"
      ],
      [
        "Ĺ",
        "i"
      ],
      [
        "¥",
        "c"
      ],
      [
        "ĠthÃ",
        "Ń"
      ],
      [
        "áº£",
        "ng"
      ],
      [
        "áº£",
        "nh"
      ],
      [
        "ĠnÄĥ",
        "ng"
      ],
      [
        "Ġsá»",
        "Ń"
      ],
      [
        "ĠphÃ¡",
        "t"
      ],
      [
        "Ġtr",
        "Æ°á»Ľc"
      ],
      [
        "Ġn",
        "Æ°á»Ľc"
      ],
      [
        "i",
        "a"
      ],
      [
        "ĠÄĳá»",
        "ķi"
      ],
      [
        "iá»ĩ",
        "t"
      ],
      [
        "Ġto",
        "Ãłn"
      ],
      [
        "Ġm",
        "Ã¡"
      ],
      [
        "Ã¬",
        "m"
      ],
      [
        "Ġpháº",
        "§n"
      ],
      [
        "Ġn",
        "Æ¡i"
      ],
      [
        "Ġgi",
        "a"
      ],
      [
        "Ġd",
        "o"
      ],
      [
        "ĠthÃ",
        "´ng"
      ],
      [
        "Ġd",
        "á»±"
      ],
      [
        "Ġnh",
        "au"
      ],
      [
        "Ġt",
        "Ã¬m"
      ],
      [
        "a",
        "r"
      ],
      [
        "Ġmá»",
        "Ľi"
      ],
      [
        "Ġth",
        "ay"
      ],
      [
        "Ġ",
        "y"
      ],
      [
        "Ġv",
        "áº¥n"
      ],
      [
        "ĠÄĳá»ĭ",
        "nh"
      ],
      [
        "Ġhá»",
        "ĩ"
      ],
      [
        "Ġtr",
        "Æ°á»Ŀng"
      ],
      [
        "Ġng",
        "há»"
      ],
      [
        "Ġnh",
        "iÃªn"
      ],
      [
        "ĠtÃŃ",
        "nh"
      ],
      [
        "Ġp",
        "h"
      ],
      [
        "iá»",
        "ħ"
      ],
      [
        "Ġtr",
        "Ã¬nh"
      ],
      [
        "Ġm",
        "áº¡"
      ],
      [
        "Ġtá»ĳ",
        "t"
      ],
      [
        "Ġt",
        "Æ°á»Łng"
      ],
      [
        "Ġk",
        "áº¿t"
      ],
      [
        "Äĥ",
        "ng"
      ],
      [
        "ĠváºŃ",
        "t"
      ],
      [
        "Ġl",
        "Ã½"
      ],
      [
        "Ġh",
        "Ãłng"
      ],
      [
        "Ġhá»",
        "ıi"
      ],
      [
        "¿",
        "t"
      ],
      [
        "Ġ",
        "P"
      ],
      [
        "Ġháº",
        "¡"
      ],
      [
        "£",
        "p"
      ],
      [
        "Ġ",
        "K"
      ],
      [
        "á»±",
        "c"
      ],
      [
        "ĠmÃ¡",
        "y"
      ],
      [
        "Ġ",
        "áº£nh"
      ],
      [
        "á»ĳ",
        "i"
      ],
      [
        "uáºŃ",
        "t"
      ],
      [
        "ĠT",
        "Ã´i"
      ],
      [
        "ĠthÃ",
        "¡"
      ],
      [
        "Ġhá»",
        "£p"
      ],
      [
        "Ġ",
        "L"
      ],
      [
        "áº¡",
        "t"
      ],
      [
        "Ġm",
        "áº·t"
      ],
      [
        "¯",
        "c"
      ],
      [
        "N",
        "Ã³"
      ],
      [
        "Ġh",
        "Ãłnh"
      ],
      [
        "Ġtiáº¿",
        "p"
      ],
      [
        "Ġná»",
        "¯a"
      ],
      [
        "Ġk",
        "inh"
      ],
      [
        "ÄĲ",
        "Ã¢y"
      ],
      [
        "³",
        "ng"
      ],
      [
        "Ġgi",
        "an"
      ],
      [
        "Ġthá»",
        "©c"
      ],
      [
        "Ġhá»Ļ",
        "i"
      ],
      [
        "Ġtr",
        "á»į"
      ],
      [
        "Ġvá»",
        "ĭ"
      ],
      [
        "áºŃ",
        "y"
      ],
      [
        "Ġth",
        "iáº¿t"
      ],
      [
        "áº",
        "¹"
      ],
      [
        "Ãł",
        "o"
      ],
      [
        "Ġch",
        "iáº¿"
      ],
      [
        "áº¥",
        "u"
      ],
      [
        "uy",
        "Ãªn"
      ],
      [
        "Ń",
        "a"
      ],
      [
        "Ġ",
        "á»"
      ],
      [
        "Ġx",
        "em"
      ],
      [
        "Ġl",
        "iá»ĩu"
      ],
      [
        "Ġr",
        "á»ĵi"
      ],
      [
        "Ġtrá»į",
        "ng"
      ],
      [
        "Ġho",
        "Ã¡"
      ],
      [
        "uá»",
        "ķi"
      ],
      [
        "ĠthÃŃ",
        "ch"
      ],
      [
        "Ġc",
        "Ã´"
      ],
      [
        "áº",
        "©"
      ],
      [
        "áº£",
        "o"
      ],
      [
        "ĩ",
        "nh"
      ],
      [
        "ĠÄĳá»ĵ",
        "ng"
      ],
      [
        "iá»ħ",
        "n"
      ],
      [
        "Ġgiáº£",
        "i"
      ],
      [
        "i",
        "Ãªu"
      ],
      [
        "Ġtr",
        "áº»"
      ],
      [
        "Ġl",
        "Æ°á»£ng"
      ],
      [
        "Ġh",
        "ai"
      ],
      [
        "ĠÄĳ",
        "o"
      ],
      [
        "Ġqu",
        "Ã¡"
      ],
      [
        "Ġ",
        "ai"
      ],
      [
        "Ġng",
        "á»"
      ],
      [
        "Ġth",
        "Æ°á»Ŀng"
      ],
      [
        "Ġb",
        "áº¥t"
      ],
      [
        "ĠvÃł",
        "i"
      ],
      [
        "áº",
        "½"
      ],
      [
        "ĠÄĳá»ģ",
        "u"
      ],
      [
        "Ġt",
        "iÃªn"
      ],
      [
        "Ġ",
        "G"
      ],
      [
        "ĠÄĳá»",
        "ĳi"
      ],
      [
        "ĠsÃ¡",
        "ng"
      ],
      [
        "á»Ļ",
        "ng"
      ],
      [
        "Ġtr",
        "áº£"
      ],
      [
        "Ġh",
        "iá»ĥu"
      ],
      [
        "Ġt",
        "Ã¢m"
      ],
      [
        "Ġn",
        "ay"
      ],
      [
        "ÄĲ",
        "Ã³"
      ],
      [
        "Ġlo",
        "áº¡i"
      ],
      [
        "Ġgiá»",
        "ĳng"
      ],
      [
        "V",
        "Ã¬"
      ],
      [
        "áº£",
        "y"
      ],
      [
        "Ġl",
        "áº§n"
      ],
      [
        "Ġcá»©",
        "u"
      ],
      [
        "Ġt",
        "hÃº"
      ],
      [
        "Ġthá»",
        "ĳng"
      ],
      [
        "ĭ",
        "ch"
      ],
      [
        "Ġbá»",
        "ĩnh"
      ],
      [
        "Ġb",
        "ao"
      ],
      [
        "B",
        "áº¡n"
      ],
      [
        "Ġ",
        "3"
      ],
      [
        "Ã²",
        "ng"
      ],
      [
        "Ġv",
        "iÃªn"
      ],
      [
        "Ãº",
        "ng"
      ],
      [
        "£",
        "y"
      ],
      [
        "Ġnghá»",
        "ĩ"
      ],
      [
        "iá»ģ",
        "n"
      ],
      [
        "ĠÄĳ",
        "iá»ĥm"
      ],
      [
        "hÃº",
        "t"
      ],
      [
        "Ġng",
        "o"
      ],
      [
        "ĠnghÄ©",
        "a"
      ],
      [
        "Ġg",
        "á»įi"
      ],
      [
        "ĠT",
        "r"
      ],
      [
        "Ġnhá»",
        "ı"
      ],
      [
        "V",
        "áºŃy"
      ],
      [
        "áº",
        "¯ng"
      ],
      [
        "ĠÄĳ",
        "Æ°a"
      ],
      [
        "Ġx",
        "u"
      ],
      [
        "Ġho",
        "Ãłn"
      ],
      [
        "Ġt",
        "Æ°Æ¡ng"
      ],
      [
        "Ġngh",
        "iá»ĩm"
      ],
      [
        "Ġqu",
        "áº£"
      ],
      [
        "Ġt",
        "Ã¡c"
      ],
      [
        "ĠÄĳ",
        "Æ°á»Ŀng"
      ],
      [
        "Ġ",
        "D"
      ],
      [
        "uyá»",
        "ĥn"
      ],
      [
        "o",
        "r"
      ],
      [
        "Ġv",
        "áº«n"
      ],
      [
        "uyá»ĩ",
        "t"
      ],
      [
        "Å",
        "©"
      ],
      [
        "Ġcá»",
        "ĳ"
      ],
      [
        "Äĥ",
        "m"
      ],
      [
        "Ġx",
        "áº£y"
      ],
      [
        "T",
        "r"
      ],
      [
        "uyá»",
        "ģn"
      ],
      [
        "á»ĳ",
        "c"
      ],
      [
        "Ġchiáº¿",
        "c"
      ],
      [
        "Ġth",
        "uáºŃt"
      ],
      [
        "M",
        "á»Ļt"
      ],
      [
        "Ġb",
        "iá»ĩt"
      ],
      [
        "Ġ",
        "ÃŃ"
      ],
      [
        "Ġd",
        "Ã¹ng"
      ],
      [
        "ĠÄĳ",
        "áº¡i"
      ],
      [
        "a",
        "l"
      ],
      [
        "há»",
        "¯ng"
      ],
      [
        "Ġb",
        "Ãªn"
      ],
      [
        "Ġtá»«",
        "ng"
      ],
      [
        "Ġho",
        "áº·c"
      ],
      [
        "Ġd",
        "Ã¢n"
      ],
      [
        "Ġtr",
        "iá»ĥn"
      ],
      [
        "Ġch",
        "uyá»ĥn"
      ],
      [
        "iá»ĩ",
        "p"
      ],
      [
        "Ġl",
        "Ãºc"
      ],
      [
        "Ã£",
        "o"
      ],
      [
        "Ġd",
        "iá»ħn"
      ],
      [
        "Ġtrá»",
        "ĭ"
      ],
      [
        "Ġquy",
        "áº¿t"
      ],
      [
        "«",
        "ng"
      ],
      [
        "Ġc",
        "ao"
      ],
      [
        "Ġngh",
        "e"
      ],
      [
        "Ġth",
        "u"
      ],
      [
        "Ãº",
        "p"
      ],
      [
        "ĠÄ",
        "ĥn"
      ],
      [
        "Ġd",
        "áº¡"
      ],
      [
        "u",
        "Ã´n"
      ],
      [
        "uá»ĳ",
        "c"
      ],
      [
        "Ġt",
        "uyá»ĩt"
      ],
      [
        "áº¯",
        "c"
      ],
      [
        "Ġc",
        "áº§u"
      ],
      [
        "Ġtá»",
        "ķ"
      ],
      [
        "Ġmá»",
        "Ĺi"
      ],
      [
        "uá»ĳ",
        "i"
      ],
      [
        "Ġv",
        "i"
      ],
      [
        "Ġkho",
        "áº£ng"
      ],
      [
        "Ġl",
        "á»±c"
      ],
      [
        "Ġk",
        "áº¿"
      ],
      [
        "Ġcháº",
        "¥t"
      ],
      [
        "Ġphá»",
        "¥"
      ],
      [
        "Ġ",
        "Ã¡"
      ],
      [
        "Ġb",
        "Ã¡"
      ],
      [
        "áº¥",
        "p"
      ],
      [
        "i",
        "m"
      ],
      [
        "C",
        "Ã³"
      ],
      [
        "Ġlá»",
        "Ŀi"
      ],
      [
        "ĠgiÃ¡",
        "o"
      ],
      [
        "ĠÄĳ",
        "áº¥t"
      ],
      [
        "Ġgi",
        "Ãºp"
      ],
      [
        "e",
        "s"
      ],
      [
        "²",
        "ng"
      ],
      [
        "Ġ",
        "em"
      ],
      [
        "Ġ",
        "Æ¡n"
      ],
      [
        "Ã",
        "µ"
      ],
      [
        "©",
        "a"
      ],
      [
        "Ġtr",
        "ung"
      ],
      [
        "Ġchá»",
        "§"
      ],
      [
        "áº©",
        "n"
      ],
      [
        "Ġb",
        "áº£o"
      ],
      [
        "H",
        "á»į"
      ],
      [
        "Ġná»",
        "¯"
      ],
      [
        "Ġkháº",
        "£"
      ],
      [
        "Ġt",
        "iáº¿n"
      ],
      [
        "o",
        "s"
      ],
      [
        "Ġháº",
        "¿t"
      ],
      [
        "ĠphÃ",
        "²ng"
      ],
      [
        "Æ°á»",
        "Ľi"
      ],
      [
        "Ġ",
        "R"
      ],
      [
        "e",
        "l"
      ],
      [
        "Ġt",
        "Ã¬nh"
      ],
      [
        "Ġch",
        "Æ°a"
      ],
      [
        "Ġngh",
        "iÃªn"
      ],
      [
        "hÃ",
        "´ng"
      ],
      [
        "Ġxu",
        "áº¥t"
      ],
      [
        "Æ°á»Ľ",
        "ng"
      ],
      [
        "Ġ",
        "VÃł"
      ],
      [
        "Ġx",
        "e"
      ],
      [
        "Ġm",
        "ang"
      ],
      [
        "á»",
        "¹"
      ],
      [
        "Ġl",
        "iÃªn"
      ],
      [
        "ĠphÃ",
        "¢n"
      ],
      [
        "Ġtr",
        "anh"
      ],
      [
        "Ġb",
        "Ãłi"
      ],
      [
        "ĠkhÃ",
        "³"
      ],
      [
        "ĠÄĳ",
        "Æ¡n"
      ],
      [
        "áº¯",
        "n"
      ],
      [
        "Ġn",
        "Ã£o"
      ],
      [
        "Ġt",
        "áºŃp"
      ],
      [
        "Ġtr",
        "uyá»ģn"
      ],
      [
        "¥",
        "p"
      ],
      [
        "Ġt",
        "uá»ķi"
      ],
      [
        "ĠÄĳ",
        "Ãºng"
      ],
      [
        "ĠÄĳ",
        "iá»ĩn"
      ],
      [
        "Ġph",
        "Æ°Æ¡ng"
      ],
      [
        "Ġb",
        "Ã¬nh"
      ],
      [
        "ÄĲ",
        "iá»ģu"
      ],
      [
        "ĠÄĳ",
        "áº·t"
      ],
      [
        "©",
        "m"
      ],
      [
        "Ġt",
        "Æ°á»£ng"
      ],
      [
        "i",
        "Ãª"
      ],
      [
        "Ġta",
        "y"
      ],
      [
        "uá»ĳ",
        "ng"
      ],
      [
        "Ġb",
        "iáº¿n"
      ],
      [
        "u",
        "á»ĵ"
      ],
      [
        "Ġt",
        "iá»ģn"
      ],
      [
        "Ġgiá»",
        "¯a"
      ],
      [
        "Ġy",
        "Ãªu"
      ],
      [
        "Ġs",
        "áº£n"
      ],
      [
        "©",
        "p"
      ],
      [
        "Ġtiáº¿",
        "ng"
      ],
      [
        "Ġth",
        "o"
      ],
      [
        "Ġb",
        "Ã©"
      ],
      [
        "áº·",
        "p"
      ],
      [
        "Ġng",
        "ay"
      ],
      [
        "Ġquy",
        "á»"
      ],
      [
        "Ġkho",
        "a"
      ],
      [
        "áºŃ",
        "n"
      ],
      [
        "ĠhÃ",
        "£y"
      ],
      [
        "áº¡",
        "c"
      ],
      [
        "áº§",
        "m"
      ],
      [
        "Ġl",
        "áº¥y"
      ],
      [
        "Ġbá»",
        "ı"
      ],
      [
        "N",
        "áº¿u"
      ],
      [
        "Ġtr",
        "ÃŃ"
      ],
      [
        "e",
        "t"
      ],
      [
        "Ġnháº",
        "¡"
      ],
      [
        "Ġx",
        "Ã£"
      ],
      [
        "N",
        "g"
      ],
      [
        "Ġg",
        "áº§n"
      ],
      [
        "Ġho",
        "áº¡t"
      ],
      [
        "N",
        "há»¯ng"
      ],
      [
        "Ġch",
        "iáº¿n"
      ],
      [
        "Ġthá»",
        "ĭ"
      ],
      [
        "Ġkh",
        "u"
      ],
      [
        "ĠÄĳÃ¡",
        "ng"
      ],
      [
        "ĠsÃ¡",
        "ch"
      ],
      [
        "Ġp",
        "hi"
      ],
      [
        "Ġ",
        "I"
      ],
      [
        "Ġpháº",
        "©m"
      ],
      [
        "ĠthÃ",
        "¢n"
      ],
      [
        "ĠphÃ¡",
        "p"
      ],
      [
        "Ġh",
        "iá»ĩu"
      ],
      [
        "ĠkhÃ",
        "Ń"
      ],
      [
        "Ġc",
        "uá»ĳi"
      ],
      [
        "ĠÄĳá»",
        "Ŀi"
      ],
      [
        "Ġch",
        "Æ¡i"
      ],
      [
        "T",
        "háº"
      ],
[...]
