{
  "version": "1.0",
  "truncation": null,
  "padding": null,
  "added_tokens": [
    {
      "id": 0,
      "content": "<pad>",
      "single_word": false,
      "lstrip": false,
      "rstrip": false,
      "normalized": false,
      "special": true
    },
    {
      "id": 1,
      "content": "<sos>",
      "single_word": false,
      "lstrip": false,
      "rstrip": false,
      "normalized": false,
      "special": true
    },
    {
      "id": 2,
      "content": "<eos>",
      "single_word": false,
      "lstrip": false,
      "rstrip": false,
      "normalized": false,
      "special": true
    },
    {
      "id": 3,
      "content": "<unk>",
      "single_word": false,
      "lstrip": false,
      "rstrip": false,
      "normalized": false,
      "special": true
    }
  ],
  "normalizer": {
    "type": "Sequence",
    "normalizers": [
      {
        "type": "NFKC"
      },
      {
        "type": "Lowercase"
      }
    ]
  },
  "pre_tokenizer": {
    "type": "ByteLevel",
    "add_prefix_space": false,
    "trim_offsets": true,
    "use_regex": true
  },
  "post_processor": null,
  "decoder": {
    "type": "ByteLevel",
    "add_prefix_space": true,
    "trim_offsets": true,
    "use_regex": true
  },
  "model": {
    "type": "BPE",
    "dropout": null,
    "unk_token": "<unk>",
    "continuing_subword_prefix": null,
    "end_of_word_suffix": null,
    "fuse_unk": false,
    "byte_fallback": false,
    "ignore_merges": false,
    "vocab": {
      "<pad>": 0,
      "<sos>": 1,
      "<eos>": 2,
      "<unk>": 3,
      "!": 4,
      "\"": 5,
      "#": 6,
      "$": 7,
      "%": 8,
      "&": 9,
      "'": 10,
      "(": 11,
      ")": 12,
      "*": 13,
      "+": 14,
      ",": 15,
      "-": 16,
      ".": 17,
      "/": 18,
      "0": 19,
      "1": 20,
      "2": 21,
      "3": 22,
      "4": 23,
      "5": 24,
      "6": 25,
      "7": 26,
      "8": 27,
      "9": 28,
      ":": 29,
      ";": 30,
      "<": 31,
      "=": 32,
      ">": 33,
      "?": 34,
      "@": 35,
      "A": 36,
      "B": 37,
      "C": 38,
      "D": 39,
      "E": 40,
      "F": 41,
      "G": 42,
      "H": 43,
      "I": 44,
      "J": 45,
      "K": 46,
      "L": 47,
      "M": 48,
      "N": 49,
      "O": 50,
      "P": 51,
      "Q": 52,
      "R": 53,
      "S": 54,
      "T": 55,
      "U": 56,
      "V": 57,
      "W": 58,
      "X": 59,
      "Y": 60,
      "Z": 61,
      "[": 62,
      "\\": 63,
      "]": 64,
      "^": 65,
      "_": 66,
      "`": 67,
      "a": 68,
      "b": 69,
      "c": 70,
      "d": 71,
      "e": 72,
      "f": 73,
      "g": 74,
      "h": 75,
      "i": 76,
      "j": 77,
      "k": 78,
      "l": 79,
      "m": 80,
      "n": 81,
      "o": 82,
      "p": 83,
      "q": 84,
      "r": 85,
      "s": 86,
      "t": 87,
      "u": 88,
      "v": 89,
      "w": 90,
      "x": 91,
      "y": 92,
      "z": 93,
      "{": 94,
      "|": 95,
      "}": 96,
      "~": 97,
      "¡": 98,
      "¢": 99,
      "£": 100,
      "¤": 101,
      "¥": 102,
      "¦": 103,
      "§": 104,
      "¨": 105,
      "©": 106,
      "ª": 107,
      "«": 108,
      "¬": 109,
      "®": 110,
      "¯": 111,
      "°": 112,
      "±": 113,
      "²": 114,
      "³": 115,
      "´": 116,
      "µ": 117,
      "¶": 118,
      "·": 119,
      "¸": 120,
      "¹": 121,
      "º": 122,
      "»": 123,
      "¼": 124,
      "½": 125,
      "¾": 126,
      "¿": 127,
      "À": 128,
      "Á": 129,
      "Â": 130,
      "Ã": 131,
      "Ä": 132,
      "Å": 133,
      "Æ": 134,
      "Ç": 135,
      "È": 136,
      "É": 137,
      "Ê": 138,
      "Ë": 139,
      "Ì": 140,
      "Í": 141,
      "Î": 142,
      "Ï": 143,
      "Ð": 144,
      "Ñ": 145,
      "Ò": 146,
      "Ó": 147,
      "Ô": 148,
      "Õ": 149,
      "Ö": 150,
      "×": 151,
      "Ø": 152,
      "Ù": 153,
      "Ú": 154,
      "Û": 155,
      "Ü": 156,
      "Ý": 157,
      "Þ": 158,
      "ß": 159,
      "à": 160,
      "á": 161,
      "â": 162,
      "ã": 163,
      "ä": 164,
      "å": 165,
      "æ": 166,
      "ç": 167,
      "è": 168,
      "é": 169,
      "ê": 170,
      "ë": 171,
      "ì": 172,
      "í": 173,
      "î": 174,
      "ï": 175,
      "ð": 176,
      "ñ": 177,
      "ò": 178,
      "ó": 179,
      "ô": 180,
      "õ": 181,
      "ö": 182,
      "÷": 183,
      "ø": 184,
      "ù": 185,
      "ú": 186,
      "û": 187,
      "ü": 188,
      "ý": 189,
      "þ": 190,
      "ÿ": 191,
      "Ā": 192,
      "ā": 193,
      "Ă": 194,
      "ă": 195,
      "Ą": 196,
      "ą": 197,
      "Ć": 198,
      "ć": 199,
      "Ĉ": 200,
      "ĉ": 201,
      "Ċ": 202,
      "ċ": 203,
      "Č": 204,
      "č": 205,
      "Ď": 206,
      "ď": 207,
      "Đ": 208,
      "đ": 209,
      "Ē": 210,
      "ē": 211,
      "Ĕ": 212,
      "ĕ": 213,
      "Ė": 214,
      "ė": 215,
      "Ę": 216,
      "ę": 217,
      "Ě": 218,
      "ě": 219,
      "Ĝ": 220,
      "ĝ": 221,
      "Ğ": 222,
      "ğ": 223,
      "Ġ": 224,
      "ġ": 225,
      "Ģ": 226,
      "ģ": 227,
      "Ĥ": 228,
      "ĥ": 229,
      "Ħ": 230,
      "ħ": 231,
      "Ĩ": 232,
      "ĩ": 233,
      "Ī": 234,
      "ī": 235,
      "Ĭ": 236,
      "ĭ": 237,
      "Į": 238,
      "į": 239,
      "İ": 240,
      "ı": 241,
      "Ĳ": 242,
      "ĳ": 243,
      "Ĵ": 244,
      "ĵ": 245,
      "Ķ": 246,
      "ķ": 247,
      "ĸ": 248,
      "Ĺ": 249,
      "ĺ": 250,
      "Ļ": 251,
      "ļ": 252,
      "Ľ": 253,
      "ľ": 254,
      "Ŀ": 255,
      "ŀ": 256,
      "Ł": 257,
      "ł": 258,
      "Ń": 259,
      "á»": 260,
      "Ġt": 261,
      "ng": 262,
      "áº": 263,
      "Ġc": 264,
      "Ġth": 265,
      "Ġn": 266,
      "Ġ,": 267,
      "Ãł": 268,
      "Äĳ": 269,
      "ĠÄĳ": 270,
      "Ġ.": 271,
      "Ġa": 272,
      "Ġs": 273,
      "Ġm": 274,
      "Ġl": 275,
      "Ġb": 276,
      "Ġh": 277,
      "Ġv": 278,
      "Ġi": 279,
      "Ġw": 280,
      "Ġthe": 281,
      "Ġch": 282,
      "re": 283,
      "Æ°": 284,
      "Ã´": 285,
      "Ġo": 286,
      "Ġk": 287,
      "Ġp": 288,
      "Ã¡": 289,
      "Ġg": 290,
      "Ã³": 291,
      "Ġnh": 292,
      "Ġd": 293,
      "an": 294,
      "at": 295,
      "er": 296,
      "iá»": 297,
      "Ġtr": 298,
      "Ġ&": 299,
      "ou": 300,
      "nh": 301,
      "áº¿": 302,
      "áº¡": 303,
      "Æ°á»": 304,
      "on": 305,
      "á»Ļ": 306,
      "os": 307,
      "en": 308,
      "Ġkh": 309,
      "Ġto": 310,
      "ing": 311,
      "qu": 312,
      "nd": 313,
      "Ġng": 314,
      "ap": 315,
      "ĠlÃł": 316,
      "áº£": 317,
      "Ġr": 318,
      "Ġf": 319,
      "áº¥": 320,
      "Ã´i": 321,
      "ot": 322,
      "es": 323,
      "or": 324,
      "al": 325,
      "Ãº": 326,
      "apos": 327,
      "ch": 328,
      "Ġof": 329,
      "ĠvÃł": 330,
      "th": 331,
      "Ġin": 332,
      "Ã¬": 333,
      "Ġthá»": 334,
      "Ġand": 335,
      "ed": 336,
      "Ġph": 337,
      "Ãª": 338,
      "is": 339,
      "Ã´ng": 340,
      "ĠtÃ´i": 341,
      "in": 342,
      "ar": 343,
      "Ġy": 344,
      "Ã¢": 345,
      "á»ĳ": 346,
      "á»Ļt": 347,
      "á»¯": 348,
      "Ġmá»Ļt": 349,
      "ĠÄĳá»": 350,
      "Ġvá»": 351,
      "Ġcá»": 352,
      "ĠcÃ³": 353,
      "Ãºng": 354,
      "Ġthat": 355,
      "om": 356,
      "ay": 357,
      "as": 358,
      "ĠcÃ¡": 359,
      "Ãªn": 360,
      "it": 361,
      "áºŃ": 362,
      "le": 363,
      "iá»ĩ": 364,
      "Ġyou": 365,
      "Ġe": 366,
      "á»¯ng": 367,
      "Ŀi": 368,
      "Ġwe": 369,
      "á»į": 370,
      "ll": 371,
      "ve": 372,
      "Ġwh": 373,
      "quot": 374,
      "Æ¡": 375,
      "ĠchÃºng": 376,
      "Ġnhá»¯ng": 377,
      "Ľi": 378,
      "Ġqu": 379,
      "ic": 380,
      "Ġcá»§": 381,
      "Ġcá»§a": 382,
      "ow": 383,
      "áº§": 384,
      "iáº¿": 385,
      "us": 386,
      "Ġta": 387,
      "Ġis": 388,
      "áº¥t": 389,
      "Ã£": 390,
      "ly": 391,
      "Ġbe": 392,
      "Ġit": 393,
      "á»±": 394,
      "áº¡n": 395,
      "ong": 396,
      "ion": 397,
      "ut": 398,
      "ÃŃ": 399,
      "Ġgi": 400,
      "and": 401,
      "ĠnÃł": 402,
      "ĠkhÃ´ng": 403,
      "iá»ģ": 404,
      "á»Ł": 405,
      "ĠnÃ³": 406,
      "Æ°á»£": 407,
      "Ġtá»": 408,
      "Ġx": 409,
      "Æ°á»Ŀi": 410,
      "ĠÄĳÃ³": 411,
      "Ġre": 412,
      "iá»ģu": 413,
      "Ġbáº¡n": 414,
      "ĠngÆ°á»Ŀi": 415,
      "ent": 416,
      "ct": 417,
      "Ġon": 418,
      "áº¡i": 419,
      "ld": 420,
      "Ġha": 421,
      "Ġngh": 422,
      "Ġtrong": 423,
      "uy": 424,
      "Äĥ": 425,
      "et": 426,
      "Ġthá»ĥ": 427,
      "Æ°á»£c": 428,
      "Ġ?": 429,
      "ĠnÃły": 430,
      "ĠÄĳÃ£": 431,
      "id": 432,
      "áº¯": 433,
      "ĠcÃ¡c": 434,
      "ĠnhÆ°": 435,
      "Ġst": 436,
      "ĠÄĳÆ°á»£c": 437,
      "Ġhá»į": 438,
      "ang": 439,
      "Ġthis": 440,
      "Ã¢y": 441,
      "am": 442,
      "Ġ-": 443,
      "Ã¬nh": 444,
      "ur": 445,
      "ig": 446,
      "Ġra": 447,
      "Ġcho": 448,
      "Ġwi": 449,
      "Ġvá»Ľi": 450,
      "Ġdo": 451,
      "áº¥y": 452,
      "Ġ--": 453,
      "im": 454,
      "á»ĩ": 455,
      "Ġsá»±": 456,
      "ere": 457,
      "Ġchá»": 458,
      "ce": 459,
      "áº½": 460,
      "op": 461,
      "Ġli": 462,
      "Ġfor": 463,
      "Ġgiá»": 464,
      "vÃł": 465,
      "Ġcon": 466,
      "áº§n": 467,
      "se": 468,
      "ĠmÃł": 469,
      "ĠlÃłm": 470,
      "ver": 471,
      "áº£i": 472,
      "ke": 473,
      "áº±": 474,
      "Ġ1": 475,
      "Ġu": 476,
      "Ġwas": 477,
      "Ã¡c": 478,
      "ol": 479,
      "Ġan": 480,
      "Ġá»Ł": 481,
      "áº±ng": 482,
      "Ġsa": 483,
      "ir": 484,
      "st": 485,
      "ĠÄĳá»ĥ": 486,
      "Ġvá»ģ": 487,
      "Ġcáº£": 488,
      "Ġsáº½": 489,
      "Ġho": 490,
      "Ġare": 491,
      "Ġgo": 492,
      "Ã¢n": 493,
      "ally": 494,
      "iá»ĥ": 495,
      "Æ¡n": 496,
      "iáº¿t": 497,
      "áº·": 498,
      "Ġwith": 499,
      "so": 500,
      "ĠÄĳiá»ģu": 501,
      "ome": 502,
      "áºŃt": 503,
      "Ġpr": 504,
      "Ġ:": 505,
      "Ġtháº¿": 506,
      "Ġlo": 507,
      "iÃªn": 508,
      "Ġthey": 509,
      "Ġab": 510,
      "Ġhave": 511,
      "Ä©": 512,
      "á»¥": 513,
      "Ġcan": 514,
      "ad": 515,
      "áº§u": 516,
      "Ġj": 517,
      "Ã¹": 518,
      "Ġse": 519,
      "Æ°á»Ľ": 520,
      "uá»ĳ": 521,
      "Ġso": 522,
      "Ã²": 523,
      "od": 524,
      "áº¿n": 525,
      "Ġkhi": 526,
      "em": 527,
      "á»ĭ": 528,
      "Ġtá»«": 529,
      "Ġne": 530,
      "Ġsh": 531,
      "Ġas": 532,
      "Ãłnh": 533,
      "©ng": 534,
      "ation": 535,
      "Ġhe": 536,
      "Ġsá»ĳ": 537,
      "Ġwhat": 538,
      "ĠnÃ³i": 539,
      "ht": 540,
      "out": 541,
      "Ġwor": 542,
      "inh": 543,
      "©c": 544,
      "iá»ĩn": 545,
      "±c": 546,
      "ĠnÄĥ": 547,
      "ter": 548,
      "ĠÄĳáº¿n": 549,
      "áº¿t": 550,
      "Ġme": 551,
      "Ġlá»": 552,
      "il": 553,
      "ould": 554,
      "Ġhá»": 555,
      "ÃŃnh": 556,
      "Ġpháº£i": 557,
      "Ġat": 558,
      "Ġfr": 559,
      "ul": 560,
      "Ġmá»": 561,
      "iá»ĩc": 562,
      "Ġabout": 563,
      "ant": 564,
      "Æ°á»Ŀ": 565,
      "Æ°á»Ľc": 566,
      "Ġnot": 567,
      "Ġráº±ng": 568,
      "ĠvÃło": 569,
      "now": 570,
      "ĠgÃ¬": 571,
      "Æ°á»Ŀng": 572,
      "ĠÄĳang": 573,
      "Ġviá»ĩc": 574,
      "Ãłn": 575,
      "ĠÄĳá»Ļ": 576,
      "ers": 577,
      "ore": 578,
      "ag": 579,
      "Ã½": 580,
      "Ġláº¡i": 581,
      "Ġall": 582,
      "áº£n": 583,
      "áºŃn": 584,
      "ust": 585,
      "Ã¢u": 586,
      "Ġtháº¥y": 587,
      "ĠnghÄ©": 588,
      "Ġráº¥t": 589,
      "ĠcÃ¡ch": 590,
      "Ġex": 591,
      "Ġmy": 592,
      "Ġus": 593,
      "ĠhÆ¡n": 594,
      "00": 595,
      "Ġnhiá»ģu": 596,
      "ac": 597,
      "Ġcom": 598,
      "ight": 599,
      "Ã¹ng": 600,
      "Ġpe": 601,
      "Æ°Æ¡": 602,
      "Ãłi": 603,
      "if": 604,
      "Ġde": 605,
      "we": 606,
      "tÃ´i": 607,
      "ĠÄĳÃ¢y": 608,
      "art": 609,
      "ok": 610,
      "Ġthá»±c": 611,
      "Ġor": 612,
      "the": 613,
      "ain": 614,
      "ĠÄĳáº§u": 615,
      "anh": 616,
      "iáº¿n": 617,
      "Æ°Æ¡ng": 618,
      "áºŃy": 619,
      "Ġthere": 620,
      "Ġsome": 621,
      "ess": 622,
      "ear": 623,
      "ople": 624,
      "Ġhá»įc": 625,
      "tr": 626,
      "um": 627,
      "á»ĵ": 628,
      "ĠkhÃ¡c": 629,
      "Ġchá»ī": 630,
      "ĠcÃ´ng": 631,
      "áº¡o": 632,
      "á»ĳi": 633,
      "ķi": 634,
      "á»įi": 635,
      "Ġpeople": 636,
      "ate": 637,
      "ĠtrÃªn": 638,
      "áº¿u": 639,
      "Ġlike": 640,
      "ure": 641,
      "ĠvÃ¬": 642,
      "ĠcÃ¡i": 643,
      "ies": 644,
      "Ġone": 645,
      "Ġ2": 646,
      "ĠnÃło": 647,
      "ab": 648,
      "Ġsá»": 649,
      "Ġfrom": 650,
      "Ġbiáº¿t": 651,
      "ity": 652,
      "Ġal": 653,
      "Ġchuy": 654,
      "Ã©": 655,
      "ĠÄĳá»ģ": 656,
      "ist": 657,
      "est": 658,
      "ĠphÃ¡": 659,
      "ung": 660,
      "ao": 661,
      "Ġbut": 662,
      "Ãłng": 663,
      "iá»ĩu": 664,
      "ob": 665,
      "áº»": 666,
      "ĠnÄĥm": 667,
      "Ġbec": 668,
      "Å©ng": 669,
      "Æ¡i": 670,
      "Ġour": 671,
      "un": 672,
      "ĠÄĳi": 673,
      "Ġthá»©": 674,
      "use": 675,
      "uá»ĳn": 676,
      "ĠthÃłnh": 677,
      "Ġma": 678,
      "Ġdá»¥": 679,
      "á»Ļc": 680,
      "ect": 681,
      "all": 682,
      "áº¯t": 683,
      "Ġsp": 684,
      "ia": 685,
      "el": 686,
      "ink": 687,
      "Ġout": 688,
      "ill": 689,
      "ind": 690,
      "Ġjust": 691,
      "og": 692,
      "ĠnhÃł": 693,
      "chÃºng": 694,
      "ause": 695,
      "Ã¡ng": 696,
      "one": 697,
      "ĠcÅ©ng": 698,
      "ery": 699,
      "ÃŃch": 700,
      "ther": 701,
      "rou": 702,
      "ive": 703,
      "uá»Ļc": 704,
      "Ġknow": 705,
      "Ġte": 706,
      "áº«": 707,
      "Ġbá»ĭ": 708,
      "á»ģ": 709,
      "ĠnhÆ°ng": 710,
      "Ġkho": 711,
      "Ġthem": 712,
      "Ġthing": 713,
      "Ġint": 714,
      "Ġif": 715,
      "Ġquan": 716,
      "but": 717,
      "Äĥn": 718,
      "áºŃp": 719,
      "Ãºc": 720,
      "Ã¡i": 721,
      "Ġmuá»ĳn": 722,
      "áº¥n": 723,
      "Ġthese": 724,
      "au": 725,
      "ich": 726,
      "Ġwho": 727,
      "ĠmÃ¬nh": 728,
      "Æ°ng": 729,
      "Ġup": 730,
      "á»ı": 731,
      "ort": 732,
      "Ġthink": 733,
      "á»Łi": 734,
      "Ġvery": 735,
      "Ġnháº¥t": 736,
      "Ġget": 737,
      "ci": 738,
      "Æ°á»Ł": 739,
      "ĠchÃŃnh": 740,
      "Ġtáº¡o": 741,
      "ĠÄĳá»Ļng": 742,
      "Ġgiá»Ľi": 743,
      "ĠváºŃy": 744,
      "Æ°á»Łng": 745,
      "Ġpl": 746,
      "our": 747,
      "Ġtim": 748,
      "Ġká»": 749,
      "Ġwhen": 750,
      "áº·t": 751,
      "end": 752,
      "ie": 753,
      "act": 754,
      "Ġby": 755,
      "Ġact": 756,
      "ĠnÃªn": 757,
      "Ġim": 758,
      "Ġsu": 759,
      "Ġyour": 760,
      "Ġhow": 761,
      "Ã¡n": 762,
      "Ġmore": 763,
      "Ġbr": 764,
      "ĳng": 765,
      "Ġtáº¡i": 766,
      "Ġgoing": 767,
      "nhÆ°ng": 768,
      "Ġbecause": 769,
      "Ġanh": 770,
      "á»ģn": 771,
      "Ġsee": 772,
      "Ġnáº¿u": 773,
      "áº©": 774,
      "ine": 775,
      "Ġlá»Ľ": 776,
      "Ã²n": 777,
      "Ġyear": 778,
      "nt": 779,
      "Ãły": 780,
      "áº¯c": 781,
      "Ãªu": 782,
      "ĠhÃ¬nh": 783,
      "Æ°a": 784,
      "Ġhad": 785,
      "Ġgiá»Ŀ": 786,
      "á»ĩn": 787,
      "ame": 788,
      "Ġhiá»ĩn": 789,
      "iá»ĥu": 790,
      "Ġle": 791,
      "Ġtiáº¿": 792,
      "ost": 793,
      "Ġsá»ĳng": 794,
      "Ġmá»įi": 795,
      "Ġthu": 796,
      "Ġever": 797,
      "Ġná»¯": 798,
      "Ġwould": 799,
      "iv": 800,
      "ack": 801,
      "ard": 802,
      "Ã¢m": 803,
      "ĠnháºŃn": 804,
      "Ġwere": 805,
      "ose": 806,
      "Æ°á»£ng": 807,
      "Ġcuá»Ļc": 808,
      "ge": 809,
      "Ġtheir": 810,
      "are": 811,
      "Ġquy": 812,
      "Ã¬n": 813,
      "Ġtá»ĳ": 814,
      "gh": 815,
      "Ġhay": 816,
      "Ġcáº§n": 817,
      "ĠÃ´ng": 818,
      "ai": 819,
      "king": 820,
      "Ġtá»±": 821,
      "Ġwhich": 822,
      "Ġlook": 823,
      "iz": 824,
      "áº·c": 825,
      "ast": 826,
      "Ġreally": 827,
      "Ġtáº¥t": 828,
      "Ġwant": 829,
      "ĠthÃ¬": 830,
      "wh": 831,
      "oc": 832,
      "Ġbá»Łi": 833,
      "ide": 834,
      "ĠÄĳá»ĭ": 835,
      "á»Ļi": 836,
      "Ġcomp": 837,
      "Ġworld": 838,
      "ually": 839,
      "thing": 840,
      "ĠÄĳá»ĵ": 841,
      "Ã´n": 842,
      "ous": 843,
      "reat": 844,
      "á»ĵi": 845,
      "ib": 846,
      "Ġway": 847,
      "Ġcáº£m": 848,
      "Ã²ng": 849,
      "Ġáº¥y": 850,
      "Ġem": 851,
      "Ġtheo": 852,
      "Ġtá»Ľi": 853,
      "Ġbáº¯t": 854,
      "ĠcÃ²n": 855,
      "ment": 856,
      "ĠÃ½": 857,
      "Ġtin": 858,
      "áº«n": 859,
      "ĠnhÃ¬n": 860,
      "ans": 861,
      "Ġlá»Ľn": 862,
      "ĠtháºŃt": 863,
      "Ġsau": 864,
      "iá»ĥm": 865,
      "Ġbu": 866,
      "ĠcÃ¹ng": 867,
      "Ġbáº£n": 868,
      "Ġbáº±ng": 869,
      "ĠgiÃ¡": 870,
      "iá»ĥn": 871,
      "Ġtáº¿": 872,
      "Ġcá»©": 873,
      "Ġdá»¥ng": 874,
      "ĠcÃ¢u": 875,
      "ven": 876,
      "ĠlÃªn": 877,
      "Ġsao": 878,
      "ace": 879,
      "Ġhere": 880,
      "Ġmu": 881,
      "Ġlu": 882,
      "Ġbá»Ļ": 883,
      "Ġexp": 884,
      "Ġthá»Ŀi": 885,
      "Ġun": 886,
      "áº£ng": 887,
      "Ġchuyá»ĩn": 888,
      "ĠngÃły": 889,
      "ĠnhÃ¢n": 890,
      "Ġthen": 891,
      "ĠcÆ¡": 892,
      "Ġper": 893,
      "Ġqua": 894,
      "Ġtrá»Ł": 895,
      "Ġsay": 896,
      "pp": 897,
      "Ġtime": 898,
      "Ġevery": 899,
      "Ġdon": 900,
      "Ġsinh": 901,
      "Ġman": 902,
      "Ġhas": 903,
      "iá»ĩm": 904,
      "Ġnew": 905,
      "á»ķi": 906,
      "Ġar": 907,
      "Ġam": 908,
      "her": 909,
      "age": 910,
      "Ġfe": 911,
      "ions": 912,
      "Ĺi": 913,
      "app": 914,
      "Ġ3": 915,
      "Ã¡nh": 916,
      "Ã¡ch": 917,
      "res": 918,
      "Ġwill": 919,
      "áº£nh": 920,
      "Ã¬m": 921,
      "ĠnÄĥng": 922,
      "ĠtrÆ°á»Ľc": 923,
      "ĠphÃ¡t": 924,
      "Ġactually": 925,
      "Ġsá»Ń": 926,
      "ĠnÆ°á»Ľc": 927,
      "áº¡t": 928,
      "Ġnow": 929,
      "Ġthan": 930,
      "ĠÄĳá»ķi": 931,
      "iá»ĩt": 932,
      "Ġinto": 933,
      "ĠtoÃłn": 934,
      "Ġcould": 935,
      "Ġpháº§n": 936,
      "ence": 937,
      "áº£o": 938,
      "ĠmÃ¡": 939,
      "ĠnÆ¡i": 940,
      "Ġen": 941,
      "Ġgia": 942,
      "ıi": 943,
      "Ġgr": 944,
      "Ġwork": 945,
      "ĠthÃ´ng": 946,
      "Ġdá»±": 947,
      "Ġag": 948,
      "Ġno": 949,
      "ĠtÃ¬m": 950,
      "Ġdid": 951,
      "ach": 952,
      "Ġnhau": 953,
      "á»ĳc": 954,
      "Ġthay": 955,
      "Ġmá»Ľi": 956,
      "Ġyears": 957,
      "Ġcl": 958,
      "á»±c": 959,
      "ĠtrÆ°á»Ŀng": 960,
      "Ġváº¥n": 961,
      "ĠÄĳá»ĭnh": 962,
      "Ġother": 963,
      "Ġwhere": 964,
      "Ġhá»ĩ": 965,
      "ild": 966,
      "Ġthings": 967,
      "ff": 968,
      "itt": 969,
      "Ġtu": 970,
      "ĠnhiÃªn": 971,
      "ip": 972,
      "áº¹": 973,
      "ĠtÃŃnh": 974,
      "ud": 975,
      "iff": 976,
      "this": 977,
      "Ġmáº¡": 978,
      "iá»ħ": 979,
      "Ġtá»ĳt": 980,
      "Ġtw": 981,
      "ĠtrÃ¬nh": 982,
      "Ġkáº¿t": 983,
      "ĠtÆ°á»Łng": 984,
      "áº¥u": 985,
      "ical": 986,
      "kh": 987,
      "Äĥng": 988,
      "ĠváºŃt": 989,
      "ĠlÃ½": 990,
      "áº¥p": 991,
      "Ã£y": 992,
      "á»ĥ": 993,
      "ĠhÃłng": 994,
      "Ġhapp": 995,
      "Ġmake": 996,
      "Ġdiff": 997,
      "fe": 998,
      "áº£y": 999,
      "Ġdis": 1000,
      "Ġany": 1001,
      "Ġhá»ıi": 1002,
      "con": 1003,
      "Ġneed": 1004,
      "Ġco": 1005,
      "ĠmÃ¡y": 1006,
      "£p": 1007,
      "nÃ³": 1008,
      "Ġáº£nh": 1009,
      "áº¡c": 1010,
      "Ġmáº·t": 1011,
      "Ġhá»£p": 1012,
      "Ġ;": 1013,
      "Ġtal": 1014,
      "Ġbeen": 1015,
      "Ãºt": 1016,
      "Ġimp": 1017,
      "Ġkinh": 1018,
      "ice": 1019,
      "ĠcÃ´": 1020,
      "Ġhá»Ļi": 1021,
      "you": 1022,
      "ĠhÃłnh": 1023,
      "red": 1024,
      "Ġdi": 1025,
      "áº¯n": 1026,
      "for": 1027,
      "irst": 1028,
      "Ġtuy": 1029,
      "Ġtiáº¿p": 1030,
      "Ġstart": 1031,
      "ree": 1032,
      "ÄĳÃ¢y": 1033,
      "Ã¡t": 1034,
      "Ġliá»ĩu": 1035,
      "Ġsaid": 1036,
      "Ġpart": 1037,
      "Ġright": 1038,
      "ite": 1039,
      "Ġná»¯a": 1040,
      "Ġvá»ĭ": 1041,
      "Ġshe": 1042,
      "ory": 1043,
      "Ġgian": 1044,
      "Ġthá»©c": 1045,
      "Ġchiáº¿": 1046,
      "Ġrá»ĵi": 1047,
      "Ġtrá»į": 1048,
      "Ġthiáº¿t": 1049,
      "pt": 1050,
      "Ġxem": 1051,
      "ves": 1052,
      "Ġphá»¥": 1053,
      "Ġai": 1054,
      "Ġtwo": 1055,
      "ound": 1056,
      "ass": 1057,
      "Ġover": 1058,
      "ĠhoÃ¡": 1059,
      "Ġtrá»įng": 1060,
      "Ġsomething": 1061,
      "Ãło": 1062,
      "ĠthÃŃch": 1063,
      "ĠÄĳá»ĵng": 1064,
      "they": 1065,
      "Ġtrung": 1066,
      "own": 1067,
      "Ġgiáº£i": 1068,
      "á»ĩnh": 1069,
      "Ġdr": 1070,
      "Ġback": 1071,
      "iá»ħn": 1072,
      "Ġmuch": 1073,
      "he": 1074,
      "round": 1075,
      "Ġfirst": 1076,
      "Ġhai": 1077,
      "Ġdiffere": 1078,
      "iÃªu": 1079,
      "Ġaf": 1080,
      "Ġmo": 1081,
      "Ġtráº»": 1082,
      "sel": 1083,
      "be": 1084,
      "á»§": 1085,
      "Ġcall": 1086,
      "ĠlÆ°á»£ng": 1087,
      "ens": 1088,
      "Ġac": 1089,
      "Ġad": 1090,
      "ue": 1091,
      "áº¯ng": 1092,
      "Ġpo": 1093,
      "ving": 1094,
      "Ġprob": 1095,
      "Ġbáº¥t": 1096,
      "Ġthose": 1097,
      "ĠthÆ°á»Ŀng": 1098,
      "ĠvÃłi": 1099,
      "ĠÄĳo": 1100,
      "Ġcou": 1101,
      "ĠÄĳá»ģu": 1102,
      "ea": 1103,
      "ep": 1104,
      "ĠtiÃªn": 1105,
      "Ġalso": 1106,
      "Ġbl": 1107,
      "olog": 1108,
      "Ġgiá»¯": 1109,
      "ĠÄĳá»ĳi": 1110,
      "ĠsÃ¡ng": 1111,
      "ÄĳÃ³": 1112,
      "ign": 1113,
      "ater": 1114,
      "Ġid": 1115,
      "Ġcr": 1116,
      "Ġgot": 1117,
      "Ġlife": 1118,
      "áº³": 1119,
      "á»ĥn": 1120,
      "nder": 1121,
      "ĠquÃ¡": 1122,
      "amp": 1123,
      "báº¡n": 1124,
      "ĠtÃ¢m": 1125,
      "Ġhiá»ĥu": 1126,
      "á»Ļng": 1127,
      "cent": 1128,
      "Ġnay": 1129,
      "Ġloáº¡i": 1130,
      "Ġdes": 1131,
      "ber": 1132,
      "Ġgiá»ĳng": 1133,
      "Ġlot": 1134,
      "ult": 1135,
      "á»©c": 1136,
      "ght": 1137,
      "Ġláº§n": 1138,
      "Ġcá»©u": 1139,
      "Ġkind": 1140,
      "Ġbá»ĩnh": 1141,
      "ittle": 1142,
      "Ġbao": 1143,
      "Ġthá»ĳng": 1144,
      "Ġinter": 1145,
      "vel": 1146,
      "Ġtrá»": 1147,
      "way": 1148,
      "Ġlittle": 1149,
      "ks": 1150,
      "Ġhis": 1151,
      "Ġnghá»ĩ": 1152,
      "ĠviÃªn": 1153,
      "Ġunder": 1154,
      "Ġbet": 1155,
      "ody": 1156,
      "able": 1157,
      "Ġngo": 1158,
      "Ġ5": 1159,
      "Ãªm": 1160,
      "oss": 1161,
      "á»ĭch": 1162,
      "Ġday": 1163,
      "Ġmay": 1164,
      "Ġmost": 1165,
      "Ġres": 1166,
      "Ġher": 1167,
      "Ġchang": 1168,
      "ĠÄĳiá»ĥm": 1169,
      "ĠÄĳáº¡i": 1170,
      "ĠnghÄ©a": 1171,
      "iá»ģn": 1172,
      "á»ĩt": 1173,
      "Ġpro": 1174,
      "000": 1175,
      "Ġgá»įi": 1176,
      "Ġonly": 1177,
      "Ġnhá»ı": 1178,
      "Ġquá»ĳc": 1179,
      "Ġsy": 1180,
      "vÃ¬": 1181,
      "ated": 1182,
      "Ġbo": 1183,
      "Ġeven": 1184,
      "Ġgiáº£": 1185,
      "ations": 1186,
      "ĠÄĳÆ°a": 1187,
      "Ġind": 1188,
      "Ġgen": 1189,
      "Ġ4": 1190,
      "ĠtÆ°Æ¡ng": 1191,
      "Ġxu": 1192,
      "ĠhoÃłn": 1193,
      "ish": 1194,
      "ial": 1195,
      "ict": 1196,
      "Ġnghiá»ĩm": 1197,
      "má»Ļt": 1198,
      "Ġquáº£": 1199,
      "Ġstr": 1200,
      "ĠÄĳÆ°á»Ŀng": 1201,
      "ĠtÃ¡c": 1202,
      "Ġgood": 1203,
      "Ġtake": 1204,
      "Ġmany": 1205,
      "Ġváº«n": 1206,
      "ell": 1207,
      "uc": 1208,
      "ade": 1209,
      "ood": 1210,
      "Ġshow": 1211,
      "Ġchiáº¿c": 1212,
      "Ġnguy": 1213,
      "Ġ10": 1214,
      "Å©": 1215,
      "Ġhum": 1216,
      "Ġxáº£y": 1217,
      "ĠthuáºŃt": 1218,
      "Ġdifferent": 1219,
      "rough": 1220,
      "ĠdÃ¢n": 1221,
      "Ġbiá»ĩt": 1222,
      "ick": 1223,
      "ĠdÃ¹ng": 1224,
      "Ġhoáº·c": 1225,
      "Ġsc": 1226,
      "áº³ng": 1227,
      "ĠbÃªn": 1228,
      "Ġwell": 1229,
      "Äĥm": 1230,
      "váºŃy": 1231,
      "ĠlÃºc": 1232,
      "Ġtá»«ng": 1233,
      "Ġreal": 1234,
      "ance": 1235,
      "ĠÄĳáº¥t": 1236,
      "Ġcá»ĳ": 1237,
      "lem": 1238,
      "Ġtriá»ĥn": 1239,
      "Ġtruy": 1240,
      "ase": 1241,
      "int": 1242,
      "uct": 1243,
      "Ã£o": 1244,
      "Ġdiá»ħn": 1245,
      "Ġchuyá»ĥn": 1246,
      "other": 1247,
      "iá»ĩp": 1248,
      "áº©n": 1249,
      "Ġ19": 1250,
      "Ġdoes": 1251,
      "Ġtá»ķ": 1252,
      "á»ķ": 1253,
      "Ġsm": 1254,
      "Ġtrá»ĭ": 1255,
      "Ġnghe": 1256,
      "ath": 1257,
      "Ġthrough": 1258,
      "Ġcomm": 1259,
      "Ġaround": 1260,
      "Ġcao": 1261,
      "Ġ20": 1262,
      "Ġpre": 1263,
      "Ġquyáº¿t": 1264,
      "ĠhÃ£y": 1265,
      "ro": 1266,
      "á»įn": 1267,
      "Ġtuyá»ĩt": 1268,
      "«ng": 1269,
      "ĠÄĥn": 1270,
      "Ãºp": 1271,
      "Ġdáº¡": 1272,
      "ning": 1273,
      "ents": 1274,
      "Ġmá»Ĺi": 1275,
      "Ġcáº§u": 1276,
      "cÃ³": 1277,
      "ĠgiÃ¡o": 1278,
      "ph": 1279,
      "Ġcar": 1280,
      "ress": 1281,
      "Ġkhoáº£ng": 1282,
      "that": 1283,
      "uá»ĳi": 1284,
      "Ġtell": 1285,
      "Ġoff": 1286,
      "Ã¡m": 1287,
      "Ġlá»±c": 1288,
      "Ġkáº¿": 1289,
      "Ġkhu": 1290,
      "form": 1291,
      "Ġcháº¥t": 1292,
      "á»Ń": 1293,
      "Ã¡o": 1294,
      "Ġdown": 1295,
      "Ġwr": 1296,
      "Ġro": 1297,
      "ĠliÃªn": 1298,
      "Ġchá»§": 1299,
      "Ġbeing": 1300,
      "Ġbáº£o": 1301,
      "Ġla": 1302,
      "Ġput": 1303,
      "há»į": 1304,
      "Ġlá»Ŀi": 1305,
      "Ġtalk": 1306,
      "ary": 1307,
      "ĠÄĳÃºng": 1308,
      "Ã©p": 1309,
      "ĠgiÃºp": 1310,
      "£i": 1311,
      "áº§m": 1312,
      "Ġuse": 1313,
      "Ġtiáº¿n": 1314,
      "Ã³ng": 1315,
      "ĠÆ¡n": 1316,
      "Ġfl": 1317,
      "áº¯p": 1318,
      "av": 1319,
      "Ãµ": 1320,
      "Ġvi": 1321,
      "Ġbig": 1322,
      "Ã¨": 1323,
      "Ġ&#": 1324,
      "Ġthou": 1325,
      "ible": 1326,
      "ful": 1327,
      "ĠphÃ²ng": 1328,
      "Ġproblem": 1329,
      "©a": 1330,
      "Ġwhy": 1331,
      "day": 1332,
      "wn": 1333,
      "áº©m": 1334,
      "ĠtÃ¬nh": 1335,
      "ors": 1336,
      "ĠnghiÃªn": 1337,
      "ert": 1338,
      "ne": 1339,
      "Ġháº¿t": 1340,
      "ian": 1341,
      "les": 1342,
      "ĠchÆ°a": 1343,
      "ark": 1344,
      "Ġhappen": 1345,
      "ĠbÃ¬nh": 1346,
      "Æ°á»Ľi": 1347,
      "ile": 1348,
      "ject": 1349,
      "ting": 1350,
      "Ġmang": 1351,
      "Ġxuáº¥t": 1352,
      "ual": 1353,
      "lect": 1354,
      "ĠbÃłi": 1355,
      "Ġinc": 1356,
      "Æ°á»Ľng": 1357,
      "ĠphÃŃ": 1358,
      "Ġxe": 1359,
      "Ġfact": 1360,
      "Ġsame": 1361,
      "Ġtranh": 1362,
      "ĠphÃ¢n": 1363,
      "Äĳiá»ģu": 1364,
      "ĠÄĳiá»ĩn": 1365,
      "ĠphÆ°Æ¡ng": 1366,
      "Ġtruyá»ģn": 1367,
      "Ã³c": 1368,
      "ĠnÃ£o": 1369,
      "ĠÄĳÆ¡n": 1370,
      "ĠtáºŃp": 1371,
      "Ġcome": 1372,
      "xt": 1373,
      "Ġtay": 1374,
      "Ġgreat": 1375,
      "Ġcoun": 1376,
      "az": 1377,
      "there": 1378,
      "Ġtuá»ķi": 1379,
      "ord": 1380,
      "Ġká»³": 1381,
      "Ġtiáº¿ng": 1382,
      "áºŃu": 1383,
      "Ġtry": 1384,
      "ower": 1385,
      "Ġhu": 1386,
      "ĠÄĳáº·t": 1387,
      "te": 1388,
      "ry": 1389,
      "ĠtÆ°á»£ng": 1390,
      "ĠphÃ¡p": 1391,
      "Ġtiá»ģn": 1392,
      "Ġdá»": 1393,
      "Ġbiáº¿n": 1394,
      "ĠyÃªu": 1395,
      "Ġpers": 1396,
      "á»ĳng": 1397,
      "stem": 1398,
      "Ġgiá»¯a": 1399,
      "urn": 1400,
      "Ġdec": 1401,
      "cho": 1402,
      "Ġapp": 1403,
      "Ġkhoa": 1404,
      "Ġsáº£n": 1405,
      "ank": 1406,
      "Ã©t": 1407,
      "Ġthree": 1408,
      "Ġlet": 1409,
      "ÃŃt": 1410,
      "ond": 1411,
      "Ġsur": 1412,
      "Ġcol": 1413,
      "Ġfind": 1414,
      "Ġngay": 1415,
      "náº¿u": 1416,
      "Ġdoing": 1417,
      "á»ĵn": 1418,
      "Ġkháº£": 1419,
      "áº¡nh": 1420,
      "Ġtho": 1421,
      "Ġty": 1422,
      "ĠbÃ©": 1423,
      "Ġnhá»": 1424,
      "Ġtráº£": 1425,
      "áº·p": 1426,
      "Ġchiáº¿n": 1427,
      "Ġhá»ĵ": 1428,
      "nhá»¯ng": 1429,
      "what": 1430,
      "Ġstud": 1431,
      "chn": 1432,
      "ĠthÃº": 1433,
      "Ġbá»ı": 1434,
      "ved": 1435,
      "Ġgh": 1436,
      "Ġchild": 1437,
      "ces": 1438,
      "iver": 1439,
      "Ġláº¥y": 1440,
      "Ġhuman": 1441,
      "Ġ..": 1442,
      "pl": 1443,
      "ĠkhÃ³": 1444,
      "ically": 1445,
      "ft": 1446,
      "Ġsim": 1447,
      "ak": 1448,
      "Ġlong": 1449,
      "Ġ!": 1450,
      "Ġgáº§n": 1451,
      "ĠxÃ£": 1452,
      "self": 1453,
      "Ġchu": 1454,
      "Ġpercent": 1455,
      "Ġhoáº¡t": 1456,
      "Ġquest": 1457,
      "ics": 1458,
      "Ġbrain": 1459,
      "Ġsystem": 1460,
      "Ġthá»ĭ": 1461,
      "Ġcountr": 1462,
      "fore": 1463,
      "ĠÄĳÃ¡ng": 1464,
      "ĠsÃ¡ch": 1465,
      "Ġbel": 1466,
      "Ġlear": 1467,
      "Ġcá»¥": 1468,
      "Ġmá»¹": 1469,
      "ĠchÃŃ": 1470,
      "Ġsoci": 1471,
      "ail": 1472,
      "Ġcuá»ĳi": 1473,
      "Ġhiá»ĩu": 1474,
      "igh": 1475,
      "Ġpháº©m": 1476,
      "Ġtechn": 1477,
      "Ġown": 1478,
      "ĠthÃ¢n": 1479,
      "ĠÄĳá»Ŀi": 1480,
      "áº¥m": 1481,
      "Ġwom": 1482,
      "ates": 1483,
      "Ġinv": 1484,
      "Ġcalled": 1485,
      "Ġrem": 1486,
      "Ġsá»©c": 1487,
      "ĠchÆ¡i": 1488,
      "Ġminh": 1489,
      "per": 1490,
      "Ġbuild": 1491,
      "ating": 1492,
      "ars": 1493,
      "ition": 1494,
      "Ġmáº¥t": 1495,
      "á»©ng": 1496,
      "Ġká»ĥ": 1497,
      "ire": 1498,
      "Ġmade": 1499,
      "ons": 1500,
      "ology": 1501,
      "ious": 1502,
      "illion": 1503,
      "Ġagain": 1504,
      "Ġba": 1505,
      "khi": 1506,
      "Ġshould": 1507,
      "áº«u": 1508,
      "įng": 1509,
      "Ġted": 1510,
      "Ġhel": 1511,
      "Ġ...": 1512,
      "Ġmáº¡nh": 1513,
      "Ġob": 1514,
      "Ġend": 1515,
      "Ġnghiá»ĩp": 1516,
      "ĠtÃłi": 1517,
      "Ġimport": 1518,
      "ĠngoÃłi": 1519,
      "ĠÃŃt": 1520,
      "Ġcreat": 1521,
      "Ġcá»Ļng": 1522,
      "ĠláºŃp": 1523,
      "ren": 1524,
      "ĠÄĳáº¥y": 1525,
      "ĠkhÃŃ": 1526,
      "Ġunderst": 1527,
      "Ġcour": 1528,
      "Ã³m": 1529,
      "Ġdáº«n": 1530,
      "Ġins": 1531,
      "Ġbá»©c": 1532,
      "ĠloÃłi": 1533,
      "ĠmÃ´": 1534,
      "Ġexper": 1535,
      "ize": 1536,
      "Ġear": 1537,
      "Ġafter": 1538,
      "ra": 1539,
      "«a": 1540,
      "Ġtinh": 1541,
      "ple": 1542,
      "Ġke": 1543,
      "áºŃm": 1544,
      "Ġgl": 1545,
      "ĠxÃ¢y": 1546,
      "ric": 1547,
      "Ġsci": 1548,
      "ĠvÃ´": 1549,
      "ĠvÄĥn": 1550,
      "ĠÃ¢m": 1551,
      "ĠluÃ´n": 1552,
      "ĠtrÃŃ": 1553,
      "Ġev": 1554,
      "Ġchange": 1555,
      "Ġphá»ĳ": 1556,
      "Ġdá»±ng": 1557,
      "ĠtiÃªu": 1558,
      "ĠtÃªn": 1559,
      "Ġtoday": 1560,
      "olut": 1561,
      "Ġperson": 1562,
      "Ġtrans": 1563,
      "ities": 1564,
      "Ġspe": 1565,
      "ub": 1566,
      "Ġchá»©ng": 1567,
      "uá»ĳng": 1568,
      "á»¥c": 1569,
      "Ġfeel": 1570,
      "Ġtá»Ń": 1571,
      "ĠchÃº": 1572,
      "well": 1573,
      "Ġ6": 1574,
      "ands": 1575,
      "Ġdidn": 1576,
      "Ġthought": 1577,
      "Ġinst": 1578,
      "ope": 1579,
      "ied": 1580,
      "pe": 1581,
      "uyáº¿t": 1582,
      "Ġimportant": 1583,
      "ise": 1584,
      "ĠhÆ°á»Ľng": 1585,
      "áº§y": 1586,
      "ys": 1587,
      "Ġnháº¡c": 1588,
      "Ġask": 1589,
      "Ġidea": 1590,
      "Ġthá»Ń": 1591,
      "ĠbÃł": 1592,
      "Ġbá»ĳ": 1593,
      "Ġviáº¿t": 1594,
      "Ġmean": 1595,
      "ĠnguyÃªn": 1596,
      "ĠÄĳÃ¢u": 1597,
      "Ġchá»©c": 1598,
      "Ġkiáº¿n": 1599,
      "Ġ200": 1600,
      "Ã´m": 1601,
      "ĠtÆ°": 1602,
      "Ġlast": 1603,
      "chool": 1604,
      "trong": 1605,
      "Ġbas": 1606,
      "Ġá»©ng": 1607,
      "ĠtrÃ¡i": 1608,
      "Ġquyá»ģn": 1609,
      "Ġart": 1610,
      "Ġvá»Ŀi": 1611,
      "áº¡m": 1612,
      "ty": 1613,
      "Ġchá»įn": 1614,
      "ĠÄĳáº·c": 1615,
      "Ġstarted": 1616,
      "Ġpol": 1617,
      "ogr": 1618,
      "Ġcháº¿": 1619,
      "Ġmáº¹": 1620,
      "erest": 1621,
      "Ġcháº¿t": 1622,
      "Ġgiáº£n": 1623,
      "Ġschool": 1624,
      "Ġtá»¥": 1625,
      "Ġsuy": 1626,
      "Ġmáº¡ng": 1627,
      "Ġhelp": 1628,
      "body": 1629,
      "Ġsl": 1630,
      "Ġmon": 1631,
      "ave": 1632,
      "ĠÄĳáº¡o": 1633,
      "Ġpower": 1634,
      "gan": 1635,
      "ids": 1636,
      "ĠsÄ©": 1637,
      "Ġfound": 1638,
      "Ġdesign": 1639,
      "Ġtháº§n": 1640,
      "Ġrel": 1641,
      "Ġvá»¥": 1642,
      "Ġcáº¥p": 1643,
      "als": 1644,
      "Ġplay": 1645,
      "Ġwent": 1646,
      "ĠbÃło": 1647,
      "Ġngu": 1648,
      "Ġits": 1649,
      "iáº¿m": 1650,
      "á»ıi": 1651,
      "Ġtriá»ĩu": 1652,
      "ull": 1653,
      "Ġunderstand": 1654,
      "Ġbefore": 1655,
      "ough": 1656,
      "áº¡p": 1657,
      "ĠtÄĥng": 1658,
      "Ġná»ģn": 1659,
      "ĠÄĳá»©a": 1660,
      "Ġstory": 1661,
      "áº¹p": 1662,
      "Ġbelie": 1663,
      "cÃ¡c": 1664,
      "Ġláº½": 1665,
      "Ġhim": 1666,
      "Ġmight": 1667,
      "Ġgive": 1668,
      "kes": 1669,
      "ork": 1670,
      "á»Ĺi": 1671,
      "Ġtra": 1672,
      "Ġprod": 1673,
      "Ġeng": 1674,
      "áº¡ch": 1675,
      "áº£m": 1676,
      "ĠmÃłu": 1677,
      "Ġnever": 1678,
      "Ġkhá»ıi": 1679,
      "oth": 1680,
      "eric": 1681,
      "Ġ9": 1682,
      "Ġinterest": 1683,
      "ds": 1684,
      "Ġcá»±c": 1685,
      "Ġrec": 1686,
      "Ġcons": 1687,
      "ĠÄĳÃ¡nh": 1688,
      "ix": 1689,
      "Ġbay": 1690,
      "ĠthÃ¡ng": 1691,
      "Ġbetter": 1692,
      "Ġcourse": 1693,
      "Ġturn": 1694,
      "Ġphi": 1695,
      "Ġexamp": 1696,
      "Ġintern": 1697,
      "ular": 1698,
      "Ġgáº·p": 1699,
      "ĠdÆ°á»Ľi": 1700,
      "Ġbit": 1701,
      "Ġ7": 1702,
      "áº¯m": 1703,
      "Ġtá»ĵ": 1704,
      "Ġfam": 1705,
      "Ġstill": 1706,
      "Ġmin": 1707,
      "Ġcá»Ń": 1708,
      "ese": 1709,
      "Ġ8": 1710,
      "Ġable": 1711,
      "ĠchÃºt": 1712,
      "atter": 1713,
      "Ġimag": 1714,
      "Ġpoint": 1715,
      "Ġxuá»ĳng": 1716,
      "Ġent": 1717,
      "atch": 1718,
      "ists": 1719,
      "ility": 1720,
      "lic": 1721,
      "Ã¡p": 1722,
      "ily": 1723,
      "Ġed": 1724,
      "Ġlearn": 1725,
      "Ġcont": 1726,
      "Ġgáº¯ng": 1727,
      "ĠkhÃ¡": 1728,
      "Ġacc": 1729,
      "ĠnhÃ³m": 1730,
      "Ġlove": 1731,
      "Ã¢ng": 1732,
      "Ġfew": 1733,
      "Ġdá»ĭch": 1734,
      "Ġhigh": 1735,
      "ather": 1736,
      "Ġrob": 1737,
      "ĠphÃ©p": 1738,
      "arch": 1739,
      "ience": 1740,
      "Ġmá»Ł": 1741,
      "ween": 1742,
      "velop": 1743,
      "Ġquanh": 1744,
      "Ġnext": 1745,
      "Ġcame": 1746,
      "Ġ%": 1747,
      "ĠÃ¡n": 1748,
      "Ġcommun": 1749,
      "Ġvá»±c": 1750,
      "Ġcontr": 1751,
      "ata": 1752,
      "Ġkhiáº¿n": 1753,
      "Ġser": 1754,
      "ĠxÃ¡c": 1755,
      "Ġdá»¯": 1756,
      "Ġchia": 1757,
      "ness": 1758,
      "ĠbÃ¢y": 1759,
      "Ġtoge": 1760,
      "Ġtogether": 1761,
      "Ã£i": 1762,
      "erg": 1763,
      "alth": 1764,
      "Ġquay": 1765,
      "ĠthÃªm": 1766,
      "ms": 1767,
      "ward": 1768,
      "Ġduy": 1769,
      "Ġtham": 1770,
      "Ġmod": 1771,
      "ĠtrÃ²": 1772,
      "Ġthuyáº¿t": 1773,
      "Ġanother": 1774,
      "Ġcell": 1775,
      "iss": 1776,
      "Ġcent": 1777,
      "Ġnhanh": 1778,
      "Ġeach": 1779,
      "Ġdevelop": 1780,
      "Ġmed": 1781,
      "Ġmá»©c": 1782,
      "Ġbi": 1783,
      "Ġfo": 1784,
      "Ġcomple": 1785,
      "Ġdáº¡ng": 1786,
      "ĠÄĳÃłn": 1787,
      "read": 1788,
      "Ġmus": 1789,
      "ited": 1790,
      "ĠrÃµ": 1791,
      "Ġvá»įng": 1792,
      "khÃ´ng": 1793,
      "ĠgÃ¢y": 1794,
      "Ġbetween": 1795,
      "Ġmom": 1796,
      "ock": 1797,
      "Ġquestion": 1798,
      "ense": 1799,
      "Ġnguá»ĵn": 1800,
      "ĠdÃ¹": 1801,
      "Ġnum": 1802,
      "Ġcáº£nh": 1803,
      "ized": 1804,
      "Ġcháº¯c": 1805,
      "Ġago": 1806,
      "ĠvÃ¹ng": 1807,
      "ĠbÃ¡o": 1808,
      "Ġcre": 1809,
      "ĠÄĳáº¹p": 1810,
      "bÃ¢y": 1811,
      "Ġfin": 1812,
      "ck": 1813,
      "Ġ30": 1814,
      "Ġsort": 1815,
      "Ġjo": 1816,
      "Ġtá»¥c": 1817,
      "ĠgiÃ¡c": 1818,
      "ĠvÃŃ": 1819,
      "ĠchÃ¢u": 1820,
      "Ġfour": 1821,
      "Ġplace": 1822,
      "Ġdata": 1823,
      "Ġdá»ħ": 1824,
      "Ġwomen": 1825,
      "Ġcháº³ng": 1826,
      "ĠsÃ¡t": 1827,
      "ĠcÃłng": 1828,
      "ĠkÃ¬": 1829,
      "ĠhÃ´m": 1830,
      "ĠÄĳá»§": 1831,
      "Ġxa": 1832,
      "aph": 1833,
      "co": 1834,
      "ĠcÃ¢y": 1835,
      "iness": 1836,
      "ever": 1837,
      "Ġel": 1838,
      "Ãªng": 1839,
      "Ġused": 1840,
      "Ġtrang": 1841,
      "91": 1842,
      "93": 1843,
      "Ġchá»ĭ": 1844,
      "ĠphÃŃa": 1845,
      "Ġvu": 1846,
      "Ġphim": 1847,
      "Ġvide": 1848,
      "Ġop": 1849,
      "Ġplan": 1850,
      "Ġnhá»Ľ": 1851,
      "Ġbiá»ĥu": 1852,
      "Ġhy": 1853,
      "oney": 1854,
      "Ġtoo": 1855,
      "ures": 1856,
      "ĠhÆ°á»Łng": 1857,
      "Ġgrow": 1858,
      "ĠÄĳoáº¡n": 1859,
      "ĠvÅ©": 1860,
      "Ġwater": 1861,
      "ways": 1862,
      "Æ°u": 1863,
      "ĠthÆ°Æ¡ng": 1864,
      "ote": 1865,
      "Ġlight": 1866,
      "Ġkiá»ĥm": 1867,
      "when": 1868,
      "Ġnam": 1869,
      "ings": 1870,
      "Ġbus": 1871,
      "Ġold": 1872,
      "ĠÄĳÃ´i": 1873,
      "Ġread": 1874,
      "pr": 1875,
      "Ġri": 1876,
      "Ġnat": 1877,
      "Ġexample": 1878,
      "conom": 1879,
      "ets": 1880,
      "formation": 1881,
      "ug": 1882,
      "Ġrá»": 1883,
      "man": 1884,
      "ĠvÃ²ng": 1885,
      "Ġchá»¯": 1886,
      "Ġ50": 1887,
      "ific": 1888,
      "ĠluáºŃn": 1889,
      "ĠdÃłi": 1890,
      "ins": 1891,
      "Ġngá»¯": 1892,
      "orn": 1893,
      "Ġless": 1894,
      "Ġngá»": 1895,
      "Ġpháº£n": 1896,
      "Ġlive": 1897,
      "cc": 1898,
      "Ġdone": 1899,
      "Ġameric": 1900,
      "ered": 1901,
      "Ġsmall": 1902,
      "cept": 1903,
      "Ġsecon": 1904,
      "Ġcare": 1905,
      "Ġ15": 1906,
      "uá»ĳc": 1907,
      "air": 1908,
      "thank": 1909,
      "Ġdem": 1910,
      "Ġtrá»Ŀi": 1911,
      "ale": 1912,
      "Ġwal": 1913,
      "Ġ100": 1914,
      "Ġdoesn": 1915,
      "Ġdá»¥c": 1916,
      "Ġtechnology": 1917,
      "ĠÄĳáº§y": 1918,
      "hÃ£y": 1919,
      "hing": 1920,
      "Ġeconom": 1921,
      "á»§ng": 1922,
      "áº¡y": 1923,
      "Ġfar": 1924,
      "Ġhá»ĵi": 1925,
      "to": 1926,
      "Ġbeh": 1927,
      "Ġlá»£i": 1928,
      "Ġexpl": 1929,
      "how": 1930,
      "Ġhome": 1931,
      "Ġwanted": 1932,
      "Ġkia": 1933,
      "iend": 1934,
      "Ġgiáº£m": 1935,
      "ĠthÃ´i": 1936,
      "Ġchildren": 1937,
      "á»ī": 1938,
      "ĠtháºŃm": 1939,
      "let": 1940,
      "Ġlooking": 1941,
      "Ġproject": 1942,
      "Ġthuá»ĳc": 1943,
      "ĠchÃ¢n": 1944,
      "Ġter": 1945,
      "á»±a": 1946,
      "áº±m": 1947,
      "ĠthÆ°": 1948,
      "Ġuniver": 1949,
      "Ġmoney": 1950,
      "Ġalways": 1951,
      "Ġgener": 1952,
      "ably": 1953,
      "Ġbelieve": 1954,
      "Ġkiáº¿m": 1955,
      "ount": 1956,
      "Ġeff": 1957,
      "Ġvá»«a": 1958,
      "Ġvideo": 1959,
      "Ġmove": 1960,
      "Ġwar": 1961,
      "selves": 1962,
      "ĠtÃŃch": 1963,
      "Ġpartic": 1964,
      "Ġnor": 1965,
      "ĠtrÄĥm": 1966,
      "ĠÄĳÃ´": 1967,
      "Ġcomput": 1968,
      "Ġlai": 1969,
      "Ġca": 1970,
      "Ġsk": 1971,
      "Ġrun": 1972,
      "Ġinternet": 1973,
      "Ġhá»Ļ": 1974,
      "Ġgiao": 1975,
      "Æ°á»¡": 1976,
      "ĠbÆ°á»Ľc": 1977,
      "Ġhealth": 1978,
      "Ġworking": 1979,
      "ĠÄĳÃ¬nh": 1980,
      "Ġlá»ĩ": 1981,
      "Ġwhole": 1982,
      "tháº¿": 1983,
      "Ġatt": 1984,
      "bo": 1985,
      "iáº¿u": 1986,
      "Ġteach": 1987,
      "Ġháº¡n": 1988,
      "ĠtoÃ¡n": 1989,
      "ative": 1990,
      "Ġbook": 1991,
      "Ġsing": 1992,
      "Ġcap": 1993,
      "Ġproc": 1994,
      "ational": 1995,
      "Ġreas": 1996,
      "no": 1997,
      "ĠmÃ´i": 1998,
      "Ġlar": 1999,
      "Ġhard": 2000,
      "Ġposs": 2001,
      "Ġchi": 2002,
      "Ġguy": 2003,
      "Ġtá»ī": 2004,
      "Ġinformation": 2005,
      "Ãłu": 2006,
      "ĠsÃ¢u": 2007,
      "ĠÄĳá»ĭa": 2008,
      "Ġphá»¥c": 2009,
      "Ġaway": 2010,
      "Ġfood": 2011,
      "Ġreg": 2012,
      "Ġsub": 2013,
      "Ġtráº£i": 2014,
      "Ġtá»ĵn": 2015,
      "aw": 2016,
      "iá»ģm": 2017,
      "br": 2018,
      "Ġthanh": 2019,
      "Ġnghi": 2020,
      "Ġdiá»ĩn": 2021,
      "led": 2022,
      "Ġcountry": 2023,
      "Ġban": 2024,
      "Ġkids": 2025,
      "Ġrá»Ļng": 2026,
      "bec": 2027,
      "ten": 2028,
      "Ġmá»¥c": 2029,
      "Ġtrying": 2030,
      "sw": 2031,
      "Ġform": 2032,
      "Ġmind": 2033,
      "ĠluáºŃt": 2034,
      "ĠlÃ²ng": 2035,
      "ĠdÃłnh": 2036,
      "Ġtáº¡p": 2037,
      "Ġná»ĳi": 2038,
      "Ġweb": 2039,
      "Ġmáº¯t": 2040,
      "Ġfriend": 2041,
      "Ġvá»ĩ": 2042,
      "ĠÄĳoÃ¡n": 2043,
      "Ġcreate": 2044,
      "Ġdoll": 2045,
      "Ġz": 2046,
      "ural": 2047,
      "ĠÄĳá»©ng": 2048,
      "Ġthuá»Ļc": 2049,
      "uá»ĳt": 2050,
      "Ġresp": 2051,
      "Ġfive": 2052,
      "hip": 2053,
      "ĠriÃªng": 2054,
      "Ġsá»£": 2055,
      "because": 2056,
      "ĠthÃŃ": 2057,
      "ĠÄĳáº¡t": 2058,
      "Ġmar": 2059,
      "Ġlead": 2060,
      "ĠlÃ£": 2061,
      "Ġsai": 2062,
      "str": 2063,
      "Ġká»¹": 2064,
      "Ġdáº¡y": 2065,
      "my": 2066,
      "įc": 2067,
      "Ġchar": 2068,
      "Ġrep": 2069,
      "Ġtimes": 2070,
      "Ġná»ķi": 2071,
      "Ġphá»§": 2072,
      "ism": 2073,
      "Ġusing": 2074,
      "Ġmet": 2075,
      "its": 2076,
      "Ġváº»": 2077,
      "Ġspace": 2078,
      "nect": 2079,
      "Ġrobot": 2080,
      "olution": 2081,
      "Ġtá»ĳi": 2082,
      "ier": 2083,
      "Ġmillion": 2084,
      "ĠcÄĥn": 2085,
      "Ġvis": 2086,
      "Ġmaybe": 2087,
      "Ġmeans": 2088,
      "ĠthÃºc": 2089,
      "Ġlá»ĭch": 2090,
      "ĠcáºŃu": 2091,
      "ines": 2092,
      "Ġsáº»": 2093,
      "ĠthÃ¡i": 2094,
      "Ġconf": 2095,
      "Ġval": 2096,
      "Ġopen": 2097,
      "Ġpict": 2098,
      "Ġmáº«u": 2099,
      "Ġxung": 2100,
      "aces": 2101,
      "Ġpop": 2102,
      "Ġinf": 2103,
      "Ġorgan": 2104,
      "Ġsupp": 2105,
      "ĠÃ¡nh": 2106,
      "Ġsol": 2107,
      "ĠbÃłn": 2108,
      "Ġhand": 2109,
      "Ġsecond": 2110,
      "Ġlang": 2111,
      "Ġok": 2112,
      "Ġbecome": 2113,
      "Ġká»·": 2114,
      "Ġfut": 2115,
      "ĠÄĳá»įc": 2116,
      "Ġprocess": 2117,
      "Ġelect": 2118,
      "cr": 2119,
      "Ġpub": 2120,
      "áº·ng": 2121,
      "Ġlá»Ľp": 2122,
      "Ġanim": 2123,
      "Ġcompan": 2124,
      "Ġtrá»¥": 2125,
      "Ġeverything": 2126,
      "Ġáº¥n": 2127,
      "do": 2128,
      "ps": 2129,
      "Ġcam": 2130,
      "Ġface": 2131,
      "Ġyáº¿u": 2132,
      "ories": 2133,
      "io": 2134,
      "ĠchÆ°Æ¡ng": 2135,
      "Ġpass": 2136,
      "omet": 2137,
      "ments": 2138,
      "Ġbest": 2139,
      "Ġstre": 2140,
      "Ġshare": 2141,
      "Ġthinking": 2142,
      "Ġvui": 2143,
      "Ġpres": 2144,
      "Ġtook": 2145,
      "ina": 2146,
      "ĠtrÃ´ng": 2147,
      "Ġkháº¯p": 2148,
      "Ġpar": 2149,
      "Ġkhoáº»": 2150,
      "Ġfuture": 2151,
      "Ġpat": 2152,
      "Ġcháº¡y": 2153,
      "Ġgu": 2154,
      "Ġsocial": 2155,
      "Ġtiáº¿t": 2156,
      "Ġche": 2157,
      "Ġenerg": 2158,
      "Ġhead": 2159,
      "Ġngá»ĵi": 2160,
      "ĠgÃ¡i": 2161,
      "aut": 2162,
      "Ġfun": 2163,
      "Ġcle": 2164,
      "ĠthiÃªn": 2165,
      "áº¡ng": 2166,
      "iew": 2167,
      "ble": 2168,
      "na": 2169,
      "most": 2170,
      "Ġwhe": 2171,
      "Ġquite": 2172,
      "Ġbuá»ķi": 2173,
      "ĠphÃºt": 2174,
      "Ġsays": 2175,
      "Ġmá»ĳi": 2176,
      "Ġchá»¥": 2177,
      "Ġcuá»ĳn": 2178,
      "cer": 2179,
      "Ġtrá»£": 2180,
      "Ġred": 2181,
      "where": 2182,
      "nce": 2183,
      "ention": 2184,
      "Ġháº§u": 2185,
      "Ġnumber": 2186,
      "ĠmÃ¹": 2187,
      "Ġbiá»ĥn": 2188,
      "--": 2189,
      "ues": 2190,
      "Ġsáº¯c": 2191,
      "Æ°á»£t": 2192,
      "Ġenough": 2193,
      "á»·": 2194,
      "Ġcháº¯n": 2195,
      "alf": 2196,
      "Ġgrou": 2197,
      "ouse": 2198,
      "Ġsuá»ĳt": 2199,
      "Ġleft": 2200,
      "Ġpret": 2201,
      "Ġ12": 2202,
      "Ġansw": 2203,
      "Ġglob": 2204,
      "iting": 2205,
      "Ġrese": 2206,
      "Ġmen": 2207,
      "Ġgre": 2208,
      "Ġstu": 2209,
      "vern": 2210,
      "Ġkiá»ĩn": 2211,
      "Ġda": 2212,
      "Ġchung": 2213,
      "ĠtrÃºc": 2214,
      "Ġenergy": 2215,
      "Ġsw": 2216,
      "ĠngÃ´n": 2217,
      "Ġbeg": 2218,
      "Ġcomes": 2219,
      "Ġlives": 2220,
      "ety": 2221,
      "ĠkÃ©": 2222,
      "ertain": 2223,
      "Ġmor": 2224,
      "Ġdoanh": 2225,
      "Ġgetting": 2226,
      "Ġhoa": 2227,
      "ĠÄĳÃ´ng": 2228,
      "Ġviá»ĩn": 2229,
      "Ġmua": 2230,
      "Ġbody": 2231,
      "Ġmaking": 2232,
      "Ġdet": 2233,
      "Ġkiá»ĥu": 2234,
      "Ġide": 2235,
      "Ġxin": 2236,
      "ital": 2237,
      "Ġenv": 2238,
      "cy": 2239,
      "ĠsÆ°": 2240,
      "Ġafric": 2241,
      "Ġsá»Ł": 2242,
      "Ġphot": 2243,
      "Ġyork": 2244,
      "giá»": 2245,
      "ĠváºŃn": 2246,
      "Ġresearch": 2247,
      "Ġcal": 2248,
      "Ġjob": 2249,
      "Ġcá»Ńa": 2250,
      "Ġcur": 2251,
      "ĠkhÃ¡m": 2252,
      "Ã¨o": 2253,
      "ĠcÃ¡nh": 2254,
      "Ġmonth": 2255,
      "Ġset": 2256,
      "Ġconnect": 2257,
      "Ġscience": 2258,
      "Ġcity": 2259,
      "Ġmark": 2260,
      "ices": 2261,
      "oy": 2262,
      "ont": 2263,
      "Ġngáº¡c": 2264,
      "Ġeas": 2265,
      "ĠbÃ¡n": 2266,
      "ĠxÃ©t": 2267,
      "idd": 2268,
      "old": 2269,
      "Ġspec": 2270,
      "Ġproduct": 2271,
      "ri": 2272,
      "ĠxÃºc": 2273,
      "Ġroom": 2274,
      "Ġfu": 2275,
      "cial": 2276,
      "Ġtuáº§n": 2277,
      "ah": 2278,
      "Ġvir": 2279,
      "Ġgovern": 2280,
      "ĠlÃ¢u": 2281,
      "Ġbusiness": 2282,
      "Ġsound": 2283,
      "Ġsense": 2284,
      "Ġwond": 2285,
      "ĠrÃłng": 2286,
      "Ġmoment": 2287,
      "ering": 2288,
      "Ġwithout": 2289,
      "Ġthoáº¡i": 2290,
      "Ġhappened": 2291,
      "iron": 2292,
      "Ġprobably": 2293,
      "Ġhiá»ĥm": 2294,
      "Ġtop": 2295,
      "Ġcountries": 2296,
      "Ġkeep": 2297,
      "Ġmakes": 2298,
      "Ġmusic": 2299,
      "Ġ/": 2300,
      "ĠhoÃł": 2301,
      "rect": 2302,
      "Ġearth": 2303,
      "Ġdollars": 2304,
      "Ã¡u": 2305,
      "ember": 2306,
      "Ġtalking": 2307,
      "land": 2308,
      "á»ĵng": 2309,
      "bá»Łi": 2310,
      "Ġnhiá»ĩm": 2311,
      "Ġcáº¥u": 2312,
      "Ġbeaut": 2313,
      "ĠkÃŃch": 2314,
      "ĠngÃ´i": 2315,
      "Ġyoung": 2316,
      "gest": 2317,
      "ner": 2318,
      "Ġpie": 2319,
      "Ġhist": 2320,
      "Ġdep": 2321,
      "Ġinteresting": 2322,
      "Ġenviron": 2323,
      "Æ°á»¡ng": 2324,
      "Ġcung": 2325,
      "Ġphá»©c": 2326,
      "Ġstand": 2327,
      "Ġseem": 2328,
      "Ġacr": 2329,
      "Ġeduc": 2330,
      "á»©": 2331,
      "Ġair": 2332,
      "Ġbre": 2333,
      "Ġprot": 2334,
      "ĠchuyÃªn": 2335,
      "aps": 2336,
      "llow": 2337,
      "uring": 2338,
      "ĠbÃ³ng": 2339,
      "ĠnháºŃp": 2340,
      "Ġreason": 2341,
      "Ġpretty": 2342,
      "Ġnáº±m": 2343,
      "Ġlab": 2344,
      "Ä©nh": 2345,
      "Ġamaz": 2346,
      "Ġchá»¥p": 2347,
      "Ġexperience": 2348,
      "Ġtold": 2349,
      "Ġey": 2350,
      "Ġkáº»": 2351,
      "ĠbÄĥng": 2352,
      "Ġadd": 2353,
      "Ġwee": 2354,
      "Ġcult": 2355,
      "here": 2356,
      "Ġcase": 2357,
      "Ġdef": 2358,
      "ior": 2359,
      "vers": 2360,
      "Ġminut": 2361,
      "Ġelse": 2362,
      "Ġphys": 2363,
      "ĠÄĳá»Ļc": 2364,
      "by": 2365,
      "ĠÄĳa": 2366,
      "Ġopp": 2367,
      "Ġmatter": 2368,
      "Ġlist": 2369,
      "Ġsuch": 2370,
      "Ġcáº¡nh": 2371,
      "Ġ40": 2372,
      "Ġsimple": 2373,
      "Ġacross": 2374,
      "Ġhalf": 2375,
      "Ġpolit": 2376,
      "Ġcor": 2377,
      "Ġháº¡nh": 2378,
      "Ġallow": 2379,
      "ograph": 2380,
      "Ġhá»¯": 2381,
      "á»įc": 2382,
      "Ġvo": 2383,
      "Ġlangu": 2384,
      "Ġhá»¯u": 2385,
      "ĠtrÆ°á»Łng": 2386,
      "ided": 2387,
      "Ġ18": 2388,
      "ger": 2389,
      "Ġscient": 2390,
      "áºµ": 2391,
      "Ġsign": 2392,
      "ately": 2393,
      "Ġcells": 2394,
      "ĠbÃ¡c": 2395,
      "Ġstop": 2396,
      "ott": 2397,
      "Ġside": 2398,
      "Ġchá»©": 2399,
      "Ġsaw": 2400,
      "Ġstuff": 2401,
      "áº¿p": 2402,
      "these": 2403,
      "Ġchá»Ĺ": 2404,
      "ird": 2405,
      "ĠngÃłnh": 2406,
      "ced": 2407,
      "Ġkhá»§ng": 2408,
      "less": 2409,
      "Ġinside": 2410,
      "ĠtháºŃp": 2411,
      "Ġdung": 2412,
      "Ġliving": 2413,
      "ling": 2414,
      "ash": 2415,
      "der": 2416,
      "ient": 2417,
      "lf": 2418,
      "ngÆ°á»Ŀi": 2419,
      "Ġbuilding": 2420,
      "ĠquÃ½": 2421,
      "Ġmodel": 2422,
      "Ġváº½": 2423,
      "Ġglobal": 2424,
      "sau": 2425,
      "Ġways": 2426,
      "Ġfamily": 2427,
      "Ġasked": 2428,
      "Ġleg": 2429,
      "Ġhope": 2430,
      "ĠÄĳá»©c": 2431,
      "ĠÃŃch": 2432,
      "Ġhour": 2433,
      "Ġxanh": 2434,
      "áºµn": 2435,
      "Ġtre": 2436,
      "Ġanything": 2437,
      "Ġbring": 2438,
      "ĠphÃºc": 2439,
      "Ġbad": 2440,
      "Ġchuáº©n": 2441,
      "ith": 2442,
      "she": 2443,
      "Ġwatch": 2444,
      "ality": 2445,
      "Ġext": 2446,
      "áº©y": 2447,
      "Ġprof": 2448,
      "Ġghi": 2449,
      "uyÃªn": 2450,
      "Ġhappens": 2451,
      "ying": 2452,
      "Ġthiáº¿u": 2453,
      "Ġláº¯ng": 2454,
      "Ġlater": 2455,
      "ince": 2456,
      "Ġwhile": 2457,
      "Ġgir": 2458,
      "Ġgoes": 2459,
      "á»ĳt": 2460,
      "Ġhoáº¡": 2461,
      "Ġsáºµn": 2462,
      "Ġchá»ĭu": 2463,
      "Ġir": 2464,
      "âĢ": 2465,
      "Ġcoming": 2466,
      "ortun": 2467,
      "Ġhar": 2468,
      "Ġthank": 2469,
      "ĠâĢ": 2470,
      "Ġtáº¥m": 2471,
      "Ġwa": 2472,
      "Ġpain": 2473,
      "Ġhá»ģ": 2474,
      "Ġenvironment": 2475,
      "uth": 2476,
      "not": 2477,
      "li": 2478,
      "Ġsáº¯p": 2479,
      "Ġyet": 2480,
      "Ġtá»ĩ": 2481,
      "imes": 2482,
      "ulation": 2483,
      "Ġwrong": 2484,
      "ĠtÃ¡i": 2485,
      "Ġtá»ķng": 2486,
      "táº¥t": 2487,
      "Ġcha": 2488,
      "Ġniá»ĩm": 2489,
      "Ġtá»©c": 2490,
      "ilt": 2491,
      "Ġspea": 2492,
      "á»Ńi": 2493,
      "á»Ļn": 2494,
      "Ġpháº¡m": 2495,
      "Ġparticular": 2496,
      "ĠtÃ¢y": 2497,
      "ĠnhiÃªu": 2498,
      "att": 2499,
      "Ġref": 2500,
      "Ġsingle": 2501,
      "ĠÄĳau": 2502,
      "ĠkhÄĥn": 2503,
      "Ãºi": 2504,
      "Ġsit": 2505,
      "Ġmáº·c": 2506,
      "Ġchá»ĳng": 2507,
      "Ġmag": 2508,
      "ĠhÆ¡i": 2509,
      "alle": 2510,
      "ime": 2511,
      "Ã³n": 2512,
      "Ġtrai": 2513,
      "Ġproblems": 2514,
      "ĠÃ¡p": 2515,
      "Ġloc": 2516,
      "acy": 2517,
      "á»Ńa": 2518,
      "Ġequ": 2519,
      "Ġmach": 2520,
      "iter": 2521,
      "Ġheart": 2522,
      "cl": 2523,
      "Ġprop": 2524,
      "Ġdays": 2525,
      "Ġtest": 2526,
      "Ġmong": 2527,
      "Ġgá»": 2528,
      "Ġstates": 2529,
      "nÃªn": 2530,
      "Ġláº¡": 2531,
      "Ġdev": 2532,
      "ivid": 2533,
      "Ġcontrol": 2534,
      "ĠmÃ£": 2535,
      "Ġláº¡c": 2536,
      "Ġtháº¥t": 2537,
      "Ġfig": 2538,
      "Ġste": 2539,
      "Ġoh": 2540,
      "á»ĳn": 2541,
      "Ġhaving": 2542,
      "arent": 2543,
      "Ġpublic": 2544,
      "lish": 2545,
      "uÃ´i": 2546,
      "Ġ25": 2547,
      "Ġeffect": 2548,
      "Ġcáº£i": 2549,
      "Ġfore": 2550,
      "cáº£m": 2551,
      "ĠÄĳÃ¡": 2552,
      "Ġxá»Ń": 2553,
      "Ġnews": 2554,
      "Ġdá»±a": 2555,
      "Ġbegin": 2556,
      "ĠÄĳÃ³ng": 2557,
      "Ġthous": 2558,
      "ogram": 2559,
      "Ġcomplete": 2560,
      "Ãłm": 2561,
      "Ġsix": 2562,
      "Ġmem": 2563,
      "Ġgame": 2564,
      "Ġsomeone": 2565,
      "Ġwords": 2566,
      "Ġgirl": 2567,
      "me": 2568,
      "Ġge": 2569,
      "Ġcá»ķ": 2570,
      "Ġseen": 2571,
      "Ġfil": 2572,
      "ters": 2573,
      "Ġmyself": 2574,
      "Ġbillion": 2575,
      "ene": 2576,
      "ĠbÃ¡nh": 2577,
      "Ġlá»±a": 2578,
      "Ġpos": 2579,
      "ape": 2580,
      "Ġsure": 2581,
      "ĠtoÃł": 2582,
      "Ġhear": 2583,
      "Ġná»Ļi": 2584,
      "Ġself": 2585,
      "Ġlevel": 2586,
      "Ġtrá»±c": 2587,
      "Ġoften": 2588,
      "ĠÄĳá»Ļi": 2589,
      "ization": 2590,
      "aterial": 2591,
      "Ġcertain": 2592,
      "Ġpicture": 2593,
      "ĠháºŃu": 2594,
      "Ġrest": 2595,
      "Ġwithin": 2596,
      "Ġsaying": 2597,
      "Ġnothing": 2598,
      "Ġkhá»ķ": 2599,
      "Ġonce": 2600,
      "Ġkill": 2601,
      "Ġgá»Ńi": 2602,
      "Ġsou": 2603,
      "ional": 2604,
      "istan": 2605,
      "Ġcomputer": 2606,
      "Ġideas": 2607,
      "táº¡i": 2608,
      "lo": 2609,
      "Ġlooked": 2610,
      "Ġmil": 2611,
      "itive": 2612,
      "Ġdise": 2613,
      "Ġwhether": 2614,
      "Ġboth": 2615,
      "ĠvÆ°á»£t": 2616,
      "ustr": 2617,
      "Ġtáº§m": 2618,
      "ĠmáºŃt": 2619,
      "Ġage": 2620,
      "Ġkháº¯c": 2621,
      "Ġwalk": 2622,
      "Ġpossible": 2623,
      "Ġnet": 2624,
      "Ġtrue": 2625,
      "Ġtá»·": 2626,
      "get": 2627,
      "Ġnhu": 2628,
      "ĠchÄĥm": 2629,
      "ĠdÆ°Æ¡ng": 2630,
      "ants": 2631,
      "Ġcommunity": 2632,
      "ts": 2633,
      "Ġdáº§n": 2634,
      "Ġxáº¥u": 2635,
      "Ġáº©n": 2636,
      "Ġkne": 2637,
      "Ġexact": 2638,
      "unch": 2639,
      "Ġlanguage": 2640,
      "Ġháº¡t": 2641,
      "Ġanswer": 2642,
      "Ġthiá»ĩn": 2643,
      "Ġclass": 2644,
      "Ġnight": 2645,
      "Ġmic": 2646,
      "Ġdanh": 2647,
      "Ġunt": 2648,
      "Ġhá»©ng": 2649,
      "ane": 2650,
      "Ġiss": 2651,
      "Ġtreat": 2652,
      "row": 2653,
      "Ġmaterial": 2654,
      "ury": 2655,
      "Ġfull": 2656,
      "ta": 2657,
      "ern": 2658,
      "Ġalmost": 2659,
      "aper": 2660,
      "Ġngoáº¡i": 2661,
      "giá»Ŀ": 2662,
      "Ġsang": 2663,
      "ĠlÆ°u": 2664,
      "Ġthá»§": 2665,
      "Ġcond": 2666,
      "Ġindivid": 2667,
      "uce": 2668,
      "Ġsec": 2669,
      "Ġbab": 2670,
      "ĠtÃŃ": 2671,
      "ĠkÃŃnh": 2672,
      "com": 2673,
      "Ġaw": 2674,
      "Ġchalle": 2675,
      "Ġtráº¡ng": 2676,
      "Ġworks": 2677,
      "ĠlÃ£nh": 2678,
      "Ġchiá»ģu": 2679,
      "Ġnhiá»ĩt": 2680,
      "Ġspend": 2681,
      "Ġdisco": 2682,
      "Ġamazing": 2683,
      "Ġchalleng": 2684,
      "Ġremember": 2685,
      "ready": 2686,
      "ead": 2687,
      "Ġniá»ģm": 2688,
      "ĠÄĳá»Ļt": 2689,
      "Ġentire": 2690,
      "Ġafrica": 2691,
      "Ġadv": 2692,
      "Ġimagine": 2693,
      "Ġincred": 2694,
      "Ġbeautif": 2695,
      "Ġdáº§u": 2696,
      "Ġcost": 2697,
      "thá»±c": 2698,
      "Ġass": 2699,
      "ometimes": 2700,
      "side": 2701,
      "Ġtá»Ļi": 2702,
      "nhÆ°": 2703,
      "Ġhistory": 2704,
      "ases": 2705,
      "iddle": 2706,
      "up": 2707,
      "ĠnghÃ¨o": 2708,
      "Ġung": 2709,
      "Ġbasically": 2710,
      "Ġindividual": 2711,
      "pect": 2712,
      "Ġheard": 2713,
      "line": 2714,
      "ages": 2715,
      "Ġnáº¡n": 2716,
      "Ġrad": 2717,
      "Ġwonder": 2718,
      "xin": 2719,
      "Ġnhiá»ħ": 2720,
      "ĠcáºŃn": 2721,
      "era": 2722,
      "ones": 2723,
      "ocr": 2724,
      "Ġgroup": 2725,
      "atic": 2726,
      "ĠÄĳáº¥u": 2727,
      "ndred": 2728,
      "tern": 2729,
      "tra": 2730,
      "Ġxo": 2731,
      "Ġlooks": 2732,
      "Ġchá»¯a": 2733,
      "Ġná»Ĺi": 2734,
      "Ġdáº¥u": 2735,
      "Ġunited": 2736,
      "Ġdecided": 2737,
      "Ġfriends": 2738,
      "Ġaff": 2739,
      "ĠhÃ¡t": 2740,
      "Ġpast": 2741,
      "Ġalready": 2742,
      "Ġsucc": 2743,
      "Ġá»ķ": 2744,
      "ield": 2745,
      "ĠÃ´": 2746,
      "oph": 2747,
      "Ġexperim": 2748,
      "Ġhouse": 2749,
      "Ġchr": 2750,
      "Ġdirect": 2751,
      "Ġfund": 2752,
      "med": 2753,
      "Ġmiddle": 2754,
      "imate": 2755,
      "ĠÄĳáº©y": 2756,
      "ream": 2757,
      "Ġtool": 2758,
      "Ġcontin": 2759,
      "Ġbuilt": 2760,
      "Ġlaw": 2761,
      "Äĳá»ĥ": 2762,
      "Ġes": 2763,
      "Ġpay": 2764,
      "Ġeverybody": 2765,
      "bon": 2766,
      "Ġav": 2767,
      "ony": 2768,
      "Ġyes": 2769,
      "Ġdeep": 2770,
      "Ġeducation": 2771,
      "Ġsuccess": 2772,
      "Ġfree": 2773,
      "Ġstate": 2774,
      "Ġlan": 2775,
      "Ġstories": 2776,
      "Ġhundred": 2777,
      "Ġcollect": 2778,
      "ĠÆ°á»Ľc": 2779,
      "ĠÄĳen": 2780,
      "Ġbang": 2781,
      "ĠkhÃ¡ch": 2782,
      "Ġexc": 2783,
      "á»ĵm": 2784,
      "Ġlarge": 2785,
      "ĠthÃ¡ch": 2786,
      "ats": 2787,
      "Ġgovernment": 2788,
      "Ġsociety": 2789,
      "Ġbeautiful": 2790,
      "Ġbá»": 2791,
      "osed": 2792,
      "Ġngá»§": 2793,
      "Ġprogram": 2794,
      "Ġdel": 2795,
      "eah": 2796,
      "Ġfollow": 2797,
      "ĠkÃ©o": 2798,
      "ives": 2799,
      "Ġresult": 2800,
      "Ġfigure": 2801,
      "vious": 2802,
      "Ġtrain": 2803,
      "Ġwasn": 2804,
      "Ġ11": 2805,
      "ogle": 2806,
      "Ġcouple": 2807,
      "Ġmonths": 2808,
      "Ġtáº¯c": 2809,
      "ĠâĢĶ": 2810,
      "Ġquáº£n": 2811,
      "Ġgiáº¥y": 2812,
      "Ġword": 2813,
      "Ġpiece": 2814,
      "ĠnuÃ´i": 2815,
      "Ġthi": 2816,
      "ĠngÆ°á»£c": 2817,
      "work": 2818,
      "Ġminutes": 2819,
      "Ġris": 2820,
      "ared": 2821,
      "xy": 2822,
      "Ġorder": 2823,
      "Ġhuge": 2824,
      "Ġuntil": 2825,
      "dd": 2826,
      "Ġfre": 2827,
      "ental": 2828,
      "Ġuniverse": 2829,
      "vÃ¢ng": 2830,
      "Ġbáº¡i": 2831,
      "Ġchim": 2832,
      "Ġbecame": 2833,
      "bers": 2834,
      "ma": 2835,
      "Ġmust": 2836,
      "Ġview": 2837,
      "Ġtaking": 2838,
      "ivity": 2839,
      "hn": 2840,
      "ange": 2841,
      "ĠquÃ¢n": 2842,
      "ĠsoÃ¡t": 2843,
      "Ġplanet": 2844,
      "Ġná»Ńa": 2845,
      "ocus": 2846,
      "Ġthough": 2847,
      "ton": 2848,
      "Ġengine": 2849,
      "Ġnature": 2850,
      "gr": 2851,
      "of": 2852,
      "Ġwoman": 2853,
      "sy": 2854,
      "Ġcomplex": 2855,
      "Ġtiá»ĩn": 2856,
      "Ġmiss": 2857,
      "Ġcancer": 2858,
      "Ġlá»Ĺi": 2859,
      "Ġ80": 2860,
      "ĠlÄ©nh": 2861,
      "ined": 2862,
      "etic": 2863,
      "Ġteam": 2864,
      "Ġexactly": 2865,
      "Ġmáº¯c": 2866,
      "Ġbáº¯c": 2867,
      "Ġhoáº¡ch": 2868,
      "Ġfront": 2869,
      "Ġlearned": 2870,
      "tháºŃt": 2871,
      "uyá»ĩn": 2872,
      "ĠmÆ¡": 2873,
      "ames": 2874,
      "Ġthemselves": 2875,
      "Ġokay": 2876,
      "ians": 2877,
      "ision": 2878,
      "iáº¿p": 2879,
      "ĠlÃŃ": 2880,
      "Ġgá»ĵm": 2881,
      "aster": 2882,
      "Ġquick": 2883,
      "áº©u": 2884,
      "Ġtá»ĳc": 2885,
      "Ġincre": 2886,
      "cÃ´": 2887,
      "Ġcáº¯t": 2888,
      "Ġunivers": 2889,
      "Ġnhiá»ħm": 2890,
      "Ġline": 2891,
      "Ġkhá»ĳi": 2892,
      "Ġsun": 2893,
      "Ġmother": 2894,
      "Ġkhiá»ĥn": 2895,
      "Ġbehav": 2896,
      "cÃ¡i": 2897,
      "á»Ľi": 2898,
      "Ġtáº£": 2899,
      "ĠsÃ³c": 2900,
      "ĠdÃ¢y": 2901,
      "Ġfocus": 2902,
      "Ġcreated": 2903,
      "Ġaud": 2904,
      "Ġgiáº¿t": 2905,
      "Ġrev": 2906,
      "Ġgets": 2907,
      "ĠtÃłu": 2908,
      "Ġmill": 2909,
      "Ġbar": 2910,
      "Ãµi": 2911,
      "Ġsomebody": 2912,
      "Ġlisten": 2913,
      "ĠmÃª": 2914,
      "ĠgÃ³": 2915,
      "Ġgoogle": 2916,
      "Ġarch": 2917,
      "Ġstudy": 2918,
      "Ġcompletely": 2919,
      "Ġháº¡i": 2920,
      "Ġisn": 2921,
      "Ġcoll": 2922,
      "Ġtháº³ng": 2923,
      "Ġabs": 2924,
      "Ġblack": 2925,
      "cle": 2926,
      "Ġstep": 2927,
      "Ġhappening": 2928,
      "Ġname": 2929,
      "ĠbÃły": 2930,
      "Ġquen": 2931,
      "ush": 2932,
      "Ġprov": 2933,
      "ĠdÃ²ng": 2934,
      "Ġnhá»Ŀ": 2935,
      "Ġ60": 2936,
      "ien": 2937,
      "ted": 2938,
      "ĠlÆ°á»Ľi": 2939,
      "Ġpot": 2940,
      "nov": 2941,
      "Ġknew": 2942,
      "ĠÄĳÃªm": 2943,
      "Ġgod": 2944,
      "ĠcáºŃp": 2945,
      "ĠÄĳÃŃch": 2946,
      "Ġstruct": 2947,
      "Ġquestions": 2948,
      "Ġchiáº¿u": 2949,
      "Ġhours": 2950,
      "sá»±": 2951,
      "Ġbáº§u": 2952,
      "Ġtháº¥p": 2953,
      "ability": 2954,
      "Ġxáº¿p": 2955,
      "Ġmeet": 2956,
      "Ġeveryone": 2957,
      "Ġshows": 2958,
      "Ġagainst": 2959,
      "af": 2960,
      "ĠniÃªn": 2961,
      "Ġkhai": 2962,
      "cul": 2963,
      "ĠcÆ°": 2964,
      "Ġphong": 2965,
      "Ġaut": 2966,
      "Ġmass": 2967,
      "Ġret": 2968,
      "Ġhá»Ĺ": 2969,
      "ĠlÃ¡i": 2970,
      "Ġeur": 2971,
      "Ġplaces": 2972,
      "Ġngá»Ŀ": 2973,
      "ĠcÆ°á»Ŀi": 2974,
      "ĠnháºŃt": 2975,
      "Ġkinds": 2976,
      "Ġmot": 2977,
      "ĠphÃ³ng": 2978,
      "ĠÄĳá»ķ": 2979,
      "Ġitself": 2980,
      "Ġsex": 2981,
      "ĠÄĳiá»ĥn": 2982,
      "Ġneur": 2983,
      "ĠnÃ´ng": 2984,
      "ĠsÃłng": 2985,
      "ĠdÃłng": 2986,
      "Ġrá»ĳi": 2987,
      "ential": 2988,
      "Ġbá»ĳn": 2989,
      "Ġgreen": 2990,
      "ho": 2991,
      "Ġgá»ĳc": 2992,
      "Ġngáº¯n": 2993,
      "icult": 2994,
      "Ġdemocr": 2995,
      "Ġmarket": 2996,
      "Ġsong": 2997,
      "Ġcháº¥p": 2998,
      "asure": 2999,
      "Ġourselves": 3000,
      "ibly": 3001,
      "Ġgrand": 3002,
      "Ġsometimes": 3003,
      "Ġchina": 3004,
      "áº·n": 3005,
      "Ġká»ī": 3006,
      "Ġmess": 3007,
      "thers": 3008,
      "ĠtáºŃn": 3009,
      "Ġones": 3010,
      "Ġdifference": 3011,
      "ogn": 3012,
      "itting": 3013,
      "ĠchÃºa": 3014,
      "Ġopportun": 3015,
      "iqu": 3016,
      "Ġgáº¥p": 3017,
      "Ġinvest": 3018,
      "Ġcompany": 3019,
      "Ġspeak": 3020,
      "ĠÄĳu": 3021,
      "ĠÄĳem": 3022,
      "Ġothers": 3023,
      "anc": 3024,
      "then": 3025,
      "Ġant": 3026,
      "Ġnon": 3027,
      "Ġill": 3028,
      "Ġarg": 3029,
      "Ġclose": 3030,
      "ĠsÃ¢n": 3031,
      "Ġsince": 3032,
      "ising": 3033,
      "ĠÄĳá»¡": 3034,
      "ken": 3035,
      "Ġbáº¡o": 3036,
      "Ġinnov": 3037,
      "Ġtem": 3038,
      "ret": 3039,
      "ĠgiÃ¢y": 3040,
      "ĠbÃŃ": 3041,
      "Ġparent": 3042,
      "ĠÄĳá»£i": 3043,
      "Ġstudents": 3044,
      "Ġclear": 3045,
      "Ġláº¯m": 3046,
      "Ġbuy": 3047,
      "ĠtrÃ¡ch": 3048,
      "Ġgiai": 3049,
      "īnh": 3050,
      "Ġbir": 3051,
      "Ġthá»¥": 3052,
      "Ġwind": 3053,
      "Ġexpect": 3054,
      "Ġobject": 3055,
      "á»¯a": 3056,
      "Ġhold": 3057,
      "Ġrelations": 3058,
      "Ġvai": 3059,
      "Ġgáº¯n": 3060,
      "Ġcut": 3061,
      "ĠsiÃªu": 3062,
      "ĠcÃ¡o": 3063,
      "ider": 3064,
      "why": 3065,
      "Ġexplain": 3066,
      "Ġbott": 3067,
      "Ġgave": 3068,
      "ator": 3069,
      "Ġworked": 3070,
      "uck": 3071,
      "Ġcy": 3072,
      "Ġoper": 3073,
      "Ġtrá»«": 3074,
      "ĠtÃ´n": 3075,
      "Ġwon": 3076,
      "olved": 3077,
      "Ġamerican": 3078,
      "ĠcÃ¢n": 3079,
      "Ġang": 3080,
      "ĠngÃ¢n": 3081,
      "Ġrather": 3082,
      "Ġpháº«u": 3083,
      "Ġnghá»ĭ": 3084,
      "Ġchuyáº¿n": 3085,
      "istic": 3086,
      "ler": 3087,
      "ĠvÃ¢ng": 3088,
      "ode": 3089,
      "acter": 3090,
      "Ġdrug": 3091,
      "Ġterr": 3092,
      "urs": 3093,
      "Ġdifficult": 3094,
      "Ġdisease": 3095,
      "ake": 3096,
      "Ġland": 3097,
      "Ġdna": 3098,
      "Ġrich": 3099,
      "Ġfail": 3100,
      "Ġhappy": 3101,
      "ney": 3102,
      "ĠhÃłi": 3103,
      "ĠngÃłn": 3104,
      "Ġele": 3105,
      "Ġjour": 3106,
      "ibut": 3107,
      "ron": 3108,
      "Ġlim": 3109,
      "Ġnháº£y": 3110,
      "ĠxuyÃªn": 3111,
      "Ã¨n": 3112,
      "Ġcir": 3113,
      "Ġbill": 3114,
      "Ġcouldn": 3115,
      "Ġthird": 3116,
      "Ġfly": 3117,
      "áº§ng": 3118,
      "Ġsug": 3119,
      "Ġinteract": 3120,
      "Ġthousands": 3121,
      "sh": 3122,
      "Ġáº£o": 3123,
      "ĠthÆ¡": 3124,
      "Ġhi": 3125,
      "ley": 3126,
      "Ġsurpr": 3127,
      "Ġtyp": 3128,
      "Ġsan": 3129,
      "Ġhiv": 3130,
      "Ġdeal": 3131,
      "Ġdá»«ng": 3132,
      "haps": 3133,
      "ĠÃ¢u": 3134,
      "Ġdeath": 3135,
      "Ġlearning": 3136,
      "ĠmÃłn": 3137,
      "Ġdu": 3138,
      "omes": 3139,
      "Ġseven": 3140,
      "Ġamerica": 3141,
      "ming": 3142,
      "Ġliter": 3143,
      "ination": 3144,
      "ex": 3145,
      "ĠkÄ©": 3146,
      "Ġamount": 3147,
      "Ġimpro": 3148,
      "Ġcolle": 3149,
      "wards": 3150,
      "Ġoutside": 3151,
      "Ġpowerful": 3152,
      "Ġoil": 3153,
      "Ġfear": 3154,
      "Ġemot": 3155,
      "Ġmath": 3156,
      "Ġlao": 3157,
      "Ġchanged": 3158,
      "Ġindia": 3159,
      "book": 3160,
      "Ġmachine": 3161,
      "Ġalong": 3162,
      "Ġsuper": 3163,
      "Ġsystems": 3164,
      "Ġinstead": 3165,
      "some": 3166,
      "ĠkÃ½": 3167,
      "Ġfall": 3168,
      "ĠÄĳá»ı": 3169,
      "Ġbehavior": 3170,
      "ny": 3171,
      "Ġple": 3172,
      "itut": 3173,
      "Ġpopulation": 3174,
      "Ġtakes": 3175,
      "Ġident": 3176,
      "Ġearly": 3177,
      "Ġmicr": 3178,
      "Ġspecies": 3179,
      "Ġtáº§ng": 3180,
      "Ġmain": 3181,
      "Ġdig": 3182,
      "uss": 3183,
      "aring": 3184,
      "Ġsens": 3185,
      "Ġphá»ķ": 3186,
      "ĠÄĳáº£m": 3187,
      "Ġháº¥p": 3188,
      "Ġtáº£i": 3189,
      "Ġpred": 3190,
      "Ġturns": 3191,
      "Ġti": 3192,
      "Ġeat": 3193,
      "ement": 3194,
      "Ġshort": 3195,
      "every": 3196,
      "Ġguys": 3197,
      "ction": 3198,
      "Ġlá»ĵ": 3199,
      "Ġappro": 3200,
      "Ġduring": 3201,
      "Ġleast": 3202,
      "mer": 3203,
      "tuy": 3204,
      "Ġhor": 3205,
      "Ġ16": 3206,
      "Ġ199": 3207,
      "Ġeasy": 3208,
      "Ġprotect": 3209,
      "Ġlots": 3210,
      "Ġnatural": 3211,
      "Ġpresent": 3212,
      "Ġkhá»Łi": 3213,
      "ident": 3214,
      "ĠtÃ¹": 3215,
      "Ġintr": 3216,
      "Ġrá»«ng": 3217,
      "Ġculture": 3218,
      "á»¹": 3219,
      "ison": 3220,
      "50": 3221,
      "ĠngÄĥn": 3222,
      "ots": 3223,
      "Ġchá»īnh": 3224,
      "rá»ĵi": 3225,
      "ature": 3226,
      "oud": 3227,
      "Ġmedia": 3228,
      "Ġdist": 3229,
      "Ġmaj": 3230,
      "Ġyourself": 3231,
      "ply": 3232,
      "Ġpa": 3233,
      "Ġnháº¯c": 3234,
      "Ġjohn": 3235,
      "vá»Ľi": 3236,
      "Ġap": 3237,
      "Ġhands": 3238,
      "Ġdream": 3239,
      "Ġru": 3240,
      "aged": 3241,
      "Ġnorm": 3242,
      "Ġanimals": 3243,
      "Ġsqu": 3244,
      "Ã³t": 3245,
      "Ġfield": 3246,
      "vered": 3247,
      "ides": 3248,
      "Ġimage": 3249,
      "Ġpaper": 3250,
      "ĠgÃ³c": 3251,
      "Ġrealized": 3252,
      "ients": 3253,
      "ru": 3254,
      "Ġtháº£i": 3255,
      "Ġbom": 3256,
      "ĠkhÃ¡i": 3257,
      "Ġfight": 3258,
      "Ġyeah": 3259,
      "ased": 3260,
      "fect": 3261,
      "Ġsil": 3262,
      "Ġlow": 3263,
      "Ġice": 3264,
      "Ġpsy": 3265,
      "Ġgiven": 3266,
      "Ġmole": 3267,
      "ither": 3268,
      "Ġve": 3269,
      "ĠchÃ¡u": 3270,
      "leep": 3271,
      "áº³n": 3272,
      "Ġstat": 3273,
      "elt": 3274,
      "Ġbehind": 3275,
      "Ġá»ķn": 3276,
      "ĠmÃ³n": 3277,
      "ĠhÃºt": 3278,
      "Ġrecent": 3279,
      "Ġmáº¡ch": 3280,
      "Ġhá»Ļp": 3281,
      "á»«": 3282,
      "Ġvar": 3283,
      "ghan": 3284,
      "Ġ90": 3285,
      "ĠnghiÃªm": 3286,
      "má»įi": 3287,
      "ĠkÃª": 3288,
      "ĠÄĳá»«ng": 3289,
      "Ġdoct": 3290,
      "Ġweek": 3291,
      "face": 3292,
      "ĠlÃ¡": 3293,
      "Ġluyá»ĩn": 3294,
      "astic": 3295,
      "ption": 3296,
      "Ġtai": 3297,
      "Ġviol": 3298,
      "ully": 3299,
      "verage": 3300,
      "Ġneeded": 3301,
      "year": 3302,
      "Ġ14": 3303,
      "Ġneeds": 3304,
      "Ġsimply": 3305,
      "Ġpersonal": 3306,
      "Ġnob": 3307,
      "Ġfather": 3308,
      "Ġstay": 3309,
      "Ġblue": 3310,
      "Ġ201": 3311,
      "ĠkhuÃ´n": 3312,
      "Ġfinally": 3313,
      "chá»ī": 3314,
      "Ġchuá»Ļt": 3315,
      "Ġeyes": 3316,
      "fr": 3317,
      "xic": 3318,
      "itch": 3319,
      "ĠgiÃłu": 3320,
      "ĠtÃŃn": 3321,
      "Ġrelationship": 3322,
      "erv": 3323,
      "Ġtrad": 3324,
      "ĠgiÃł": 3325,
      "Ġleave": 3326,
      "Ġserv": 3327,
      "Ġcentury": 3328,
      "Ġpract": 3329,
      "Ġexist": 3330,
      "els": 3331,
      "Ġafghan": 3332,
      "ium": 3333,
      "ama": 3334,
      "Ġcoi": 3335,
      "Ġeconomic": 3336,
      "Ġmajor": 3337,
      "ĠÄĳÃ¡m": 3338,
      "lÃłm": 3339,
      "mb": 3340,
      "Ġliá»ĩt": 3341,
      "like": 3342,
      "Ġphil": 3343,
      "ĠpháºŃn": 3344,
      "Ġincl": 3345,
      "Ġcompanies": 3346,
      "ĠÄĳáº£o": 3347,
      "Ġwin": 3348,
      "Ġkey": 3349,
      "Ġlocal": 3350,
      "rop": 3351,
      "ģm": 3352,
      "Ġtáº¥n": 3353,
      "Ġwall": 3354,
      "Ġarea": 3355,
      "Ġtháº¯ng": 3356,
      "Ġfac": 3357,
      "Ġpsych": 3358,
      "Ġchem": 3359,
      "ĠkhÃ¡n": 3360,
      "Ġperform": 3361,
      "Ġtuyáº¿n": 3362,
      "Ġrecord": 3363,
      "attern": 3364,
      "Ġaccess": 3365,
      "la": 3366,
      "Ġkim": 3367,
      "itions": 3368,
      "ump": 3369,
      "ĠmÃ¹a": 3370,
      "Ġtv": 3371,
      "Ġfelt": 3372,
      "inary": 3373,
      "Ġcong": 3374,
      "Ġsend": 3375,
      "Ġbur": 3376,
      "olute": 3377,
      "Ġsupport": 3378,
      "Ġpolitical": 3379,
      "ĠmÃ´n": 3380,
      "Ġtrao": 3381,
      "ource": 3382,
      "Ġfeet": 3383,
      "ledge": 3384,
      "Ġcommon": 3385,
      "Ġobvious": 3386,
      "Ġ70": 3387,
      "Ġfilm": 3388,
      "go": 3389,
      "Ġcamp": 3390,
      "osp": 3391,
      "Ġ13": 3392,
      "Ġhuá»·": 3393,
      "Ġextre": 3394,
      "Ġnáº·ng": 3395,
      "Ġmáº¥y": 3396,
      "Ġháº³n": 3397,
      "Ġturned": 3398,
      "Ġfamil": 3399,
      "Ġeurope": 3400,
      "Ġoce": 3401,
      "ĠdáºŃy": 3402,
      "ived": 3403,
      "Ġperhaps": 3404,
      "Ġvalue": 3405,
      "Ġextra": 3406,
      "ological": 3407,
      "Ġcommunic": 3408,
      "Ġphotograph": 3409,
      "ially": 3410,
      "ĠvÃ¢n": 3411,
      "Ġchá»©a": 3412,
      "Ġmá»ģm": 3413,
      "Ġstrong": 3414,
      "Ġstreet": 3415,
      "ove": 3416,
      "Ġháº¡": 3417,
      "Ġvac": 3418,
      "Ã²i": 3419,
      "Ġorig": 3420,
      "aught": 3421,
      "Ġbeginning": 3422,
      "Ġtaken": 3423,
      "Ġprote": 3424,
      "Ġcannot": 3425,
      "room": 3426,
      "Ġcu": 3427,
      "Ġspent": 3428,
      "Ġmoving": 3429,
      "Ġpattern": 3430,
      "Ġground": 3431,
      "ĠphÃ¹": 3432,
      "ĠnÃ³ng": 3433,
      "idence": 3434,
      "Ġseeing": 3435,
      "ains": 3436,
      "Ġquyá»ĥn": 3437,
      "Ġsent": 3438,
      "Ġmult": 3439,
      "Ġeight": 3440,
      "Ġleaders": 3441,
      "ĠsÃ³ng": 3442,
      "eter": 3443,
      "Ġlonger": 3444,
      "Ġchá»Ŀ": 3445,
      "Ġchá»§ng": 3446,
      "avid": 3447,
      "Ġsouth": 3448,
      "apt": 3449,
      "inal": 3450,
      "Ġperfect": 3451,
      "oke": 3452,
      "vÃŃ": 3453,
      "Ġá»ĳng": 3454,
      "Ġtháº£o": 3455,
      "Ġnational": 3456,
      "Ġmal": 3457,
      "Ġbuá»Ļc": 3458,
      "ĠchÃ³ng": 3459,
      "ument": 3460,
      "Ġdraw": 3461,
      "Ġabsolute": 3462,
      "Ġmáº½": 3463,
      "Ã¡y": 3464,
      "inst": 3465,
      "ows": 3466,
      "Ġ17": 3467,
      "á»ĭp": 3468,
      "Ġparts": 3469,
      "bor": 3470,
      "gs": 3471,
      "Ġciv": 3472,
      "Ġbal": 3473,
      "ĠtrÃ¹ng": 3474,
      "rought": 3475,
      "ĠmÃ¡u": 3476,
      "Ġcop": 3477,
      "Ġthiá»ĩu": 3478,
      "ĠdÆ°á»¡ng": 3479,
      "fully": 3480,
      "Ġkid": 3481,
      "Ġwonderful": 3482,
      "ıng": 3483,
      "ĠhÃ£i": 3484,
      "Ġlinh": 3485,
      "Ġgrowth": 3486,
      "Ġ$": 3487,
      "áº¥c": 3488,
      "Ġreach": 3489,
      "Ġsurv": 3490,
      "Ġquickly": 3491,
      "ĠcÅ©": 3492,
      "ĠsÆ¡": 3493,
      "Ġbegan": 3494,
      "Ġevent": 3495,
      "Ġrá»Ŀi": 3496,
      "Ġcool": 3497,
      "Ġdescr": 3498,
      "ĠÄĳe": 3499,
      "ĠÄĳiÃªn": 3500,
      "Ġsize": 3501,
      "ĠdÃµi": 3502,
      "Ġtráº¯ng": 3503,
      "Ġstage": 3504,
      "ources": 3505,
      "avor": 3506,
      "Ġinclud": 3507,
      "Ġtáº£ng": 3508,
      "Ġsum": 3509,
      "Ġlá»Ļ": 3510,
      "Ġdie": 3511,
      "Ġuá»ĳng": 3512,
      "Ġcenter": 3513,
      "Ġexperiment": 3514,
      "Ġess": 3515,
      "Ġsch": 3516,
      "enn": 3517,
      "Ġloáº¡n": 3518,
      "Ġspecial": 3519,
      "Ġtá»ĵi": 3520,
      "Ġmorning": 3521,
      "Ġbaby": 3522,
      "ĠthÆ°á»Łng": 3523,
      "Ġná»": 3524,
      "Ġlost": 3525,
      "Ġbox": 3526,
      "Ġvá»¯ng": 3527,
      "Ġbuá»ĵn": 3528,
      "Ġsá»Ńa": 3529,
      "Ġimpact": 3530,
      "uction": 3531,
      "Ġterms": 3532,
      "ĠÄĳÃ¡p": 3533,
      "Ġrequ": 3534,
      "iving": 3535,
      "Ġparents": 3536,
      "wor": 3537,
      "Ġsleep": 3538,
      "Ġláº§m": 3539,
      "itect": 3540,
      "Ġcarbon": 3541,
      "col": 3542,
      "Ġcities": 3543,
      "Ġtot": 3544,
      "okay": 3545,
      "ired": 3546,
      "Ġonline": 3547,
      "Ġbreak": 3548,
      "lu": 3549,
      "ana": 3550,
      "ĠtrÃ¡nh": 3551,
      "asc": 3552,
      "Ġconv": 3553,
      "cious": 3554,
      "Ġtravel": 3555,
      "ee": 3556,
      "Ġmáº¯n": 3557,
      "Ġdead": 3558,
      "Ġkhá»ķng": 3559,
      "ĠÄĳÃło": 3560,
      "Ġláº¡nh": 3561,
      "Ġhon": 3562,
      "iáº¿ng": 3563,
      "Ġwrite": 3564,
      "Ġprofess": 3565,
      "Ġocc": 3566,
      "Ġnear": 3567,
      "Ġarchitect": 3568,
      "ĠtÆ°á»Ŀng": 3569,
      "Ġsat": 3570,
      "Ġvers": 3571,
      "Ġanal": 3572,
      "ĠgÃ³p": 3573,
      "cu": 3574,
      "hiá»ĩn": 3575,
      "Ġmiá»ħn": 3576,
      "Ġiran": 3577,
      "Ġce": 3578,
      "Ġbene": 3579,
      "Ġquáº£ng": 3580,
      "ĠÄĳÃ³i": 3581,
      "Ġpoor": 3582,
      "Ġrepres": 3583,
      "Ġknowledge": 3584,
      "Ġimages": 3585,
      "son": 3586,
      "Ġtried": 3587,
      "Ġfeed": 3588,
      "Ġcamera": 3589,
      "Ġafghanistan": 3590,
      "hood": 3591,
      "Ġbáº£ng": 3592,
      "Ġje": 3593,
      "ĠÃ¡o": 3594,
      "ĠchÃłng": 3595,
      "Ġgiá»įng": 3596,
      "rael": 3597,
      "ĠÄĳÃ¨n": 3598,
      "Ġhot": 3599,
      "Ġong": 3600,
      "Ġkhoáº£n": 3601,
      "Ġenc": 3602,
      "Ġá»§ng": 3603,
      "ĠcÆ¡n": 3604,
      "ĠnÃºi": 3605,
      "Ġpost": 3606,
      "Ġfire": 3607,
      "urb": 3608,
      "ilar": 3609,
      "Ġauth": 3610,
      "Ġhosp": 3611,
      "Ġspread": 3612,
      "Ġpick": 3613,
      "ised": 3614,
      "ustain": 3615,
      "Ġvirus": 3616,
      "more": 3617,
      "ĠmÃ¡i": 3618,
      "Ġpeace": 3619,
      "Ġ198": 3620,
      "Ġinsp": 3621,
      "Ġrecogn": 3622,
      "Ġapproach": 3623,
      "just": 3624,
      "Ġtiá»ĥu": 3625,
      "Ġmáº£nh": 3626,
      "rent": 3627,
      "vÃło": 3628,
      "Ġwhatever": 3629,
      "Ġmeasure": 3630,
      "Ġlá»Ń": 3631,
      "Ġ21": 3632,
      "ively": 3633,
      "Ġtá»ķn": 3634,
      "Ġopportunity": 3635,
      "ĠÄĳá»īnh": 3636,
      "Ġwhite": 3637,
      "Ġtá»Ŀ": 3638,
      "Ġobs": 3639,
      "Ġconsum": 3640,
      "Ġmodern": 3641,
      "Ġsitu": 3642,
      "Ġrisk": 3643,
      "Ġtá»Ļc": 3644,
      "Ġláº«n": 3645,
      "Ġquá»¹": 3646,
      "tract": 3647,
      "Ġborn": 3648,
      "Ġdiá»ĩu": 3649,
      "cially": 3650,
      "Ġfoot": 3651,
      "Ġeye": 3652,
      "Ġweeks": 3653,
      "cÃ¢u": 3654,
      "cÃ²n": 3655,
      "Ġtan": 3656,
      "Ġaverage": 3657,
      "ites": 3658,
      "Ġwouldn": 3659,
      "Ġattention": 3660,
      "Ġsitting": 3661,
      "Ġeither": 3662,
      "á»ıng": 3663,
      "Ġcrit": 3664,
      "Ġfeeling": 3665,
      "Ġaudience": 3666,
      "Ľm": 3667,
      "Ġphá»ıng": 3668,
      "Ġreality": 3669,
      "Ġmeaning": 3670,
      "Ġled": 3671,
      "Ġrele": 3672,
      "Ġcaus": 3673,
      "Ġanimal": 3674,
      "par": 3675,
      "Ġfast": 3676,
      "ills": 3677,
      "iction": 3678,
      "ression": 3679,
      "Ġvoice": 3680,
      "Ġextreme": 3681,
      "over": 3682,
      "Ġpur": 3683,
      "ators": 3684,
      "ĠquÃªn": 3685,
      "Ġgiving": 3686,
      "Ġcomb": 3687,
      "ateg": 3688,
      "Ġenglish": 3689,
      "á»µ": 3690,
      "Ġoxy": 3691,
      "ĠtráºŃn": 3692,
      "Ġsho": 3693,
      "Ġpoll": 3694,
      "Ġchanges": 3695,
      "Ġeconomy": 3696,
      "Ġnice": 3697,
      "Ġbá»ģ": 3698,
      "Ġbrought": 3699,
      "Ġopt": 3700,
      "iger": 3701,
      "Ġchá»ĵ": 3702,
      "Ġinstitut": 3703,
      "oll": 3704,
      "ĠtrÃ¬": 3705,
      "Ġtrá»ĵng": 3706,
      "ented": 3707,
      "izing": 3708,
      "Ġsmart": 3709,
      "Ġbooks": 3710,
      "Ġrespons": 3711,
      "Ġsuggest": 3712,
      "ĠmÃ£i": 3713,
      "Ġchin": 3714,
      "Ġisrael": 3715,
      "ards": 3716,
      "Ġtá»ĳn": 3717,
      "Ġphysical": 3718,
      "Ġstructure": 3719,
      "ibility": 3720,
      "Ġcolor": 3721,
      "Ġbased": 3722,
      "Ġinterested": 3723,
      "Ġháº£o": 3724,
      "Ġgiá»ıi": 3725,
      "Ġsave": 3726,
      "Ġsoft": 3727,
      "Ġach": 3728,
      "Ġgone": 3729,
      "Ġdang": 3730,
      "ades": 3731,
      "Ġsudd": 3732,
      "Ġgrowing": 3733,
      "Ġsudden": 3734,
      "Ġcáº§m": 3735,
      "ĠÄĳÆ°Æ¡ng": 3736,
      "Ġlos": 3737,
      "Ġdark": 3738,
      "ĠrÆ¡i": 3739,
      "people": 3740,
      "Ġability": 3741,
      "Ġseems": 3742,
      "Ġcháº¡m": 3743,
      "Ġpress": 3744,
      "Ġfavor": 3745,
      "Ġstress": 3746,
      "Ġdeveloped": 3747,
      "Ġtools": 3748,
      "Ġcivil": 3749,
      "ann": 3750,
      "Ġquáº§n": 3751,
      "má»Ĺi": 3752,
      "oh": 3753,
      "ĠbáºŃt": 3754,
      "Ġpal": 3755,
      "ĠvÃłng": 3756,
      "Ġknown": 3757,
      "Ġclimate": 3758,
      "Ġdeveloping": 3759,
      "Ġchallenge": 3760,
      "Ġer": 3761,
      "Ġtas": 3762,
      "ĠchÃ³": 3763,
      "Ġcá»¡": 3764,
      "Ġkhuáº©n": 3765,
      "ploy": 3766,
      "Ġproduc": 3767,
      "cess": 3768,
      "gn": 3769,
      "ipp": 3770,
      "ware": 3771,
      "Ġbá»ģn": 3772,
      "Ġhig": 3773,
      "ĠhÃ´n": 3774,
      "ĠkÃŃ": 3775,
      "Ġrevolution": 3776,
      "ĠlÆ°Æ¡ng": 3777,
      "Ġpriv": 3778,
      "Ġmá»Ŀi": 3779,
      "Ġdisc": 3780,
      "Ġrealize": 3781,
      "Ġtend": 3782,
      "Ġhuy": 3783,
      "Ġvá»ĳn": 3784,
      "Ġcháº¥m": 3785,
      "ances": 3786,
      "ĠnghÃ¬n": 3787,
      "umb": 3788,
      "Ġaffect": 3789,
      "pre": 3790,
      "Ġpháº¥n": 3791,
      "ister": 3792,
      "Ġgirls": 3793,
      "Ġtiá»ģm": 3794,
      "ĠsÃ¡nh": 3795,
      "Ġbá»¯a": 3796,
      "Ġvol": 3797,
      "erm": 3798,
      "ouch": 3799,
      "Ġincredible": 3800,
      "Ġnghá»ī": 3801,
      "Ġslow": 3802,
      "Ġdevelopment": 3803,
      "Ġrunning": 3804,
      "Ġpull": 3805,
      "ops": 3806,
      "Ġstarting": 3807,
      "Ġchiáº¿m": 3808,
      "Ġnumbers": 3809,
      "Ġná»ķ": 3810,
      "Ġvill": 3811,
      "Ġken": 3812,
      "Ġpath": 3813,
      "Ġtele": 3814,
      "ĠkhoÃ¡": 3815,
      "Ġwrote": 3816,
      "Ġroad": 3817,
      "Ġtype": 3818,
      "Ġscientists": 3819,
      "Ġissue": 3820,
      "Ġsand": 3821,
      "Ġsustain": 3822,
      "Ġhiá»ĥn": 3823,
      "Ġvá»£": 3824,
      "Ġhumans": 3825,
      "Ġwebs": 3826,
      "Ġnetwork": 3827,
      "Ġtradition": 3828,
      "Ġocean": 3829,
      "Ġdescrib": 3830,
      "lict": 3831,
      "may": 3832,
      "orm": 3833,
      "Ġhoáº£ng": 3834,
      "Ġunderstanding": 3835,
      "Ġngá»«ng": 3836,
      "Ġgeneral": 3837,
      "Ġnáº¯m": 3838,
      "ĠÄĳiá»ĩu": 3839,
      "Ġtruth": 3840,
      "ĠkhÃŃch": 3841,
      "Ã¹a": 3842,
      "Ġblog": 3843,
      "Ġthá»ĭt": 3844,
      "Ġbenef": 3845,
      "ĠlÃłng": 3846,
      "Ġfem": 3847,
      "Ġprin": 3848,
      "Ġemp": 3849,
      "Ġcreating": 3850,
      "Ġmillions": 3851,
      "ique": 3852,
      "ĠdÄ©": 3853,
      "Ġphá»ĳi": 3854,
      "Ġhá»ķ": 3855,
      "Ġlá»Ńa": 3856,
      "ĠhÃło": 3857,
      "Ġtrack": 3858,
      "Ġ24": 3859,
      "Ġfacebook": 3860,
      "Ġbottom": 3861,
      "por": 3862,
      "ught": 3863,
      "Ġdou": 3864,
      "Ġvá»¡": 3865,
      "Ġarr": 3866,
      "Ġplaying": 3867,
      "ĠtÃ¡ch": 3868,
      "Ġnan": 3869,
      "ĠdÆ°á»Ŀng": 3870,
      "Ġ500": 3871,
      "Ġscale": 3872,
      "Ġgháº¿": 3873,
      "Ġdiscover": 3874,
      "ral": 3875,
      "Ġsal": 3876,
      "ĠvÄ©": 3877,
      "ĠrÃºt": 3878,
      "iti": 3879,
      "ensive": 3880,
      "Ġsolution": 3881,
      "Ġlay": 3882,
      "ĠxÆ°Æ¡ng": 3883,
      "ored": 3884,
      "Ġanyone": 3885,
      "Ġuniversity": 3886,
      "Ġtur": 3887,
      "áº·m": 3888,
      "Ġblood": 3889,
      "Ġchuá»Ĺi": 3890,
      "Ġinnovation": 3891,
      "Ġchinese": 3892,
      "Ġtar": 3893,
      "Ġtrust": 3894,
      "Ġforce": 3895,
      "Ġprog": 3896,
      "Ġneigh": 3897,
      "Ġknows": 3898,
      "Ġwriting": 3899,
      "Ġliterally": 3900,
      "eed": 3901,
      "mÃł": 3902,
      "tá»«": 3903,
      "ĠÄĳáº±ng": 3904,
      "ĠbiÃªn": 3905,
      "ĠhÃł": 3906,
      "ency": 3907,
      "Ġconvers": 3908,
      "Ġworth": 3909,
      "Ġrelig": 3910,
      "Ġmedic": 3911,
      "vent": 3912,
      "Ġká»ĭch": 3913,
      "Ġgames": 3914,
      "Ġkháº©u": 3915,
      "ĠgiÃ³": 3916,
      "Ġalone": 3917,
      "Ġmov": 3918,
      "Ġnorth": 3919,
      "ĠsÃ³t": 3920,
      "Ġcháº£y": 3921,
      "Ġrul": 3922,
      "Ġgiáº¥c": 3923,
      "ada": 3924,
      "Ġboy": 3925,
      "pecially": 3926,
      "Ġguess": 3927,
      "ped": 3928,
      "anda": 3929,
      "Ġconcept": 3930,
      "Ġtelling": 3931,
      "Ġkhuy": 3932,
      "Ġareas": 3933,
      "Ġsá»Ľm": 3934,
      "Ġbro": 3935,
      "Ġemail": 3936,
      "Ġ197": 3937,
      "ĠthoÃ¡t": 3938,
      "Ġchá»ĵng": 3939,
      "dr": 3940,
      "idge": 3941,
      "Ġprom": 3942,
      "Ġloáº¡t": 3943,
      "iforn": 3944,
      "Ġpolic": 3945,
      "Ġprotein": 3946,
      "tu": 3947,
      "Ġgives": 3948,
      "erence": 3949,
      "Ġtechnolog": 3950,
      "Ġson": 3951,
      "Ġsáº¡ch": 3952,
      "ĠcháºŃm": 3953,
      "Ġkhá»©": 3954,
      "Ġrock": 3955,
      "Ġphone": 3956,
      "Ġstar": 3957,
      "Ġmovement": 3958,
      "ero": 3959,
      "Ġforward": 3960,
      "Ġsoon": 3961,
      "Ġasking": 3962,
      "Ġpatients": 3963,
      "Ġcaliforn": 3964,
      "Ġpredict": 3965,
      "Ġtáº¯t": 3966,
      "Ġscre": 3967,
      "Ġexperien": 3968,
      "Ġtransform": 3969,
      "Ġpatient": 3970,
      "port": 3971,
      "Ġwest": 3972,
      "Ġrate": 3973,
      "chan": 3974,
      "Ġeast": 3975,
      "Ã£n": 3976,
      "áº¹n": 3977,
      "Ġsolve": 3978,
      "Ġcurrent": 3979,
      "Ġsounds": 3980,
      "Ġhundreds": 3981,
      "can": 3982,
      "ya": 3983,
      "ĠtÃłn": 3984,
      "Ġtheory": 3985,
      "ude": 3986,
      "Ġgeneration": 3987,
      "Ġdepend": 3988,
      "ged": 3989,
      "Ġmap": 3990,
      "ĠmÅ©": 3991,
      "Ġlad": 3992,
      "Ġpu": 3993,
      "Ġcalifornia": 3994,
      "mar": 3995,
      "Ġbed": 3996,
      "Ġball": 3997,
      "Ġhit": 3998,
      "ĠcÃ¡m": 3999,
      "Ġul": 4000,
      "Ġaren": 4001,
      "ustry": 4002,
      "osph": 4003,
      "Ġtom": 4004,
      "Ġimm": 4005,
      "Ġindustry": 4006,
      "gi": 4007,
      "ĠsÃ´ng": 4008,
      "Ġláº·p": 4009,
      "ĠbÃ¨": 4010,
      "Ġfish": 4011,
      "Ġnghá»ģ": 4012,
      "Ġsuáº¥t": 4013,
      "Ġshowed": 4014,
      "Ġdiscovered": 4015,
      "Ġabsolutely": 4016,
      "ráº¥t": 4017,
      "right": 4018,
      "Ġsuff": 4019,
      "Ġpictures": 4020,
      "Ġgá»£i": 4021,
      "Ġavail": 4022,
      "Ġnormal": 4023,
      "Ġeg": 4024,
      "Ġconst": 4025,
      "ellig": 4026,
      "Ġserious": 4027,
      "Ġespecially": 4028,
      "Ġvacc": 4029,
      "Ġdavid": 4030,
      "Ġtráº¡i": 4031,
      "Ġrepl": 4032,
      "Ġira": 4033,
      "usion": 4034,
      "Æ°Æ¡i": 4035,
      "ein": 4036,
      "ngÃły": 4037,
      "Ġlá»ĳi": 4038,
      "istr": 4039,
      "arr": 4040,
      "asing": 4041,
      "entially": 4042,
      "ondon": 4043,
      "Ġviá»ħn": 4044,
      "thá»©": 4045,
      "Ġconstr": 4046,
      "Ġmexic": 4047,
      "Ġlá»Ĺ": 4048,
      "ified": 4049,
      "Ġproduce": 4050,
      "Ġmaterials": 4051,
      "ĠtÃºi": 4052,
      "ĠÄĳáº¿": 4053,
      "Ġgal": 4054,
      "Ġhang": 4055,
      "Ġsá»¹": 4056,
      "Ġplant": 4057,
      "Ġchanging": 4058,
      "Ġsimilar": 4059,
      "Ġsubject": 4060,
      "ĠtrÆ°ng": 4061,
      "Ġngáº¡i": 4062,
      "ĠphÃª": 4063,
      "Ġhaven": 4064,
      "Ġresources": 4065,
      "Ġincredibly": 4066,
      "Ġfundam": 4067,
      "Ġest": 4068,
      "Ġtouch": 4069,
      "Ġmob": 4070,
      "Ġlondon": 4071,
      "ĠnhÃ©": 4072,
      "ify": 4073,
      "Ġscr": 4074,
      "Ġcars": 4075,
      "Ġteachers": 4076,
      "ĠtÃ¡n": 4077,
      "Ġmount": 4078,
      "Ġhung": 4079,
      "Ã³i": 4080,
      "une": 4081,
      "Ġemb": 4082,
      "Ġcount": 4083,
      "Ġtalked": 4084,
      "azil": 4085,
      "Ġpotential": 4086,
      "dp": 4087,
      "yond": 4088,
      "ĠthÆ°á»Ľc": 4089,
      "Ġtrá»¯": 4090,
      "Ġlif": 4091,
      "Ġhappiness": 4092,
      "Ġvisual": 4093,
      "Ġcompet": 4094,
      "Ġsurface": 4095,
      "Ġwebsite": 4096,
      "ĠsÃ¡u": 4097,
      "Ġtext": 4098,
      "Ġdistr": 4099,
      "Ġnguyá»ĩn": 4100,
      "Ġflow": 4101,
      "Ġmessage": 4102,
      "ham": 4103,
      "Ġchance": 4104,
      "Ġpark": 4105,
      "Ġdáº·m": 4106,
      "Ġfair": 4107,
      "Ġintellig": 4108,
      "Ġdemocracy": 4109,
      "Ġachie": 4110,
      "Ġiraq": 4111,
      "bit": 4112,
      "ik": 4113,
      "Ġkiá»ĩm": 4114,
      "ences": 4115,
      "Ġcá»Ŀ": 4116,
      "imens": 4117,
      "ival": 4118,
      "Ġperi": 4119,
      "phone": 4120,
      "ried": 4121,
      "á»³": 4122,
      "ĠÄĳÄĥng": 4123,
      "ĠkhÃ¡ng": 4124,
      "Ġsell": 4125,
      "Ġinvolved": 4126,
      "Ġdefin": 4127,
      "Ġissues": 4128,
      "Ġbirth": 4129,
      "Ġep": 4130,
      "Ġconflict": 4131,
      "nam": 4132,
      "Ġtri": 4133,
      "isions": 4134,
      "omen": 4135,
      "Ġchoice": 4136,
      "Ġmeth": 4137,
      "Ġoffice": 4138,
      "Ġevolution": 4139,
      "Ġschools": 4140,
      "Ġdetail": 4141,
      "Ġjourney": 4142,
      "Ġdigital": 4143,
      "Ġ0": 4144,
      "ĠcÃł": 4145,
      "Ġsafe": 4146,
      "Ġshape": 4147,
      "Ġcross": 4148,
      "Ġtechnologies": 4149,
      "Ġperiod": 4150,
      "±ng": 4151,
      "ĠtÃłng": 4152,
      "ĠnÃ©": 4153,
      "ĠnÃ¢ng": 4154,
      "Ġaids": 4155,
      "Ġbá»¥": 4156,
      "Ġfur": 4157,
      "Ġbeyond": 4158,
      "Ġsá»ĳt": 4159,
      "ilities": 4160,
      "Ġamong": 4161,
      "Ġgroups": 4162,
      "Ġbá»Ŀ": 4163,
      "Ġdanger": 4164,
      "put": 4165,
      "ĠchÃło": 4166,
      "Ġquang": 4167,
      "Ġrece": 4168,
      "assion": 4169,
      "Ġvision": 4170,
      "Ġcode": 4171,
      "ĠbÆ¡i": 4172,
      "Ġbá»įn": 4173,
      "Ġmechan": 4174,
      "head": 4175,
      "Ġcapt": 4176,
      "ĠÄĳuá»ķi": 4177,
      "come": 4178,
      "Ġwish": 4179,
      "Ġelectric": 4180,
      "Ġavailable": 4181,
      "váº¥n": 4182,
      "ÄĳÆ°á»£c": 4183,
      "Ġko": 4184,
      "ĠphiÃªn": 4185,
      "Ġvá»ı": 4186,
      "Ġtiny": 4187,
      "ips": 4188,
      "Ġcreative": 4189,
      "Ġmedical": 4190,
      "Ġmiles": 4191,
      "fort": 4192,
      "Ġá»ĵ": 4193,
      "Ġcause": 4194,
      "Ġnháº¯n": 4195,
      "Ġnecess": 4196,
      "trÃªn": 4197,
      "Ġprojects": 4198,
      "ĠkÃ©m": 4199,
      "Ġrules": 4200,
      "ĠcÃº": 4201,
      "ĠthÄĥm": 4202,
      "Ġdam": 4203,
      "Ġthá»Ł": 4204,
      "Ġsold": 4205,
      "ĠghÃ©p": 4206,
      "Ġsituation": 4207,
      "light": 4208,
      "Ġtháº£m": 4209,
      "oring": 4210,
      "Ġbrazil": 4211,
      "Æ°á»¡i": 4212,
      "nÄĥm": 4213,
      "Ġcit": 4214,
      "Ġbreat": 4215,
      "Ġkhoáº£nh": 4216,
      "Ġ300": 4217,
      "Ġaccount": 4218,
      "Ġcart": 4219,
      "Ġráº»": 4220,
      "Ãºa": 4221,
      "Ã¬a": 4222,
      "Ġreact": 4223,
      "Ġclos": 4224,
      "akes": 4225,
      "Ġinstr": 4226,
      "Ġslide": 4227,
      "Ġdevice": 4228,
      "Ġrecently": 4229,
      "iar": 4230,
      "Ġtable": 4231,
      "Ġaction": 4232,
      "Ġflo": 4233,
      "Ġthoáº£": 4234,
      "orge": 4235,
      "itter": 4236,
      "Ġhoang": 4237,
      "Ġsearch": 4238,
      "trÆ°á»Ľc": 4239,
      "eles": 4240,
      "Ġdrop": 4241,
      "Ġattack": 4242,
      "ring": 4243,
      "Ġláº·ng": 4244,
      "Ġsea": 4245,
      "Ġeverywhere": 4246,
      "Ġcraz": 4247,
      "ugg": 4248,
      "Ġfreed": 4249,
      "Ġná»Ĺ": 4250,
      "hai": 4251,
      "ĠÃł": 4252,
      "Ġmis": 4253,
      "Ġváº¿t": 4254,
      "Ġnháº¹": 4255,
      "Ġtru": 4256,
      "Ġneg": 4257,
      "Ġdeg": 4258,
      "Ġactiv": 4259,
      "Ġwalking": 4260,
      "Ġmemory": 4261,
      "Ġdiv": 4262,
      "Ġec": 4263,
      "ford": 4264,
      "Ġdrive": 4265,
      "others": 4266,
      "Ġwait": 4267,
      "Ġindividuals": 4268,
      "Ġxoay": 4269,
      "hay": 4270,
      "ike": 4271,
      "Ġsá»¥": 4272,
      "á»įt": 4273,
      "Ã£ng": 4274,
      "odies": 4275,
      "antly": 4276,
      "Ġlikely": 4277,
      "abor": 4278,
      "Ġbecomes": 4279,
      "Ġputting": 4280,
      "text": 4281,
      "Ġchrist": 4282,
      "zz": 4283,
      "Ġmich": 4284,
      "ĠhÃ¹ng": 4285,
      "ĠtrÃ²n": 4286,
      "oms": 4287,
      "Ġdestr": 4288,
      "Ġtells": 4289,
      "jo": 4290,
      "with": 4291,
      "Ġlá»įc": 4292,
      "Ġgt": 4293,
      "Ġtrá»ĳng": 4294,
      "apan": 4295,
      "Ġrand": 4296,
      "Ġlog": 4297,
      "Ġjud": 4298,
      "Ġparticip": 4299,
      "Ġelectr": 4300,
      "Ġpassion": 4301,
      "ĠÄĳiá»ĩp": 4302,
      "Ġdied": 4303,
      "Ġbigger": 4304,
      "Ġreport": 4305,
      "ngh": 4306,
      "Ġlt": 4307,
      "Ġly": 4308,
      "Ġhop": 4309,
      "ĠngÃłi": 4310,
      "ara": 4311,
      "Ġcris": 4312,
      "Ġevidence": 4313,
      "Ġhospital": 4314,
      "ned": 4315,
      "Ä©a": 4316,
      "Ġexcept": 4317,
      "Ġcompassion": 4318,
      "Ġgrad": 4319,
      "Ġblind": 4320,
      "Ġdesigned": 4321,
      "Ġclean": 4322,
      "Ġresults": 4323,
      "Ġcollege": 4324,
      "bÃł": 4325,
      "fer": 4326,
      "Ġnine": 4327,
      "Ġlau": 4328,
      "ches": 4329,
      "Ġbrit": 4330,
      "Ġ196": 4331,
      "Ġbasic": 4332,
      "Ġready": 4333,
      "Ġreasons": 4334,
      "ĠmÃ¹i": 4335,
      "Ġvoi": 4336,
      "ev": 4337,
      "tw": 4338,
      "ĠÆ°u": 4339,
      "ĠÄĳáº³ng": 4340,
      "Ġlose": 4341,
      "Ġlá»¥c": 4342,
      "ĠhoÃłng": 4343,
      "Ġlea": 4344,
      "Ġemerg": 4345,
      "Ġprogress": 4346,
      "ĠlÃŃnh": 4347,
      "Ġben": 4348,
      "ĠbÃ²": 4349,
      "Ġking": 4350,
      "Ġngáº«u": 4351,
      "ĠlÃłnh": 4352,
      "arily": 4353,
      "Ġeth": 4354,
      "Ġwaste": 4355,
      "Ġprint": 4356,
      "ously": 4357,
      "Ġaware": 4358,
      "Ġradio": 4359,
      "Ġimprove": 4360,
      "gen": 4361,
      "ky": 4362,
      "Ġstore": 4363,
      "Ġrain": 4364,
      "Ġwashing": 4365,
      "Ġthuá»·": 4366,
      "ĠgiÃ¡m": 4367,
      "Ġnobody": 4368,
      "©t": 4369,
      "ĠthÃ¡nh": 4370,
      "Ġlat": 4371,
      "Ġdoáº¡": 4372,
      "Ġflu": 4373,
      "Ġconscious": 4374,
      "Ġscientific": 4375,
      "ĠÄĳam": 4376,
      "Ġswe": 4377,
      "Ġtowards": 4378,
      "ĠÄĳoÃłn": 4379,
      "medi": 4380,
      "Ġvari": 4381,
      "Ġsoftware": 4382,
      "Ġcitiz": 4383,
      "Ġcrazy": 4384,
      "view": 4385,
      "ĠtÃ´": 4386,
      "Ġpan": 4387,
      "Ġpin": 4388,
      "osh": 4389,
      "Ġlived": 4390,
      "Ġjapan": 4391,
      "Ġmexico": 4392,
      "Ġprim": 4393,
      "Ġshif": 4394,
      "agn": 4395,
      "Ġadm": 4396,
      "Ġsquare": 4397,
      "Ġfavorite": 4398,
      "ging": 4399,
      "liá»ĩu": 4400,
      "ĠthÃ¡c": 4401,
      "Ġmit": 4402,
      "Ġmir": 4403,
      "Ġbank": 4404,
      "Ġvict": 4405,
      "Ġtrial": 4406,
      "ĠrÃ¡c": 4407,
      "Ġthá»«a": 4408,
      "ĠÄĳá»±ng": 4409,
      "ĠthuáºŃn": 4410,
      "Ġstarts": 4411,
      "Ġteacher": 4412,
      "Ġsolar": 4413,
      "Ġmagic": 4414,
      "Ġdin": 4415,
      "ster": 4416,
      "Ġsever": 4417,
      "ained": 4418,
      "olutions": 4419,
      "Ġexamples": 4420,
      "Ġmoral": 4421,
      "cing": 4422,
      "Äĳáº§u": 4423,
      "Ġhiá»ĩp": 4424,
      "Ġdan": 4425,
      "Ġdom": 4426,
      "Ġrid": 4427,
      "Ġcertainly": 4428,
      "Ġviolence": 4429,
      "Ġobviously": 4430,
      "po": 4431,
      "Ġcorn": 4432,
      "Ġbacter": 4433,
      "Ġtaught": 4434,
      "Ġunf": 4435,
      "Ġmoved": 4436,
      "Ġbiggest": 4437,
      "Ġtransl": 4438,
      "Ġjobs": 4439,
      "ĠtrÃŃch": 4440,
      "estern": 4441,
      "Ġonto": 4442,
      "oles": 4443,
      "Ġlá»ħ": 4444,
      "Ġminds": 4445,
      "Ġintrod": 4446,
      "Ġextraord": 4447,
      "Ġscreen": 4448,
      "lin": 4449,
      "nal": 4450,
      "Ġcáº¥y": 4451,
      "Ġthang": 4452,
      "Ġthai": 4453,
      "Ġrap": 4454,
      "oming": 4455,
      "icks": 4456,
      "Ġchoose": 4457,
      "imag": 4458,
      "Ġgraph": 4459,
      "Ġindeed": 4460,
      "Ġcomputers": 4461,
      "Ġauthor": 4462,
      "Ġfurther": 4463,
      "Ġfreedom": 4464,
      "viá»ĩc": 4465,
      "Ľt": 4466,
      "onse": 4467,
      "Ġfant": 4468,
      "Ġfaster": 4469,
      "Ġquality": 4470,
      "Ġhá»įp": 4471,
      "Ġcanada": 4472,
      "izations": 4473,
      "Ġ400": 4474,
      "ished": 4475,
      "Ġconsider": 4476,
      "Ġcontent": 4477,
      "Ġharv": 4478,
      "Ġparticularly": 4479,
      "after": 4480,
      "Ġmathem": 4481,
      "Ġneighbor": 4482,
      "Ġthreat": 4483,
      "ĠÄĳáº¡p": 4484,
      "Ġcháº·t": 4485,
      "Ġcontext": 4486,
      "Ġmeant": 4487,
      "Ġarab": 4488,
      "nÃ³i": 4489,
      "Ġshowing": 4490,
      "Ġfarm": 4491,
      "Ġforest": 4492,
      "ĠnhuáºŃn": 4493,
      "Ġvan": 4494,
      "astr": 4495,
      "urity": 4496,
      "Ġcommunities": 4497,
      "ĠlÃ£ng": 4498,
      "Ġapart": 4499,
      "bs": 4500,
      "ground": 4501,
      "lÃł": 4502,
      "ĠtáºŃt": 4503,
      "Ġsus": 4504,
      "lex": 4505,
      "Ġgiáº£ng": 4506,
      "Ġpublish": 4507,
      "ges": 4508,
      "Ġmiáº¿ng": 4509,
      "ĠlÆ°á»£c": 4510,
      "Ġlink": 4511,
      "Ġisl": 4512,
      "Ġdoor": 4513,
      "Ġfrank": 4514,
      "Ġmá»«ng": 4515,
      "Ġexpert": 4516,
      "á»§i": 4517,
      "Ġstudent": 4518,
      "Ġrepresent": 4519,
      "ba": 4520,
      "back": 4521,
      "de": 4522,
      "ĠcÃ£i": 4523,
      "Ġláº¯p": 4524,
      "Ġprison": 4525,
      "Ġresponse": 4526,
      "Ġsecret": 4527,
      "Ġdrugs": 4528,
      "Ġsurprising": 4529,
      "even": 4530,
      "Ġmanh": 4531,
      "Ġnhá»±a": 4532,
      "chÃŃnh": 4533,
      "Æ°á»Ŀn": 4534,
      "Ġdecisions": 4535,
      "Ġsky": 4536,
      "Ġregion": 4537,
      "Ġlabor": 4538,
      "Ġvillage": 4539,
      "Ġseveral": 4540,
      "Ġgdp": 4541,
      "Ġkháº¥u": 4542,
      "eties": 4543,
      "ipt": 4544,
      "ucle": 4545,
      "Ġcá»¥c": 4546,
      "Ġfinan": 4547,
      "Ġtotally": 4548,
      "nces": 4549,
      "ĠmÃ¢y": 4550,
      "Ġcháº·n": 4551,
      "Ġham": 4552,
      "ured": 4553,
      "ressed": 4554,
      "Ġskin": 4555,
      "Ġconnected": 4556,
      "Ġchemical": 4557,
      "dom": 4558,
      "Ġmáº¡i": 4559,
      "Ġmine": 4560,
      "Ġmental": 4561,
      "Ġther": 4562,
      "ĠyÃªn": 4563,
      "lly": 4564,
      "ims": 4565,
      "Ġworse": 4566,
      "Ġspir": 4567,
      "ĠngoÃ¡i": 4568,
      "Ġcarry": 4569,
      "Ġbrains": 4570,
      "Ġinternational": 4571,
      "many": 4572,
      "Ġvirt": 4573,
      "Ġpush": 4574,
      "Ã©o": 4575,
      "Ġanybody": 4576,
      "Ġpositive": 4577,
      "Ġkenya": 4578,
      "ĠtháºŃn": 4579,
      "Ġhur": 4580,
      "Ġkil": 4581,
      "Ġdar": 4582,
      "Ġdad": 4583,
      "Ġdiá»ĩt": 4584,
      "cient": 4585,
      "ief": 4586,
      "Ġchris": 4587,
      "30": 4588,
      "ĠÄĳÃ²i": 4589,
      "Ġign": 4590,
      "Ġngang": 4591,
      "Ġfix": 4592,
      "ams": 4593,
      "Ġimmedi": 4594,
      "ĠtuyÃªn": 4595,
      "Ġadult": 4596,
      "Ġstrateg": 4597,
      "Ġexplore": 4598,
      "Ġdetect": 4599,
      "Ġwatching": 4600,
      "Ġtraining": 4601,
      "Ġplease": 4602,
      "osphere": 4603,
      "Ġmethod": 4604,
      "bu": 4605,
      "Ġcat": 4606,
      "Ġhuá»ĳng": 4607,
      "Ġpen": 4608,
      "Ġriver": 4609,
      "oken": 4610,
      "Ġcook": 4611,
      "Ġcharacter": 4612,
      "Ġassum": 4613,
      "Ġcollabor": 4614,
      "Ġreturn": 4615,
      "20": 4616,
      "win": 4617,
      "ngth": 4618,
      "Ġthao": 4619,
      "Ġtháº¥u": 4620,
      "ĠhÆ°Æ¡ng": 4621,
      "Ġden": 4622,
      "Ġdá»ĭ": 4623,
      "Ġfine": 4624,
      "Ġcáº£n": 4625,
      "Ġwants": 4626,
      "Ġtwitter": 4627,
      "Ġ150": 4628,
      "Ġinflu": 4629,
      "ech": 4630,
      "ha": 4631,
      "ngay": 4632,
      "atory": 4633,
      "ĠcÃ¡t": 4634,
      "uyá»ģn": 4635,
      "Ġshown": 4636,
      "Ġnotice": 4637,
      "Ġarm": 4638,
      "Ġsyn": 4639,
      "Ġglass": 4640,
      "Ġspeed": 4641,
      "Ġcentral": 4642,
      "Ġgrew": 4643,
      "ping": 4644,
      "ĠchÃ©p": 4645,
      "ander": 4646,
      "Ġwild": 4647,
      "soci": 4648,
      "aging": 4649,
      "Ġsá»ķ": 4650,
      "Ġindustr": 4651,
      "Ġperspect": 4652,
      "Ġdecision": 4653,
      "Ġremark": 4654,
      "Ġallowed": 4655,
      "Ġcrisis": 4656,
      "ĠÄĳá»ĳng": 4657,
      "ĠÄĳÃ¹a": 4658,
      "Ġpack": 4659,
      "any": 4660,
      "Ġsá»£i": 4661,
      "Ġposition": 4662,
      "Ġsuddenly": 4663,
      "cuá»ĳi": 4664,
      "Ġáº£": 4665,
      "Ġnucle": 4666,
      "Ġbodies": 4667,
      "Ġvong": 4668,
      "Ġwestern": 4669,
      "Ġnhá»ĭp": 4670,
      "icle": 4671,
      "Ġappear": 4672,
      "Ġstudies": 4673,
      "Ġinfect": 4674,
      "Ġcirc": 4675,
      "aughter": 4676,
      "Ġincluding": 4677,
      "Ġdiscuss": 4678,
      "maybe": 4679,
      "ze": 4680,
      "ĠthÃ¹": 4681,
      "ĠvÃº": 4682,
      "Ġger": 4683,
      "ĠtrÃłn": 4684,
      "Ġcá»©ng": 4685,
      "ett": 4686,
      "verty": 4687,
      "Ġsepar": 4688,
      "Ġ2000": 4689,
      "Ġactivity": 4690,
      "Ġtalks": 4691,
      "Ġpoverty": 4692,
      "Ġrobots": 4693,
      "Ġtrees": 4694,
      "Ġcontinue": 4695,
      "hoáº·c": 4696,
      "Ġobjects": 4697,
      "Ġservice": 4698,
      "instein": 4699,
      "know": 4700,
      "ĠÃ¡m": 4701,
      "Ġcáº·p": 4702,
      "ĠsÃºng": 4703,
      "ĠmáºŃp": 4704,
      "Ġfill": 4705,
      "Ġfasc": 4706,
      "Ġtá»ı": 4707,
      "ocks": 4708,
      "Ġemploy": 4709,
      "Ġbuildings": 4710,
      "Ġnamed": 4711,
      "Ġeventually": 4712,
      "Ġtraditional": 4713,
      "Ġmovie": 4714,
      "Ġnháº±m": 4715,
      "Ġngá»įn": 4716,
      "Ġran": 4717,
      "Ġluck": 4718,
      "Ġcold": 4719,
      "Ġlargest": 4720,
      "cÅ©ng": 4721,
      "oid": 4722,
      "Ġmá»±c": 4723,
      "Ġbáº¯n": 4724,
      "Ġhall": 4725,
      "itary": 4726,
      "Ġdeb": 4727,
      "Ġminute": 4728,
      "lÃºc": 4729,
      "ĠmÃ³c": 4730,
      "ĠchÃ¡n": 4731,
      "ĠtrÃło": 4732,
      "Ġphiáº¿u": 4733,
      "inct": 4734,
      "ays": 4735,
      "Ġwife": 4736,
      "itten": 4737,
      "Ġroll": 4738,
      "Ġincome": 4739,
      "Ġfunction": 4740,
      "Ġtemper": 4741,
      "Ġpaul": 4742,
      "Ġtruly": 4743,
      "first": 4744,
      "Ġthr": 4745,
      "Ġsource": 4746,
      "erve": 4747,
      "Ġtriáº¿t": 4748,
      "thay": 4749,
      "Ġdoc": 4750,
      "Ġclin": 4751,
      "Ġaccept": 4752,
      "Ġorganization": 4753,
      "Ġkilled": 4754,
      "Ġdoctor": 4755,
      "cÃ¡ch": 4756,
      "Ġtháº§y": 4757,
      "Ġsolutions": 4758,
      "Ġhiáº¿m": 4759,
      "Ġet": 4760,
      "Ġforms": 4761,
      "Ġplants": 4762,
      "ffic": 4763,
      "Ġimposs": 4764,
      "Ġgene": 4765,
      "Ġfinding": 4766,
      "ĠkhÃŃa": 4767,
      "Ġearl": 4768,
      "Ġartist": 4769,
      "look": 4770,
      "Ġconditions": 4771,
      "Ġsecurity": 4772,
      "Ġextremely": 4773,
      "Ġconversation": 4774,
      "Ġsá»¥p": 4775,
      "ners": 4776,
      "Ġsn": 4777,
      "Ġmos": 4778,
      "Ġbá»ĳi": 4779,
      "ĠkÃªu": 4780,
      "Ġgas": 4781,
      "Ġdy": 4782,
      "Ġann": 4783,
      "Ġgoal": 4784,
      "istics": 4785,
      "Ġanymore": 4786,
      "Ġended": 4787,
      "Ġsupposed": 4788,
      "Ġspecific": 4789,
      "Ġexcited": 4790,
      "Ġdeliver": 4791,
      "aur": 4792,
      "cise": 4793,
      "Ġnáº¥m": 4794,
      "Ġlower": 4795,
      "Ġbáº£y": 4796,
      "ĠráºŃp": 4797,
      "Ġhack": 4798,
      "Ġhoáº£": 4799,
      "ulate": 4800,
      "Ġadn": 4801,
      "ologist": 4802,
      "Ġproducts": 4803,
      "Ġpolitics": 4804,
      "Ġsignific": 4805,
      "Ġlistening": 4806,
      "ĠtiÃªm": 4807,
      "cape": 4808,
      "ĠtÃ¡": 4809,
      "Ġmc": 4810,
      "Ġmuse": 4811,
      "ĠhÃ¨": 4812,
      "Ġkhung": 4813,
      "Ġassoci": 4814,
      "Ġpoints": 4815,
      "Ġeffort": 4816,
      "Ġrespond": 4817,
      "cÃ´ng": 4818,
      "hi": 4819,
      "joy": 4820,
      "time": 4821,
      "za": 4822,
      "Ġcases": 4823,
      "Ġliá»ģn": 4824,
      "rest": 4825,
      "Ġpet": 4826,
      "sect": 4827,
      "Ġlá»«a": 4828,
      "Ġstra": 4829,
      "Ġseries": 4830,
      "Ġprovide": 4831,
      "áºŃc": 4832,
      "Ġabove": 4833,
      "Ġalive": 4834,
      "Ġdisapp": 4835,
      "Ġrights": 4836,
      "Ġrole": 4837,
      "Ġkept": 4838,
      "Ġsorts": 4839,
      "Ġskills": 4840,
      "Ġallows": 4841,
      "Ġexciting": 4842,
      "Ġwashington": 4843,
      "Ġextraordinary": 4844,
      "eth": 4845,
      "ĠÃ³c": 4846,
      "ĠÄĳáº£ng": 4847,
      "ĠmÆ°a": 4848,
      "Ġdá»ĳi": 4849,
      "Ġtrou": 4850,
      "Ġkháº£o": 4851,
      "Ġcomplic": 4852,
      "ĠbÃ©o": 4853,
      "Ġgá»Ĺ": 4854,
      "ĠÄĳua": 4855,
      "Ġhigher": 4856,
      "Ġprinci": 4857,
      "ael": 4858,
      "ĠcÃ´n": 4859,
      "nhÃł": 4860,
      "Ġthá»Ŀ": 4861,
      "igr": 4862,
      "Ġwik": 4863,
      "theo": 4864,
      "Ġamp": 4865,
      "Ġsurg": 4866,
      "Ġsocieties": 4867,
      "Ġreading": 4868,
      "Ġafrican": 4869,
      "Ġcalcul": 4870,
      "Ġniger": 4871,
      "Ġlate": 4872,
      "rew": 4873,
      "asa": 4874,
      "Ġweight": 4875,
      "Æ°á»£u": 4876,
      "emic": 4877,
      "Ġboard": 4878,
      "Ġstrugg": 4879,
      "Ã¨m": 4880,
      "Ġthousand": 4881,
      "Ġphilos": 4882,
      "Ġpurp": 4883,
      "Ġpolicy": 4884,
      "Ġimpossible": 4885,
      "Ġmuseum": 4886,
      "Ġkn": 4887,
      "Ġcapital": 4888,
      "Ġfinancial": 4889,
      "ax": 4890,
      "ĠÃ¡c": 4891,
      "Äĳá»ĳi": 4892,
      "Ġmad": 4893,
      "Ġbá»ķ": 4894,
      "ĠbáºŃc": 4895,
      "Ġháº£i": 4896,
      "Ġrom": 4897,
      "imb": 4898,
      "Ġloved": 4899,
      "ulf": 4900,
      "ended": 4901,
      "Ġmáº¡c": 4902,
      "Ġsmell": 4903,
      "Ġdeterm": 4904,
      "Ġmodels": 4905,
      "Ġtreatment": 4906,
      "Ġafford": 4907,
      "Ġsuccessful": 4908,
      "Ġfamilies": 4909,
      "imagine": 4910,
      "Ġfascin": 4911,
      "cÃ¡m": 4912,
      "Ľp": 4913,
      "ĠcÄĥng": 4914,
      "ĠÄĳáºŃp": 4915,
      "Ġmist": 4916,
      "Ġbunch": 4917,
      "Ġhá»ĳi": 4918,
      "Ġháº¯n": 4919,
      "Ġox": 4920,
      "edia": 4921,
      "Ġexpensive": 4922,
      "Ġenjoy": 4923,
      "Ġfundamental": 4924,
      "uel": 4925,
      "Ġquot": 4926,
      "ĠlÅ©": 4927,
      "Ġlands": 4928,
      "think": 4929,
      "Ġraise": 4930,
      "Ġliber": 4931,
      "Ġconcer": 4932,
      "Ġgold": 4933,
      "Ġmel": 4934,
      "Ġfranc": 4935,
      "Ġthoáº£i": 4936,
      "Ġslight": 4937,
      "urban": 4938,
      "Ġbroad": 4939,
      "ec": 4940,
      "oon": 4941,
      "ror": 4942,
      "word": 4943,
      "ĠngÆ°á»¡ng": 4944,
      "ĠrÆ°á»£u": 4945,
      "aly": 4946,
      "Ġmá»ı": 4947,
      "Ġanywhere": 4948,
      "Ġdemon": 4949,
      "Ġmachines": 4950,
      "cules": 4951,
      "Ġneurons": 4952,
      "ires": 4953,
      "Ġthuyá»ģn": 4954,
      "Ġchá»ĳt": 4955,
      "Ġgay": 4956,
      "alia": 4957,
      "iest": 4958,
      "Ġplastic": 4959,
      "Ġfunny": 4960,
      "Ġcontinu": 4961,
      "Ġfamiliar": 4962,
      "Ġdistribut": 4963,
      "ĠtÃ¡o": 4964,
      "Ġchá»ĳi": 4965,
      "ute": 4966,
      "Ġfort": 4967,
      "Ġgenetic": 4968,
      "Ġhuáº¥n": 4969,
      "Ġeffic": 4970,
      "Ġteaching": 4971,
      "Ġpieces": 4972,
      "Ġhá»Ĺn": 4973,
      "Ġtypes": 4974,
      "Ġcolleag": 4975,
      "Ġdoctors": 4976,
      "Ġcritical": 4977,
      "car": 4978,
      "tod": 4979,
      "ĠmÃ©t": 4980,
      "Ġpage": 4981,
      "Ġusually": 4982,
      "Ġsomewhere": 4983,
      "Ġupon": 4984,
      "Ġstrange": 4985,
      "Ġswim": 4986,
      "Ġstraight": 4987,
      "ĠmÃ¬": 4988,
      "ĠnhÅ©ng": 4989,
      "Ġtor": 4990,
      "iced": 4991,
      "ife": 4992,
      "unk": 4993,
      "Ġhumanity": 4994,
      "Ġfamous": 4995,
      "Ġlarger": 4996,
      "Ġmagn": 4997,
      "Ġpatterns": 4998,
      "Ġcitizens": 4999,
      "aking": 5000,
      "aff": 5001,
      "vá»ģ": 5002,
      "á»Ŀi": 5003,
      "ĠÄĳÃłi": 5004,
      "Ġtráº§m": 5005,
      "ought": 5006,
      "Ġsaving": 5007,
      "Ġmá»ĵ": 5008,
      "Ġactual": 5009,
      "iven": 5010,
      "ĠghÃ©t": 5011,
      "Ġrespect": 5012,
      "Ġreflect": 5013,
      "Ġrecognize": 5014,
      "Ġrandom": 5015,
      "off": 5016,
      "Ġnation": 5017,
      "Ġrise": 5018,
      "Ġbecoming": 5019,
      "ogen": 5020,
      "ounds": 5021,
      "Ġsym": 5022,
      "Ġseconds": 5023,
      "Ġkhuyáº¿n": 5024,
      "Ġspirit": 5025,
      "Ġperspective": 5026,
      "ball": 5027,
      "Ġtrade": 5028,
      "apes": 5029,
      "urg": 5030,
      "vert": 5031,
      "Ġpros": 5032,
      "Ġexpress": 5033,
      "Ġgreater": 5034,
      "Ġpolice": 5035,
      "Ġtá»īnh": 5036,
      "Ġnetwor": 5037,
      "dÃ¹": 5038,
      "Ġá»©c": 5039,
      "Ġsite": 5040,
      "Ġhous": 5041,
      "ĠchÃ¡y": 5042,
      "Ġfit": 5043,
      "Ġbeat": 5044,
      "ami": 5045,
      "Ġsomehow": 5046,
      "Ġparty": 5047,
      "Ġlaunch": 5048,
      "Ġbeauty": 5049,
      "attle": 5050,
      "Ġeffective": 5051,
      "egr": 5052,
      "nÃło": 5053,
      "vision": 5054,
      "Ġtiss": 5055,
      "ĠnÃºt": 5056,
      "Ġmars": 5057,
      "Ġbiá»ĩn": 5058,
      "Ġver": 5059,
      "ales": 5060,
      "key": 5061,
      "Ġunique": 5062,
      "Ġhero": 5063,
      "Ġgenes": 5064,
      "Ġ2008": 5065,
      "Ġamericans": 5066,
      "Ġfrancis": 5067,
      "fact": 5068,
      "pan": 5069,
      "uit": 5070,
      "Ġcard": 5071,
      "Ġdai": 5072,
      "nhiá»ģu": 5073,
      "Ġtá»ĭ": 5074,
      "Ġwilling": 5075,
      "akistan": 5076,
      "Ġstanding": 5077,
      "Ġpainting": 5078,
      "Ġmolecules": 5079,
      "Ġmedicine": 5080,
      "Ġdemonstr": 5081,
      "vi": 5082,
      "Ġthrow": 5083,
      "ĠÄĳáº¯t": 5084,
      "Ġmatch": 5085,
      "ĠngÃ³n": 5086,
      "Ġhole": 5087,
      "erson": 5088,
      "uments": 5089,
      "Ġthuá»µ": 5090,
      "Ġmanag": 5091,
      "Ġsmaller": 5092,
      "Ġlegs": 5093,
      "Ġmicros": 5094,
      "Ġarchitecture": 5095,
      "Ġcomplicated": 5096,
      "today": 5097,
      "fl": 5098,
      "yle": 5099,
      "Ġut": 5100,
      "ĠÄĳá»ĳc": 5101,
      "Ġwood": 5102,
      "ises": 5103,
      "Ġcá»ı": 5104,
      "omas": 5105,
      "ica": 5106,
      "ently": 5107,
      "ĠphÃ¡n": 5108,
      "Ġspect": 5109,
      "kho": 5110,
      "Ġwritten": 5111,
      "Ġshared": 5112,
      "Ġversion": 5113,
      "Ġfemale": 5114,
      "Ġmobile": 5115,
      "ka": 5116,
      "mend": 5117,
      "Ġáº¡": 5118,
      "Ġtit": 5119,
      "Ġna": 5120,
      "Ġconc": 5121,
      "Ġjump": 5122,
      "Ġcloud": 5123,
      "Ġhá»ĵn": 5124,
      "Ġcontribut": 5125,
      "Ġhealthy": 5126,
      "Ġincreasing": 5127,
      "Ġoptim": 5128,
      "Ġachieve": 5129,
      "Ġtháº£": 5130,
      "Ġmáº¡o": 5131,
      "Ġbread": 5132,
      "Ġhus": 5133,
      "Ġtrib": 5134,
      "Ġthá»į": 5135,
      "Ġqui": 5136,
      "Ġxá»©ng": 5137,
      "Ġdog": 5138,
      "Ġuses": 5139,
      "epend": 5140,
      "Ġprep": 5141,
      "Ġbiology": 5142,
      "ortunately": 5143,
      "Ġenvironmental": 5144,
      "Ġbabies": 5145,
      "Ġengineering": 5146,
      "tim": 5147,
      "ĠtÃºc": 5148,
      "Ġthiá»ĥu": 5149,
      "Ġvul": 5150,
      "Ġchair": 5151,
      "aries": 5152,
      "Ġsect": 5153,
      "Ġ35": 5154,
      "Ġtrá»©ng": 5155,
      "Ġdecades": 5156,
      "Ġorganizations": 5157,
      "Ġlevels": 5158,
      "Ġcosts": 5159,
      "Ġincrease": 5160,
      "Ġessentially": 5161,
      "ĠmÅ©i": 5162,
      "Ġdangerous": 5163,
      "two": 5164,
      "Ľn": 5165,
      "Ġcust": 5166,
      "ĠsÄĥn": 5167,
      "Ġwis": 5168,
      "Ġport": 5169,
      "Ġpakistan": 5170,
      "Ġgá»įn": 5171,
      "oty": 5172,
      "lebr": 5173,
      "iling": 5174,
      "Ġalg": 5175,
      "Ġmai": 5176,
      "Ġ45": 5177,
      "Ġoffic": 5178,
      "Ġfinal": 5179,
      "Ġconnection": 5180,
      "Ġstandard": 5181,
      "Ġbacteria": 5182,
      "Ġfantastic": 5183,
      "ef": 5184,
      "oo": 5185,
      "£t": 5186,
      "Ġtháº¡ch": 5187,
      "Ġgol": 5188,
      "oun": 5189,
      "ĠkhÃ¡t": 5190,
      "Ġcá»Ĺ": 5191,
      "itation": 5192,
      "Ġcá»¥t": 5193,
      "Ġolder": 5194,
      "pro": 5195,
      "Ġmix": 5196,
      "ĠbÃ´ng": 5197,
      "repre": 5198,
      "Ġdinh": 5199,
      "onom": 5200,
      "ĠgiáºŃn": 5201,
      "acity": 5202,
      "Ġcomfort": 5203,
      "thern": 5204,
      "Ġbeings": 5205,
      "Ġremind": 5206,
      "Ġcreativity": 5207,
      "Ġcorru": 5208,
      "ĠxoÃ¡": 5209,
      "Ġjournal": 5210,
      "Ġpractice": 5211,
      "Ġsurgery": 5212,
      "reprene": 5213,
      "aign": 5214,
      "Ġurban": 5215,
      "Ġthá»ķ": 5216,
      "Ġxong": 5217,
      "Ġstars": 5218,
      "Ġforth": 5219,
      "verse": 5220,
      "Ġsequ": 5221,
      "Ġshar": 5222,
      "Ġdesp": 5223,
      "Ġthroughout": 5224,
      "Ġservices": 5225,
      "Ġhonest": 5226,
      "Ġelectricity": 5227,
      "Ġimmediately": 5228,
      "hy": 5229,
      "ĠÃ¡": 5230,
      "Ġtia": 5231,
      "ĠvÆ°á»Ŀn": 5232,
      "Ġinh": 5233,
      "Ġgps": 5234,
      "atically": 5235,
      "Ġkhiáº¿p": 5236,
      "Ġrá»§i": 5237,
      "orrow": 5238,
      "ining": 5239,
      "itor": 5240,
      "Ġteen": 5241,
      "cons": 5242,
      "Ġbelief": 5243,
      "Ġelectron": 5244,
      "Ġproduction": 5245,
      "Ġoppos": 5246,
      "Ġremarkable": 5247,
      "den": 5248,
      "Ġthiá»ĩp": 5249,
      "Ġnáº¥u": 5250,
      "ÄĳÃºng": 5251,
      "Ġber": 5252,
      "Ġhiáº¿n": 5253,
      "ĠdÃły": 5254,
      "ĠthuÃª": 5255,
      "Ġfellow": 5256,
      "Ġautom": 5257,
      "Ġcampaign": 5258,
      "istry": 5259,
      "&#": 5260,
      "lant": 5261,
      "ngu": 5262,
      "Ġcá»Ļt": 5263,
      "Ġnut": 5264,
      "ĠÄĳáº¯n": 5265,
      "Ġsamp": 5266,
      "Ġmá»Ļ": 5267,
      "Ġmiá»ģn": 5268,
      "ĠbÃ£i": 5269,
      "Ġhun": 5270,
      "Ġkáº¹": 5271,
      "Ġdance": 5272,
      "ĠngÅ©": 5273,
      "Ġphen": 5274,
      "Ġyell": 5275,
      "Ġeinstein": 5276,
      "Ġrace": 5277,
      "oper": 5278,
      "sequ": 5279,
      "ables": 5280,
      "Ġcoff": 5281,
      "Ġdiagn": 5282,
      "Ġfold": 5283,
      "Ġpopular": 5284,
      "Ġcheck": 5285,
      "Ġcelebr": 5286,
      "Ġintelligence": 5287,
      "don": 5288,
      "Ġmr": 5289,
      "ĠmÃ²": 5290,
      "Ġlá»Ļn": 5291,
      "Ġbá»Ļt": 5292,
      "Ġbinh": 5293,
      "ĠhÆ°á»Ľc": 5294,
      "Ġyoutu": 5295,
      "Ġscan": 5296,
      "Ġpropert": 5297,
      "Ġyoutube": 5298,
      "mon": 5299,
      "ĠtÃ³c": 5300,
      "Ġmention": 5301,
      "Ġbon": 5302,
      "Ġbáº¡c": 5303,
      "cháº³ng": 5304,
      "itude": 5305,
      "ĠgiÃłnh": 5306,
      "Ġstick": 5307,
      "Ġforget": 5308,
      "Ġju": 5309,
      "which": 5310,
      "Ġcover": 5311,
      "Ġboys": 5312,
      "Ġevolved": 5313,
      "Ġentreprene": 5314,
      "Ġhistor": 5315,
      "Ġbirds": 5316,
      "Ġencour": 5317,
      "Ġtelevision": 5318,
      "Ġvulner": 5319,
      "Ġtáº¡m": 5320,
      "Ġaid": 5321,
      "Ġtown": 5322,
      "Ġtax": 5323,
      "ĠxÆ°a": 5324,
      "Ġprice": 5325,
      "Æ°á»Ľt": 5326,
      "Ġinterview": 5327,
      "uced": 5328,
      "Ġtruyá»ĩn": 5329,
      "Ġapple": 5330,
      "Ġaddress": 5331,
      "Ġwaiting": 5332,
      "Ġwalked": 5333,
      "Ġchallenges": 5334,
      "Ġfollowing": 5335,
      "Ġclearly": 5336,
      "Ġemotional": 5337,
      "Ġearlier": 5338,
      "ov": 5339,
      "ram": 5340,
      "Ĺng": 5341,
      "ĠÄĳá»ĳt": 5342,
      "Ġaustr": 5343,
      "Ġmas": 5344,
      "Ġcháº©n": 5345,
      "ĠrÄĥng": 5346,
      "ĠphÃ³": 5347,
      "Ã¹i": 5348,
      "Ġord": 5349,
      "Ġplat": 5350,
      "resh": 5351,
      "ĠmÃ¡t": 5352,
      "ologists": 5353,
      "berg": 5354,
      "Ġapply": 5355,
      "Ġcultural": 5356,
      "Ġmilitary": 5357,
      "Ġmassive": 5358,
      "Ġveh": 5359,
      "men": 5360,
      "mark": 5361,
      "Äĳá»": 5362,
      "Ġax": 5363,
      "Ġhuyáº¿t": 5364,
      "ĠdÃłn": 5365,
      "Ġdá»įc": 5366,
      "osy": 5367,
      "iá»ĩng": 5368,
      "iding": 5369,
      "Ġspaces": 5370,
      "Ġbrand": 5371,
      "Ġleo": 5372,
      "Ġthuáº§n": 5373,
      "Ġuseful": 5374,
      "ception": 5375,
      "Ġsexual": 5376,
      "Ġsummer": 5377,
      "Ġah": 5378,
      "Ġast": 5379,
      "ĠrÆ°á»¡i": 5380,
      "Ġchá»«ng": 5381,
      "Ġunderstood": 5382,
      "Ġhelped": 5383,
      "Ġhimself": 5384,
      "Ġcareer": 5385,
      "Ġspeaking": 5386,
      "Ġcondition": 5387,
      "Ġ2010": 5388,
      "Ġperformance": 5389,
      "Ġprivate": 5390,
      "Ġcoffee": 5391,
      "wood": 5392,
      "Ġtree": 5393,
      "Ġcáº©n": 5394,
      "ĠnÆ¡": 5395,
      "ĠmÄ©": 5396,
      "Ġnháº¥n": 5397,
      "Ġráº¯c": 5398,
      "arian": 5399,
      "Ġwealth": 5400,
      "Ġwhose": 5401,
      "Ġtask": 5402,
      "Ġindustrial": 5403,
      "Ġnigeria": 5404,
      "báº±ng": 5405,
      "háº§u": 5406,
      "ua": 5407,
      "Ġáº¥m": 5408,
      "Ġtun": 5409,
      "Ġtáº·ng": 5410,
      "ĠÄĳÄ©a": 5411,
      "ĠbÃ³": 5412,
      "Ġbase": 5413,
      "rees": 5414,
      "ĠgÆ°Æ¡ng": 5415,
      "ĠxÃ¢m": 5416,
      "Ġchoices": 5417,
      "Ġsad": 5418,
      "Ã½t": 5419,
      "Ġtherefore": 5420,
      "cond": 5421,
      "Ġsurround": 5422,
      "Ġinvent": 5423,
      "Ġpresident": 5424,
      "Ġexperiments": 5425,
      "Ġmultip": 5426,
      "mm": 5427,
      "Ġmale": 5428,
      "ĠquÃª": 5429,
      "Ġhaiti": 5430,
      "illi": 5431,
      "Ġmoon": 5432,
      "Ġspeech": 5433,
      "board": 5434,
      "Ġzero": 5435,
      "Ġclassroom": 5436,
      "Ġtarget": 5437,
      "ĠnÃ©m": 5438,
      "Ġneighborhood": 5439,
      "Ġslightly": 5440,
      "Ġphenomen": 5441,
      "Ġmid": 5442,
      "Ġlapt": 5443,
      "Ġing": 5444,
      "Ġtrá»Ļn": 5445,
      "ĠkhÃ³c": 5446,
      "Ġweren": 5447,
      "Ġtuá»³": 5448,
      "Ġcá»ĳt": 5449,
      "Ġnhá»ī": 5450,
      "Ġsimpl": 5451,
      "Ġconference": 5452,
      "Ġvalues": 5453,
      "Ġphysics": 5454,
      "ashion": 5455,
      "Ġnetworks": 5456,
      "cope": 5457,
      "Ġlines": 5458,
      "Ġchai": 5459,
      "rel": 5460,
      "Ġgar": 5461,
      "Ġnho": 5462,
      "those": 5463,
      "Ġxáº¡": 5464,
      "imin": 5465,
      "Ġhey": 5466,
      "Ġhell": 5467,
      "Ġworry": 5468,
      "Ġindian": 5469,
      "Ġdecide": 5470,
      "Ġcreates": 5471,
      "Ġfoundation": 5472,
      "Ġanswers": 5473,
      "Ġles": 5474,
      "Ġláº»": 5475,
      "outh": 5476,
      "Ġeating": 5477,
      "iring": 5478,
      "Ġhighly": 5479,
      "Ġterm": 5480,
      "Ġetc": 5481,
      "Ġtháº©m": 5482,
      "Ġinsect": 5483,
      "Ġreve": 5484,
      "Ġselect": 5485,
      "Ġintegr": 5486,
      "Ġbrown": 5487,
      "Ġlights": 5488,
      "Ġphysic": 5489,
      "Ġprofound": 5490,
      "Ġcomplexity": 5491,
      "Ġmeeting": 5492,
      "Ġpurpose": 5493,
      "band": 5494,
      "pm": 5495,
      "Ġmiá»ĩng": 5496,
      "ĠdÃŃnh": 5497,
      "Ġdaughter": 5498,
      "another": 5499,
      "ĠrÃło": 5500,
      "Ġfat": 5501,
      "aling": 5502,
      "Ġshop": 5503,
      "Ġcla": 5504,
      "Ġtuá»ĩ": 5505,
      "Ġcooper": 5506,
      "Ġcrow": 5507,
      "rench": 5508,
      "Ġtransport": 5509,
      "Ġinfr": 5510,
      "Ġdirection": 5511,
      "Ġmotiv": 5512,
      "Ġcopy": 5513,
      "Ġvaccine": 5514,
      "Ġnuclear": 5515,
      "ray": 5516,
      "und": 5517,
      "Ġcand": 5518,
      "Ġmut": 5519,
      "Ġmáº©u": 5520,
      "Ġháº¹n": 5521,
      "ĠgÃł": 5522,
      "isms": 5523,
      "ĠÄĳá»Ľn": 5524,
      "Ġisland": 5525,
      "ĠÄĳÃ³n": 5526,
      "amm": 5527,
      "Ġatm": 5528,
      "pháº§n": 5529,
      "Ġstudio": 5530,
      "Ġinstance": 5531,
      "Ġstreets": 5532,
      "Ġphoto": 5533,
      "Ġfocused": 5534,
      "Ġharvard": 5535,
      "Ġcustom": 5536,
      "cáºŃu": 5537,
      "sáº½": 5538,
      "yl": 5539,
      "Ġcá»ĳc": 5540,
      "Ġahead": 5541,
      "ĠtrÄĥng": 5542,
      "ceed": 5543,
      "Ġshot": 5544,
      "ago": 5545,
      "Ġdrink": 5546,
      "Ġinvented": 5547,
      "Ġ75": 5548,
      "load": 5549,
      "Ġlaws": 5550,
      "Ġislam": 5551,
      "Ġcatch": 5552,
      "ĠmiÃªu": 5553,
      "ĠlÃ£o": 5554,
      "Ġbáº¡ch": 5555,
      "Ġiphone": 5556,
      "Ġwide": 5557,
      "Ġtráº¡m": 5558,
      "Ġphá»ķi": 5559,
      "Ġug": 5560,
      "Ġlá»ıng": 5561,
      "Ġattract": 5562,
      "aced": 5563,
      "Ġbub": 5564,
      "Ġenorm": 5565,
      "Ġdispl": 5566,
      "Ġdriving": 5567,
      "Ġdifferences": 5568,
      "order": 5569,
      "Ġjoy": 5570,
      "Ġcharles": 5571,
      "Ġgeorge": 5572,
      "Ġspending": 5573,
      "Ġmission": 5574,
      "Ġsurvive": 5575,
      "Ġtemperature": 5576,
      "ox": 5577,
      "ĠthÆ°á»£ng": 5578,
      "ĠÄĳáºŃu": 5579,
      "Ġdying": 5580,
      "ening": 5581,
      "Ġngáº§m": 5582,
      "olve": 5583,
      "Ġbud": 5584,
      "Ġresist": 5585,
      "Ġsymb": 5586,
      "Ġindepend": 5587,
      "Ġdecade": 5588,
      "ivers": 5589,
      "Ġartists": 5590,
      "ission": 5591,
      "Ġsustainable": 5592,
      "Ġlaugh": 5593,
      "iers": 5594,
      "ĠtÃ²": 5595,
      "ÄĳÃ£": 5596,
      "Ġmur": 5597,
      "Ġip": 5598,
      "Ġgent": 5599,
      "Ġgree": 5600,
      "Ġnháº¡y": 5601,
      "Ġrange": 5602,
      "ĠquÃ¡i": 5603,
      "used": 5604,
      "see": 5605,
      "Ġjaz": 5606,
      "Ġworst": 5607,
      "ending": 5608,
      "ishing": 5609,
      "Ġgreatest": 5610,
      "Ġshares": 5611,
      "Ġcorrect": 5612,
      "ĠÄĳÃ¡y": 5613,
      "Ġidentity": 5614,
      "Ġrule": 5615,
      "Ġoccur": 5616,
      "Ġanaly": 5617,
      "hÃ´m": 5618,
      "wise": 5619,
      "ĠÆ¡i": 5620,
      "ĠtÃ¡m": 5621,
      "atives": 5622,
      "á»ĳm": 5623,
      "Ġque": 5624,
      "Ġbrings": 5625,
      "apped": 5626,
      "Ġafra": 5627,
      "ĠvuÃ´ng": 5628,
      "Ġpassword": 5629,
      "Ġbreast": 5630,
      "Ġscientist": 5631,
      "Ġflying": 5632,
      "Ġvarious": 5633,
      "Ġinspired": 5634,
      "Ġdestroy": 5635,
      "ĠcÆ°á»Ŀng": 5636,
      "Ġlin": 5637,
      "Ġbag": 5638,
      "Ġháº¡ng": 5639,
      "Ġpor": 5640,
      "ancy": 5641,
      "Ġngá»±a": 5642,
      "ores": 5643,
      "Ġcommer": 5644,
      "Ġprevent": 5645,
      "Ġthoáº£ng": 5646,
      "Ġdiseases": 5647,
      "Ġcauses": 5648,
      "Ġgradu": 5649,
      "Ġmart": 5650,
      "ĠkiÃªn": 5651,
      "Ġfing": 5652,
      "orith": 5653,
      "Ġthá»£": 5654,
      "imer": 5655,
      "Ġconcl": 5656,
      "Ġjul": 5657,
      "Ġ23": 5658,
      "Ġamb": 5659,
      "Ġtuyáº¿t": 5660,
      "Ġdepart": 5661,
      "Ġterrible": 5662,
      "Ġleadership": 5663,
      "Ġmathemat": 5664,
      "Ġafraid": 5665,
      "ey": 5666,
      "wide": 5667,
      "ĠlÃ¢m": 5668,
      "Ġháº±ng": 5669,
      "Ġgun": 5670,
      "Ġdimens": 5671,
      "ĠtrÃ´i": 5672,
      "thetic": 5673,
      "Ġweap": 5674,
      "ĠquÃ¡n": 5675,
      "ĠgiÃły": 5676,
      "Ġframe": 5677,
      "Ġnoticed": 5678,
      "Ġactive": 5679,
      "while": 5680,
      "Ġ194": 5681,
      "Ġforeign": 5682,
      "Ġcommunicate": 5683,
      "Ġdocument": 5684,
      "Ġphilosoph": 5685,
      "Ġalgorith": 5686,
      "iot": 5687,
      "iation": 5688,
      "ĠtÃ³m": 5689,
      "Ġnone": 5690,
      "Ġmat": 5691,
      "Ġdere": 5692,
      "Ġrá»ĵ": 5693,
      "lyn": 5694,
      "Ġconsequ": 5695,
      "Ġhoáº¡i": 5696,
      "Ġhá»©a": 5697,
      "ibr": 5698,
      "Ġblock": 5699,
      "athy": 5700,
      "Ġdirectly": 5701,
      "Ġpublished": 5702,
      "ĠnÆ°á»Ľng": 5703,
      "Ġloss": 5704,
      "Ġvast": 5705,
      "Ġtráº¯c": 5706,
      "ĠkhÃ´": 5707,
      "orry": 5708,
      "ĠquÃ©t": 5709,
      "Ġforg": 5710,
      "odes": 5711,
      "áº»o": 5712,
      "Ġknowing": 5713,
      "Ġtwice": 5714,
      "Ġdram": 5715,
      "Ġpoet": 5716,
      "Ġ2007": 5717,
      "Ġtraffic": 5718,
      "Ġcapacity": 5719,
      "Ġmissing": 5720,
      "Ġpaid": 5721,
      "ban": 5722,
      "dan": 5723,
      "ris": 5724,
      "Ġburn": 5725,
      "Ġcháº¥n": 5726,
      "Ġpil": 5727,
      "Ġfai": 5728,
      "Ġjer": 5729,
      "Ġsharing": 5730,
      "Ġintel": 5731,
      "Ġmostly": 5732,
      "Ġapplic": 5733,
      "Ġexperiences": 5734,
      "Ġfloor": 5735,
      "ĠnÃ©t": 5736,
      "ĠlÃ¢y": 5737,
      "Ġlunch": 5738,
      "ĠngÃ£": 5739,
      "ĠrÃ´": 5740,
      "tháºŃm": 5741,
      "Ġcá»±": 5742,
      "ĠgiÆ°á»Ŀng": 5743,
      "amin": 5744,
      "Ġnote": 5745,
      "Ġdiet": 5746,
      "Ġtedx": 5747,
      "Ġrelative": 5748,
      "Ġjoin": 5749,
      "Ġsupply": 5750,
      "Ġdevices": 5751,
      "Ġmembers": 5752,
      "cule": 5753,
      "Ġdoub": 5754,
      "Ġmichael": 5755,
      "Ġtrouble": 5756,
      "Ġtens": 5757,
      "Ġthomas": 5758,
      "Ġnha": 5759,
      "Ġrough": 5760,
      "Ġforces": 5761,
      "who": 5762,
      "Ġcompon": 5763,
      "iber": 5764,
      "itted": 5765,
      "ipedia": 5766,
      "Ġdivers": 5767,
      "Ġsurve": 5768,
      "Ġbelow": 5769,
      "Ġpossibly": 5770,
      "Ġdollar": 5771,
      "Ġairpl": 5772,
      "Ġstopped": 5773,
      "Ġmagaz": 5774,
      "Ġinstitutions": 5775,
      "Ġcloser": 5776,
      "Ġdynam": 5777,
      "ios": 5778,
      "ĠlÆ°ng": 5779,
      "ĠchÄĥng": 5780,
      "Ġgift": 5781,
      "Ġjack": 5782,
      "Ġbasis": 5783,
      "Ġparis": 5784,
      "idden": 5785,
      "Ġhearing": 5786,
      "Ġautism": 5787,
      "Ġemotion": 5788,
      "ĠÄĳeo": 5789,
      "ked": 5790,
      "Ġnarr": 5791,
      "Ġmer": 5792,
      "ĠmÃ¨o": 5793,
      "Ġven": 5794,
      "Ġváº¯c": 5795,
      "Ġpig": 5796,
      "enc": 5797,
      "Ġfashion": 5798,
      "though": 5799,
      "empt": 5800,
      "izes": 5801,
      "Ġacad": 5802,
      "Ġsmith": 5803,
      "Ġobama": 5804,
      "Ġ99": 5805,
      "Ġcontroll": 5806,
      "Ġwheel": 5807,
      "Ġreduce": 5808,
      "Ġmountain": 5809,
      "astruct": 5810,
      "Ġcolleagues": 5811,
      "Ġyellow": 5812,
      "gl": 5813,
      "Ġq": 5814,
      "Ġmáº»": 5815,
      "Ġlung": 5816,
      "Ġlack": 5817,
      "Ġbul": 5818,
      "cell": 5819,
      "Ġseed": 5820,
      "Ġpengu": 5821,
      "áº«m": 5822,
      "aud": 5823,
      "Ġnovel": 5824,
      "Ġmoments": 5825,
      "Ġsubt": 5826,
      "ĠmÃ£n": 5827,
      "Ġopportunities": 5828,
      "Ġmolecule": 5829,
      "Ġcommunication": 5830,
      "Ġproduced": 5831,
      "ĠÄĳáº¿m": 5832,
      "Ġtissue": 5833,
      "Ġcorruption": 5834,
      "Ġinfrastruct": 5835,
      "ĠtÄ©nh": 5836,
      "Ġninh": 5837,
      "Ġruss": 5838,
      "Ġfab": 5839,
      "arm": 5840,
      "Ġ22": 5841,
      "Ġjustice": 5842,
      "Ġtiáº¿c": 5843,
      "Ġanyway": 5844,
      "Ġappl": 5845,
      "Ġhelping": 5846,
      "Ġpassed": 5847,
      "Ġbringing": 5848,
      "Ġnearly": 5849,
      "Ġoxygen": 5850,
      "Ġwikipedia": 5851,
      "Ġfrancisco": 5852,
      "uary": 5853,
      "Ġtough": 5854,
      "Ġcoc": 5855,
      "ened": 5856,
      "ession": 5857,
      "Ġbrother": 5858,
      "Ġinsight": 5859,
      "Ġfeels": 5860,
      "Ġplayed": 5861,
      "Ġswitch": 5862,
      "Ġforever": 5863,
      "Ġoriginal": 5864,
      "ufact": 5865,
      "vant": 5866,
      "your": 5867,
      "yeah": 5868,
      "Ġtung": 5869,
      "ĠkÃ¨m": 5870,
      "Ġgam": 5871,
      "Ġgard": 5872,
      "Ġtráº§n": 5873,
      "Ġnga": 5874,
      "aria": 5875,
      "Ġstem": 5876,
      "Ġsuc": 5877,
      "Ġagree": 5878,
      "Ġcoast": 5879,
      "Ġinvis": 5880,
      "othes": 5881,
      "Ġrobert": 5882,
      "Ġvisit": 5883,
      "Ġparad": 5884,
      "Ġprograms": 5885,
      "Ġvolun": 5886,
      "Ġbá»¥ng": 5887,
      "Ġconsciousness": 5888,
      "Ġshift": 5889,
      "cuá»Ļc": 5890,
      "ius": 5891,
      "Ġten": 5892,
      "Ġtum": 5893,
      "ĠlÄĥn": 5894,
      "ĠhÃ´": 5895,
      "Ġvinh": 5896,
      "reg": 5897,
      "ĠdÃ£": 5898,
      "ĠdÃ²": 5899,
      "ĠdÃ¡n": 5900,
      "Ġfed": 5901,
      "ino": 5902,
      "Ġrecon": 5903,
      "Ġorg": 5904,
      "aining": 5905,
      "áº«y": 5906,
      "ricult": 5907,
      "Ġfuel": 5908,
      "Ġavoid": 5909,
      "ervation": 5910,
      "Ġdarwin": 5911,
      "Ġopposite": 5912,
      "based": 5913,
      "lim": 5914,
      "Ġtwe": 5915,
      "Ġlas": 5916,
      "Ġkhá»": 5917,
      "Ġfaces": 5918,
      "ĠquÃł": 5919,
      "icking": 5920,
      "Ġrare": 5921,
      "Ġhá»ıng": 5922,
      "Ġexh": 5923,
      "Ġbrilli": 5924,
      "Ġstudying": 5925,
      "Ġ2009": 5926,
      "Ġaccur": 5927,
      "Ġhyp": 5928,
      "Ġaddition": 5929,
      "ĠgÃ³i": 5930,
      "Ġemotions": 5931,
      "Ġtotal": 5932,
      "Ġreligion": 5933,
      "Ġdegrees": 5934,
      "Ġsignificant": 5935,
      "mp": 5936,
      "toc": 5937,
      "yes": 5938,
      "Ġnasa": 5939,
      "Ġsam": 5940,
      "ĠkhuyÃªn": 5941,
      "Ġrout": 5942,
      "thal": 5943,
      "leg": 5944,
      "Ġgiáº¥u": 5945,
      "Ġancient": 5946,
      "Ġmont": 5947,
      "Ġimagination": 5948,
      "Ġstructures": 5949,
      "Ġrelationships": 5950,
      "Ġpuzz": 5951,
      "Ġtherap": 5952,
      "Ġhusband": 5953,
      "tocin": 5954,
      "life": 5955,
      "sc": 5956,
      "ĠÃ©p": 5957,
      "ĠtÃ¢n": 5958,
      "Ġtiá»ĩc": 5959,
      "Ġcore": 5960,
      "ĠthÃ³i": 5961,
      "Ġsick": 5962,
      "Ġband": 5963,
      "ĠhÆ°": 5964,
      "Ġva": 5965,
      "Ġvote": 5966,
      "Ġwol": 5967,
      "ĠgÃ£": 5968,
      "Ġtoile": 5969,
      "Ġngon": 5970,
      "ald": 5971,
      "Ã¹m": 5972,
      "ela": 5973,
      "ocking": 5974,
      "Ġmanufact": 5975,
      "Ġcry": 5976,
      "Ġimportantly": 5977,
      "Ġgá»¡": 5978,
      "Ġmotor": 5979,
      "from": 5980,
      "instead": 5981,
      "bi": 5982,
      "Ġtour": 5983,
      "Ġastr": 5984,
      "Ġmouth": 5985,
      "ĠlÃ´i": 5986,
      "Ġlá»ĩnh": 5987,
      "Ġbought": 5988,
      "Ġinj": 5989,
      "Ġlá»ģ": 5990,
      "Ġcolors": 5991,
      "Ġcá»¥m": 5992,
      "attan": 5993,
      "Ġwindow": 5994,
      "Ġfailure": 5995,
      "ĠkÃªnh": 5996,
      "Ġnobel": 5997,
      "Ġturning": 5998,
      "Ġnecessary": 5999,
      "Ġbritish": 6000,
      "Ġlucky": 6001,
      "Ġlaptop": 6002,
      "val": 6003,
      "zy": 6004,
      "ĠthÃ¡p": 6005,
      "ĠbÃ£o": 6006,
      "Ġbatter": 6007,
      "Ġvot": 6008,
      "ĠchÃ¬m": 6009,
      "Ġgab": 6010,
      "que": 6011,
      "Ġros": 6012,
      "Ġfrench": 6013,
      "ĠgiÆ¡": 6014,
      "Ġhair": 6015,
      "Ġheo": 6016,
      "Ġmeas": 6017,
      "Ġmá»Ŀ": 6018,
      "Ġalthough": 6019,
      "Ġtex": 6020,
      "Ġbroken": 6021,
      "Ġagricult": 6022,
      "Ġadapt": 6023,
      "Ġcru": 6024,
      "Ġflight": 6025,
      "ording": 6026,
      "Ġdá»©t": 6027,
      "Ġtremend": 6028,
      "ĠâĢĵ": 6029,
      "Ġeffects": 6030,
      "Ġfully": 6031,
      "Ġadvant": 6032,
      "Ġbenefits": 6033,
      "Ġwisdom": 6034,
      "Ġatmosphere": 6035,
      "iel": 6036,
      "zen": 6037,
      "Ġcogn": 6038,
      "Ġláº·n": 6039,
      "Ġii": 6040,
      "Ġchick": 6041,
      "Ġtrá»ĳn": 6042,
      "Ġkhao": 6043,
      "Ġngá»įt": 6044,
      "Ġphiá»ģn": 6045,
      "icles": 6046,
      "second": 6047,
      "Ġjan": 6048,
      "Ġembr": 6049,
      "Ġdifferently": 6050,
      "Ġconsid": 6051,
      "Ġlesson": 6052,
      "ĠlÃ£m": 6053,
      "Ġvalu": 6054,
      "Ġeasily": 6055,
      "riage": 6056,
      "Ġmatters": 6057,
      "Ġentirely": 6058,
      "Ġstatistics": 6059,
      "Ġrequire": 6060,
      "Ġcorner": 6061,
      "tal": 6062,
      "Ġur": 6063,
      "Ġcáº¥t": 6064,
      "Ġnations": 6065,
      "ĠhÃłn": 6066,
      "ĠdÆ°": 6067,
      "anced": 6068,
      "Ġtrip": 6069,
      "nhÃ¬n": 6070,
      "Ġbackground": 6071,
      "Ġevents": 6072,
      "Ġaccom": 6073,
      "Ġbush": 6074,
      "Ġphotos": 6075,
      "Ġequal": 6076,
      "Ġrestaur": 6077,
      "Ġargument": 6078,
      "Ġangeles": 6079,
      "Ġfighting": 6080,
      "Ġrapid": 6081,
      "ees": 6082,
      "mber": 6083,
      "Ġalex": 6084,
      "ĠhÃłm": 6085,
      "ĠgÃµ": 6086,
      "Ġtrick": 6087,
      "ĠÄĳá»±c": 6088,
      "Ġhaw": 6089,
      "Ġsaf": 6090,
      "Ġshel": 6091,
      "Ġheat": 6092,
      "ifically": 6093,
      "Ġkhoan": 6094,
      "ender": 6095,
      "ĠbuÃ´n": 6096,
      "Ġ36": 6097,
      "Ġleading": 6098,
      "Ġmetaph": 6099,
      "giá»ĳng": 6100,
      "Ġnewsp": 6101,
      "Ġmajority": 6102,
      "Ġresponsible": 6103,
      "osystem": 6104,
      "Ġenormous": 6105,
      "Ġsymbol": 6106,
      "cáº£": 6107,
      "equ": 6108,
      "hen": 6109,
      "ĠthÄĥng": 6110,
      "Ġsung": 6111,
      "Ġsorry": 6112,
      "Ġmand": 6113,
      "Ġgap": 6114,
      "Ġdao": 6115,
      "cha": 6116,
      "Ġbees": 6117,
      "Ġstan": 6118,
      "ils": 6119,
      "ifying": 6120,
      "Ġsport": 6121,
      "Ġunlike": 6122,
      "Ġworkers": 6123,
      "Ġclick": 6124,
      "heimer": 6125,
      "Ġcrime": 6126,
      "Ġdemand": 6127,
      "Ġcheap": 6128,
      "Ġdeeply": 6129,
      "Ġ1990": 6130,
      "Ġshoot": 6131,
      "Ġecosystem": 6132,
      "Ġmanhattan": 6133,
      "Ġinfrastructure": 6134,
      "zheimer": 6135,
      "ĠÆ°": 6136,
      "ĠÃºc": 6137,
      "ĠthÆ°a": 6138,
      "Ġsen": 6139,
      "Ġmá»ĩnh": 6140,
      "Ġchur": 6141,
      "Ġgates": 6142,
      "ĠdÆ°á»£c": 6143,
      "quang": 6144,
      "apers": 6145,
      "Ġrat": 6146,
      "edy": 6147,
      "vere": 6148,
      "iáº¿c": 6149,
      "ĠgiÃ¡n": 6150,
      "Ġjames": 6151,
      "Ġheld": 6152,
      "Ġthuáº¿": 6153,
      "Ġgrown": 6154,
      "itely": 6155,
      "ysis": 6156,
      "Ġengage": 6157,
      "print": 6158,
      "Ġdescribe": 6159,
      "point": 6160,
      "Ġvirtual": 6161,
      "Ġdiversity": 6162,
      "ih": 6163,
      "láº§n": 6164,
      "£n": 6165,
      "Äĳáº¿n": 6166,
      "ĠsÃłn": 6167,
      "Ġmort": 6168,
      "Ġmamm": 6169,
      "Ġbone": 6170,
      "Ġbound": 6171,
      "Ġhá»ĳ": 6172,
      "Ġpian": 6173,
      "esome": 6174,
      "Ġthá»ķi": 6175,
      "ĠquÃŃ": 6176,
      "Ġdol": 6177,
      "Ġalzheimer": 6178,
      "Ġspot": 6179,
      "Ġhydr": 6180,
      "prod": 6181,
      "Ġstrength": 6182,
      "Ġgovernments": 6183,
      "ography": 6184,
      "Ġgrandm": 6185,
      "Ġoxytocin": 6186,
      "Ġshoes": 6187,
      "Ġlandscape": 6188,
      "Ġgolf": 6189,
      "Ġderek": 6190,
      "rus": 6191,
      "Ġcáº¥m": 6192,
      "Ġsá»¯a": 6193,
      "Ġmac": 6194,
      "Ġbow": 6195,
      "ĠbÃ¹ng": 6196,
      "Ġbáº¿p": 6197,
      "Ġchann": 6198,
      "ĠdÃ¡ng": 6199,
      "ĠtrÆ°a": 6200,
      "Ġray": 6201,
      "ĠrÃ©t": 6202,
      "ula": 6203,
      "ulous": 6204,
      "ulations": 6205,
      "Ġpartners": 6206,
      "Ġstrang": 6207,
      "cript": 6208,
      "Ġsteve": 6209,
      "pected": 6210,
      "Ġillustr": 6211,
      "Ġdreams": 6212,
      "Ġsuffering": 6213,
      "Ġreceived": 6214,
      "ĠcÃºm": 6215,
      "Ġbreath": 6216,
      "Ġdomin": 6217,
      "Ġfascinating": 6218,
      "Ġdaily": 6219,
      "Ġgentlem": 6220,
      "Ġinvisible": 6221,
      "10": 6222,
      "cles": 6223,
      "di": 6224,
      "oft": 6225,
      "van": 6226,
      "ĠtÆ°Æ¡i": 6227,
      "ÄĳÃ´i": 6228,
      "ĠlÃµi": 6229,
      "ĠbáºŃn": 6230,
      "reci": 6231,
      "Ġtrá»¥c": 6232,
      "Ġkhá»ī": 6233,
      "oran": 6234,
      "itable": 6235,
      "icon": 6236,
      "ĠxÃŃ": 6237,
      "Ġxinh": 6238,
      "Ġship": 6239,
      "Ġ27": 6240,
      "Ġaltern": 6241,
      "Ġspl": 6242,
      "Ġexpand": 6243,
      "Ġadam": 6244,
      "Ġremote": 6245,
      "Ġ2005": 6246,
      "Ġcontact": 6247,
      "Ġpolitic": 6248,
      "Ġcorpor": 6249,
      "Ġtrend": 6250,
      "Ġmarketing": 6251,
      "Ġillness": 6252,
      "Ġbá»¥i": 6253,
      "Ġdepartment": 6254,
      "Ġwow": 6255,
      "thes": 6256,
      "Ġgiant": 6257,
      "Ġtá»§": 6258,
      "Ġreward": 6259,
      "Ġusers": 6260,
      "oston": 6261,
      "Ġworldwide": 6262,
      "Ġthanks": 6263,
      "Ġclimb": 6264,
      "Ġgotten": 6265,
      "Ġoffer": 6266,
      "however": 6267,
      "Ġregular": 6268,
      "Ġresearchers": 6269,
      "Ġvoices": 6270,
      "Ġawesome": 6271,
      "Ġinteraction": 6272,
      "Ġprofessor": 6273,
      "Ġpressure": 6274,
      "Ġbenefit": 6275,
      "Ġdiscovery": 6276,
      "Ġadults": 6277,
      "Ġsector": 6278,
      "Ġmartin": 6279,
      "Ġfaith": 6280,
      "da": 6281,
      "eal": 6282,
      "water": 6283,
      "Ġtáº¯m": 6284,
      "Ġteles": 6285,
      "Ġliá»ģu": 6286,
      "Ġhen": 6287,
      "Ġpair": 6288,
      "áº¿ch": 6289,
      "ĠlÃłn": 6290,
      "Ġrw": 6291,
      "icago": 6292,
      "Æ°á»£n": 6293,
      "Ġrepe": 6294,
      "Ġhabit": 6295,
      "Ġproud": 6296,
      "Ġbridge": 6297,
      "Ġgenome": 6298,
      "Ġchildhood": 6299,
      "aker": 6300,
      "Ġshouldn": 6301,
      "Ġenter": 6302,
      "Ġamazon": 6303,
      "Ġdrawing": 6304,
      "Ġresponsibility": 6305,
      "Ġstrategy": 6306,
      "Ġdespite": 6307,
      "cop": 6308,
      "his": 6309,
      "Ġtháº»": 6310,
      "Ġnáº£y": 6311,
      "ĠsÆ¡n": 6312,
      "Ġboston": 6313,
      "Ġhost": 6314,
      "Ġod": 6315,
      "erly": 6316,
      "Ġngáº¯m": 6317,
      "Ġround": 6318,
      "arter": 6319,
      "Ġeve": 6320,
      "Ġwear": 6321,
      "Ġquant": 6322,
      "ĠquÃ¡t": 6323,
      "Ġstation": 6324,
      "Ġprior": 6325,
      "Ġcompared": 6326,
      "pháº£i": 6327,
      "orders": 6328,
      "Ġcreatures": 6329,
      "Ġmeters": 6330,
      "Ġseemed": 6331,
      "Ġlegal": 6332,
      "Ġcollective": 6333,
      "Ġneuros": 6334,
      "Ġrichard": 6335,
      "Ġtypical": 6336,
      "ropy": 6337,
      "Ġeuropean": 6338,
      "Ġbalance": 6339,
      "Ġepid": 6340,
      "Ġlogic": 6341,
      "Ġjapanese": 6342,
      "Ġdinner": 6343,
      "encies": 6344,
      "bur": 6345,
      "hold": 6346,
      "Ġtast": 6347,
      "ĠlÆ°á»Ŀng": 6348,
      "Ġbong": 6349,
      "Ġchicago": 6350,
      "ĠtrÆ°á»£t": 6351,
      "á»Ļm": 6352,
      "Ġrow": 6353,
      "edd": 6354,
      "ĠphÃº": 6355,
      "ĠphÃ¬": 6356,
      "Ġasia": 6357,
      "ĠtuÃ½": 6358,
      "Ġattempt": 6359,
      "Ġpaint": 6360,
      "Ġmicro": 6361,
      "Ġdouble": 6362,
      "Ġdefinition": 6363,
      "bao": 6364,
      "uge": 6365,
      "Ġuy": 6366,
      "ĠtÆ°á»Ľng": 6367,
      "ĠcÆ°á»Ľi": 6368,
      "ĠsÆ°u": 6369,
      "Ġhate": 6370,
      "Ġfresh": 6371,
      "ota": 6372,
      "Ġprize": 6373,
      "term": 6374,
      "iles": 6375,
      "Ġmuá»Ĺi": 6376,
      "Ġgrab": 6377,
      "connect": 6378,
      "Ġthá»ĭnh": 6379,
      "Ġbiological": 6380,
      "Ġelement": 6381,
      "Ġcircu": 6382,
      "Ġperfectly": 6383,
      "Ġ1970": 6384,
      "Ġfarmers": 6385,
      "Ġaustralia": 6386,
      "Ġmagazine": 6387,
      "Ġvolunte": 6388,
      "ples": 6389,
      "vin": 6390,
      "ĠÆ°a": 6391,
      "Ġcort": 6392,
      "ĠthÃ¡m": 6393,
      "Ġhidden": 6394,
      "ĠkhÃ´n": 6395,
      "ala": 6396,
      "cháº¯c": 6397,
      "asse": 6398,
      "itz": 6399,
      "ĠnÃłng": 6400,
      "ida": 6401,
      "Ġstuck": 6402,
      "Ġrau": 6403,
      "Ġraised": 6404,
      "Ġwire": 6405,
      "Ġshut": 6406,
      "Ġshock": 6407,
      "Ġheav": 6408,
      "Ġexer": 6409,
      "Ġmanaged": 6410,
      "ucks": 6411,
      "athan": 6412,
      "Ġartific": 6413,
      "Ġmarried": 6414,
      "Ġcamer": 6415,
      "Ġfunct": 6416,
      "ographic": 6417,
      "take": 6418,
      "Ġuniversal": 6419,
      "Ġdemocratic": 6420,
      "ancing": 6421,
      "Ġcycle": 6422,
      "Ġterror": 6423,
      "Ġveget": 6424,
      "Ġreplace": 6425,
      "Ġcommercial": 6426,
      "Ġintellect": 6427,
      "fo": 6428,
      "hr": 6429,
      "su": 6430,
      "ĠthÃ¹ng": 6431,
      "Ġsom": 6432,
      "ĠlÆ°á»Ľt": 6433,
      "Ġpow": 6434,
      "Ġgan": 6435,
      "ĠrÃ£i": 6436,
      "otic": 6437,
      "Ġpha": 6438,
      "vÃłi": 6439,
      "ears": 6440,
      "Ġmak": 6441,
      "Ġthinks": 6442,
      "Ġthua": 6443,
      "Ġeveryday": 6444,
      "Ġprevious": 6445,
      "Ġtransm": 6446,
      "Ġ600": 6447,
      "Ġrelated": 6448,
      "Ġvua": 6449,
      "Ġheads": 6450,
      "Ġdepression": 6451,
      "Ġequip": 6452,
      "Ġ250": 6453,
      "Ġfrequ": 6454,
      "Ġinvestig": 6455,
      "Ġsilicon": 6456,
      "ropri": 6457,
      "Ġconvin": 6458,
      "Ġtremendous": 6459,
      "Ġcognitive": 6460,
      "máº·c": 6461,
      "ypt": 6462,
      "Ġná»ĳt": 6463,
      "Ġvent": 6464,
      "Ġnháº«n": 6465,
      "Ġnháº¯m": 6466,
      "Ġtoáº£": 6467,
      "Ġfol": 6468,
      "Ġthá»īnh": 6469,
      "Ġconcent": 6470,
      "Ġaspect": 6471,
      "Ġ26": 6472,
      "Ġcalls": 6473,
      "Ġhá»ĵng": 6474,
      "Ġdesigner": 6475,
      "Ġedge": 6476,
      "Ġpossibility": 6477,
      "Ġeasier": 6478,
      "Ġfailed": 6479,
      "Ġdistance": 6480,
      "rupt": 6481,
      "Ġbomb": 6482,
      "Ġpalest": 6483,
      "Ġnegative": 6484,
      "Ġexperts": 6485,
      "Ġinsects": 6486,
      "lÃ½": 6487,
      "ĠthÃŃnh": 6488,
      "Ġná»Ł": 6489,
      "Ġmouse": 6490,
      "Ġmaster": 6491,
      "ĠngáºŃp": 6492,
      "Ġngá»ĳc": 6493,
      "ason": 6494,
      "Ġgiam": 6495,
      "Ġstim": 6496,
      "uries": 6497,
      "emy": 6498,
      "Ġalt": 6499,
      "Ġdry": 6500,
      "being": 6501,
      "Ġdesire": 6502,
      "Ġappreci": 6503,
      "Ġletter": 6504,
      "Ġinstall": 6505,
      "Ġcreation": 6506,
      "ification": 6507,
      "Ġleads": 6508,
      "Ġswed": 6509,
      "Ġfigured": 6510,
      "Ġinvestment": 6511,
      "Ġlimited": 6512,
      "Ġbillions": 6513,
      "Ġversus": 6514,
      "ĠkÃŃn": 6515,
      "Ġquote": 6516,
      "Ġefficient": 6517,
      "Äĳá»«ng": 6518,
      "Ġcrowd": 6519,
      "Ġkhá»Ľp": 6520,
      "Ġadvantage": 6521,
      "bel": 6522,
      "cra": 6523,
      "oom": 6524,
      "sa": 6525,
      "xi": 6526,
      "ĠÃ´i": 6527,
      "á»Ŀ": 6528,
      "Ġton": 6529,
      "Ġcac": 6530,
      "Ġcred": 6531,
      "Ġsnow": 6532,
      "Ġsister": 6533,
      "ĠchÃ¢m": 6534,
      "Ġpurs": 6535,
      "Ġdue": 6536,
      "ĠdÃ¡m": 6537,
      "Ġpho": 6538,
      "ĠquÃ£ng": 6539,
      "Ġund": 6540,
      "irt": 6541,
      "á»¥t": 6542,
      "Ġmeat": 6543,
      "ulpt": 6544,
      "antic": 6545,
      "Ġnotion": 6546,
      "Ġintu": 6547,
      "aren": 6548,
      "Ġunex": 6549,
      "Ġgrav": 6550,
      "bert": 6551,
      "Ġsculpt": 6552,
      "Ġbá»ĳt": 6553,
      "Ġhelps": 6554,
      "Ġnames": 6555,
      "Ġkeeping": 6556,
      "Ġlanguages": 6557,
      "Ġwatched": 6558,
      "Ġantib": 6559,
      "Ġessential": 6560,
      "Ġfairly": 6561,
      "Ġhurt": 6562,
      "Ġequipment": 6563,
      "bre": 6564,
      "och": 6565,
      "pid": 6566,
      "tin": 6567,
      "įt": 6568,
      "Ġtick": 6569,
      "Ġthiá»ĩt": 6570,
      "Ġgall": 6571,
      "Ġgáº¥u": 6572,
      "ĠdÃ£y": 6573,
      "aped": 6574,
      "Ġcá»«": 6575,
      "icate": 6576,
      "Ġbeach": 6577,
      "ĠxÃ³m": 6578,
      "Ġextract": 6579,
      "Ġempt": 6580,
      "Ġtransition": 6581,
      "Ġengland": 6582,
      "Ġopin": 6583,
      "Ġplanning": 6584,
      "onym": 6585,
      "Ġfeedback": 6586,
      "Ġtomorrow": 6587,
      "imensional": 6588,
      "Ġnecessarily": 6589,
      "Ġinfluence": 6590,
      "Ġchurch": 6591,
      "Ġpiano": 6592,
      "Ġrwanda": 6593,
      "Ġconcentr": 6594,
      "hand": 6595,
      "ja": 6596,
      "Ġcateg": 6597,
      "Ġmothers": 6598,
      "Ġdáº¯t": 6599,
      "Ġincent": 6600,
      "Ġweird": 6601,
      "imp": 6602,
      "atell": 6603,
      "apping": 6604,
      "khÃ¡n": 6605,
      "Ġdesert": 6606,
      "Ġcarol": 6607,
      "Ġfacts": 6608,
      "Ġstudied": 6609,
      "Ġentertain": 6610,
      "Ġsubst": 6611,
      "Ġholding": 6612,
      "Ġhorr": 6613,
      "Ġcuá»Ļn": 6614,
      "Ġstruggle": 6615,
      "Ġspectr": 6616,
      "Ġsucceed": 6617,
      "cular": 6618,
      "pa": 6619,
      "rob": 6620,
      "ĠcáºŃy": 6621,
      "Ġnáº¯ng": 6622,
      "ĠbÆ¡": 6623,
      "Ġhomes": 6624,
      "Ġdiction": 6625,
      "ĠtrÃł": 6626,
      "oses": 6627,
      "apse": 6628,
      "Ġron": 6629,
      "Ġvá»Ł": 6630,
      "Æ°á»Ľp": 6631,
      "ĠphÃ¡i": 6632,
      "Ġbright": 6633,
      "Ġmoves": 6634,
      "Ġletters": 6635,
      "Ġplanets": 6636,
      "Ġeconomics": 6637,
      "Ġleader": 6638,
      "Ġbusinesses": 6639,
      "Ġradical": 6640,
      "Ġorigin": 6641,
      "Ġelectrical": 6642,
      "Ġleaving": 6643,
      "Ġcircum": 6644,
      "known": 6645,
      "Ġhouses": 6646,
      "Ġbrilliant": 6647,
      "dÄ©": 6648,
      "dimensional": 6649,
      "eared": 6650,
      "gáº§n": 6651,
      "ĠcÆ°á»¡ng": 6652,
      "ĠthÃ¡o": 6653,
      "Ġmáº¡n": 6654,
      "ĠlÃ´ng": 6655,
      "Ġhill": 6656,
      "Ġháº§m": 6657,
      "Ġga": 6658,
      "org": 6659,
      "three": 6660,
      "Ġpháº¡t": 6661,
      "Ġfrag": 6662,
      "essed": 6663,
      "elling": 6664,
      "Ġcommit": 6665,
      "Ġaccident": 6666,
      "Ġopened": 6667,
      "Ġfollowed": 6668,
      "grad": 6669,
      "Ġargue": 6670,
      "Ġsurprise": 6671,
      "Ġlady": 6672,
      "Ġegypt": 6673,
      "Ġ1960": 6674,
      "Ġseparate": 6675,
      "Ġmosqu": 6676,
      "Ġplatform": 6677,
      "dy": 6678,
      "káº¿t": 6679,
      "parent": 6680,
      "tiáº¿p": 6681,
      "Ġnar": 6682,
      "Ġsatell": 6683,
      "Ġbattle": 6684,
      "Ġhom": 6685,
      "Ġchip": 6686,
      "ĠchÃ¬a": 6687,
      "Ġpip": 6688,
      "Ġpock": 6689,
      "ĠnhÃ£n": 6690,
      "Ġthá»ĳ": 6691,
      "Ġwearing": 6692,
      "Ġquad": 6693,
      "entally": 6694,
      "Ġliked": 6695,
      "Ġlock": 6696,
      "again": 6697,
      "Ġcompare": 6698,
      "Ġresource": 6699,
      "Ġprecise": 6700,
      "Ġsurge": 6701,
      "Ġinvited": 6702,
      "Ġharm": 6703,
      "Ġlosing": 6704,
      "Ġdamage": 6705,
      "Ġincreasingly": 6706,
      "Ġairplane": 6707,
      "Ġmetaphor": 6708,
      "gin": 6709,
      "mas": 6710,
      "rich": 6711,
      "uing": 6712,
      "Ġná»į": 6713,
      "ĠÄĳuÃ´i": 6714,
      "Ġsoph": 6715,
      "Ġhem": 6716,
      "Ġki": 6717,
      "ĠkhÆ¡i": 6718,
      "char": 6719,
      "emen": 6720,
      "cience": 6721,
      "actually": 6722,
      "Ġhá»ĩt": 6723,
      "Ġtuyá»ĥn": 6724,
      "Ġcounter": 6725,
      "tech": 6726,
      "Ġhighest": 6727,
      "Ġcapable": 6728,
      "Ġbegins": 6729,
      "Ġhiggs": 6730,
      "bl": 6731,
      "rs": 6732,
      "Ġcow": 6733,
      "ĠÄĳÃ¢m": 6734,
      "Ġath": 6735,
      "Ġmri": 6736,
      "ĠhÃ²n": 6737,
      "ĠchÆ°á»Ľc": 6738,
      "Ġgand": 6739,
      "Ġgather": 6740,
      "once": 6741,
      "Ġranh": 6742,
      "Ġrung": 6743,
      "Ġrural": 6744,
      "child": 6745,
      "Ġcá»Ł": 6746,
      "itness": 6747,
      "icity": 6748,
      "Ġjon": 6749,
      "Ġarmy": 6750,
      "Ġclip": 6751,
      "forest": 6752,
      "Ġ95": 6753,
      "Ġrecover": 6754,
      "Ġmarkets": 6755,
      "Ġprototy": 6756,
      "Ġconduct": 6757,
      "hoÃ¡": 6758,
      "Ġsugar": 6759,
      "Ġsurprised": 6760,
      "Ġsurvival": 6761,
      "Ġprofessional": 6762,
      "Ġexperienced": 6763,
      "Ġconstantly": 6764,
      "Ġkilomet": 6765,
      "khoáº£ng": 6766,
      "Ġcomfortable": 6767,
      "aks": 6768,
      "ns": 6769,
      "sometimes": 6770,
      "vis": 6771,
      "ĠthÃ´": 6772,
      "ĠlÃ¡t": 6773,
      "Ġvibr": 6774,
      "Ġnhá»Ł": 6775,
      "osing": 6776,
      "ita": 6777,
      "very": 6778,
      "Ġshad": 6779,
      "acters": 6780,
      "Ġthuáº«n": 6781,
      "ibilities": 6782,
      "Ġroot": 6783,
      "Ġ2004": 6784,
      "Ġfinished": 6785,
      "inson": 6786,
      "Ġmarriage": 6787,
      "Ġcharacters": 6788,
      "Ġbá»Ľt": 6789,
      "Ġelements": 6790,
      "Ġorigami": 6791,
      "Ġultim": 6792,
      "Ġcompetition": 6793,
      "Ġassociated": 6794,
      "Ġultimately": 6795,
      "báº¥t": 6796,
      "cut": 6797,
      "cÃ¹ng": 6798,
      "Ġmá»ĩt": 6799,
      "Ġbá»į": 6800,
      "ushing": 6801,
      "Ġtam": 6802,
      "Ġrein": 6803,
      "idents": 6804,
      "uls": 6805,
      "unt": 6806,
      "eline": 6807,
      "illed": 6808,
      "ĠÄĳá»ĵi": 6809,
      "Ġmuá»Ļn": 6810,
      "Ġexpression": 6811,
      "Ġwilli": 6812,
      "Ġnoise": 6813,
      "Ġadvert": 6814,
      "Ġcarr": 6815,
      "Ġbelieved": 6816,
      "issions": 6817,
      "Ġstream": 6818,
      "Ġkilling": 6819,
      "Ġhonor": 6820,
      "Ġsuggests": 6821,
      "Ġdescribed": 6822,
      "Ġdegree": 6823,
      "Ġlatin": 6824,
      "Ġsusp": 6825,
      "prof": 6826,
      "Ġphenomenon": 6827,
      "Ġdimensions": 6828,
      "Ġweapons": 6829,
      "Ġartificial": 6830,
      "Ġnav": 6831,
      "Ġmigr": 6832,
      "ĠlÃ²": 6833,
      "ĠlÃ¹i": 6834,
      "ĠbÃºt": 6835,
      "Ġchá»Ł": 6836,
      "Ġoly": 6837,
      "Ġpounds": 6838,
      "thá»Ŀi": 6839,
      "Ġbell": 6840,
      "enty": 6841,
      "celer": 6842,
      "Ġshapes": 6843,
      "Ġsá»©": 6844,
      "ĠÄĳiÃªu": 6845,
      "Ġuncle": 6846,
      "Ġperception": 6847,
      "Ġagre": 6848,
      "Ġfactory": 6849,
      "aked": 6850,
      "Ġcourage": 6851,
      "Ġ2006": 6852,
      "Ġarts": 6853,
      "Ġcharge": 6854,
      "Ġorganic": 6855,
      "Ġchá»¥c": 6856,
      "Ġnormally": 6857,
      "Ġsending": 6858,
      "Ġconcerned": 6859,
      "Ġmultiple": 6860,
      "Ġjazz": 6861,
      "Ġorgans": 6862,
      "Ġgabby": 6863,
      "Ġsafety": 6864,
      "Ġolymp": 6865,
      "Ġtes": 6866,
      "Ġláº¡m": 6867,
      "Ġtheater": 6868,
      "ĠgÃ¡nh": 6869,
      "osis": 6870,
      "Ġngá»±c": 6871,
      "Ġ1000": 6872,
      "Ġperce": 6873,
      "Ġgrant": 6874,
      "Ġvá»ĭnh": 6875,
      "Ġcra": 6876,
      "Ġbelong": 6877,
      "Ġ2003": 6878,
      "Ġminister": 6879,
      "Ġfinish": 6880,
      "Ġharder": 6881,
      "Ġoperating": 6882,
      "Ġidentify": 6883,
      "Ġhorse": 6884,
      "Ġmalaria": 6885,
      "Ġpollut": 6886,
      "Ġsoldiers": 6887,
      "Ġbubble": 6888,
      "Ġexhib": 6889,
      "200": 6890,
      "Ġcos": 6891,
      "ĠthÃ´n": 6892,
      "Ġnic": 6893,
      "ĠmÃºa": 6894,
      "Ġholes": 6895,
      "Ġfa": 6896,
      "Ġfal": 6897,
      "through": 6898,
      "Ġpháº³ng": 6899,
      "ĠÄĳá»¥": 6900,
      "Ġtail": 6901,
      "Ġlibr": 6902,
      "Ġexch": 6903,
      "Ġaging": 6904,
      "Ġpole": 6905,
      "Ġputs": 6906,
      "Ġaccording": 6907,
      "Ġmusical": 6908,
      "Ġchemistry": 6909,
      "Ġná»£": 6910,
      "Ġcritic": 6911,
      "Ġseriously": 6912,
      "Ġconstruction": 6913,
      "Ġleaves": 6914,
      "Ġofficial": 6915,
      "Ġcá»Łi": 6916,
      "500": 6917,
      "bar": 6918,
      "cks": 6919,
      "down": 6920,
      "each": 6921,
      "hm": 6922,
      "met": 6923,
      "ued": 6924,
      "Ġá»ĵn": 6925,
      "ĠhÃ£ng": 6926,
      "Ġchart": 6927,
      "Æ°Æ¡n": 6928,
      "Ġtráº¥n": 6929,
      "ĠkhÃºc": 6930,
      "Ãªnh": 6931,
      "ĠÄĳá»Ľi": 6932,
      "lement": 6933,
      "Ġweather": 6934,
      "icated": 6935,
      "Ġbear": 6936,
      "iration": 6937,
      "acing": 6938,
      "Ġhasn": 6939,
      "Ġarms": 6940,
      "Ġfell": 6941,
      "Ġgrade": 6942,
      "Ġimplic": 6943,
      "Ġadop": 6944,
      "Ġsmile": 6945,
      "Ġtransformation": 6946,
      "Ġgenerations": 6947,
      "bridge": 6948,
      "Ġwondering": 6949,
      "Ġcollection": 6950,
      "Ġtrained": 6951,
      "Ġengineers": 6952,
      "Ġcongo": 6953,
      "ipped": 6954,
      "Ġslowly": 6955,
      "Ġcartoon": 6956,
      "Ġunfortunately": 6957,
      "Ġchicken": 6958,
      "Ġunexpected": 6959,
      "bles": 6960,
      "fin": 6961,
      "lson": 6962,
      "máº¹": 6963,
      "sp": 6964,
      "Ġera": 6965,
      "Ġsight": 6966,
      "Ġmáº¥u": 6967,
      "Ġváº£i": 6968,
      "Ġká»ĭp": 6969,
      "Ġkoran": 6970,
      "Ġdots": 6971,
      "Ġkhan": 6972,
      "ĠkhÃ´i": 6973,
      "Ġwhom": 6974,
      "Ġtang": 6975,
      "Ġsá»ĳc": 6976,
      "ulated": 6977,
      "ager": 6978,
      "Ġuser": 6979,
      "Ġmanage": 6980,
      "Ġdrag": 6981,
      "Ġcrack": 6982,
      "Ġ1950": 6983,
      "Ġflor": 6984,
      "Ġevil": 6985,
      "Ġ65": 6986,
      "Ġrecy": 6987,
      "Ġrio": 6988,
      "entional": 6989,
      "Ġcurious": 6990,
      "Ġrefuge": 6991,
      "Ġadvent": 6992,
      "Ġfacing": 6993,
      "Ġanalysis": 6994,
      "Ġcurrently": 6995,
      "Ġdetails": 6996,
      "Ġpassionate": 6997,
      "Ġemployees": 6998,
      "Ġordinary": 6999,
      "audience": 7000,
      "Ġtoilet": 7001,
      "Ġvaluable": 7002,
      "Ġpac": 7003,
      "Ġpiz": 7004,
      "Ġnhiáº¿p": 7005,
      "Ġdate": 7006,
      "Ġrot": 7007,
      "chuyá»ĩn": 7008,
      "Ġinform": 7009,
      "Ġreform": 7010,
      "Ġnghiá»ĩn": 7011,
      "Ġliqu": 7012,
      "Ġmá»ıi": 7013,
      "Ġ28": 7014,
      "Ġalph": 7015,
      "Ġ195": 7016,
      "Ġduyá»ĩt": 7017,
      "Ġmush": 7018,
      "Ġvideos": 7019,
      "Ġrá»ħ": 7020,
      "Ġequival": 7021,
      "making": 7022,
      "iques": 7023,
      "Ġcaused": 7024,
      "Ġdistribution": 7025,
      "Ġproperty": 7026,
      "Ġconsidered": 7027,
      "cÆ¡": 7028,
      "hÆ¡n": 7029,
      "wart": 7030,
      "zing": 7031,
      "Ġtony": 7032,
      "Ġtha": 7033,
      "Ġmarch": 7034,
      "ĠlÆ°á»¡ng": 7035,
      "Ġhip": 7036,
      "Ġnháº·t": 7037,
      "atures": 7038,
      "ĠtrÃ¢n": 7039,
      "ĠrÃ¡p": 7040,
      "Ġfle": 7041,
      "itals": 7042,
      "Ġnghá»ĭch": 7043,
      "Ġgrid": 7044,
      "Ġacceler": 7045,
      "Ġscene": 7046,
      "Ġsolid": 7047,
      "Ġ120": 7048,
      "Ġtesting": 7049,
      "Ġlawy": 7050,
      "Ġpaying": 7051,
      "Ġreview": 7052,
      "Ġsteps": 7053,
      "Ġ1980": 7054,
      "Ġtasman": 7055,
      "Ġreligious": 7056,
      "Ġlifet": 7057,
      "Ġsympt": 7058,
      "Ġentrepreneurs": 7059,
      "Ġgarden": 7060,
      "care": 7061,
      "david": 7062,
      "lie": 7063,
      "pret": 7064,
      "Ġcá»ĳi": 7065,
      "ĠthÃ¢m": 7066,
      "ĠmÆ°á»Ŀi": 7067,
      "ĠhÆ°u": 7068,
      "Ġwars": 7069,
      "ĠchÃºc": 7070,
      "rete": 7071,
      "ato": 7072,
      "eral": 7073,
      "sey": 7074,
      "Ġshr": 7075,
      "ille": 7076,
      "eless": 7077,
      "Ġotherwise": 7078,
      "Ġinterface": 7079,
      "Ġngoan": 7080,
      "new": 7081,
      "raham": 7082,
      "Ġfourth": 7083,
      "Ġsinging": 7084,
      "Ġelection": 7085,
      "Ġstupid": 7086,
      "Ġcutting": 7087,
      "Ġpleasure": 7088,
      "Ġmolecular": 7089,
      "Ġnano": 7090,
      "Ġsweet": 7091,
      "Ġhacker": 7092,
      "Ġconsequences": 7093,
      "Ġempty": 7094,
      "Ġmosquit": 7095,
      "gg": 7096,
      "Ġsir": 7097,
      "ĠvÃ¢y": 7098,
      "Ġil": 7099,
      "anth": 7100,
      "Ġkháº³ng": 7101,
      "Ġkhiáº¿m": 7102,
      "asion": 7103,
      "amine": 7104,
      "opa": 7105,
      "opher": 7106,
      "Ġanth": 7107,
      "irl": 7108,
      "Ġasks": 7109,
      "Ġfrustr": 7110,
      "Ġmyth": 7111,
      "ests": 7112,
      "Ġwhenever": 7113,
      "Ġhadn": 7114,
      "iban": 7115,
      "Ġ32": 7116,
      "Ġclosed": 7117,
      "Ġpartner": 7118,
      "Ġsyr": 7119,
      "neath": 7120,
      "Ġappropri": 7121,
      "Ġfeelings": 7122,
      "Ġarticle": 7123,
      "Ġnorthern": 7124,
      "Ġattach": 7125,
      "Ġcambridge": 7126,
      "Ġspecifically": 7127,
      "Ġcultures": 7128,
      "Ġawful": 7129,
      "Ġlimit": 7130,
      "Ġ2011": 7131,
      "Ġwalls": 7132,
      "Ġphotographs": 7133,
      "Ġsentence": 7134,
      "Ġcivilization": 7135,
      "Ġpenguins": 7136,
      "Ġcacbon": 7137,
      "bia": 7138,
      "bá»©c": 7139,
      "have": 7140,
      "iat": 7141,
      "ole": 7142,
      "would": 7143,
      "Ġcaught": 7144,
      "ĠÄĳá»ĳ": 7145,
      "ĠmÃ¢u": 7146,
      "Ġbol": 7147,
      "Ġpure": 7148,
      "Ġpages": 7149,
      "á»Ļp": 7150,
      "Ġride": 7151,
      "thá»Ń": 7152,
      "Ġphones": 7153,
      "Ġeld": 7154,
      "Ġchocol": 7155,
      "irm": 7156,
      "ads": 7157,
      "ume": 7158,
      "Ġspoke": 7159,
      "cipl": 7160,
      "ĠÄĳá»ĭch": 7161,
      "Ġunless": 7162,
      "Ġamy": 7163,
      "Ġdish": 7164,
      "Ġhumor": 7165,
      "ĠchÃŃn": 7166,
      "Ġplane": 7167,
      "Ġpatent": 7168,
      "Ġsetting": 7169,
      "Ġhopefully": 7170,
      "Ġtreo": 7171,
      "Ġiron": 7172,
      "Ġtreated": 7173,
      "Ġhorm": 7174,
      "Ġcongress": 7175,
      "Ġcuá»ĵng": 7176,
      "Ġscratch": 7177,
      "Ġfilled": 7178,
      "Ġclinical": 7179,
      "Ġoxford": 7180,
      "Ġvehicle": 7181,
      "Ġlaser": 7182,
      "Ġliquid": 7183,
      "set": 7184,
      "xim": 7185,
      "Ġtall": 7186,
      "Ġnur": 7187,
      "Ġsáº¯t": 7188,
      "Ġlou": 7189,
      "Ġbos": 7190,
      "Ġbare": 7191,
      "Ġháº¹p": 7192,
      "Ġves": 7193,
      "ĠvÆ°Æ¡n": 7194,
      "Ġwitness": 7195,
      "Ġkr": 7196,
      "Ġráº¯n": 7197,
      "alu": 7198,
      "Ġyemen": 7199,
      "urally": 7200,
      "Ġdogs": 7201,
      "ola": 7202,
      "Ġsoil": 7203,
      "ĠphÃŃm": 7204,
      "Ġcolon": 7205,
      "ĠkhÃ³i": 7206,
      "Ġinvol": 7207,
      "Ġvalley": 7208,
      "Ġsignal": 7209,
      "Ġdeeper": 7210,
      "Ġcircle": 7211,
      "Ġmicrob": 7212,
      "Ġfields": 7213,
      "Ġempathy": 7214,
      "Ġconstruct": 7215,
      "Ġsharks": 7216,
      "Ġbattery": 7217,
      "Ġconvinced": 7218,
      "craft": 7219,
      "Ġpizza": 7220,
      "cil": 7221,
      "eng": 7222,
      "har": 7223,
      "mt": 7224,
      "pes": 7225,
      "tain": 7226,
      "war": 7227,
      "Ġcub": 7228,
      "Ġmáº£ng": 7229,
      "ĠláºŃt": 7230,
      "Ġhol": 7231,
      "Ġchain": 7232,
      "Ġgain": 7233,
      "Ġgá»ĳi": 7234,
      "Ġinner": 7235,
      "Ġreci": 7236,
      "Ġstaff": 7237,
      "Ġlie": 7238,
      "Ġford": 7239,
      "Ġmyst": 7240,
      "Ġspring": 7241,
      "aret": 7242,
      "ension": 7243,
      "Ġpregn": 7244,
      "Ġplayer": 7245,
      "Ġfewer": 7246,
      "Ġfox": 7247,
      "Ġopening": 7248,
      "Ġorganized": 7249,
      "Ġengineer": 7250,
      "Ġexpected": 7251,
      "Ġpractical": 7252,
      "Ġanalog": 7253,
      "Ġaffected": 7254,
      "Ġmountains": 7255,
      "Ġreaction": 7256,
      "Ġnegot": 7257,
      "Ġdebate": 7258,
      "Ġingred": 7259,
      "Ġalgorithms": 7260,
      "Ġstanford": 7261,
      "Ġpoliticians": 7262,
      "bes": 7263,
      "cast": 7264,
      "father": 7265,
      "yet": 7266,
      "zan": 7267,
      "Ġcere": 7268,
      "Ġnerv": 7269,
      "ĠÄĳÃ¡o": 7270,
      "ĠÄĳÃłm": 7271,
      "Ġmi": 7272,
      "Ġmaps": 7273,
      "oster": 7274,
      "Ġkhuyáº¿t": 7275,
      "Ġrá»Ńa": 7276,
      "Ġstone": 7277,
      "Ġshark": 7278,
      "Ã©n": 7279,
      "istot": 7280,
      "illing": 7281,
      "Ġgrass": 7282,
      "Ġdriver": 7283,
      "ensity": 7284,
      "Ġunderneath": 7285,
      "Ġscen": 7286,
      "Ġscar": 7287,
      "Ġimportance": 7288,
      "Ġdesigners": 7289,
      "Ġcontain": 7290,
      "Ġwarm": 7291,
      "Ġideal": 7292,
      "Ġsoul": 7293,
      "Ġprotection": 7294,
      "Ġpsychology": 7295,
      "Ġreleased": 7296,
      "Ġpollen": 7297,
      "Ġarrived": 7298,
      "Ġpromise": 7299,
      "Ġbirthday": 7300,
      "Ġmirac": 7301,
      "Ġdisplay": 7302,
      "Ġcá»±u": 7303,
      "Ġtumor": 7304,
      "Ġequivalent": 7305,
      "iors": 7306,
      "Ġeric": 7307,
      "Ġtáº§n": 7308,
      "ĠcÆ°á»Ľp": 7309,
      "ĠÄĳáº»": 7310,
      "Ġsources": 7311,
      "Ġlect": 7312,
      "Ġhans": 7313,
      "ĠvÆ°Æ¡ng": 7314,
      "Ġwave": 7315,
      "oration": 7316,
      "Ġinch": 7317,
      "Ġweak": 7318,
      "Ġstood": 7319,
      "urance": 7320,
      "ĠmÃłng": 7321,
      "Ġsaved": 7322,
      "Ġsem": 7323,
      "Ġatlant": 7324,
      "ateful": 7325,
      "ĠkhoÃ¡i": 7326,
      "Ġdial": 7327,
      "Ġacqu": 7328,
      "ĠÄĳoan": 7329,
      "Ġprefer": 7330,
      "Ġtechniques": 7331,
      "Ġthoughts": 7332,
      "Ġdefine": 7333,
      "Ġlocation": 7334,
      "Ġlaunched": 7335,
      "Ġquiet": 7336,
      "Ġdynamic": 7337,
      "Ġgrandmother": 7338,
      "Ġchannel": 7339,
      "Ġgentlemen": 7340,
      "Ġcá»«u": 7341,
      "Ġcosm": 7342,
      "Ġmushroom": 7343,
      "Ġvessel": 7344,
      "oop": 7345,
      "oved": 7346,
      "women": 7347,
      "Ġcáº¡n": 7348,
      "Ġcave": 7349,
      "Ġlam": 7350,
      "Ġib": 7351,
      "Ġol": 7352,
      "Ġos": 7353,
      "Ġooh": 7354,
      "Ġgender": 7355,
      "Ġdáº£i": 7356,
      "Ġdest": 7357,
      "ĠdÃ¢m": 7358,
      "Ġdáº»o": 7359,
      "ener": 7360,
      "Ġfan": 7361,
      "Ġinn": 7362,
      "Ġlies": 7363,
      "Ġlift": 7364,
      "Ġforced": 7365,
      "ĠmÃły": 7366,
      "áº±n": 7367,
      "Ġabstr": 7368,
      "Ã²m": 7369,
      "terday": 7370,
      "Ġbrief": 7371,
      "Ġmanip": 7372,
      "Ġcoal": 7373,
      "force": 7374,
      "Ġblow": 7375,
      "Ġblocks": 7376,
      "Ġinvention": 7377,
      "Ġtedtal": 7378,
      "ublic": 7379,
      "Ġplayers": 7380,
      "Ġbits": 7381,
      "Ġcontract": 7382,
      "Ġbike": 7383,
      "Ġjoe": 7384,
      "Ġwarming": 7385,
      "box": 7386,
      "Ġeastern": 7387,
      "Ġlego": 7388,
      "Ġmotion": 7389,
      "Ġeleph": 7390,
      "Ġpicked": 7391,
      "Ġconsumption": 7392,
      "Ġemerging": 7393,
      "Ġprinting": 7394,
      "Ġmanagement": 7395,
      "Ġpoetry": 7396,
      "Ġrelatively": 7397,
      "Ġcircumst": 7398,
      "..": 7399,
      "bed": 7400,
      "rÃµ": 7401,
      "Ġaug": 7402,
      "Ġsin": 7403,
      "Ġsáº¡n": 7404,
      "Ġsides": 7405,
      "Ġbia": 7406,
      "Ġbird": 7407,
      "Ġwine": 7408,
      "Ġpy": 7409,
      "atar": 7410,
      "Ġtoward": 7411,
      "Ġrub": 7412,
      "Ġrational": 7413,
      "Ġphr": 7414,
      "itarian": 7415,
      "Ġqual": 7416,
      "using": 7417,
      "Ġworried": 7418,
      "Ġlá»£n": 7419,
      "Ġemissions": 7420,
      "Ġcovered": 7421,
      "Ġpoem": 7422,
      "Ġprove": 7423,
      "place": 7424,
      "Ġcourt": 7425,
      "Ġentropy": 7426,
      "Ġlessons": 7427,
      "Ġlá»ĩch": 7428,
      "Ġmetal": 7429,
      "Ġorganisms": 7430,
      "Ġprocesses": 7431,
      "Ġwinter": 7432,
      "Ġstronger": 7433,
      "Ġhospitals": 7434,
      "ipping": 7435,
      "Ġgala": 7436,
      "Ġmá»ĵi": 7437,
      "Ġuganda": 7438,
      "Ġindependent": 7439,
      "Ġchocolate": 7440,
      "Ġnervous": 7441,
      "Ġabstract": 7442,
      "kins": 7443,
      "Ġcath": 7444,
      "ĠnÃ´": 7445,
      "Ġnurs": 7446,
      "ĠÄĳáº¡n": 7447,
      "Ġlic": 7448,
      "ĠláºŃn": 7449,
      "Ġbin": 7450,
      "Ġhal": 7451,
      "Ġváº¹n": 7452,
      "Ġpun": 7453,
      "Ġpeter": 7454,
      "Ġgulf": 7455,
      "Ġdáº¡o": 7456,
      "Ġdá»įn": 7457,
      "Ġtow": 7458,
      "ingly": 7459,
      "Ġrig": 7460,
      "Ġfer": 7461,
      "icy": 7462,
      "ament": 7463,
      "keep": 7464,
      "Ġsevere": 7465,
      "Ġneander": 7466,
      "their": 7467,
      "Ġbron": 7468,
      "Ġbrothers": 7469,
      "Ġcalling": 7470,
      "Ġgenet": 7471,
      "Ġgoods": 7472,
      "Ġghana": 7473,
      "Ġconnections": 7474,
      "Ġbuying": 7475,
      "Ġrequires": 7476,
      "Ġoccup": 7477,
      "Ġintelligent": 7478,
      "Ġvictims": 7479,
      "build": 7480,
      "Ġprinciple": 7481,
      "Ġnewspaper": 7482,
      "Ġintellectual": 7483,
      "foot": 7484,
      "Ġfolks": 7485,
      "Ġspectrum": 7486,
      "Ġfalse": 7487,
      "Ġlifetime": 7488,
      "Ġgalaxy": 7489,
      "bá»Ļ": 7490,
      "ij": 7491,
      "tÆ°Æ¡ng": 7492,
      "Ġcáº¯m": 7493,
      "ĠÄĳáº¡c": 7494,
      "Ġkore": 7495,
      "Ġfis": 7496,
      "Ġfiction": 7497,
      "Ġsacr": 7498,
      "Ġpray": 7499,
      "Ġjes": 7500,
      "Ġjail": 7501,
      "Ġshame": 7502,
      "Ġnotes": 7503,
      "Ġdece": 7504,
      "wel": 7505,
      "ĠquyÃªn": 7506,
      "Ġ33": 7507,
      "Ġens": 7508,
      "Ġtaliban": 7509,
      "Ġroof": 7510,
      "Ġflat": 7511,
      "Ġvirgin": 7512,
      "Ġmemories": 7513,
      "Ġmilk": 7514,
      "Ġanti": 7515,
      "everybody": 7516,
      "Ġsilence": 7517,
      "Ġstatus": 7518,
      "Ġinstitute": 7519,
      "Ġhuyá»ģn": 7520,
      "Ġmicrosoft": 7521,
      "Ġkáº¹o": 7522,
      "Ġvulnerable": 7523,
      "Ġbudget": 7524,
      "Ġnarrative": 7525,
      "Ġmortality": 7526,
      "Ġdolph": 7527,
      "Ġepidemic": 7528,
      "ĠbÆ¡m": 7529,
      "Ġflorida": 7530,
      "cá»©": 7531,
      "ether": 7532,
      "last": 7533,
      "rom": 7534,
      "wich": 7535,
      "ĠtÃ´ng": 7536,
      "Ġcáº¯p": 7537,
      "Ġnit": 7538,
      "Ġnose": 7539,
      "Ġnord": 7540,
      "Ġske": 7541,
      "ĠlÅ©ng": 7542,
      "Ġbond": 7543,
      "ĠvÄ©nh": 7544,
      "Ġoct": 7545,
      "Ġdot": 7546,
      "Ġram": 7547,
      "lying": 7548,
      "americ": 7549,
      "irty": 7550,
      "Ġgoals": 7551,
      "Ġseat": 7552,
      "ĠkhiÃªu": 7553,
      "Ġlá»Ŀ": 7554,
      "ĠÄĳá»ģn": 7555,
      "Ġhoward": 7556,
      "ardo": 7557,
      "elly": 7558,
      "Ġflash": 7559,
      "Ġtechnical": 7560,
      "Ġinsul": 7561,
      "Ġ2001": 7562,
      "Ġengaged": 7563,
      "Ġtopic": 7564,
      "Ġsignals": 7565,
      "Ġyesterday": 7566,
      "Ġrisks": 7567,
      "Ġbottle": 7568,
      "cola": 7569,
      "Ġrelease": 7570,
      "Ġkhuynh": 7571,
      "Ġtrials": 7572,
      "Ġlaboratory": 7573,
      "Ġinfected": 7574,
      "Ġmistakes": 7575,
      "Ġaston": 7576,
      "Ġclaim": 7577,
      "Ġtelescope": 7578,
      "Ġhenry": 7579,
      "Ġheavy": 7580,
      "aves": 7581,
      "ca": 7582,
      "certain": 7583,
      "nic": 7584,
      "wr": 7585,
      "ĠcÆ°Æ¡ng": 7586,
      "Ġcope": 7587,
      "Ġthung": 7588,
      "Ġsar": 7589,
      "Ġbáº¯p": 7590,
      "Ġbá»įc": 7591,
      "Ġkiá»ĩt": 7592,
      "ĠnhÃłng": 7593,
      "organ": 7594,
      "thur": 7595,
      "eda": 7596,
      "ini": 7597,
      "sters": 7598,
      "Ġshall": 7599,
      "Ġheight": 7600,
      "agement": 7601,
      "Ġpeak": 7602,
      "abol": 7603,
      "ĠbuÃ½t": 7604,
      "Ġunus": 7605,
      "ĠtuÃ¢n": 7606,
      "athers": 7607,
      "Ġcommand": 7608,
      "Ġminim": 7609,
      "Ġsett": 7610,
      "Ġeffectively": 7611,
      "Ġwindows": 7612,
      "Ġfalling": 7613,
      "Ġsatis": 7614,
      "Ġdefinitely": 7615,
      "llywood": 7616,
      "Ġprinciples": 7617,
      "Ġkáº¹t": 7618,
      "Ġroughly": 7619,
      "Ġtexas": 7620,
      "Ġrestaurant": 7621,
      "Ġilleg": 7622,
      "istotle": 7623,
      "18": 7624,
      "bas": 7625,
      "hab": 7626,
      "sim": 7627,
      "Ġtháº±ng": 7628,
      "ĠÄĳai": 7629,
      "ĠmÃ²n": 7630,
      "Ġláº¥p": 7631,
      "Ġláº¡p": 7632,
      "ĠbÃ¡ch": 7633,
      "Ġbath": 7634,
      "ĠvÃ©": 7635,
      "Ġnháº§m": 7636,
      "nhÃ¢n": 7637,
      "Ġrates": 7638,
      "ora": 7639,
      "Ġinit": 7640,
      "Ġwel": 7641,
      "uses": 7642,
      "Ġisol": 7643,
      "ĠgiÃ£n": 7644,
      "Ġwash": 7645,
      "Ġexists": 7646,
      "ablish": 7647,
      "obal": 7648,
      "Ġgrateful": 7649,
      "ucing": 7650,
      "Ġremain": 7651,
      "Ġtranspl": 7652,
      "Ġdesigning": 7653,
      "Ġserve": 7654,
      "Ġmedium": 7655,
      "Ġpossibilities": 7656,
      "olds": 7657,
      "Ġenvironments": 7658,
      "Ġrelevant": 7659,
      "Ġproducing": 7660,
      "Ġconstant": 7661,
      "Ġignor": 7662,
      "Ġcandid": 7663,
      "Ġkilometers": 7664,
      "cal": 7665,
      "did": 7666,
      "four": 7667,
      "hara": 7668,
      "min": 7669,
      "mad": 7670,
      "overs": 7671,
      "Ġtháº¯c": 7672,
      "Ġvang": 7673,
      "Ġkar": 7674,
      "Ġkitch": 7675,
      "ati": 7676,
      "enced": 7677,
      "inations": 7678,
      "ĠÄĳá»Ĺ": 7679,
      "Ġsees": 7680,
      "Ġasp": 7681,
      "agen": 7682,
      "agers": 7683,
      "Ġactions": 7684,
      "Ġscared": 7685,
      "Ġpersonally": 7686,
      "Ġpolio": 7687,
      "Ġfinance": 7688,
      "Ġcarefully": 7689,
      "Ġrepair": 7690,
      "Ġgrandfather": 7691,
      "Ġproteins": 7692,
      "Ġmulti": 7693,
      "Ġerror": 7694,
      "Ġlayer": 7695,
      "Ġbrook": 7696,
      "Ġmechanical": 7697,
      "Ġintroduced": 7698,
      "Ġauthority": 7699,
      "Ġgermany": 7700,
      "Ġfortun": 7701,
      "Ġencourage": 7702,
      "Ġdramatic": 7703,
      "Ġalternative": 7704,
      "Ġexercise": 7705,
      "Ġcredit": 7706,
      "Ġgravity": 7707,
      "Ġsophistic": 7708,
      "aven": 7709,
      "des": 7710,
      "oons": 7711,
      "ĠthÃ©p": 7712,
      "Ġná»ģ": 7713,
      "ĠhÃ£": 7714,
      "Ġvay": 7715,
      "Ġcháº£": 7716,
      "ĠtrÃº": 7717,
      "than": 7718,
      "ĠxÃ´": 7719,
      "ĠxÃ¡m": 7720,
      "Ġabraham": 7721,
      "Ġjim": 7722,
      "ums": 7723,
      "estic": 7724,
      "Ġspin": 7725,
      "Ġtá»±a": 7726,
      "Ġworlds": 7727,
      "ressive": 7728,
      "Ġflower": 7729,
      "Ġ85": 7730,
      "does": 7731,
      "Ġadded": 7732,
      "Ġsteel": 7733,
      "Ġautonom": 7734,
      "Ġexplains": 7735,
      "Ġamounts": 7736,
      "Ġprofession": 7737,
      "Ġmeaningful": 7738,
      "Ġtracking": 7739,
      "Ġdepends": 7740,
      "Ġlifest": 7741,
      "Ġparticipate": 7742,
      "Ġreveal": 7743,
      "Ġmathematics": 7744,
      "Ġforgot": 7745,
      "Ġcortex": 7746,
      "Ġexchange": 7747,
      "12": 7748,
      "gu": 7749,
      "gets": 7750,
      "nes": 7751,
      "pet": 7752,
      "since": 7753,
      "ville": 7754,
      "zed": 7755,
      "Ġcents": 7756,
      "Ġcup": 7757,
      "Ġmember": 7758,
      "Ġmá»įc": 7759,
      "ĠbÃ¡": 7760,
      "ĠvÆ°á»£ng": 7761,
      "ĠchÄĥn": 7762,
      "Ġgut": 7763,
      "Ġdá»Ł": 7764,
      "Ġring": 7765,
      "Ġinev": 7766,
      "Ġbee": 7767,
      "opard": 7768,
      "Ġanonym": 7769,
      "Ġsahara": 7770,
      "Ġmá»ıng": 7771,
      "Ġplans": 7772,
      "Ġhowever": 7773,
      "izon": 7774,
      "Ġunit": 7775,
      "Ġclub": 7776,
      "Ġpoly": 7777,
      "Ġinterests": 7778,
      "Ġngá»«a": 7779,
      "Ġgenerate": 7780,
      "Ġparticles": 7781,
      "Ġlabel": 7782,
      "Ġwake": 7783,
      "Ġsites": 7784,
      "Ġknee": 7785,
      "Ġtypically": 7786,
      "Ġexisting": 7787,
      "Ġceo": 7788,
      "Ġestablish": 7789,
      "Ġawareness": 7790,
      "Ġdisappear": 7791,
      "Ġmentioned": 7792,
      "Ġcomponents": 7793,
      "Ġcoca": 7794,
      "Ġhydrogen": 7795,
      "Ġopinion": 7796,
      "Ġcircumstances": 7797,
      "lon": 7798,
      "lines": 7799,
      "máº·t": 7800,
      "vention": 7801,
      "ĠnÃªu": 7802,
      "Ġmall": 7803,
      "ĠlÆ°á»£t": 7804,
      "Ġvoc": 7805,
      "Ġchose": 7806,
      "Ġpink": 7807,
      "Ġdv": 7808,
      "Ġded": 7809,
      "ĠdÅ©ng": 7810,
      "Ġdá»ĳc": 7811,
      "erves": 7812,
      "ĠtráºŃt": 7813,
      "ĠkhÃ©o": 7814,
      "Ġráº½": 7815,
      "Ġfif": 7816,
      "Ġinequ": 7817,
      "ĠÄĳá»£t": 7818,
      "Ġitem": 7819,
      "Ġreprod": 7820,
      "anging": 7821,
      "Ġshake": 7822,
      "Ġfright": 7823,
      "Ġsuit": 7824,
      "Ġunion": 7825,
      "Ġpoore": 7826,
      "Ġ2050": 7827,
      "Ġinternal": 7828,
      "Ġdefined": 7829,
      "lessly": 7830,
      "Ġfilms": 7831,
      "Ġadvice": 7832,
      "Ġdealing": 7833,
      "Ġsandwich": 7834,
      "porary": 7835,
      "Ġsubjects": 7836,
      "Ġinstrument": 7837,
      "Ġintroduce": 7838,
      "Ġgerman": 7839,
      "ecd": 7840,
      "Ġsequence": 7841,
      "Ġresistance": 7842,
      "Ġdoubt": 7843,
      "Ġsurvey": 7844,
      "Ġapplied": 7845,
      "Ġrapidly": 7846,
      "Ġnavig": 7847,
      "Ġinsulin": 7848,
      "19": 7849,
      "fortunately": 7850,
      "gie": 7851,
      "lad": 7852,
      "mo": 7853,
      "pal": 7854,
      "ront": 7855,
      "Ġtiv": 7856,
      "ĠnÃ¡t": 7857,
      "ĠsÃ´i": 7858,
      "Ġlen": 7859,
      "ĠhÃ´i": 7860,
      "Ġchap": 7861,
      "aters": 7862,
      "ouds": 7863,
      "Ġrit": 7864,
      "Ġvá»Ĺ": 7865,
      "ÃŃn": 7866,
      "Ġstock": 7867,
      "Ġmeg": 7868,
      "Ġmá»ī": 7869,
      "whel": 7870,
      "Ġshell": 7871,
      "Ġoverwhel": 7872,
      "Ġpool": 7873,
      "Ġdesk": 7874,
      "Ġboat": 7875,
      "icted": 7876,
      "Ġscot": 7877,
      "Ġpercentage": 7878,
      "Ġends": 7879,
      "Ġeconomies": 7880,
      "Ġexplan": 7881,
      "Ġsolving": 7882,
      "Ġanimation": 7883,
      "Ġearthqu": 7884,
      "onesia": 7885,
      "ternal": 7886,
      "Ġinnovative": 7887,
      "Ġcyber": 7888,
      "Ġsenses": 7889,
      "Ġjew": 7890,
      "Ġmovies": 7891,
      "Ġfundamentally": 7892,
      "Ġcapture": 7893,
      "Ġjudg": 7894,
      "Ġvariety": 7895,
      "Ġprimary": 7896,
      "Ġdinos": 7897,
      "Ġridic": 7898,
      "Ġswimming": 7899,
      "hyth": 7900,
      "Ġframework": 7901,
      "Ġphilosophy": 7902,
      "Ġaccurate": 7903,
      "Ġagriculture": 7904,
      "Ġsports": 7905,
      "Ġunusual": 7906,
      "ek": 7907,
      "há»ĩ": 7908,
      "sá»ĳ": 7909,
      "Ġtons": 7910,
      "ĠbÃ¹": 7911,
      "Ġhide": 7912,
      "Ġháº¡ch": 7913,
      "Ġviá»ĩt": 7914,
      "Ġdat": 7915,
      "ĠphÃ¡c": 7916,
      "ĠxÃ´i": 7917,
      "Ġreverse": 7918,
      "Ġchá»£": 7919,
      "ĠhoÃłi": 7920,
      "ulating": 7921,
      "umber": 7922,
      "abled": 7923,
      "Ġspan": 7924,
      "Ġintense": 7925,
      "Ġlength": 7926,
      "Ġdisp": 7927,
      "Ġdisaster": 7928,
      "Ġfactor": 7929,
      "ĠthoÃ¡i": 7930,
      "Ġconsist": 7931,
      "Ġruns": 7932,
      "Ġzeal": 7933,
      "Ġconfidence": 7934,
      "Ġconfront": 7935,
      "Ġwondered": 7936,
      "Ġrefr": 7937,
      "Ġdevil": 7938,
      "iency": 7939,
      "Ġmessages": 7940,
      "Ġoperate": 7941,
      "Ġelev": 7942,
      "everything": 7943,
      "Ġoceans": 7944,
      "Ġprivile": 7945,
      "Ġestim": 7946,
      "Ġselling": 7947,
      "john": 7948,
      "Ġforests": 7949,
      "Ġsample": 7950,
      "Ġgraduate": 7951,
      "profit": 7952,
      "Ġnorden": 7953,
      "Ġkitchen": 7954,
      "bill": 7955,
      "je": 7956,
      "má»¥c": 7957,
      "Ġtape": 7958,
      "ngo": 7959,
      "Ġcock": 7960,
      "Ġnáº£n": 7961,
      "Ġmere": 7962,
      "Ġbá»ĵ": 7963,
      "ĠvÃµ": 7964,
      "rets": 7965,
      "Ġoption": 7966,
      "Ġdip": 7967,
      "inc": 7968,
      "ctic": 7969,
      "idi": 7970,
      "erent": 7971,
      "step": 7972,
      "Ġasse": 7973,
      "Ġatoms": 7974,
      "Ġfrog": 7975,
      "Ġ29": 7976,
      "Ġbudd": 7977,
      "Ġ31": 7978,
      "Ġclouds": 7979,
      "Ġresil": 7980,
      "Ġstring": 7981,
      "roit": 7982,
      "Ġ700": 7983,
      "Ġjoined": 7984,
      "Ġeconomists": 7985,
      "Ġcomputing": 7986,
      "Ġregard": 7987,
      "Ġregions": 7988,
      "Ġdetroit": 7989,
      "Ġsouthern": 7990,
      "Ġadvanced": 7991,
      "Ġfunding": 7992,
      "atson": 7993,
      "Ġteams": 7994,
      "Ġincreased": 7995,
      "Ġcollapse": 7996,
      "Ġbehavioral": 7997,
      "Ġcombine": 7998,
      "Ġvaccines": 7999,
      "Ġhoping": 8000,
      "Ġbritain": 8001,
      "Ġcarrying": 8002,
      "Ġcooking": 8003,
      "Ġconcrete": 8004,
      "Ġtransportation": 8005,
      "Ġpasswords": 8006,
      "Ġtweet": 8007,
      "Ġmanufacturing": 8008,
      "Ġaccompl": 8009,
      "Ġmandela": 8010,
      "Ġsweden": 8011,
      "hÃłng": 8012,
      "ias": 8013,
      "lar": 8014,
      "net": 8015,
      "yan": 8016,
      "Ġtiá»ħn": 8017,
      "Ġtháº§m": 8018,
      "ĠbÃ¬a": 8019,
      "Ġkm": 8020,
      "Ġdá»Ļi": 8021,
      "Ġtoy": 8022,
      "apher": 8023,
      "Ġfake": 8024,
      "eding": 8025,
      "iture": 8026,
      "Ġreject": 8027,
      "stand": 8028,
      "Ġgore": 8029,
      "iled": 8030,
      "alled": 8031,
      "Ġspr": 8032,
      "inder": 8033,
      "Ġteeth": 8034,
      "Ġplus": 8035,
      "Ġbrian": 8036,
      "Ġcompar": 8037,
      "Ġgrace": 8038,
      "Ġflag": 8039,
      "Ġfactors": 8040,
      "Ġpolar": 8041,
      "Ġ800": 8042,
      "Ġcontrast": 8043,
      "Ġcenters": 8044,
      "Ġcenturies": 8045,
      "Ġmovements": 8046,
      "Ġpropos": 8047,
      "loáº¡i": 8048,
      "Ġbá»Ĺng": 8049,
      "Ġsunlight": 8050,
      "Ġoperation": 8051,
      "Ġtrá»«u": 8052,
      "Ġtraveling": 8053,
      "Ġcombination": 8054,
      "ĠnÃ©n": 8055,
      "Ġinstruct": 8056,
      "Ġmirror": 8057,
      "Ġchemicals": 8058,
      "Ġcollaboration": 8059,
      "Ġdiscussion": 8060,
      "Ġrosling": 8061,
      "Ġembrace": 8062,
      "Ġritual": 8063,
      "ni": 8064,
      "tÃªn": 8065,
      "wal": 8066,
      "Ġná»¥": 8067,
      "ĠÄĳáº½": 8068,
      "Ġmuá»ĳi": 8069,
      "Ġble": 8070,
      "Ġbáº¥y": 8071,
      "Ġborders": 8072,
      "ĠchÃł": 8073,
      "Ġchamp": 8074,
      "Ġped": 8075,
      "ĠgÃ¡c": 8076,
      "Ġder": 8077,
      "Ġdut": 8078,
      "apore": 8079,
      "Ġrose": 8080,
      "Ġflex": 8081,
      "Ġphase": 8082,
      "ĠxÄĥng": 8083,
      "Ġnghiá»ĩt": 8084,
      "igm": 8085,
      "ifer": 8086,
      "oking": 8087,
      "trung": 8088,
      "abet": 8089,
      "ansas": 8090,
      "Ġdiam": 8091,
      "áº³m": 8092,
      "Ġbold": 8093,
      "Ġindonesia": 8094,
      "Å©i": 8095,
      "Ġwriter": 8096,
      "Ġchua": 8097,
      "Ġmuslim": 8098,
      "Ġrepublic": 8099,
      "Ġinfin": 8100,
      "Ġsolved": 8101,
      "Ġproductive": 8102,
      "Ġairport": 8103,
      "Ġdefense": 8104,
      "Ġmemor": 8105,
      "Ġposter": 8106,
      "Ġopera": 8107,
      "Ġfacial": 8108,
      "Ġobser": 8109,
      "Ġconsumer": 8110,
      "Ġconversations": 8111,
      "Ġhunger": 8112,
      "Ġdestruction": 8113,
      "Ġgreenh": 8114,
      "Ġapplications": 8115,
      "ĠxÃŃu": 8116,
      "Ġantibiot": 8117,
      "Ġlibrary": 8118,
      "bors": 8119,
      "fi": 8120,
      "mers": 8121,
      "Ġthick": 8122,
      "Ġsi": 8123,
      "Ġláº¯c": 8124,
      "Ġhá»¥t": 8125,
      "Ġvit": 8126,
      "Ġtrá»Ļm": 8127,
      "quan": 8128,
      "Ġrush": 8129,
      "Ġinput": 8130,
      "icing": 8131,
      "icip": 8132,
      "ĠxÃŃch": 8133,
      "Ġliver": 8134,
      "Ġjih": 8135,
      "Ġcomment": 8136,
      "abilities": 8137,
      "Ġtea": 8138,
      "Ġacting": 8139,
      "Ġactor": 8140,
      "Ġunknown": 8141,
      "Ġscott": 8142,
      "Ġinstinct": 8143,
      "ographer": 8144,
      "Ġgenerally": 8145,
      "Ġskill": 8146,
      "Ġformer": 8147,
      "Ġclever": 8148,
      "Ġglobe": 8149,
      "Ġcá»ķng": 8150,
      "Ġchallenging": 8151,
      "Ġassign": 8152,
      "Ġbehaviors": 8153,
      "Ġcyrus": 8154,
      "Ġliterature": 8155,
      "Ġruá»ĵi": 8156,
      "Ġinclude": 8157,
      "Ġconvince": 8158,
      "Ġauthent": 8159,
      "Ġladies": 8160,
      "Ġromantic": 8161,
      "Ġprepared": 8162,
      "burgh": 8163,
      "Ġcircuit": 8164,
      "Ġtonight": 8165,
      "Ġsyria": 8166,
      "Ġnegoti": 8167,
      "Ġbronx": 8168,
      "Ġtransplant": 8169,
      "awn": 8170,
      "bÃªn": 8171,
      "could": 8172,
      "cend": 8173,
      "hum": 8174,
      "lom": 8175,
      "mit": 8176,
      "rition": 8177,
      "source": 8178,
      "wis": 8179,
      "Ġcast": 8180,
      "Ġtháº³m": 8181,
      "Ġnick": 8182,
      "ĠÄĳÃł": 8183,
      "ĠlÆ¡": 8184,
      "ĠlÃºa": 8185,
      "Ġbes": 8186,
      "Ġhat": 8187,
      "Ġow": 8188,
      "Ġought": 8189,
      "Ġky": 8190,
      "thÃ´ng": 8191,
      "andon": 8192,
      "ĠxÆ°á»Ľng": 8193,
      "Ġreven": 8194,
      "Ġstere": 8195,
      "Ġstands": 8196,
      "Ġ---": 8197,
      "Ġshakes": 8198,
      "Ġalb": 8199,
      "ogue": 8200,
      "resp": 8201,
      "Ġgray": 8202,
      "Ġsheep": 8203,
      "Ġ55": 8204,
      "Ġprem": 8205,
      "Ġoffers": 8206,
      "Ġroy": 8207,
      "Ġowners": 8208,
      "Ġbusy": 8209,
      "Ġhealthcare": 8210,
      "Ġproced": 8211,
      "struct": 8212,
      "Ġradiation": 8213,
      "Ġangry": 8214,
      "Ġbombs": 8215,
      "Ġrepresents": 8216,
      "Ġhotel": 8217,
      "Ġeggs": 8218,
      "arrass": 8219,
      "Ġdistrict": 8220,
      "Ġmechanism": 8221,
      "Ġjudge": 8222,
      "Ġvictor": 8223,
      "Ġheroes": 8224,
      "Ġsamples": 8225,
      "Ġvulnerability": 8226,
      "Ġsubtit": 8227,
      "Ġtherapy": 8228,
      "Ġlifestyle": 8229,
      "Ġjihad": 8230,
      "hÃ¬nh": 8231,
      "vo": 8232,
      "Ġá»ĳc": 8233,
      "Ġá»«": 8234,
      "Ġcure": 8235,
      "ĠÄĳan": 8236,
      "ĠsÃ´": 8237,
      "Ġsant": 8238,
      "ĠsÃºc": 8239,
      "Ġmá»Ļng": 8240,
      "ĠmÆ°Æ¡i": 8241,
      "Ġloud": 8242,
      "ĠhÃ³c": 8243,
      "Ġhits": 8244,
      "Ġpill": 8245,
      "Ġnhá»ĩn": 8246,
      "chair": 8247,
      "Ġwhist": 8248,
      "Ġgiáº·t": 8249,
      "iminal": 8250,
      "opia": 8251,
      "Ġunh": 8252,
      "stream": 8253,
      "Ġsoáº¡n": 8254,
      "Ġneut": 8255,
      "ĠkhoÃ¡ng": 8256,
      "Ġagg": 8257,
      "Ġages": 8258,
      "Ġclar": 8259,
      "Ġimper": 8260,
      "Ġdriven": 8261,
      "Ġdesper": 8262,
      "Ġapparent": 8263,
      "Ġtranscript": 8264,
      "peare": 8265,
      "Ġvá»¥n": 8266,
      "Ġwalks": 8267,
      "Ġmetabol": 8268,
      "Ġparking": 8269,
      "Ġguard": 8270,
      "Ġidentical": 8271,
      "Ġstayed": 8272,
      "Ġburning": 8273,
      "Ġboxes": 8274,
      "Ġinspiration": 8275,
      "Ġsituations": 8276,
      "Ġfootprint": 8277,
      "Ġsustainability": 8278,
      "Ġtransformed": 8279,
      "Ġflowers": 8280,
      "Ġharvest": 8281,
      "Ġislands": 8282,
      "Ġmistake": 8283,
      "Ġentrepreneur": 8284,
      "Ġislamic": 8285,
      "Ġrussia": 8286,
      "Ġhypothes": 8287,
      "Ġcameras": 8288,
      "Ġcarolina": 8289,
      "Ġdictionary": 8290,
      "Ġillegal": 8291,
      "Ġsophisticated": 8292,
      "Ġearthquake": 8293,
      "Ġzealand": 8294,
      "ae": 8295,
      "bb": 8296,
      "lation": 8297,
      "mart": 8298,
      "Ġá»ĳm": 8299,
      "Ġáº¿ch": 8300,
      "Ġcab": 8301,
      "Ġthumb": 8302,
      "ĠbÆ°á»Ľ": 8303,
      "Ġbicy": 8304,
      "Ġwatson": 8305,
      "rem": 8306,
      "ĠgÅ©i": 8307,
      "Ġdict": 8308,
      "Ġdancing": 8309,
      "Ġtriá»ģu": 8310,
      "quÃ¡": 8311,
      "ĠrÅ©": 8312,
      "Ġfurn": 8313,
      "ĠÄĳá»ĩ": 8314,
      "ĠxÆ°á»Łng": 8315,
      "Ġchá»£t": 8316,
      "Ġub": 8317,
      "Ġloop": 8318,
      "Ġjose": 8319,
      "Ġjosh": 8320,
      "Ġexam": 8321,
      "Ġsomewhat": 8322,
      "ortion": 8323,
      "iev": 8324,
      "Ġacts": 8325,
      "Ġquyáº¿n": 8326,
      "Ġarrest": 8327,
      "Ġindic": 8328,
      "Ġlake": 8329,
      "Ġtechnique": 8330,
      "Ġplays": 8331,
      "Ġstoryt": 8332,
      "othing": 8333,
      "Ġhyd": 8334,
      "Ġmarg": 8335,
      "Ġprocessing": 8336,
      "Ġyorker": 8337,
      "Ġsigns": 8338,
      "Ġdevast": 8339,
      "ĠtÃŃm": 8340,
      "Ġpotentially": 8341,
      "Ġinteractive": 8342,
      "Ġfears": 8343,
      "Ġrecords": 8344,
      "Ġoptions": 8345,
      "Ġpulled": 8346,
      "Ġneighbors": 8347,
      "Ġembarrass": 8348,
      "Ġdetermine": 8349,
      "viol": 8350,
      "Ġproperties": 8351,
      "Ġvehicles": 8352,
      "Ġpilot": 8353,
      "Ġcontrolled": 8354,
      "Ġfabric": 8355,
      "Ġastronom": 8356,
      "Ġentertainment": 8357,
      "Ġhorrible": 8358,
      "Ġsatellite": 8359,
      "children": 8360,
      "Ġsubtitles": 8361,
      "bÃłi": 8362,
      "hol": 8363,
      "half": 8364,
      "ká»ĥ": 8365,
      "timate": 8366,
      "wa": 8367,
      "Ġtáº¡ng": 8368,
      "Ġcous": 8369,
      "Ġsis": 8370,
      "Ġsets": 8371,
      "ĠmÆ°á»£n": 8372,
      "ĠlÃ¢n": 8373,
      "Ġbob": 8374,
      "Ġbáº©n": 8375,
      "ĠhÃ©t": 8376,
      "Ġcháº½": 8377,
      "Ġpound": 8378,
      "ĠnhÄ©": 8379,
      "ĠnhÆ°á»Ŀng": 8380,
      "Ġdow": 8381,
      "ĠtrÃ¡ng": 8382,
      "Ġngáº«m": 8383,
      "Ġfert": 8384,
      "esh": 8385,
      "esity": 8386,
      "also": 8387,
      "imeter": 8388,
      "Ġtheme": 8389,
      "Ġplate": 8390,
      "Ġsuic": 8391,
      "Ġbroke": 8392,
      "Ġbull": 8393,
      "pped": 8394,
      "Ġaristotle": 8395,
      "Ġclock": 8396,
      "Ġcá»ĳng": 8397,
      "Ġ1930": 8398,
      "Ġdownload": 8399,
      "Ġphysically": 8400,
      "Ġallowing": 8401,
      "Ġwaves": 8402,
      "Ġequally": 8403,
      "Ġtests": 8404,
      "Ġgeographic": 8405,
      "Ġadvance": 8406,
      "Ġcontinent": 8407,
      "Ġcollected": 8408,
      "Ġclosely": 8409,
      "Ġlimb": 8410,
      "Ġexistence": 8411,
      "Ġempower": 8412,
      "Ġultimate": 8413,
      "Ġimmune": 8414,
      "Ġspiritual": 8415,
      "Ġlester": 8416,
      "global": 8417,
      "Ġpuzzle": 8418,
      "connected": 8419,
      "Ġwilliam": 8420,
      "Ġalpha": 8421,
      "Ġappropriate": 8422,
      "Ġgreenhouse": 8423,
      "bby": 8424,
      "cking": 8425,
      "case": 8426,
      "hour": 8427,
      "ju": 8428,
      "mal": 8429,
      "tÃ´": 8430,
      "via": 8431,
      "Ġtap": 8432,
      "ĠcÆ°á»£c": 8433,
      "Ġthin": 8434,
      "Äĳiá»ĥm": 8435,
      "Ġmim": 8436,
      "ĠbÃ¡m": 8437,
      "ĠvÃ¡n": 8438,
      "Ġwise": 8439,
      "Ġwings": 8440,
      "ĠchÃ´n": 8441,
      "Ġkick": 8442,
      "Ġpitch": 8443,
      "Ġgest": 8444,
      "Ġnháº¡t": 8445,
      "Ġdense": 8446,
      "ĠtrÃ¡n": 8447,
      "onia": 8448,
      "Ġfoss": 8449,
      "chr": 8450,
      "arant": 8451,
      "Ġquáº·c": 8452,
      "Ġbeet": 8453,
      "Ġxá»ī": 8454,
      "Ġretr": 8455,
      "Ġstor": 8456,
      "Ġconver": 8457,
      "stage": 8458,
      "add": 8459,
      "Ġheaven": 8460,
      "ĠÄĳá»Ļn": 8461,
      "Ġexec": 8462,
      "ĠnhÃło": 8463,
      "Ġimplement": 8464,
      "Ġoverall": 8465,
      "Ġacknow": 8466,
      "Ġblank": 8467,
      "Ġinterpret": 8468,
      "ĠxuÃ¢n": 8469,
      "Ġdá»Ĺ": 8470,
      "Ġglad": 8471,
      "Ġconserv": 8472,
      "Ġjoke": 8473,
      "Ġnaturally": 8474,
      "Ġfarmer": 8475,
      "Ġformed": 8476,
      "Ġkeeps": 8477,
      "Ġeducational": 8478,
      "Ġirr": 8479,
      "Ġpainful": 8480,
      "Ġcollecting": 8481,
      "Ġarguments": 8482,
      "Ġexplained": 8483,
      "Ġmainly": 8484,
      "Ġlá»ĵng": 8485,
      "Ġdistinct": 8486,
      "Ġiceland": 8487,
      "Ġmales": 8488,
      "Ġconventional": 8489,
      "Ġspreading": 8490,
      "Ġladen": 8491,
      "Ġultr": 8492,
      "Ġactivities": 8493,
      "Ġkingdom": 8494,
      "Ġadmit": 8495,
      "Ġwheelchair": 8496,
      "Ġmeasuring": 8497,
      "Ġshadow": 8498,
      "Ġpollution": 8499,
      "Ġimplications": 8500,
      "Ġsymptoms": 8501,
      "fast": 8502,
      "list": 8503,
      "nia": 8504,
      "oint": 8505,
      "part": 8506,
      "ĠÃ´m": 8507,
      "Ġmáº¿n": 8508,
      "ĠlÃ¡nh": 8509,
      "Ġlying": 8510,
      "Ġbáº¥m": 8511,
      "Ġborder": 8512,
      "ĠhÃ²": 8513,
      "Ġhiáº¿p": 8514,
      "Ġfib": 8515,
      "Ġiniti": 8516,
      "lete": 8517,
      "Ġraw": 8518,
      "Ġhollywood": 8519,
      "Ġfro": 8520,
      "ĠgÃ¬n": 8521,
      "Ġupper": 8522,
      "Ġbrib": 8523,
      "Ġuncom": 8524,
      "Ġuncertain": 8525,
      "Ġperman": 8526,
      "Ġagency": 8527,
      "Ġdiscipl": 8528,
      "Ġimplant": 8529,
      "ptember": 8530,
      "Ġunderwater": 8531,
      "Ġremem": 8532,
      "perhaps": 8533,
      "Ġobesity": 8534,
      "Ġmonkey": 8535,
      "Ġminor": 8536,
      "Ġcontem": 8537,
      "Ġcontrovers": 8538,
      "Ġregener": 8539,
      "Ġmarath": 8540,
      "Ġhandle": 8541,
      "Ġstret": 8542,
      "Ġtreating": 8543,
      "Ġproviding": 8544,
      "Ġsongs": 8545,
      "Ġillusion": 8546,
      "Ġsensitive": 8547,
      "Ġviruses": 8548,
      "Ġroads": 8549,
      "Ġconflicts": 8550,
      "Ġattacks": 8551,
      "Ġdivide": 8552,
      "Ġadmin": 8553,
      "axies": 8554,
      "Ġaxis": 8555,
      "Ġconclusion": 8556,
      "Ġmontana": 8557,
      "scale": 8558,
      "Ġlá»ģu": 8559,
      "Ġpocket": 8560,
      "Ġathlet": 8561,
      "Ġadvertising": 8562,
      "Ġpregnant": 8563,
      "Ġastonishing": 8564,
      "Ġshakespeare": 8565,
      "bj": 8566,
      "bá»ĳ": 8567,
      "fish": 8568,
      "nel": 8569,
      "sao": 8570,
      "uh": 8571,
      "vas": 8572,
      "Ġcord": 8573,
      "Ġná»ĵng": 8574,
      "ĠsÃ¡o": 8575,
      "Ġsáº¯m": 8576,
      "Ġment": 8577,
      "Ġchile": 8578,
      "Ġgy": 8579,
      "Ġtrig": 8580,
      "chiáº¿c": 8581,
      "usive": 8582,
      "ĠgiÃ¡ng": 8583,
      "Ġuá»·": 8584,
      "Ġsection": 8585,
      "Ġlee": 8586,
      "ĠluÃ¢n": 8587,
      "Ġuns": 8588,
      "Ġfeature": 8589,
      "Ġ37": 8590,
      "Ġwhereas": 8591,
      "Ġdisorder": 8592,
      "Ġcrash": 8593,
      "Ġtransfer": 8594,
      "Ġ2002": 8595,
      "Ġdesigns": 8596,
      "Ġrá»Ĺng": 8597,
      "Ġcareful": 8598,
      "Ġregret": 8599,
      "Ġdepth": 8600,
      "Ġrefer": 8601,
      "ĠmÃ£nh": 8602,
      "Ġclasses": 8603,
      "Ġclassic": 8604,
      "Ġdirector": 8605,
      "Ġlargely": 8606,
      "Ġruá»Ļt": 8607,
      "Ġreached": 8608,
      "Ġrequired": 8609,
      "Ġsuffer": 8610,
      "Ġgalaxies": 8611,
      "Ġdropped": 8612,
      "Ġchristmas": 8613,
      "Ġtort": 8614,
      "conscious": 8615,
      "Ġsurrounded": 8616,
      "Ġportra": 8617,
      "Ġmathematical": 8618,
      "Ġjanuary": 8619,
      "Ġtaste": 8620,
      "Ġincentives": 8621,
      "Ġprototype": 8622,
      "Ġinnoc": 8623,
      "hythm": 8624,
      "lands": 8625,
      "uk": 8626,
      "Ġ+": 8627,
      "Ġcod": 8628,
      "ĠcÃłi": 8629,
      "ĠlÃ¹ng": 8630,
      "Ġbat": 8631,
      "Ġboring": 8632,
      "Ġpushing": 8633,
      "Ġdress": 8634,
      "Ġtruck": 8635,
      "Ġrh": 8636,
      "Ġphun": 8637,
      "isa": 8638,
      "ari": 8639,
      "Ġwhales": 8640,
      "Ġlikes": 8641,
      "Ġgiá»įt": 8642,
      "Ġlogo": 8643,
      "Ġseason": 8644,
      "Ġseptember": 8645,
      "ila": 8646,
      "Ġmá»ķ": 8647,
      "agos": 8648,
      "Ġsphere": 8649,
      "Ġoutcome": 8650,
      "Ġleap": 8651,
      "Ġluá»¹": 8652,
      "Ġnewton": 8653,
      "Ġclay": 8654,
      "Ġclothes": 8655,
      "Ġdiss": 8656,
      "Ġ46": 8657,
      "akers": 8658,
      "Ġinsurance": 8659,
      "Ġconservation": 8660,
      "Ġeconomist": 8661,
      "Ġpresence": 8662,
      "Ġyounger": 8663,
      "comes": 8664,
      "Ġneuron": 8665,
      "Ġdigit": 8666,
      "worth": 8667,
      "Ġcausing": 8668,
      "Ġreligions": 8669,
      "Ġbreathe": 8670,
      "Ġlatest": 8671,
      "Ġmathematic": 8672,
      "Ġfrankly": 8673,
      "Ġassume": 8674,
      "Ġhousing": 8675,
      "Ġtribe": 8676,
      "Ġdiagnosed": 8677,
      "Ġfingers": 8678,
      "iosity": 8679,
      "Ġmystery": 8680,
      "Ġibm": 8681,
      "Ġphrase": 8682,
      "Ġignorance": 8683,
      "thanks": 8684,
      "Ġtivi": 8685,
      "aeda": 8686,
      "bal": 8687,
      "nik": 8688,
      "power": 8689,
      "sm": 8690,
      "under": 8691,
      "Ġtat": 8692,
      "Ġtháº¥m": 8693,
      "Ġmike": 8694,
      "Ġhoney": 8695,
      "Ġváº¡ch": 8696,
      "Ġpapers": 8697,
      "anes": 8698,
      "Ġtriá»ĩt": 8699,
      "Ġrome": 8700,
      "Ġrating": 8701,
      "inate": 8702,
      "Ġvá»©t": 8703,
      "Ġears": 8704,
      "Ġwhale": 8705,
      "Ġquá»·": 8706,
      "Ġrebuild": 8707,
      "ette": 8708,
      "Ġwired": 8709,
      "Ġprost": 8710,
      "Ġprime": 8711,
      "Ġjam": 8712,
      "Ġjac": 8713,
      "tery": 8714,
      "Ġlá»¡": 8715,
      "Ġfract": 8716,
      "agh": 8717,
      "Ġorches": 8718,
      "umps": 8719,
      "about": 8720,
      "Ġbutton": 8721,
      "Ġleon": 8722,
      "Ġcompl": 8723,
      "Ġgrain": 8724,
      "Ġagencies": 8725,
      "Ġacid": 8726,
      "Ġcriminal": 8727,
      "Ġ1900": 8728,
      "Ġsmoke": 8729,
      "Ġlets": 8730,
      "Ġremove": 8731,
      "Ġafterno": 8732,
      "rah": 8733,
      "Ġbias": 8734,
      "ĠkÃ¬a": 8735,
      "toÃłn": 8736,
      "lets": 8737,
      "Ġsingapore": 8738,
      "Ġfoods": 8739,
      "Ġzone": 8740,
      "Ġvisible": 8741,
      "Ġbreaking": 8742,
      "Ġsigned": 8743,
      "Ġcollaps": 8744,
      "Ġretire": 8745,
      "Ġdeaths": 8746,
      "Ġfaced": 8747,
      "Ġencoun": 8748,
      "Ġpalm": 8749,
      "Ġapartment": 8750,
      "Ġmethods": 8751,
      "Ġcontinued": 8752,
      "Ġfortune": 8753,
      "Ġprosper": 8754,
      "Ġconcert": 8755,
      "Ġcustomers": 8756,
      "Ġacademic": 8757,
      "Ġstrangers": 8758,
      "Ġnurses": 8759,
      "basically": 8760,
      "Ġantibiotics": 8761,
      "Ġfurniture": 8762,
      "ben": 8763,
      "burg": 8764,
      "cest": 8765,
      "five": 8766,
      "tan": 8767,
      "Ġcas": 8768,
      "ĠsÃ©t": 8769,
      "ĠlÄĥng": 8770,
      "Ġchá»įc": 8771,
      "Ġpasse": 8772,
      "Ġgon": 8773,
      "onic": 8774,
      "ĠrÃ£": 8775,
      "thÃ¬": 8776,
      "Ġinject": 8777,
      "Ġyield": 8778,
      "Ġvá»Ŀ": 8779,
      "ione": 8780,
      "utan": 8781,
      "ĠxÄĥm": 8782,
      "Ġhamb": 8783,
      "obi": 8784,
      "Ġspoken": 8785,
      "Ġoutcomes": 8786,
      "illa": 8787,
      "enda": 8788,
      "Ġcompos": 8789,
      "Ġwherever": 8790,
      "Ġadoles": 8791,
      "Ġstruck": 8792,
      "Ġoffered": 8793,
      "aza": 8794,
      "Ġengagement": 8795,
      "Ġrecom": 8796,
      "Ġzimb": 8797,
      "Ġrobotic": 8798,
      "Ġcoral": 8799,
      "Ġchaos": 8800,
      "Ġhearts": 8801,
      "Ġdelhi": 8802,
      "Ġspeaker": 8803,
      "Ġinteractions": 8804,
      "Ġmaintain": 8805,
      "Ġsensors": 8806,
      "Ġ1999": 8807,
      "Ġviolent": 8808,
      "fram": 8809,
      "Ġschol": 8810,
      "Ġtanzan": 8811,
      "Ġhuynh": 8812,
      "Ġfemin": 8813,
      "Ġconcepts": 8814,
      "Ġembedd": 8815,
      "Ġreceive": 8816,
      "Ġrainforest": 8817,
      "Ġfascinated": 8818,
      "Ġefficiency": 8819,
      "Ġappreciate": 8820,
      "Ġgandhi": 8821,
      "ĠhÃ£m": 8822,
      "Ġrefriger": 8823,
      "Ġpasseng": 8824,
      "dam": 8825,
      "faces": 8826,
      "girl": 8827,
      "ries": 8828,
      "rors": 8829,
      "tes": 8830,
      "Ġáº©m": 8831,
      "Ġcards": 8832,
      "Ġni": 8833,
      "ĠÄĳc": 8834,
      "ĠmÃ³ng": 8835,
      "Ġmile": 8836,
      "ĠlÃ©o": 8837,
      "ĠbÃ³c": 8838,
      "Ġvert": 8839,
      "ĠvÃ²i": 8840,
      "Ġig": 8841,
      "Ġpour": 8842,
      "Ġgom": 8843,
      "atr": 8844,
      "quy": 8845,
      "Ġrod": 8846,
      "oto": 8847,
      "che": 8848,
      "thÃłnh": 8849,
      "Ġphosph": 8850,
      "Ġpharm": 8851,
      "Ġcá»į": 8852,
      "vey": 8853,
      "Ġquáº¡": 8854,
      "ĠxÃł": 8855,
      "opath": 8856,
      "ste": 8857,
      "Ġjaw": 8858,
      "Ġmail": 8859,
      "Ġbran": 8860,
      "Ġdiox": 8861,
      "Ġdrives": 8862,
      "eak": 8863,
      "Ġboom": 8864,
      "Ġevening": 8865,
      "uctive": 8866,
      "Ġwright": 8867,
      "Ġcolum": 8868,
      "ĠchuÃ´ng": 8869,
      "Ġtechnological": 8870,
      "Ġobst": 8871,
      "Ġevalu": 8872,
      "Ġelimin": 8873,
      "Ġbanks": 8874,
      "Ġcurve": 8875,
      "Ġfigures": 8876,
      "Ġsurely": 8877,
      "Ġchrom": 8878,
      "Ġrecorded": 8879,
      "Ġreaching": 8880,
      "Ġjeff": 8881,
      "Ġobsessed": 8882,
      "Ġevolutionary": 8883,
      "Ġcontribute": 8884,
      "Ġjournalist": 8885,
      "Ġteenagers": 8886,
      "Ġselection": 8887,
      "Ġapplication": 8888,
      "Ġcomponent": 8889,
      "Ġvolunteers": 8890,
      "Ġfunctions": 8891,
      "Ġnarrow": 8892,
      "Ġrecyc": 8893,
      "Ġlicense": 8894,
      "Ġdvd": 8895,
      "Ġfifth": 8896,
      "Ġdatab": 8897,
      "Ġfrozen": 8898,
      "cet": 8899,
      "eg": 8900,
      "mates": 8901,
      "mble": 8902,
      "ooth": 8903,
      "paren": 8904,
      "tÆ°á»Łng": 8905,
      "wk": 8906,
      "yard": 8907,
      "ĠtÃª": 8908,
      "Ġtight": 8909,
      "Ġcash": 8910,
      "Ġnin": 8911,
      "Ġaim": 8912,
      "Ġmary": 8913,
      "ĠlÆ°á»¡i": 8914,
      "ĠbÃª": 8915,
      "Ġbible": 8916,
      "Ġodd": 8917,
      "Ġkir": 8918,
      "ani": 8919,
      "anna": 8920,
      "lee": 8921,
      "Ġweigh": 8922,
      "Ġquarter": 8923,
      "usal": 8924,
      "usions": 8925,
      "Ġtag": 8926,
      "etnam": 8927,
      "iday": 8928,
      "Ġstack": 8929,
      "Ġancest": 8930,
      "stone": 8931,
      "Ġload": 8932,
      "ĠkhiÃªm": 8933,
      "Ġfrance": 8934,
      "Ġdeploy": 8935,
      "okes": 8936,
      "Ġorange": 8937,
      "Ġtá»±u": 8938,
      "Ġtube": 8939,
      "Ġtuá»·": 8940,
      "Ġhappier": 8941,
      "contr": 8942,
      "forward": 8943,
      "Ġ44": 8944,
      "Ġscore": 8945,
      "phones": 8946,
      "Ġinvite": 8947,
      "Ġrelate": 8948,
      "Ġhyper": 8949,
      "Ġbehave": 8950,
      "Ġexplos": 8951,
      "Ġcharity": 8952,
      "ierra": 8953,
      "Ġpopulations": 8954,
      "Ġguarant": 8955,
      "Ġstandards": 8956,
      "Ġequation": 8957,
      "Ġlimits": 8958,
      "Ġsilver": 8959,
      "Ġstatement": 8960,
      "Ġpractices": 8961,
      "Ġexisted": 8962,
      "Ġphotography": 8963,
      "Ġtraveled": 8964,
      "Ġtouched": 8965,
      "Ġtranslate": 8966,
      "Ġdistributed": 8967,
      "iveness": 8968,
      "Ġhistorical": 8969,
      "Ġseeds": 8970,
      "Ġwolfram": 8971,
      "Ġintuitive": 8972,
      "Ġcommitment": 8973,
      "Ġprecisely": 8974,
      "Ġhemis": 8975,
      "engine": 8976,
      "Ġingredients": 8977,
      "Ġpoorest": 8978,
      "Ġdiplom": 8979,
      "Ġafternoon": 8980,
      "Ġembedded": 8981,
      "parency": 8982,
      "100": 8983,
      "báº£n": 8984,
      "gers": 8985,
      "láº¥y": 8986,
      "oven": 8987,
      "spe": 8988,
      "ĠÃ¡i": 8989,
      "Ġcd": 8990,
      "Ġbá»ĳc": 8991,
      "Ġcháº±m": 8992,
      "Ġkem": 8993,
      "Ġpione": 8994,
      "Ġdub": 8995,
      "ingu": 8996,
      "owered": 8997,
      "Ġtack": 8998,
      "Ġdop": 8999,
      "Ġchá»Ľp": 9000,
      "Ġattr": 9001,
      "Ġmá»³": 9002,
      "aine": 9003,
      "Ġplenty": 9004,
      "Ġlui": 9005,
      "pping": 9006,
      "Ġnowhere": 9007,
      "Ġclus": 9008,
      "Ġneedle": 9009,
      "ologically": 9010,
      "Ġflip": 9011,
      "Ġflood": 9012,
      "Ġvietnam": 9013,
      "Ġinstant": 9014,
      "Ġimaging": 9015,
      "Ġzoom": 9016,
      "Ġcharlie": 9017,
      "Ġelections": 9018,
      "Ġparas": 9019,
      "Ġcheaper": 9020,
      "Ġcuriosity": 9021,
      "Ġstewart": 9022,
      "aneously": 9023,
      "Ġadvoc": 9024,
      "Ġassist": 9025,
      "Ġabsor": 9026,
      "Ġmeetings": 9027,
      "Ġangle": 9028,
      "Ġimprov": 9029,
      "Ġdisturb": 9030,
      "Ġ2012": 9031,
      "Ġfeeding": 9032,
      "Ġcombined": 9033,
      "Ġvolume": 9034,
      "Ġpupp": 9035,
      "Ġachieved": 9036,
      "Ġcaptured": 9037,
      "nghÄ©a": 9038,
      "Ġlinked": 9039,
      "Ġfixed": 9040,
      "etti": 9041,
      "Ġtribes": 9042,
      "Ġipod": 9043,
      "Ġdramatically": 9044,
      "Ġsplit": 9045,
      "Ġneuroscience": 9046,
      "Ġbrooklyn": 9047,
      "Ġinequality": 9048,
      "Ġscotland": 9049,
      "ĠvÃµng": 9050,
      "Ġbicycle": 9051,
      "Ġhydro": 9052,
      "Ġfossil": 9053,
      "Ġstretch": 9054,
      "Ġchromos": 9055,
      "Ġattribut": 9056,
      "aurs": 9057,
      "bits": 9058,
      "called": 9059,
      "eo": 9060,
      "fg": 9061,
      "mod": 9062,
      "rid": 9063,
      "ye": 9064,
      "zler": 9065,
      "Ġ000": 9066,
      "Ġtenn": 9067,
      "Ġcats": 9068,
      "Ġnáº¿p": 9069,
      "Ġaward": 9070,
      "Ġsed": 9071,
      "Ġbá»ĵi": 9072,
      "Ġpump": 9073,
      "Ġgáº¡ch": 9074,
      "ĠnhÃ³c": 9075,
      "Ġtrillion": 9076,
      "only": 9077,
      "Ġtong": 9078,
      "Ġngáº©n": 9079,
      "thiáº¿t": 9080,
      "Ġink": 9081,
      "inction": 9082,
      "iters": 9083,
      "itors": 9084,
      "Ġbeer": 9085,
      "ĠÄĳÃ³m": 9086,
      "ura": 9087,
      "Ġrail": 9088,
      "Ġdozen": 9089,
      "erences": 9090,
      "Ġate": 9091,
      "Ġextr": 9092,
      "Ġtech": 9093,
      "ends": 9094,
      "Ġwanting": 9095,
      "Ġbuff": 9096,
      "Ġluá»ĵng": 9097,
      "Ġenemy": 9098,
      "Ġgram": 9099,
      "Ġworker": 9100,
      "Ġclint": 9101,
      "Ġcoach": 9102,
      "Ġmoore": 9103,
      "ĠÄĳoáº¡t": 9104,
      "Ġcrying": 9105,
      "Ġherself": 9106,
      "Ġgenius": 9107,
      "Ġflies": 9108,
      "chnology": 9109,
      "rence": 9110,
      "Ġexploration": 9111,
      "hips": 9112,
      "Ġparaly": 9113,
      "Ġcheese": 9114,
      "Ġrooms": 9115,
      "Ġextent": 9116,
      "Ġextinct": 9117,
      "Ġtested": 9118,
      "Ġnhiá»ħu": 9119,
      "Ġsuccessfully": 9120,
      "Ġincreases": 9121,
      "Ġantar": 9122,
      "Ġexpectations": 9123,
      "Ġaccessible": 9124,
      "Ġ1984": 9125,
      "Ġhungry": 9126,
      "Ġcounty": 9127,
      "Ġparkinson": 9128,
      "Ġinstruments": 9129,
      "Ġarabic": 9130,
      "Ġoptimistic": 9131,
      "Ġcelebrate": 9132,
      "Ġoccurred": 9133,
      "Ġdestroyed": 9134,
      "Ġhawai": 9135,
      "Ġsenior": 9136,
      "Ġpalestine": 9137,
      "Ġunclear": 9138,
      "Ġjesus": 9139,
      "Ġvirginia": 9140,
      "Ġdopamine": 9141,
      "25": 9142,
      "80": 9143,
      "bing": 9144,
      "báº¯t": 9145,
      "cence": 9146,
      "gia": 9147,
      "lies": 9148,
      "Ġtill": 9149,
      "Ġtháº¯t": 9150,
      "Ġmatt": 9151,
      "Ġhut": 9152,
      "Ġicon": 9153,
      "Ġwound": 9154,
      "Ġku": 9155,
      "Ġkiss": 9156,
      "Ġdá»ĭp": 9157,
      "erge": 9158,
      "Ġtoler": 9159,
      "ĠngÆ°ng": 9160,
      "cher": 9161,
      "Ġcá»ĵ": 9162,
      "icious": 9163,
      "Ġstations": 9164,
      "Ġraising": 9165,
      "sex": 9166,
      "stein": 9167,
      "Ġcáº£ng": 9168,
      "ĠhoÃłnh": 9169,
      "Ġabandon": 9170,
      "Ġjord": 9171,
      "Ġnelson": 9172,
      "agram": 9173,
      "ivered": 9174,
      "Ġlux": 9175,
      "Ġarthur": 9176,
      "iá»ħu": 9177,
      "Ġdisney": 9178,
      "berry": 9179,
      "interest": 9180,
      "roll": 9181,
      "Ġcarl": 9182,
      "Ġdecline": 9183,
      "Ġcolumb": 9184,
      "Ġremains": 9185,
      "Ġremoved": 9186,
      "Ġtedglobal": 9187,
      "Ġengaging": 9188,
      "Ġimagined": 9189,
      "Ġrobust": 9190,
      "Ġfool": 9191,
      "Ġoldest": 9192,
      "Ġnative": 9193,
      "ĠÄĳÃ´la": 9194,
      "Ġguide": 9195,
      "Ġprotest": 9196,
      "Ġprofit": 9197,
      "Ġreference": 9198,
      "Ġhousehold": 9199,
      "Ġrising": 9200,
      "Ġanticip": 9201,
      "Ġtemp": 9202,
      "Ġprotected": 9203,
      "Ġsilent": 9204,
      "Ġoccasion": 9205,
      "Ġerad": 9206,
      "Ġvillages": 9207,
      "Ġrocket": 9208,
      "nghá»ĩ": 9209,
      "anyway": 9210,
      "Ġappears": 9211,
      "Ġclinic": 9212,
      "Ġtitle": 9213,
      "related": 9214,
      "Ġaspects": 9215,
      "Ġsurgeon": 9216,
      "ĠkiÃªng": 9217,
      "Ġolympic": 9218,
      "Ġteszler": 9219,
      "Ġtasmanian": 9220,
      "Ġanthrop": 9221,
      "Ġelephant": 9222,
      "Ġwelcome": 9223,
      "Ġexecut": 9224,
      "Ġmarathon": 9225,
      "Ġobstac": 9226,
      "bá»ĩnh": 9227,
      "bling": 9228,
      "field": 9229,
      "house": 9230,
      "ss": 9231,
      "tom": 9232,
      "Ġáº¥u": 9233,
      "Ġnets": 9234,
      "Äĳi": 9235,
      "ĠÄĳÃºc": 9236,
      "ĠÄĳuá»ĳi": 9237,
      "Ġsá»į": 9238,
      "Ġbá»ĥ": 9239,
      "Ġpenn": 9240,
      "ĠgáºŃy": 9241,
      "Ġgel": 9242,
      "Ġdust": 9243,
      "erom": 9244,
      "Ġtries": 9245,
      "nhagen": 9246,
      "eness": 9247,
      "chris": 9248,
      "Ġandrew": 9249,
[...]
