{
  "version": "1.0",
  "truncation": null,
  "padding": null,
  "added_tokens": [
    {
      "id": 0,
      "content": "<pad>",
      "single_word": false,
      "lstrip": false,
      "rstrip": false,
      "normalized": false,
      "special": true
    },
    {
      "id": 1,
      "content": "<sos>",
      "single_word": false,
      "lstrip": false,
      "rstrip": false,
      "normalized": false,
      "special": true
    },
    {
      "id": 2,
      "content": "<eos>",
      "single_word": false,
      "lstrip": false,
      "rstrip": false,
      "normalized": false,
      "special": true
    },
    {
      "id": 3,
      "content": "<unk>",
      "single_word": false,
      "lstrip": false,
      "rstrip": false,
      "normalized": false,
      "special": true
    }
  ],
  "normalizer": null,
  "pre_tokenizer": {
    "type": "ByteLevel",
    "add_prefix_space": true,
    "trim_offsets": true,
    "use_regex": true
  },
  "post_processor": null,
  "decoder": {
    "type": "ByteLevel",
    "add_prefix_space": true,
    "trim_offsets": true,
    "use_regex": true
  },
  "model": {
    "type": "BPE",
    "dropout": null,
    "unk_token": "<unk>",
    "continuing_subword_prefix": null,
    "end_of_word_suffix": null,
    "fuse_unk": false,
    "byte_fallback": false,
    "ignore_merges": false,
    "vocab": {
      "<pad>": 0,
      "<sos>": 1,
      "<eos>": 2,
      "<unk>": 3,
      "!": 4,
      "\"": 5,
      "#": 6,
      "$": 7,
      "%": 8,
      "&": 9,
      "'": 10,
      "(": 11,
      ")": 12,
      "*": 13,
      "+": 14,
      ",": 15,
      "-": 16,
      ".": 17,
      "/": 18,
      "0": 19,
      "1": 20,
      "2": 21,
      "3": 22,
      "4": 23,
      "5": 24,
      "6": 25,
      "7": 26,
      "8": 27,
      "9": 28,
      ":": 29,
      ";": 30,
      "<": 31,
      "=": 32,
      ">": 33,
      "?": 34,
      "@": 35,
      "A": 36,
      "B": 37,
      "C": 38,
      "D": 39,
      "E": 40,
      "F": 41,
      "G": 42,
      "H": 43,
      "I": 44,
      "J": 45,
      "K": 46,
      "L": 47,
      "M": 48,
      "N": 49,
      "O": 50,
      "P": 51,
      "Q": 52,
      "R": 53,
      "S": 54,
      "T": 55,
      "U": 56,
      "V": 57,
      "W": 58,
      "X": 59,
      "Y": 60,
      "Z": 61,
      "[": 62,
      "\\": 63,
      "]": 64,
      "^": 65,
      "_": 66,
      "`": 67,
      "a": 68,
      "b": 69,
      "c": 70,
      "d": 71,
      "e": 72,
      "f": 73,
      "g": 74,
      "h": 75,
      "i": 76,
      "j": 77,
      "k": 78,
      "l": 79,
      "m": 80,
      "n": 81,
      "o": 82,
      "p": 83,
      "q": 84,
      "r": 85,
      "s": 86,
      "t": 87,
      "u": 88,
      "v": 89,
      "w": 90,
      "x": 91,
      "y": 92,
      "z": 93,
      "{": 94,
      "|": 95,
      "}": 96,
      "~": 97,
      "¡": 98,
      "¢": 99,
      "£": 100,
      "¤": 101,
      "¥": 102,
      "¦": 103,
      "§": 104,
      "¨": 105,
      "©": 106,
      "ª": 107,
      "«": 108,
      "¬": 109,
      "®": 110,
      "¯": 111,
      "°": 112,
      "±": 113,
      "²": 114,
      "³": 115,
      "´": 116,
      "µ": 117,
      "¶": 118,
      "·": 119,
      "¸": 120,
      "¹": 121,
      "º": 122,
      "»": 123,
      "¼": 124,
      "½": 125,
      "¾": 126,
      "¿": 127,
      "À": 128,
      "Á": 129,
      "Â": 130,
      "Ã": 131,
      "Ä": 132,
      "Å": 133,
      "Æ": 134,
      "Ç": 135,
      "È": 136,
      "É": 137,
      "Ê": 138,
      "Ë": 139,
      "Ì": 140,
      "Í": 141,
      "Î": 142,
      "Ï": 143,
      "Ð": 144,
      "Ñ": 145,
      "Ò": 146,
      "Ó": 147,
      "Ô": 148,
      "Õ": 149,
      "Ö": 150,
      "×": 151,
      "Ø": 152,
      "Ù": 153,
      "Ú": 154,
      "Û": 155,
      "Ü": 156,
      "Ý": 157,
      "Þ": 158,
      "ß": 159,
      "à": 160,
      "á": 161,
      "â": 162,
      "ã": 163,
      "ä": 164,
      "å": 165,
      "æ": 166,
      "ç": 167,
      "è": 168,
      "é": 169,
      "ê": 170,
      "ë": 171,
      "ì": 172,
      "í": 173,
      "î": 174,
      "ï": 175,
      "ð": 176,
      "ñ": 177,
      "ò": 178,
      "ó": 179,
      "ô": 180,
      "õ": 181,
      "ö": 182,
      "÷": 183,
      "ø": 184,
      "ù": 185,
      "ú": 186,
      "û": 187,
      "ü": 188,
      "ý": 189,
      "þ": 190,
      "ÿ": 191,
      "Ā": 192,
      "ā": 193,
      "Ă": 194,
      "ă": 195,
      "Ą": 196,
      "ą": 197,
      "Ć": 198,
      "ć": 199,
      "Ĉ": 200,
      "ĉ": 201,
      "Ċ": 202,
      "ċ": 203,
      "Č": 204,
      "č": 205,
      "Ď": 206,
      "ď": 207,
      "Đ": 208,
      "đ": 209,
      "Ē": 210,
      "ē": 211,
      "Ĕ": 212,
      "ĕ": 213,
      "Ė": 214,
      "ė": 215,
      "Ę": 216,
      "ę": 217,
      "Ě": 218,
      "ě": 219,
      "Ĝ": 220,
      "ĝ": 221,
      "Ğ": 222,
      "ğ": 223,
      "Ġ": 224,
      "ġ": 225,
      "Ģ": 226,
      "ģ": 227,
      "Ĥ": 228,
      "ĥ": 229,
      "Ħ": 230,
      "ħ": 231,
      "Ĩ": 232,
      "ĩ": 233,
      "Ī": 234,
      "ī": 235,
      "Ĭ": 236,
      "ĭ": 237,
      "Į": 238,
      "į": 239,
      "İ": 240,
      "ı": 241,
      "Ĳ": 242,
      "ĳ": 243,
      "Ĵ": 244,
      "ĵ": 245,
      "Ķ": 246,
      "ķ": 247,
      "ĸ": 248,
      "Ĺ": 249,
      "ĺ": 250,
      "Ļ": 251,
      "ļ": 252,
      "Ľ": 253,
      "ľ": 254,
      "Ŀ": 255,
      "ŀ": 256,
      "Ł": 257,
      "ł": 258,
      "Ń": 259,
      "á»": 260,
      "áº": 261,
      "Ġt": 262,
      "ng": 263,
      "Ġc": 264,
      "ĠÄ": 265,
      "Ãł": 266,
      "ĠÄĳ": 267,
      "Ġn": 268,
      "há»": 269,
      "hÃ": 270,
      "Ġv": 271,
      "Ġl": 272,
      "Æ°": 273,
      "Ġm": 274,
      "Ġ,": 275,
      "Ġb": 276,
      "Ã³": 277,
      "Ġ.": 278,
      "Ġk": 279,
      "iá»": 280,
      "háº": 281,
      "Ã´": 282,
      "Ã¡": 283,
      "nh": 284,
      "Ġs": 285,
      "Ġtr": 286,
      "Æ°á»": 287,
      "áº¡": 288,
      "á»Ļ": 289,
      "Ġng": 290,
      "Ġg": 291,
      "ĠlÃł": 292,
      "áº¿": 293,
      "Ã´i": 294,
      "ĠvÃł": 295,
      "Ġh": 296,
      "Ġthá»": 297,
      "áº£": 298,
      "Ġr": 299,
      "Ãª": 300,
      "hÃº": 301,
      "á»Ļt": 302,
      "Ġp": 303,
      "Ġd": 304,
      "ĠÄĳá»": 305,
      "Ġnh": 306,
      "ĠtÃ´i": 307,
      "qu": 308,
      "Ġcá»": 309,
      "Ġvá»": 310,
      "Ġmá»Ļt": 311,
      "áº¥": 312,
      "ĠcÃ³": 313,
      "ĠkhÃ": 314,
      "Ġch": 315,
      "hÃºng": 316,
      "Ãªn": 317,
      "ĠcÃ¡": 318,
      "Ġth": 319,
      "Ã¬": 320,
      "¯ng": 321,
      "Ġnhá»": 322,
      "á»ĳ": 323,
      "iá»ĩ": 324,
      "Ã¢": 325,
      "Ġhá»": 326,
      "Ŀi": 327,
      "Æ¡": 328,
      "Ľi": 329,
      "Ġnhá»¯ng": 330,
      "Ġtháº": 331,
      "ĠchÃºng": 332,
      "Ġcá»§": 333,
      "Ġcá»§a": 334,
      "´ng": 335,
      "iáº¿": 336,
      "Ġtá»": 337,
      "ĠT": 338,
      "áº¡n": 339,
      "Ġta": 340,
      "Ã£": 341,
      "ĠcÃ¡c": 342,
      "ĠnÃł": 343,
      "Ġqu": 344,
      "iá»ģ": 345,
      "ĠkhÃ´ng": 346,
      "Æ°á»£": 347,
      "ĠnÃ³": 348,
      "á»Ł": 349,
      "áº§": 350,
      "ong": 351,
      "áºŃ": 352,
      "ĠV": 353,
      "Æ°á»Ŀi": 354,
      "á»±": 355,
      "Ġgi": 356,
      "ĠÄĳÃ³": 357,
      "Ġx": 358,
      "ĠC": 359,
      "iá»ģu": 360,
      "ĠngÆ°á»Ŀi": 361,
      "Ġbáº¡n": 362,
      "Ġkh": 363,
      "áº¥t": 364,
      "áº¡i": 365,
      "ĠN": 366,
      "Ġtrong": 367,
      "Ġthá»ĥ": 368,
      "Æ°á»£c": 369,
      "uy": 370,
      "ĠnÃły": 371,
      "ĠÄĳÃ£": 372,
      "Ġchá»": 373,
      "Äĥ": 374,
      "ĠÄĳÆ°á»£c": 375,
      "ĠthÃ": 376,
      "ĠnhÆ°": 377,
      "Ġ&": 378,
      "Ã¢y": 379,
      "Ġhá»į": 380,
      "ot": 381,
      "Ġpháº": 382,
      "Ġvá»Ľi": 383,
      "Ġngh": 384,
      "quot": 385,
      "Ġcho": 386,
      "an": 387,
      "ĠVÃł": 388,
      "ay": 389,
      "Ġra": 390,
      "Ġsáº": 391,
      "Ġsá»±": 392,
      "Ġgiá»": 393,
      "ĠmÃł": 394,
      "ĠlÃłm": 395,
      "ch": 396,
      "Ã´ng": 397,
      "áº±": 398,
      "Ġnháº": 399,
      "ang": 400,
      "ĠphÃ": 401,
      "Ġá»Ł": 402,
      "iÃªn": 403,
      "á»į": 404,
      "áº±ng": 405,
      "ĠÄĳá»ĥ": 406,
      "Ġcáº£": 407,
      "Ġvá»ģ": 408,
      "ĠÄĲ": 409,
      "ÃŃ": 410,
      "Ã¬nh": 411,
      "Ġsáº½": 412,
      "Ġbá»": 413,
      "uá»ĳ": 414,
      "iá»ĥ": 415,
      "Æ¡n": 416,
      "iáº¿t": 417,
      "£i": 418,
      "ĠÄĳiá»ģu": 419,
      "Ä©": 420,
      "áº·": 421,
      "Ġtháº¿": 422,
      "Ġlá»": 423,
      "Ġho": 424,
      "on": 425,
      "Æ°á»Ľ": 426,
      "áº¿n": 427,
      "áº§u": 428,
      "Ġtá»«": 429,
      "áº¯": 430,
      "Ġkhi": 431,
      "Ãłnh": 432,
      "©ng": 433,
      "ĠB": 434,
      "uyá»": 435,
      "anh": 436,
      "ĠkhÃ¡": 437,
      "Ã¹": 438,
      "ĠTÃ´i": 439,
      "Ġsá»ĳ": 440,
      "inh": 441,
      "±c": 442,
      "ĠnÃ³i": 443,
      "áº§n": 444,
      "ao": 445,
      "Ġdá»": 446,
      "ai": 447,
      "Ġcháº": 448,
      "©c": 449,
      "iá»ĩn": 450,
      "ĠchÃ": 451,
      "Ãº": 452,
      "ĠnÄĥ": 453,
      "Ġ1": 454,
      "ĠÄĳáº¿n": 455,
      "Ġtháº¥": 456,
      "ĠhÃ": 457,
      "Ġ?": 458,
      "Ġpháº£i": 459,
      "ĠM": 460,
      "ĠnhÃ": 461,
      "iá»ĩc": 462,
      "Æ°á»Ŀ": 463,
      "Æ°á»Ľc": 464,
      "Ã²": 465,
      "Ġráº±ng": 466,
      "ĠvÃło": 467,
      "ĠgÃ¬": 468,
      "Æ°á»Ŀng": 469,
      "ĠÄĳang": 470,
      "Ġmá»": 471,
      "Ãłn": 472,
      "Ġviá»ĩc": 473,
      "ĠH": 474,
      "au": 475,
      "Ġláº¡i": 476,
      "ĠváºŃ": 477,
      "Ġtháº¥y": 478,
      "ĠnghÄ©": 479,
      "ĠÄĳá»Ļ": 480,
      "Ġráº¥t": 481,
      "ĠcÃ¡ch": 482,
      "Ã½": 483,
      "in": 484,
      "ĠhÆ¡n": 485,
      "Ġná»": 486,
      "áº¥y": 487,
      "Ġnhiá»ģu": 488,
      "Æ°Æ¡": 489,
      "Ãłi": 490,
      "¢n": 491,
      "Ġháº": 492,
      "áº£n": 493,
      "Ã¹ng": 494,
      "Ġthá»±c": 495,
      "iáº¿n": 496,
      "ĠÄĳáº§u": 497,
      "Æ°Æ¡ng": 498,
      "ĠÄĳÃ¢y": 499,
      "¥t": 500,
      "Ġ-": 501,
      "Ġhá»įc": 502,
      "Ġcon": 503,
      "ĠkhÃ¡c": 504,
      "ķi": 505,
      "Ġchá»ī": 506,
      "Ã¢u": 507,
      "á»įi": 508,
      "áº¡o": 509,
      "Ġsá»": 510,
      "áº¿u": 511,
      "ĠcÃ´ng": 512,
      "ĠtrÃªn": 513,
      "á»ĵ": 514,
      "ĠcÃ¡i": 515,
      "ĠvÃ¬": 516,
      "ĠnÃło": 517,
      "Ã¡c": 518,
      "Ġbiáº¿t": 519,
      "áº¿t": 520,
      "ĠChÃºng": 521,
      "ĠÄĳá»ģ": 522,
      "ung": 523,
      "ĠchÃŃ": 524,
      "uyá»ĩ": 525,
      "Ãłng": 526,
      "Ġphá»": 527,
      "iá»ĩu": 528,
      "ĠphÃ¡": 529,
      "ĠNh": 530,
      "ĠnÄĥm": 531,
      "Å©ng": 532,
      "Æ¡i": 533,
      "ĠÄĳi": 534,
      "uá»ĳn": 535,
      "Ġthá»©": 536,
      "Ġdá»¥": 537,
      "ĠthÃłnh": 538,
      "ĠK": 539,
      "á»Ļc": 540,
      "Ġ:": 541,
      "Ġ--": 542,
      "áº¯t": 543,
      "ĠcÅ©ng": 544,
      "ĠnhÃł": 545,
      "ĠNhÆ°": 546,
      "uá»Ļc": 547,
      "ĳng": 548,
      "Ġbá»ĭ": 549,
      "Ġto": 550,
      "áº»": 551,
      "Ġkho": 552,
      "Ġquan": 553,
      "ĠS": 554,
      "Ġmuá»ĳn": 555,
      "ĠtháºŃ": 556,
      "ĠsÃ¡": 557,
      "eo": 558,
      "em": 559,
      "ĠnháºŃ": 560,
      "Ġtrá»": 561,
      "ĠmÃ¬nh": 562,
      "¯a": 563,
      "hi": 564,
      "ĠnhÆ°ng": 565,
      "Ġnháº¥t": 566,
      "Ġká»": 567,
      "ĠNhÆ°ng": 568,
      "Æ°á»Ł": 569,
      "Ġtáº¡o": 570,
      "áº«": 571,
      "Æ°á»Łng": 572,
      "ĠÄĳá»Ļng": 573,
      "Ġtá»ĳ": 574,
      "Ġgiá»Ľi": 575,
      "ĠchÃŃnh": 576,
      "ĠA": 577,
      "Ġlo": 578,
      "ĠnÃªn": 579,
      "Ġgiáº£": 580,
      "ĠváºŃy": 581,
      "á»Łi": 582,
      "áº·t": 583,
      "§n": 584,
      "ģn": 585,
      "Ãły": 586,
      "Ġlá»Ľ": 587,
      "¬nh": 588,
      "Ãªu": 589,
      "ĠhÃ¬nh": 590,
      "Æ°a": 591,
      "Ã²n": 592,
      "ıi": 593,
      "iá»ĥu": 594,
      "Ġgiá»Ŀ": 595,
      "Ġhiá»ĩn": 596,
      "ĠtÃŃ": 597,
      "Ã¢n": 598,
      "Ġsá»ĳng": 599,
      "uyá»ĩn": 600,
      "Ġtiáº¿": 601,
      "Ġtáº¡i": 602,
      "Ġnáº¿u": 603,
      "ĠnháºŃn": 604,
      "Ġmá»įi": 605,
      "ĠL": 606,
      "Æ°á»£ng": 607,
      "áº¥n": 608,
      "Ã¡i": 609,
      "er": 610,
      "uá»": 611,
      "Ġquy": 612,
      "¬n": 613,
      "Ġcuá»Ļc": 614,
      "Ã©": 615,
      "Ġcáº§n": 616,
      "Ġ2": 617,
      "Ġhay": 618,
      "ĥn": 619,
      "am": 620,
      "Ã¡n": 621,
      "Ġtá»±": 622,
      "áº·c": 623,
      "áºŃp": 624,
      "ĠthÃ¬": 625,
      "ĠTr": 626,
      "uáºŃ": 627,
      "á»ĵi": 628,
      "Ã¢m": 629,
      "ĠÄĳá»ĭ": 630,
      "00": 631,
      "Ġtáº¥t": 632,
      "ĠÄĳá»ĵ": 633,
      "ĠÃ´ng": 634,
      "Ġáº¥y": 635,
      "Ġbá»Łi": 636,
      "en": 637,
      "Ġtá»Ľi": 638,
      "Ġtheo": 639,
      "Ġbáº¯t": 640,
      "ĠcÃ²n": 641,
      "ĠnhÃ¬n": 642,
      "iá»ĥm": 643,
      "Ġlá»Ľn": 644,
      "ĠÄĳÃ¡": 645,
      "ĠcÃ¹ng": 646,
      "Ġbáº±ng": 647,
      "ĠÃ½": 648,
      "áº«n": 649,
      "Ġcáº£m": 650,
      "iá»ĥn": 651,
      "Ġtáº¿": 652,
      "Ãºc": 653,
      "Ġsau": 654,
      "Ġdá»¥ng": 655,
      "ĠtháºŃt": 656,
      "Ġcá»©": 657,
      "ĠlÃªn": 658,
      "ĠgiÃ¡": 659,
      "Ġanh": 660,
      "ĠcÃ¢u": 661,
      "Ġbáº£n": 662,
      "Ġtin": 663,
      "Ġsao": 664,
      "Ġqua": 665,
      "Ġthá»Ŀi": 666,
      "Ġchuyá»ĩn": 667,
      "Ġkhá»": 668,
      "Ġtrá»Ł": 669,
      "Ġbá»Ļ": 670,
      "iá»ĩm": 671,
      "ĠG": 672,
      "ĠngÃły": 673,
      "Ã´n": 674,
      "ĠnhÃ¢n": 675,
      "ĠcÆ¡": 676,
      "ĠP": 677,
      "Ġhá»Ļ": 678,
      "Ġsinh": 679,
      "Ġkháº": 680,
      "Äĥn": 681,
      "ĳi": 682,
      "Ĺi": 683,
      "¥c": 684,
      "ĠthÃŃ": 685,
      "áº£ng": 686,
      "áº£nh": 687,
      "ĠnÄĥng": 688,
      "Ġsá»Ń": 689,
      "ĠtrÆ°á»Ľc": 690,
      "ĠphÃ¡t": 691,
      "ĠnÆ°á»Ľc": 692,
      "ia": 693,
      "ĠÄĳá»ķi": 694,
      "iá»ĩt": 695,
      "ĠNÃ³": 696,
      "ĠtoÃłn": 697,
      "ĠmÃ¡": 698,
      "Ġpháº§n": 699,
      "Ã¬m": 700,
      "ĠnÆ¡i": 701,
      "Ġgia": 702,
      "Ġdo": 703,
      "ĠthÃ´ng": 704,
      "Ġá»": 705,
      "Ġdá»±": 706,
      "ĠtÃ¬m": 707,
      "Ġnhau": 708,
      "ar": 709,
      "Ġthay": 710,
      "Ġmá»Ľi": 711,
      "Ġy": 712,
      "Ġváº¥n": 713,
      "ĠÄĳá»ĭnh": 714,
      "Ġhá»ĩ": 715,
      "ĠtrÆ°á»Ŀng": 716,
      "Ġnghá»": 717,
      "ĠD": 718,
      "ĠnhiÃªn": 719,
      "ĠtÃŃnh": 720,
      "Ġph": 721,
      "iá»ħ": 722,
      "ĠÄĲÃ¢y": 723,
      "ĠtrÃ¬nh": 724,
      "Ġmáº¡": 725,
      "Ġtá»ĳt": 726,
      "ĠtÆ°á»Łng": 727,
      "Ġkáº¿t": 728,
      "Äĥng": 729,
      "ĠváºŃt": 730,
      "ĠhÃłng": 731,
      "ĠlÃ½": 732,
      "Ġhá»ıi": 733,
      "¿t": 734,
      "Ġháº¡": 735,
      "ĠBáº¡n": 736,
      "£p": 737,
      "ĠmÃ¡y": 738,
      "Ġáº£nh": 739,
      "á»±c": 740,
      "uáºŃt": 741,
      "á»ĳi": 742,
      "ĠthÃ¡": 743,
      "Ġhá»£p": 744,
      "ĠÄĲÃ³": 745,
      "áº¡t": 746,
      "Ġmáº·t": 747,
      "¯c": 748,
      "Ġtiáº¿p": 749,
      "ĠhÃłnh": 750,
      "Ġná»¯a": 751,
      "Ġkinh": 752,
      "³ng": 753,
      "Ġgian": 754,
      "Ġthá»©c": 755,
      "Ġhá»Ļi": 756,
      "Ġtrá»į": 757,
      "Ġvá»ĭ": 758,
      "Ġthiáº¿t": 759,
      "Ġchiáº¿": 760,
      "áº¹": 761,
      "áº¥u": 762,
      "uyÃªn": 763,
      "Ńa": 764,
      "Ġrá»ĵi": 765,
      "Ãło": 766,
      "Ġxem": 767,
      "áºŃy": 768,
      "Ġliá»ĩu": 769,
      "Ġtrá»įng": 770,
      "ĠhoÃ¡": 771,
      "uá»ķi": 772,
      "ĠthÃŃch": 773,
      "ĠcÃ´": 774,
      "ĠR": 775,
      "áº©": 776,
      "áº£o": 777,
      "ĩnh": 778,
      "ĠÄĳá»ĵng": 779,
      "iá»ħn": 780,
      "Ġgiáº£i": 781,
      "iÃªu": 782,
      "Ġtráº»": 783,
      "ĠlÆ°á»£ng": 784,
      "Ġhai": 785,
      "ĠÄĳo": 786,
      "ĠquÃ¡": 787,
      "Ġai": 788,
      "Ġngá»": 789,
      "ĠthÆ°á»Ŀng": 790,
      "Ġbáº¥t": 791,
      "ĠÃ": 792,
      "ĠvÃłi": 793,
      "ĠÄĳá»ģu": 794,
      "áº½": 795,
      "ĠNg": 796,
      "ĠtiÃªn": 797,
      "ĠMá»Ļt": 798,
      "ĠÄĳá»ĳi": 799,
      "ĠsÃ¡ng": 800,
      "á»Ļng": 801,
      "Ġtráº£": 802,
      "Ġhiá»ĥu": 803,
      "ĠtÃ¢m": 804,
      "Ġnay": 805,
      "Ġloáº¡i": 806,
      "Ġ3": 807,
      "Ġgiá»ĳng": 808,
      "Ġláº§n": 809,
      "áº£y": 810,
      "ĠVÃ¬": 811,
      "Ġcá»©u": 812,
      "ĠthÃº": 813,
      "Ġbao": 814,
      "Ġbá»ĩnh": 815,
      "Ġthá»ĳng": 816,
      "ĭch": 817,
      "Ã²ng": 818,
      "ĠviÃªn": 819,
      "Ãºng": 820,
      "£y": 821,
      "Ġnghá»ĩ": 822,
      "iá»ģn": 823,
      "ĠÄĳiá»ĥm": 824,
      "ĠnghÄ©a": 825,
      "hÃºt": 826,
      "Ġngo": 827,
      "Ġgá»įi": 828,
      "ĠCÃ³": 829,
      "Ġnhá»ı": 830,
      "ĠVáºŃy": 831,
      "áº¯ng": 832,
      "ĠHá»į": 833,
      "ĠÄĳÆ°a": 834,
      "ĠtÆ°Æ¡ng": 835,
      "ĠhoÃłn": 836,
      "Ġxu": 837,
      "Ġnghiá»ĩm": 838,
      "Ġquáº£": 839,
      "ĠtÃ¡c": 840,
      "ĠÄĳÆ°á»Ŀng": 841,
      "uyá»ĥn": 842,
      "or": 843,
      "Ġváº«n": 844,
      "uyá»ĩt": 845,
      "Ġcá»ĳ": 846,
      "Å©": 847,
      "Ġxáº£y": 848,
      "Äĥm": 849,
      "uyá»ģn": 850,
      "Ġchiáº¿c": 851,
      "á»ĳc": 852,
      "ĠthuáºŃt": 853,
      "Ġbiá»ĩt": 854,
      "ĠdÃ¹ng": 855,
      "ĠNhá»": 856,
      "ĠÃŃ": 857,
      "ĠÄĳáº¡i": 858,
      "Ġhoáº·c": 859,
      "al": 860,
      "ĠTháº": 861,
      "ĠbÃªn": 862,
      "Ġtá»«ng": 863,
      "ĠdÃ¢n": 864,
      "Ġtriá»ĥn": 865,
      "ĠlÃºc": 866,
      "Ġchuyá»ĥn": 867,
      "iá»ĩp": 868,
      "Ã£o": 869,
      "Ġdiá»ħn": 870,
      "ĠÄĲiá»ģu": 871,
      "Ġtrá»ĭ": 872,
      "Ġquyáº¿t": 873,
      "«ng": 874,
      "ĠNhá»¯ng": 875,
      "Ġcao": 876,
      "Ġnghe": 877,
      "Ġthu": 878,
      "Ãºp": 879,
      "ĠÄĥn": 880,
      "Ġdáº¡": 881,
      "uÃ´n": 882,
      "Ġtuyá»ĩt": 883,
      "uá»ĳc": 884,
      "áº¯c": 885,
      "ĠMá»": 886,
      "Ġmá»Ĺi": 887,
      "Ġtá»ķ": 888,
      "Ġcáº§u": 889,
      "Ġkhoáº£ng": 890,
      "uá»ĳi": 891,
      "Ġvi": 892,
      "ĠNáº¿u": 893,
      "Ġlá»±c": 894,
      "Ġkáº¿": 895,
      "Ġcháº¥t": 896,
      "Ġphá»¥": 897,
      "ĠKhÃ": 898,
      "ĠÃ¡": 899,
      "ĠbÃ¡": 900,
      "áº¥p": 901,
      "im": 902,
      "Ġlá»Ŀi": 903,
      "ĠgiÃ¡o": 904,
      "ĠgiÃºp": 905,
      "ĠÄĳáº¥t": 906,
      "es": 907,
      "²ng": 908,
      "Ġem": 909,
      "ĠÆ¡n": 910,
      "Ãµ": 911,
      "©a": 912,
      "Ġtrung": 913,
      "Ġchá»§": 914,
      "áº©n": 915,
      "Ġbáº£o": 916,
      "Ġkháº£": 917,
      "Ġná»¯": 918,
      "Ġtiáº¿n": 919,
      "os": 920,
      "Ġháº¿t": 921,
      "ĠphÃ²ng": 922,
      "Æ°á»Ľi": 923,
      "ĠchÆ°a": 924,
      "el": 925,
      "ĠtÃ¬nh": 926,
      "ĠnghiÃªn": 927,
      "ĠQ": 928,
      "Ġxuáº¥t": 929,
      "Æ°á»Ľng": 930,
      "Ġxe": 931,
      "Ġmang": 932,
      "ĠliÃªn": 933,
      "ĠphÃ¢n": 934,
      "ĠAnh": 935,
      "Ġtranh": 936,
      "ĠbÃłi": 937,
      "ĠkhÃ³": 938,
      "ĠÄĳÆ¡n": 939,
      "áº¯n": 940,
      "ĠnÃ£o": 941,
      "ĠtáºŃp": 942,
      "Ġtruyá»ģn": 943,
      "¥p": 944,
      "Ġtuá»ķi": 945,
      "ĠÄĳÃºng": 946,
      "ĠphÆ°Æ¡ng": 947,
      "ĠÄĳiá»ĩn": 948,
      "ĠbÃ¬nh": 949,
      "ĠÄĳáº·t": 950,
      "©m": 951,
      "ĠtÆ°á»£ng": 952,
      "iÃª": 953,
      "Ġtay": 954,
      "Ġbiáº¿n": 955,
      "uá»ĳng": 956,
      "ĠKhi": 957,
      "uá»ĵ": 958,
      "Ġtiá»ģn": 959,
      "Ġgiá»¯a": 960,
      "ĠJ": 961,
      "ĠyÃªu": 962,
      "Ġsáº£n": 963,
      "Ġtiáº¿ng": 964,
      "©p": 965,
      "ĠhÃ£y": 966,
      "ĠCh": 967,
      "Ġngay": 968,
      "Ġtho": 969,
      "ĠbÃ©": 970,
      "áº·p": 971,
      "Ġquyá»": 972,
      "Ġkhoa": 973,
      "áºŃn": 974,
      "áº¡c": 975,
      "ĠKhÃ´ng": 976,
      "áº§m": 977,
      "ĠI": 978,
      "Ġláº¥y": 979,
      "Ġbá»ı": 980,
      "ĠtrÃŃ": 981,
      "et": 982,
      "Ġnháº¡": 983,
      "ĠxÃ£": 984,
      "Ġgáº§n": 985,
      "Ġhoáº¡t": 986,
      "Ġchiáº¿n": 987,
      "Ġkhu": 988,
      "Ġthá»ĭ": 989,
      "ĠÄĳÃ¡ng": 990,
      "ĠsÃ¡ch": 991,
      "Ġphi": 992,
      "ĠTh": 993,
      "ĠTrong": 994,
      "Ġ5": 995,
      "Ġpháº©m": 996,
      "ĠthÃ¢n": 997,
      "ĠphÃ¡p": 998,
      "Ġhiá»ĩu": 999,
      "ĠkhÃŃ": 1000,
      "Ġcuá»ĳi": 1001,
      "ĠÄĳá»Ŀi": 1002,
      "ĠchÆ¡i": 1003,
      "Ã£y": 1004,
      "ĠCÃ¡c": 1005,
      "Ġmáº¥t": 1006,
      "Ġminh": 1007,
      "uyáº¿t": 1008,
      "Ġsá»©c": 1009,
      "á»Ļi": 1010,
      "Ġká»ĥ": 1011,
      "Ġso": 1012,
      "ĠhÃ´": 1013,
      "ĠMá»¹": 1014,
      "įng": 1015,
      "uá»ĵn": 1016,
      "Ġmáº¡nh": 1017,
      "ĠkÃŃ": 1018,
      "at": 1019,
      "Ġnghiá»ĩp": 1020,
      "Ã³c": 1021,
      "is": 1022,
      "ĠngoÃłi": 1023,
      "Ġ4": 1024,
      "Ġdáº«n": 1025,
      "ĠÃŃt": 1026,
      "ĠÄĳáº¥y": 1027,
      "ĠláºŃp": 1028,
      "ĠtÃłi": 1029,
      "ĠmÃ´": 1030,
      "¯p": 1031,
      "ĠloÃłi": 1032,
      "«a": 1033,
      "Ġká»³": 1034,
      "Ġbá»©c": 1035,
      "ĠE": 1036,
      "Ġtinh": 1037,
      "Ġrá»": 1038,
      "ĠluÃ´n": 1039,
      "uáºŃn": 1040,
      "Ġdá»±ng": 1041,
      "ĠxÃ¢y": 1042,
      "ĠtiÃªu": 1043,
      "Ã©t": 1044,
      "Ġphá»ĳ": 1045,
      "Ġchá»į": 1046,
      "ĠtÃªn": 1047,
      "ĠvÃ´": 1048,
      "Ġcá»Ļng": 1049,
      "ĠvÄĥn": 1050,
      "ĠÃ¢m": 1051,
      "Ġchá»©ng": 1052,
      "Ġtá»Ń": 1053,
      "ĠThá»": 1054,
      "ic": 1055,
      "ĠhÆ°á»Ľng": 1056,
      "Ġhá»ĵ": 1057,
      "áºŃt": 1058,
      "Ġnháº¡c": 1059,
      "Ġthá»Ń": 1060,
      "ĠHÃ£y": 1061,
      "Ġviáº¿t": 1062,
      "ĠÄĳÃ¢u": 1063,
      "Ġchá»©c": 1064,
      "ap": 1065,
      "ĠnguyÃªn": 1066,
      "Ġkiáº¿n": 1067,
      "Ġquá»ĳc": 1068,
      "ua": 1069,
      "Ġá»©ng": 1070,
      "Ġvá»Ŀi": 1071,
      "Ġchá»įn": 1072,
      "Ġgiáº£n": 1073,
      "Ġquyá»ģn": 1074,
      "Ġcháº¿": 1075,
      "Ġba": 1076,
      "ĠÄĳáº·c": 1077,
      "ĠtÆ°": 1078,
      "Ġbá»ĳ": 1079,
      "Ġcháº¿t": 1080,
      "ĠbÃło": 1081,
      "iáº¿m": 1082,
      "Ġmáº¡ng": 1083,
      "ĠW": 1084,
      "Ġcáº¥p": 1085,
      "Ġsuy": 1086,
      "ĠbÃł": 1087,
      "Ġtriá»ĩu": 1088,
      "ĠtÄĥng": 1089,
      "³m": 1090,
      "Ġtháº§n": 1091,
      "Ġvá»¥": 1092,
      "Ġná»ģn": 1093,
      "ĠÄĳáº¡o": 1094,
      "Ġláº½": 1095,
      "ĠÄĳá»©a": 1096,
      "ĠF": 1097,
      "£n": 1098,
      "il": 1099,
      "áº¡p": 1100,
      "ĠsÄ©": 1101,
      "Ġkhá»ıi": 1102,
      "ĠmÃłu": 1103,
      "ĠX": 1104,
      "Ġchu": 1105,
      "as": 1106,
      "á»Ń": 1107,
      "Ġdi": 1108,
      "áº£m": 1109,
      "Ġcá»¥": 1110,
      "ĠÄĳÃ¡nh": 1111,
      "Ġmáº¹": 1112,
      "Ġgáº·p": 1113,
      "ĠthÃ¡ng": 1114,
      "¯n": 1115,
      "ĠTháº¿": 1116,
      "ĠdÆ°á»Ľi": 1117,
      "Ġtá»ĵ": 1118,
      "ĠÄĲá»": 1119,
      "it": 1120,
      "ol": 1121,
      "ªm": 1122,
      "áº¥m": 1123,
      "ĠchÃºt": 1124,
      "Ġxuá»ĳng": 1125,
      "áº¹p": 1126,
      "Ġ..": 1127,
      "Ġgáº¯ng": 1128,
      "Ã¢ng": 1129,
      "áº§y": 1130,
      "áºŃu": 1131,
      "ĠphÃ©p": 1132,
      "Ġquanh": 1133,
      "ĠnhÃ³m": 1134,
      "Ġmá»Ł": 1135,
      "Ġdá»ĭch": 1136,
      "Ġkhiáº¿n": 1137,
      "Ġvá»±c": 1138,
      "ĠxÃ¡c": 1139,
      "Ġdá»¯": 1140,
      "Ġ10": 1141,
      "ĠBÃ¢y": 1142,
      "Ġ%": 1143,
      "ĠÃ¡n": 1144,
      "Ġchia": 1145,
      "Ġbay": 1146,
      "000": 1147,
      "¢u": 1148,
      "ĠthÃªm": 1149,
      "Ã¡ch": 1150,
      "Ġtham": 1151,
      "ĠtrÃ²": 1152,
      "ĠÃĶ": 1153,
      "Ġthuyáº¿t": 1154,
      "Ġmá»©c": 1155,
      "Ġnhanh": 1156,
      "Ġquay": 1157,
      "ĠchÃº": 1158,
      "ĠthÃ´": 1159,
      "Ġdáº¡ng": 1160,
      "ĠHo": 1161,
      "ĠgÃ¢y": 1162,
      "Ġcháº¡": 1163,
      "ĠÄĳÃłn": 1164,
      "ĠrÃµ": 1165,
      "Ġcá»±c": 1166,
      "Ġvá»įng": 1167,
      "Ã³ng": 1168,
      "Ġnguá»ĵn": 1169,
      "ĠvÃ¹ng": 1170,
      "Ġhoáº¡": 1171,
      "Ġcáº£nh": 1172,
      "áº«u": 1173,
      "ĠbÃ¢y": 1174,
      "ĠdÃ¹": 1175,
      "ĠÄĳáº¹p": 1176,
      "ĠbÃ¡o": 1177,
      "Ġtá»¥c": 1178,
      "Ã¨": 1179,
      "ĠgiÃ¡c": 1180,
      "Ġcháº¯c": 1181,
      "ĠsÃ¡t": 1182,
      "ĠcÃłng": 1183,
      "Ġxa": 1184,
      "Ġdá»ħ": 1185,
      "ĠvÃŃ": 1186,
      "ĠÄĳá»§": 1187,
      "ĠcÃ¢y": 1188,
      "áº¯m": 1189,
      "iÃªng": 1190,
      "Ã¡t": 1191,
      "Ġtrang": 1192,
      "Ġ20": 1193,
      "Ġnhá»Ľ": 1194,
      "ĠphÃŃa": 1195,
      "Ġ19": 1196,
      "ĠO": 1197,
      "Ġphim": 1198,
      "Ġ...": 1199,
      "Ġbiá»ĥu": 1200,
      "ĠhÆ°á»Łng": 1201,
      "ĠhÃ´m": 1202,
      "Æ°u": 1203,
      "ĠÄĳoáº¡n": 1204,
      "Ġduy": 1205,
      "Ġchá»ĭ": 1206,
      "Ġcháº³ng": 1207,
      "ĠvÅ©": 1208,
      "ĠkÃ¬": 1209,
      "Ġkiá»ĥm": 1210,
      "ĠtrÃ¡i": 1211,
      "le": 1212,
      "Ġláº¡": 1213,
      "ĠthÆ°Æ¡ng": 1214,
      "ĠQuá»ĳc": 1215,
      "ter": 1216,
      "§ng": 1217,
      "ĠdÃłi": 1218,
      "ĠÃĶng": 1219,
      "ĠvÃ²ng": 1220,
      "ĠluáºŃn": 1221,
      "Ġngá»¯": 1222,
      "Ġpháº£n": 1223,
      "ĠÄĳÃ´i": 1224,
      "ĠTrung": 1225,
      "Ńt": 1226,
      "Ġtu": 1227,
      "ĠÄĳáº§y": 1228,
      "uyáº¿n": 1229,
      "Ġdá»¥c": 1230,
      "Ġlá»£i": 1231,
      "Ġkia": 1232,
      "áº£i": 1233,
      "Ġgiáº£m": 1234,
      "ĠtháºŃm": 1235,
      "Ġthuá»ĳc": 1236,
      "Ġkiáº¿m": 1237,
      "Ġty": 1238,
      "Ġvu": 1239,
      "Ġvá»«a": 1240,
      "ĠchÃ¢n": 1241,
      "ĠtÃŃch": 1242,
      "ĠChÃ": 1243,
      "ĠtrÄĥm": 1244,
      "ĠthÆ°": 1245,
      "us": 1246,
      "ĠthÃ´i": 1247,
      "apos": 1248,
      "om": 1249,
      "and": 1250,
      "Ġ6": 1251,
      "ac": 1252,
      "Æ°á»¡": 1253,
      "Ġ;": 1254,
      "ĠÄĳÃ¬nh": 1255,
      "iáº¿u": 1256,
      "Ġháº¡n": 1257,
      "ĠbÆ°á»Ľc": 1258,
      "Ġgiao": 1259,
      "Ãłu": 1260,
      "Ġlá»ĩ": 1261,
      "Ġlai": 1262,
      "ĠNgÆ°á»Ŀi": 1263,
      "ĠÄĳÃ´": 1264,
      "ĠsÃ¢u": 1265,
      "ĠTáº¡i": 1266,
      "ĠmÃ´i": 1267,
      "Ġtá»ī": 1268,
      "ĠtoÃ¡n": 1269,
      "Ġtráº£i": 1270,
      "Ġtrá»Ŀi": 1271,
      "iá»ģm": 1272,
      "Ġtá»ĵn": 1273,
      "Ġdiá»ĩn": 1274,
      "Ġrá»Ļng": 1275,
      "Ġphá»¥c": 1276,
      "ĠY": 1277,
      "Ġgiá»¯": 1278,
      "ĠBá»Łi": 1279,
      "Ġthanh": 1280,
      "įc": 1281,
      "ĠmÃ£": 1282,
      "ĠlÃ£": 1283,
      "ĠdÃłnh": 1284,
      "ĠGiá»": 1285,
      "Ġná»ĳi": 1286,
      "ĠÄĳá»ĭa": 1287,
      "ĠÄĳoÃ¡n": 1288,
      "ĠlÃ²ng": 1289,
      "ED": 1290,
      "ad": 1291,
      "Ġthuá»Ļc": 1292,
      "uá»ĳt": 1293,
      "ĠriÃªng": 1294,
      "Ġchi": 1295,
      "Ġvá»ĩ": 1296,
      "Ġtáº¡p": 1297,
      "Ġháº§": 1298,
      "Ġsá»£": 1299,
      "Ġmáº¯t": 1300,
      "ĠÄĳá»©ng": 1301,
      "Ġmá»¥c": 1302,
      "Ġ!": 1303,
      "Ġná»ķi": 1304,
      "Ġphá»§": 1305,
      "Ġdáº¡y": 1306,
      "Ġváº»": 1307,
      "Ġsai": 1308,
      "ĠÄĳáº¡t": 1309,
      "ĠnghÃ": 1310,
      "ĠcÄĥn": 1311,
      "ĠthÃºc": 1312,
      "Ġká»¹": 1313,
      "ĠluáºŃt": 1314,
      "ĠPhi": 1315,
      "Ġsáº»": 1316,
      "Ġtá»ĳi": 1317,
      "Ġmáº«u": 1318,
      "Ġxung": 1319,
      "Ġlá»ĭch": 1320,
      "ob": 1321,
      "ur": 1322,
      "ĠÃ¡nh": 1323,
      "ĠbÃłn": 1324,
      "ĠÄĳá»įc": 1325,
      "Ġlá»Ľp": 1326,
      "ĠCáº£m": 1327,
      "Ġtrá»¥": 1328,
      "Ġká»·": 1329,
      "Ġyáº¿u": 1330,
      "Ġkháº¯p": 1331,
      "ĠTED": 1332,
      "Ġ&#": 1333,
      "ĠChá»": 1334,
      "Ġvui": 1335,
      "ĠtrÃ´ng": 1336,
      "Ġkhoáº»": 1337,
      "Ġtiáº¿t": 1338,
      "ĠchÆ°Æ¡ng": 1339,
      "Ġáº": 1340,
      "Ġngá»ĵi": 1341,
      "Ġcháº¡y": 1342,
      "ĠgÃ¡i": 1343,
      "Ãłm": 1344,
      "ĠphÃŃ": 1345,
      "ĠphÃºt": 1346,
      "ĠcáºŃu": 1347,
      "Ġcuá»ĳn": 1348,
      "Ġ7": 1349,
      "Ġmá»ĳi": 1350,
      "ĠkÃ©": 1351,
      "áº·ng": 1352,
      "Ġbuá»ķi": 1353,
      "Ġsáº¯c": 1354,
      "Ġtrá»£": 1355,
      "Æ°á»£t": 1356,
      "hÃºc": 1357,
      "Ġcháº¯n": 1358,
      "ĠVá»": 1359,
      "Ġháº§u": 1360,
      "Ġsuá»ĳt": 1361,
      "Ġ9": 1362,
      "Ġkiá»ĩn": 1363,
      "ew": 1364,
      "ra": 1365,
      "Ġbiá»ĥn": 1366,
      "ĠtrÃºc": 1367,
      "á»±a": 1368,
      "Ġ8": 1369,
      "ĠsÆ°": 1370,
      "ĠmÃ¹": 1371,
      "Ġchung": 1372,
      "--": 1373,
      "li": 1374,
      "ĠngÃ´n": 1375,
      "Ġmua": 1376,
      "Ġdoanh": 1377,
      "oo": 1378,
      "Ġkiá»ĥu": 1379,
      "ĠTáº¥t": 1380,
      "ĠVÃ¢ng": 1381,
      "Ġcá»Ńa": 1382,
      "ĠváºŃn": 1383,
      "eb": 1384,
      "ĠcÃ¡nh": 1385,
      "ĠkhÃ¡m": 1386,
      "Ġsá»Ł": 1387,
      "Ġngáº¡c": 1388,
      "Ġtháº£": 1389,
      "ĠxÃºc": 1390,
      "ĠxÃ©t": 1391,
      "oi": 1392,
      "ĠrÃłng": 1393,
      "ĠlÃ¢u": 1394,
      "Ġthoáº¡i": 1395,
      "Ġtuáº§n": 1396,
      "ĠbÃ¡n": 1397,
      "Ġpháº¡": 1398,
      "áº±m": 1399,
      "Ġhiá»ĥm": 1400,
      "ĠSau": 1401,
      "áº¡nh": 1402,
      "Ġhá»ĵi": 1403,
      "ĠchÃ¡": 1404,
      "ĠlÃŃ": 1405,
      "Ġcáº¥u": 1406,
      "Ġnhiá»ĩm": 1407,
      "Ãºt": 1408,
      "Ġ200": 1409,
      "Æ°á»¡ng": 1410,
      "Ġphá»©c": 1411,
      "ĠthiÃªn": 1412,
      "ĠkÃŃch": 1413,
      "Ġcung": 1414,
      "á»įn": 1415,
      "Ä©nh": 1416,
      "Ġnáº±m": 1417,
      "ĠchuyÃªn": 1418,
      "Ġchá»¥p": 1419,
      "ĠnháºŃp": 1420,
      "Ġla": 1421,
      "Ġá»ŀ": 1422,
      "ĠbÃ³ng": 1423,
      "áº¡ng": 1424,
      "uá»·": 1425,
      "ĠngÃ´i": 1426,
      "Ġkáº»": 1427,
      "ĠthÃ¡i": 1428,
      "Ġcáº¡nh": 1429,
      "¯u": 1430,
      "ĠÄĳá»Ļc": 1431,
      "Ġviá»ĩn": 1432,
      "ĠbÄĥng": 1433,
      "Ġháº¡nh": 1434,
      "Ġhá»¯u": 1435,
      "Ġchá»©": 1436,
      "áº¿p": 1437,
      "Ġghi": 1438,
      "ĠhoÃł": 1439,
      "ĠngÃłnh": 1440,
      "Ġchá»Ĺ": 1441,
      "ĠtrÆ°á»Łng": 1442,
      "Ġváº½": 1443,
      "Ġkhá»§ng": 1444,
      "ĠtháºŃp": 1445,
      "ĠÃŃch": 1446,
      "µn": 1447,
      "Ġgá»": 1448,
      "iÃªm": 1449,
      "ĠÄĳa": 1450,
      "ıng": 1451,
      "ĠTá»": 1452,
      "Ġchuáº©n": 1453,
      "ĠXin": 1454,
      "ĠbÃ¡c": 1455,
      "Ġtra": 1456,
      "ĠquÃ½": 1457,
      "ĠphÃºc": 1458,
      "Ġthiáº¿u": 1459,
      "ĠCÃ´": 1460,
      "Ġchá»ĭu": 1461,
      "ĠTháºŃt": 1462,
      "Ġhá»ģ": 1463,
      "ĠháºŃ": 1464,
      "Ġláº¯ng": 1465,
      "Ġxanh": 1466,
      "Ġtáº¥m": 1467,
      "áº©y": 1468,
      "Ġtá»ĩ": 1469,
      "Ġsáºµn": 1470,
      "Ġniá»ĩm": 1471,
      "ĠhÃ¡": 1472,
      "ri": 1473,
      "ĠNÃªn": 1474,
      "ĠnhiÃªu": 1475,
      "Ġtá»©c": 1476,
      "Ġpháº¡m": 1477,
      "ĠkhÄĥn": 1478,
      "ĠSá»±": 1479,
      "Ġtrai": 1480,
      "ĠThÃ": 1481,
      "ĠtÃ¡i": 1482,
      "ĠÄĳau": 1483,
      "Ã¡m": 1484,
      "un": 1485,
      "Ġan": 1486,
      "Ġsáº¯p": 1487,
      "ĠhÆ¡i": 1488,
      "Ãºi": 1489,
      "ĠÃ¡p": 1490,
      "ĠCÃ¡i": 1491,
      "ro": 1492,
      "ĠGiá»Ŀ": 1493,
      "Ġdung": 1494,
      "ĠThá»±c": 1495,
      "¥n": 1496,
      "Ġmáº·c": 1497,
      "áº¡ch": 1498,
      "uÃ´i": 1499,
      "Ġchá»ĳng": 1500,
      "Ġláº¡c": 1501,
      "Ã³n": 1502,
      "Ġtháº¥t": 1503,
      "Ãªm": 1504,
      "á»ĳng": 1505,
      "á»įc": 1506,
      "Ġcáº£i": 1507,
      "Ġdá»±a": 1508,
      "Ġmong": 1509,
      "ĠchÃ¢u": 1510,
      "ĠÄĳÃ³ng": 1511,
      "Ġxá»Ń": 1512,
      "ĠGi": 1513,
      "Ġlá»±a": 1514,
      "Ġtrá»±c": 1515,
      "á»Ļn": 1516,
      "á»Ńi": 1517,
      "ĠÄĳá»Ļi": 1518,
      "ĠSt": 1519,
      "«u": 1520,
      "Ġban": 1521,
      "ĠbÃ¡nh": 1522,
      "ĠháºŃu": 1523,
      "Ġcá»ķ": 1524,
      "Ġxin": 1525,
      "Ġtá»ķng": 1526,
      "Ġkhá»ķ": 1527,
      "Ġná»Ļi": 1528,
      "ĠNew": 1529,
      "Ġ30": 1530,
      "Ġkháº¯c": 1531,
      "ĠvÆ°á»£t": 1532,
      "Æ°ng": 1533,
      "ĠmáºŃt": 1534,
      "Ġda": 1535,
      "Ġtá»·": 1536,
      "Ġxáº¥u": 1537,
      "Ġtáº§m": 1538,
      "ĠchÄĥm": 1539,
      "Ġáº©n": 1540,
      "Ġdáº§n": 1541,
      "ĠDo": 1542,
      "Ġgá»Ńi": 1543,
      "ĠtoÃł": 1544,
      "ĠÃ´": 1545,
      "ĠLÃłm": 1546,
      "ÃŃch": 1547,
      "ĠÃĿ": 1548,
      "©t": 1549,
      "Ġthiá»ĩn": 1550,
      "Ġhá»©ng": 1551,
      "Ġháº¡t": 1552,
      "Ġáº¤": 1553,
      "Ġtim": 1554,
      "¨o": 1555,
      "ĠÄĲá»ĥ": 1556,
      "re": 1557,
      "Ġnguy": 1558,
      "Ġhy": 1559,
      "ĠQu": 1560,
      "ĠIn": 1561,
      "ĠlÆ°u": 1562,
      "Ġdanh": 1563,
      "Ġáº¤n": 1564,
      "Ġtráº¡ng": 1565,
      "Ġnhiá»ĩt": 1566,
      "Ġchiá»ģu": 1567,
      "ĠlÃ£nh": 1568,
      "ĠÄĳá»Ļt": 1569,
      "Ġw": 1570,
      "Ġ100": 1571,
      "Ġdáº§u": 1572,
      "Ã¡nh": 1573,
      "Ġniá»ģm": 1574,
      "Ġtá»Ļi": 1575,
      "ĠnghÃ¨o": 1576,
      "Ġnhiá»ħ": 1577,
      "net": 1578,
      "Ġnáº¡n": 1579,
      "Ġngoáº¡i": 1580,
      "ĠcáºŃn": 1581,
      "Ġsang": 1582,
      "ĠU": 1583,
      "Ġ50": 1584,
      "Ġcha": 1585,
      "Ġchá»¯a": 1586,
      "ĠkÃŃnh": 1587,
      "Ġin": 1588,
      "Ġ15": 1589,
      "Ġung": 1590,
      "Ġxo": 1591,
      "ĠÄĳáº¥u": 1592,
      "ĠChÃ¢u": 1593,
      "Ġdáº¥u": 1594,
      "ĠÄĲá»Ļ": 1595,
      "ĠÄĳáº©y": 1596,
      "ĠCon": 1597,
      "id": 1598,
      "Ġá»ķ": 1599,
      "Ġná»Ĺi": 1600,
      "Ã¡ng": 1601,
      "Ġmay": 1602,
      "ĠkÃ©o": 1603,
      "ĠghÃ": 1604,
      "ĠhÃ¡t": 1605,
      "op": 1606,
      "ĠthÃ¡ch": 1607,
      "Ġthá»§": 1608,
      "Ġngá»§": 1609,
      "Ã£i": 1610,
      "ĠÄĳen": 1611,
      "ĠkhÃ¡ch": 1612,
      "ah": 1613,
      "Ġtáº¯c": 1614,
      "Ġgiáº¥y": 1615,
      "ĠngÆ°á»£c": 1616,
      "ĠnuÃ´i": 1617,
      "Ġgá»ĵ": 1618,
      "ĠÆ°á»Ľc": 1619,
      "Ġbáº¡i": 1620,
      "īnh": 1621,
      "Łi": 1622,
      "±ng": 1623,
      "iáº¿p": 1624,
      "ĠTÃ¢y": 1625,
      "Ġchá»¯": 1626,
      "Ġquáº£n": 1627,
      "ĠsoÃ¡t": 1628,
      "Ġlá»Ĺi": 1629,
      "Ġtiá»ĩn": 1630,
      "ĠlÄ©nh": 1631,
      "Ġcá»Ń": 1632,
      "Ġnghi": 1633,
      "Ġná»Ńa": 1634,
      "ig": 1635,
      "Ġmáº¯c": 1636,
      "ist": 1637,
      "Ġhoáº¡ch": 1638,
      "ĠmÆ¡": 1639,
      "ran": 1640,
      "Ġgá»ĵm": 1641,
      "ĵng": 1642,
      "Ġnhiá»ħm": 1643,
      "ĠdÆ°Æ¡ng": 1644,
      "Ġtá»ĳc": 1645,
      "Ġkhiá»ĥn": 1646,
      "Ġtáº£": 1647,
      "ĠsÃ³c": 1648,
      "Ġcáº¯t": 1649,
      "ĠgÃ³": 1650,
      "Ãµi": 1651,
      "ternet": 1652,
      "ĠMá»įi": 1653,
      "Ġháº¡i": 1654,
      "Ġgiáº¿t": 1655,
      "ĠAl": 1656,
      "Ġtháº³ng": 1657,
      "ĠÄĳá»ĳ": 1658,
      "Ġquen": 1659,
      "Ġkhá»ĳi": 1660,
      "ed": 1661,
      "ĠbÃły": 1662,
      "ĠdÃ¢y": 1663,
      "ĠquÃ¢n": 1664,
      "ĠCháº": 1665,
      "ĠtÃłu": 1666,
      "Ġca": 1667,
      "ĠÄĳÃ´ng": 1668,
      "ĠÄĳÃŃch": 1669,
      "Ġchiáº¿u": 1670,
      "ĠlÆ°á»Ľi": 1671,
      "ĠÄĳá»©c": 1672,
      "ĠKá»": 1673,
      "Ġnhá»Ŀ": 1674,
      "Ġgen": 1675,
      "Ġtháº¥p": 1676,
      "ing": 1677,
      "ĠdÃ²ng": 1678,
      "ard": 1679,
      "ĠmÃª": 1680,
      "ag": 1681,
      "ĠÃĤ": 1682,
      "ĠChá»ī": 1683,
      "ĠcÆ°á»Ŀi": 1684,
      "ĠlÃ¡i": 1685,
      "Ġbáº§u": 1686,
      "Ġthi": 1687,
      "áº¯p": 1688,
      "Ġngá»Ŀ": 1689,
      "ĠcÆ°": 1690,
      "ĠÄĳÃªm": 1691,
      "ĠniÃªn": 1692,
      "ĠÄĳá»ķ": 1693,
      "ĠPháº": 1694,
      "ĠdÃłng": 1695,
      "ĠphÃ³ng": 1696,
      "th": 1697,
      "Ġkhai": 1698,
      "ĠsÃłng": 1699,
      "Ġhá»Ĺ": 1700,
      "Ġcháº·": 1701,
      "Ġngáº¯n": 1702,
      "Ġrá»ĳi": 1703,
      "Ġxáº¿p": 1704,
      "Ġcháº¥p": 1705,
      "Ġgá»ĳc": 1706,
      "ĠtáºŃn": 1707,
      "Ġgáº¥p": 1708,
      "á»ĵng": 1709,
      "Ġphong": 1710,
      "ĠÄĳem": 1711,
      "ĠnÃ´ng": 1712,
      "lo": 1713,
      "Ġ/": 1714,
      "ĠÄĳá»¡": 1715,
      "ĠVá»Ľi": 1716,
      "Ġbáº¡o": 1717,
      "ĠgiÃ¢y": 1718,
      "Ġláº¯m": 1719,
      "ĠsÃ¢n": 1720,
      "Ġká»ī": 1721,
      "ĠbÃŃ": 1722,
      "ho": 1723,
      "ĠtrÃ¡ch": 1724,
      "Ġgáº¯n": 1725,
      "Ġvai": 1726,
      "ĠcÃ¡o": 1727,
      "Ġbá»ĳn": 1728,
      "Ġ12": 1729,
      "ĠcÃ¢n": 1730,
      "ĠRá»ĵi": 1731,
      "91": 1732,
      "ton": 1733,
      "ĠÄĳá»£i": 1734,
      "ĠngÃłn": 1735,
      "ĠtÃ´n": 1736,
      "Ġsu": 1737,
      "93": 1738,
      "Ġpháº«u": 1739,
      "ey": 1740,
      "áº§ng": 1741,
      "ĠhÃłi": 1742,
      "ĠxuyÃªn": 1743,
      "ab": 1744,
      "Ńm": 1745,
      "ĠthÆ¡": 1746,
      "Ġnháº£y": 1747,
      "Ġchuyáº¿n": 1748,
      "ĠsiÃªu": 1749,
      "Ġhoa": 1750,
      "Ġdá»«ng": 1751,
      "Ġthá»¥": 1752,
      "uá»Ĺi": 1753,
      "Ńn": 1754,
      "ĠkÄ©": 1755,
      "ĠChÃº": 1756,
      "ĠmÃłn": 1757,
      "Ġnghá»ĭ": 1758,
      "ak": 1759,
      "Ġlao": 1760,
      "ĠkÃ½": 1761,
      "Ġweb": 1762,
      "Ġtáº§ng": 1763,
      "Ġgiai": 1764,
      "ĠÄĳáº£m": 1765,
      "Ġchim": 1766,
      "Ġáº£o": 1767,
      "Ġtáº£i": 1768,
      "Ã¡o": 1769,
      "Ġháº¥p": 1770,
      "deo": 1771,
      "Ġo": 1772,
      "Ġvideo": 1773,
      "ĠMar": 1774,
      "Ġphá»ķ": 1775,
      "av": 1776,
      "Ã¨n": 1777,
      "ine": 1778,
      "ork": 1779,
      "Ġkhá»Łi": 1780,
      "ĠngÄĥn": 1781,
      "ĠTuy": 1782,
      "ĠPhÃ": 1783,
      "ĠtÃ¹": 1784,
      "Ġnháº¯c": 1785,
      "ĠJo": 1786,
      "han": 1787,
      "ĳn": 1788,
      "Ġrá»«ng": 1789,
      "³n": 1790,
      "ĠNam": 1791,
      "Ġchá»īnh": 1792,
      "¹ng": 1793,
      "ĠgÃ³c": 1794,
      "Ġtháº£i": 1795,
      "ĠkhÃ¡i": 1796,
      "ĠInternet": 1797,
      "oc": 1798,
      "ĠhÃºt": 1799,
      "ĠnghiÃªm": 1800,
      "ĠAi": 1801,
      "Ġhá»Ļp": 1802,
      "Ġluyá»ĩn": 1803,
      "ĠmÃ³n": 1804,
      "iáº¿ng": 1805,
      "ĠÄĲÆ°á»£c": 1806,
      "Ġnam": 1807,
      "ĠkÃª": 1808,
      "Ġá»ķn": 1809,
      "ĠÃĤu": 1810,
      "ĠlÃ¡": 1811,
      "ĠkhuÃ´n": 1812,
      "ĠgiÃłu": 1813,
      "ĠtÃŃn": 1814,
      "ĠYork": 1815,
      "son": 1816,
      "ĠcáºŃp": 1817,
      "Ġchuá»Ļt": 1818,
      "obot": 1819,
      "ĠVÃŃ": 1820,
      "ĠCÃ²n": 1821,
      "ģm": 1822,
      "ĠgiÃł": 1823,
      "Ġquá»": 1824,
      "Ġcoi": 1825,
      "Ġliá»ĩt": 1826,
      "ĠngÃ¢n": 1827,
      "ĠÄĳá»ı": 1828,
      "ĠÄĳÃ¡m": 1829,
      "Ġtáº¥n": 1830,
      "Ġtuyáº¿n": 1831,
      "ĠpháºŃn": 1832,
      "Ġtháº¯ng": 1833,
      "Ġtrá»«": 1834,
      "Ġtrao": 1835,
      "Ġ18": 1836,
      "ĠHoa": 1837,
      "ĠChÃºa": 1838,
      "ĠÄĳáº£o": 1839,
      "Ġhuá»·": 1840,
      "ĠTa": 1841,
      "Ġtai": 1842,
      "ĠCho": 1843,
      "ill": 1844,
      "ou": 1845,
      "Ġnáº·ng": 1846,
      "ĠmÃ´n": 1847,
      "Ġnhu": 1848,
      "Ġxá»": 1849,
      "Ġchá»©a": 1850,
      "Ġháº³n": 1851,
      "ĠTrÃ¡i": 1852,
      "ĠdáºŃy": 1853,
      "Ġmá»ģm": 1854,
      "ĠvÃ¢n": 1855,
      "ĠCÃ¢u": 1856,
      "ĠnÃ³ng": 1857,
      "Ġmáº¥y": 1858,
      "Ã³t": 1859,
      "ĠphÃ¹": 1860,
      "ĠchÃ³": 1861,
      "ĠNháº": 1862,
      "ĠBáº¯c": 1863,
      "ĠCÃ´ng": 1864,
      "Ġmáº¡ch": 1865,
      "ĠchÃ¡u": 1866,
      "ĠchÃ³ng": 1867,
      "Ġá»ĳng": 1868,
      "ĭp": 1869,
      "Ġmáº½": 1870,
      "Ġquyá»ĥn": 1871,
      "Ġ40": 1872,
      "ĠmÃ¹a": 1873,
      "ĠÄĳiá»ĥn": 1874,
      "Ġbuá»Ļc": 1875,
      "ĠsÃ³ng": 1876,
      "ĠtrÃ¹ng": 1877,
      "ĠdÆ°á»¡ng": 1878,
      "Ġthiá»ĩu": 1879,
      "ĠHiá»ĩn": 1880,
      "ĠmÃ¡u": 1881,
      "Ġtuá»": 1882,
      "ĠhÃ£i": 1883,
      "ein": 1884,
      "Ġlinh": 1885,
      "ĠkhÃ¡n": 1886,
      "£o": 1887,
      "ĠcÅ©": 1888,
      "Ġrá»Ŀi": 1889,
      "Ġtháº£o": 1890,
      "ĠsÆ¡": 1891,
      "áº¡m": 1892,
      "Ġchá»§ng": 1893,
      "Ġuá»ĳng": 1894,
      "ĠdÃµi": 1895,
      "ev": 1896,
      "ĠÄĳiÃªn": 1897,
      "ik": 1898,
      "Ġtáº£ng": 1899,
      "Ġrobot": 1900,
      "ĠNhÃ": 1901,
      "Ġchá»Ŀ": 1902,
      "Ġlá»ĵ": 1903,
      "Ġtá»ĵi": 1904,
      "ĠKá»³": 1905,
      "Ġlá»Ļ": 1906,
      "Ã²i": 1907,
      "ĠTá»«": 1908,
      "um": 1909,
      "ĠNhÃł": 1910,
      "Ġloáº¡n": 1911,
      "Ġláº§m": 1912,
      "Ġbuá»ĵn": 1913,
      "Ġvá»¯ng": 1914,
      "ĠÄĳÃ¡p": 1915,
      "Ġmáº¯n": 1916,
      "¥m": 1917,
      "ĠLiá»ĩu": 1918,
      "Ġsá»Ńa": 1919,
      "©u": 1920,
      "ĠkhÃ´": 1921,
      "ĠgÃ³p": 1922,
      "ĠthÆ°á»Łng": 1923,
      "ĠThÃ¡": 1924,
      "á»ĳt": 1925,
      "ie": 1926,
      "Ġlan": 1927,
      "ĠtÆ°á»Ŀng": 1928,
      "ĠtrÃ¡nh": 1929,
      "ĠRáº¥t": 1930,
      "Ġkhá»ķng": 1931,
      "ĠVÃło": 1932,
      "Ġ25": 1933,
      "Ġmiá»ħn": 1934,
      "Ġkhoáº£n": 1935,
      "ĠÄĳÃ³i": 1936,
      "ĠThá»©": 1937,
      "ĠÄĳÃ¨n": 1938,
      "ĠchÃłng": 1939,
      "ĠMá»Ĺi": 1940,
      "Ġláº¡nh": 1941,
      "Ġf": 1942,
      "Ġtá»ķn": 1943,
      "ich": 1944,
      "ĠmÃ¡i": 1945,
      "Ġá»§ng": 1946,
      "Ġbáº£ng": 1947,
      "ĠcÆ¡n": 1948,
      "Ġtráº¯ng": 1949,
      "Ġtá»Ļc": 1950,
      "Ġláº«n": 1951,
      "ord": 1952,
      "ow": 1953,
      "Ġmáº£nh": 1954,
      "ĠÄĳá»īnh": 1955,
      "áº¥c": 1956,
      "Ġdiá»ĩu": 1957,
      "ĠnÃºi": 1958,
      "Ġtá»Ŀ": 1959,
      "Ľm": 1960,
      "ĠÄĲÃ´ng": 1961,
      "ĠÄĲÃºng": 1962,
      "ĠHai": 1963,
      "ĠNgÃły": 1964,
      "Ġphá»ıng": 1965,
      "Ġtiá»ĥu": 1966,
      "ĠÄĳÃło": 1967,
      "ĠtrÃ¬": 1968,
      "ĠBá»": 1969,
      "Ġbá»ģ": 1970,
      "ul": 1971,
      "Ġgiá»įng": 1972,
      "Ġtá»ĳn": 1973,
      "Ġáº¥n": 1974,
      "ĠBÃł": 1975,
      "ĠtráºŃn": 1976,
      "ĠÃ¡o": 1977,
      "Ġtrá»ĵng": 1978,
      "ĠquÃªn": 1979,
      "Ġháº£o": 1980,
      "Ġgiá»ıi": 1981,
      "ĠAn": 1982,
      "ĠrÆ¡i": 1983,
      "Ġdu": 1984,
      "Ġquáº£ng": 1985,
      "st": 1986,
      "Ńnh": 1987,
      "ĠHá»ĵi": 1988,
      "ĠmÃ£i": 1989,
      "Ġcháº¡m": 1990,
      "Ã¹a": 1991,
      "Ġcáº§m": 1992,
      "Ġkim": 1993,
      "háº¿": 1994,
      "Ġcá»¡": 1995,
      "Ġkhuáº©n": 1996,
      "Ġbang": 1997,
      "ĠbáºŃt": 1998,
      "Ġvá»ĳn": 1999,
      "Ġbá»ģn": 2000,
      "ĠÄĳÆ°Æ¡ng": 2001,
      "Ġpháº¥n": 2002,
      "ent": 2003,
      "ĠChÃŃnh": 2004,
      "ĠnghÃ¬n": 2005,
      "ĠsÃ¡nh": 2006,
      "Ġtiá»ģm": 2007,
      "ĠkhoÃ¡": 2008,
      "ĠhÃ´n": 2009,
      "istan": 2010,
      "ĠlÆ°Æ¡ng": 2011,
      "ub": 2012,
      "Ġcháº¥m": 2013,
      "Ġnghá»ī": 2014,
      "ĠvÃłng": 2015,
      "ĠNÄĥm": 2016,
      "ĠÄĲáº¡i": 2017,
      "Ġchiáº¿m": 2018,
      "Ġhoáº£ng": 2019,
      "Ġmá»Ŀi": 2020,
      "Ġnáº¯m": 2021,
      "ĠkhÃŃch": 2022,
      "áº³ng": 2023,
      "Ġcam": 2024,
      "Ġhiá»ĥn": 2025,
      "Ġvá»£": 2026,
      "Ġbá»¯a": 2027,
      "Ġ11": 2028,
      "Ġphá»ĳi": 2029,
      "Ġngá»«ng": 2030,
      "ĠEm": 2031,
      "Ġhi": 2032,
      "ĠhÃło": 2033,
      "Ġlá»Ńa": 2034,
      "ĠÄĳiá»ĩu": 2035,
      "ĠlÃłng": 2036,
      "Ġvá»¡": 2037,
      "ĠxÆ°Æ¡ng": 2038,
      "Ġthá»ĭt": 2039,
      "ly": 2040,
      "ĠtÃ¡ch": 2041,
      "ĠvÄ©": 2042,
      "Ġgháº¿": 2043,
      "ĠÄĳá»«ng": 2044,
      "Ġhá»ķ": 2045,
      "Ġquáº§n": 2046,
      "áº·m": 2047,
      "Ġong": 2048,
      "ĠdÆ°á»Ŀng": 2049,
      "Ġchuá»Ĺi": 2050,
      "Ġná»ķ": 2051,
      "ĠrÃºt": 2052,
      "Ġcháº£y": 2053,
      "Ġká»ĭch": 2054,
      "Ġkháº©u": 2055,
      "hn": 2056,
      "ĠbiÃªn": 2057,
      "ĠsÃ³t": 2058,
      "oog": 2059,
      "ĠÄĳáº±ng": 2060,
      "ĠNgh": 2061,
      "ib": 2062,
      "ĠTrÃªn": 2063,
      "la": 2064,
      "ĠgiÃ³": 2065,
      "Ġsá»Ľm": 2066,
      "Ġloáº¡t": 2067,
      "ĠthoÃ¡t": 2068,
      "Ġchá»ĵng": 2069,
      "ĠcháºŃm": 2070,
      "ep": 2071,
      "ĠdÄ©": 2072,
      "Ġsáº¡ch": 2073,
      "ĠTrÆ°á»Ľc": 2074,
      "Ġá»Ĵ": 2075,
      "ian": 2076,
      "ĠtÃłn": 2077,
      "Ġtáº¯t": 2078,
      "ĠbÃ¨": 2079,
      "Ġgiáº¥c": 2080,
      "Ġ80": 2081,
      "ut": 2082,
      "ĠtÃ´": 2083,
      "oogle": 2084,
      "io": 2085,
      "Ã³m": 2086,
      "ĠVáº¥n": 2087,
      "ÃŃnh": 2088,
      "Ġláº·p": 2089,
      "Ġtháº§": 2090,
      "Ġnghá»ģ": 2091,
      "ĳt": 2092,
      "Ġgá»£i": 2093,
      "Ġsuáº¥t": 2094,
      "ry": 2095,
      "ĠmÅ©": 2096,
      "if": 2097,
      "Ġkhá»©": 2098,
      "Ġquá»¹": 2099,
      "ex": 2100,
      "Æ°Æ¡i": 2101,
      "ĠSh": 2102,
      "ĠCÃ¡ch": 2103,
      "Ġlá»ĳi": 2104,
      "ĠtrÆ°ng": 2105,
      "ĠphÃª": 2106,
      "Ġlá»Ĺ": 2107,
      "ack": 2108,
      "az": 2109,
      "man": 2110,
      "Ġngáº¡i": 2111,
      "ĠchÃ¬": 2112,
      "ĠZ": 2113,
      "ĠtÃ¡n": 2114,
      "ĠtÃºi": 2115,
      "ĠsÃ´ng": 2116,
      "ĠnhÃ©": 2117,
      "ĠKhÃ¡": 2118,
      "Ġtráº¡i": 2119,
      "ĠCá»": 2120,
      "ick": 2121,
      "±m": 2122,
      "Ġtrá»¯": 2123,
      "ĠAr": 2124,
      "ĠGoogle": 2125,
      "ud": 2126,
      "Ġnguyá»ĩn": 2127,
      "ĠCÃ¡m": 2128,
      "ĠBr": 2129,
      "Ġdáº·m": 2130,
      "ĠHay": 2131,
      "ĠPhÃ¡": 2132,
      "Ġkiá»ĩm": 2133,
      "ĠthÆ°á»Ľc": 2134,
      "Ġviá»ħn": 2135,
      "ĠTo": 2136,
      "©n": 2137,
      "ĠÄĳÄĥng": 2138,
      "ĠNÃ³i": 2139,
      "Ġcá»Ŀ": 2140,
      "áº·n": 2141,
      "¢m": 2142,
      "ĠnÃ©": 2143,
      "Ġquang": 2144,
      "ĠÄĲáº§u": 2145,
      "Ġsá»¹": 2146,
      "ĠÄĳuá»ķi": 2147,
      "ĠViá»ĩc": 2148,
      "ĠkhÃ¡ng": 2149,
      "ĵi": 2150,
      "ĠcÃł": 2151,
      "ĠnÃ¢ng": 2152,
      "ĠbÆ¡i": 2153,
      "Ġnháº¹": 2154,
      "ĠKho": 2155,
      "est": 2156,
      "Ġ60": 2157,
      "Ġvá»ı": 2158,
      "Ġnháº¯n": 2159,
      "Ġbá»¥": 2160,
      "ĠkÃ©m": 2161,
      "ĠcÃº": 2162,
      "ĠghÃ©p": 2163,
      "ĠthÄĥm": 2164,
      "Æ°á»¡i": 2165,
      "Ġsá»ĳt": 2166,
      "ĠphiÃªn": 2167,
      "iv": 2168,
      "Ġthá»Ł": 2169,
      "Ġráº»": 2170,
      "Ġkhoáº£nh": 2171,
      "Ġtháº£m": 2172,
      "Ġhu": 2173,
      "ĠtÃłng": 2174,
      "Ä©a": 2175,
      "ĠnháºŃt": 2176,
      "Ġváº¿t": 2177,
      "Ġláº·ng": 2178,
      "ĠÄĲáº¥t": 2179,
      "Ġná»Ĺ": 2180,
      "Ġthoáº£": 2181,
      "Ġbá»įn": 2182,
      "Ġhoang": 2183,
      "one": 2184,
      "ĠsÃ¡u": 2185,
      "Ġlá»įc": 2186,
      "ĠLÃł": 2187,
      "Ġxoay": 2188,
      "ĠNháºŃt": 2189,
      "Ġcan": 2190,
      "ĠtrÃ²n": 2191,
      "ans": 2192,
      "á»įt": 2193,
      "Ġtrá»ĳng": 2194,
      "Ġbá»Ŀ": 2195,
      "ĠhÃ¹ng": 2196,
      "Ġháº¹": 2197,
      "ĠÄĳiá»ĩp": 2198,
      "ĠJohn": 2199,
      "ec": 2200,
      "¥u": 2201,
      "ĠÆ°u": 2202,
      "ĠBáº£n": 2203,
      "bon": 2204,
      "ir": 2205,
      "ĠÄĳáº³ng": 2206,
      "ĠCar": 2207,
      "ĠmÃ¹i": 2208,
      "ĠÄĳáº¿": 2209,
      "Ġvoi": 2210,
      "Ġngáº«u": 2211,
      "ĠLÃºc": 2212,
      "ook": 2213,
      "ĠÄĳam": 2214,
      "Ġlá»¥c": 2215,
      "Ġdoáº¡": 2216,
      "ĠbÃ²": 2217,
      "ĠlÃłnh": 2218,
      "ĠHI": 2219,
      "uá»µ": 2220,
      "amp": 2221,
      "ĠTheo": 2222,
      "aw": 2223,
      "ĠBá»Ļ": 2224,
      "ĠlÃŃnh": 2225,
      "§i": 2226,
      "ĠÄĳá»±ng": 2227,
      "Ãºa": 2228,
      "ell": 2229,
      "Ġáº¢": 2230,
      "Ġthá»«a": 2231,
      "ĠthuáºŃn": 2232,
      "Ġtháº¡": 2233,
      "ert": 2234,
      "ĠBa": 2235,
      "ĠthÃ¡c": 2236,
      "ĠrÃ¡c": 2237,
      "Ġthuá»·": 2238,
      "ĠNgay": 2239,
      "ĠÄĳoÃłn": 2240,
      "eg": 2241,
      "±a": 2242,
      "Ġcáº¥y": 2243,
      "Ġma": 2244,
      "ĠHIV": 2245,
      "Ľt": 2246,
      "Ġpr": 2247,
      "ĠCuá»ĳi": 2248,
      "art": 2249,
      "uá»ĵng": 2250,
      "ĠtrÃŃch": 2251,
      "ion": 2252,
      "ĠnhuáºŃn": 2253,
      "Ġthang": 2254,
      "ĠLo": 2255,
      "Ġcháº·t": 2256,
      "ĠÄĳáº¡p": 2257,
      "Ġhá»įp": 2258,
      "Ġ16": 2259,
      "Ġgiáº£ng": 2260,
      "era": 2261,
      "ĠÄĳe": 2262,
      "Ġtan": 2263,
      "ĠÄĲá»©c": 2264,
      "ĠlÆ°á»£c": 2265,
      "Ġmiáº¿ng": 2266,
      "ĠNÃło": 2267,
      "ĠAf": 2268,
      "ĠlÃ£ng": 2269,
      "ĠcÃ£i": 2270,
      "Ġnhá»±a": 2271,
      "ĠCáºŃu": 2272,
      "Æ°á»Ŀn": 2273,
      "ore": 2274,
      "de": 2275,
      "ĠtáºŃt": 2276,
      "Ġláº¯p": 2277,
      "ĠHá»": 2278,
      "Ġkháº¥u": 2279,
      "ĠÄĲá»«ng": 2280,
      "ĩt": 2281,
      "ĠCuá»Ļc": 2282,
      "Ġcháº·n": 2283,
      "ĠMÃł": 2284,
      "ĠgiÃ¡m": 2285,
      "Ġ90": 2286,
      "ĠchÃło": 2287,
      "Ġthai": 2288,
      "ĠhÃ¨": 2289,
      "ĠngoÃ¡i": 2290,
      "Ġ199": 2291,
      "Ġhuy": 2292,
      "Ġlá»ħ": 2293,
      "Ġmá»«ng": 2294,
      "ĠHoáº·c": 2295,
      "Ġu": 2296,
      "ĠÄĳÃ²i": 2297,
      "Ġngang": 2298,
      "ĠyÃªn": 2299,
      "ĠÃģ": 2300,
      "ess": 2301,
      "Ġhuá»ĳng": 2302,
      "Ġdiá»ĩt": 2303,
      "ĠtháºŃn": 2304,
      "ĠIs": 2305,
      "uá»Ļn": 2306,
      "Ġ$": 2307,
      "Ġmáº¡i": 2308,
      "ĠmÃ¢y": 2309,
      "Ġthao": 2310,
      "ĠCÅ©ng": 2311,
      "Ġcáº£n": 2312,
      "Ġ14": 2313,
      "ĠhÆ°Æ¡ng": 2314,
      "Ġtá»¥": 2315,
      "ĠthÃ¹": 2316,
      "all": 2317,
      "ĠxoÃ¡": 2318,
      "ĠCháº³ng": 2319,
      "ĠAfg": 2320,
      "ĠmÃ¬": 2321,
      "Ġdá»ĭ": 2322,
      "Ġsá»ķ": 2323,
      "ĠAD": 2324,
      "ĠDav": 2325,
      "Ġko": 2326,
      "Ġtri": 2327,
      "ĠÄĳá»ĳng": 2328,
      "á»ĳn": 2329,
      "ĠchÃ©p": 2330,
      "áº©u": 2331,
      "Ġ70": 2332,
      "ĠÄĳÃ¹a": 2333,
      "Ġvong": 2334,
      "ĠcÃ¡t": 2335,
      "Ġtháº¥u": 2336,
      "Ġsá»£i": 2337,
      "ĠAm": 2338,
      "orn": 2339,
      "ĠThay": 2340,
      "Ġ201": 2341,
      "uc": 2342,
      "ĠvÃº": 2343,
      "ĠtrÃłn": 2344,
      "ge": 2345,
      "rus": 2346,
      "Ġcáº·p": 2347,
      "Ġcá»©ng": 2348,
      "Ľn": 2349,
      "ĠtÃ¡": 2350,
      "ĠcÃ¡m": 2351,
      "Ġtá»ı": 2352,
      "ĠÃ¡m": 2353,
      "ff": 2354,
      "ĠtuyÃªn": 2355,
      "ĠmáºŃp": 2356,
      "Ġnháº±m": 2357,
      "ĠKen": 2358,
      "Ã¨o": 2359,
      "Ġmá»±c": 2360,
      "Ġbom": 2361,
      "ĠÄĲá»ĳi": 2362,
      "ĠNhiá»ģu": 2363,
      "Ġphiáº¿u": 2364,
      "les": 2365,
      "ĠChi": 2366,
      "att": 2367,
      "ĠsÃºng": 2368,
      "ĠkhÃŃa": 2369,
      "Ġnhá»ĭp": 2370,
      "Ġ13": 2371,
      "ĠADN": 2372,
      "Ġbi": 2373,
      "Ġbá»ĳi": 2374,
      "Ġbáº¯n": 2375,
      "ĠtrÃło": 2376,
      "Ġhiáº¿m": 2377,
      "Ġsá»¥p": 2378,
      "ĠDÃ¹": 2379,
      "ĠchÃ¡n": 2380,
      "ĠtiÃªm": 2381,
      "ĠkÃªu": 2382,
      "ĠhÃł": 2383,
      "ĠmÃ³c": 2384,
      "Ġngá»įn": 2385,
      "ĠCal": 2386,
      "ĠMáº¹": 2387,
      "ĠPh": 2388,
      "ĠChr": 2389,
      "ĠFran": 2390,
      "ĠAfghan": 2391,
      "tr": 2392,
      "Ã´m": 2393,
      "Ġkhung": 2394,
      "Ġlá»«a": 2395,
      "Ġprot": 2396,
      "ĠÃ³c": 2397,
      "Ġliá»ģn": 2398,
      "Ġtriáº¿t": 2399,
      "Ġdá»ĳi": 2400,
      "ĠhoÃłng": 2401,
      "ĠBáº±ng": 2402,
      "Ã©p": 2403,
      "ĠPhÃ¡p": 2404,
      "ip": 2405,
      "áºŃc": 2406,
      "ĠbÃ©o": 2407,
      "Ġgá»Ĺ": 2408,
      "ĠcÃ´n": 2409,
      "ĠÄĳua": 2410,
      "Ġgam": 2411,
      "Ġcá»¥c": 2412,
      "Æ°á»£u": 2413,
      "yl": 2414,
      "Ġ0": 2415,
      "Ľp": 2416,
      "ĠmÆ°a": 2417,
      "Ġthá»Ŀ": 2418,
      "Ġâ": 2419,
      "ĠVá»ģ": 2420,
      "ĠPháº£i": 2421,
      "ĠcÄĥng": 2422,
      "Ġbá»ķ": 2423,
      "ĠLiÃªn": 2424,
      "Ġkháº£o": 2425,
      "Ġtháº§y": 2426,
      "ĠâĢ": 2427,
      "50": 2428,
      "ĠÄĳáºŃp": 2429,
      "ĠbáºŃc": 2430,
      "Ġhá»ĳi": 2431,
      "ĠLá»": 2432,
      "Ġmáº¡c": 2433,
      "Ġthoáº£i": 2434,
      "ĠThÃ¡i": 2435,
      "Ġnáº¥m": 2436,
      "ĠlÅ©": 2437,
      "ĠngÆ°á»¡ng": 2438,
      "ĠPháº§n": 2439,
      "¯t": 2440,
      "Ġchá»ĳt": 2441,
      "Ġ17": 2442,
      "Ġmá»ı": 2443,
      "ee": 2444,
      "eet": 2445,
      "ĠÃ¡c": 2446,
      "Ġchá»ĳi": 2447,
      "ail": 2448,
      "ĠtÃ¡o": 2449,
      "ĠrÆ°á»£u": 2450,
      "Ġthuyá»ģn": 2451,
      "Ġhuáº¥n": 2452,
      "ĠmÃ©t": 2453,
      "ĠTrá»": 2454,
      "Ġtráº§m": 2455,
      "ĠnhÅ©ng": 2456,
      "Ġhá»Ĺn": 2457,
      "¯m": 2458,
      "ĠvÃ¢ng": 2459,
      "ĠSáº½": 2460,
      "ĠghÃ©t": 2461,
      "NA": 2462,
      "ers": 2463,
      "Ġbáº£y": 2464,
      "ĠHar": 2465,
      "Ġá»©c": 2466,
      "Ġbiá»ĩn": 2467,
      "Ġkhuyáº¿n": 2468,
      "ĠhÃ²": 2469,
      "ĠIran": 2470,
      "Ġsong": 2471,
      "Ġche": 2472,
      "ĠThuá»µ": 2473,
      "ĠÄĳáº¯t": 2474,
      "ĠnÃºt": 2475,
      "Ġtá»īnh": 2476,
      "ĠchÃ¡y": 2477,
      "ĠngÃ³n": 2478,
      "Ġcá»ı": 2479,
      "ĠNá»": 2480,
      "ĠHÃ´m": 2481,
      "Ġáº¡": 2482,
      "Ġtruy": 2483,
      "Ġháº¯n": 2484,
      "ĠphÃ¡n": 2485,
      "Ġhá»ĵn": 2486,
      "ĠAfghanistan": 2487,
      "Ġá»ĵ": 2488,
      "Ġthá»į": 2489,
      "ĠhÃ£": 2490,
      "Ġxá»©ng": 2491,
      "Ġmáº¡o": 2492,
      "Ġ21": 2493,
      "ĠNghá»": 2494,
      "ĠDavid": 2495,
      "ya": 2496,
      "ĠtÃºc": 2497,
      "Ġthiá»ĥu": 2498,
      "ond": 2499,
      "ĠMo": 2500,
      "ĠLan": 2501,
      "ĠNhÃ¬n": 2502,
      "£t": 2503,
      "ĠsÄĥn": 2504,
      "Ġgá»įn": 2505,
      "log": 2506,
      "ĠmÅ©i": 2507,
      "Ġprotein": 2508,
      "ĵn": 2509,
      "Ġcá»¥t": 2510,
      "ĠgiáºŃn": 2511,
      "ĠkhÃ¡t": 2512,
      "Ġtrá»©ng": 2513,
      "land": 2514,
      "xy": 2515,
      "ĠbÃ´ng": 2516,
      "Ġdinh": 2517,
      "Ġcá»Ĺ": 2518,
      "Ġtháº¡ch": 2519,
      "Ġmai": 2520,
      "ĠCan": 2521,
      "Ġkhiáº¿p": 2522,
      "ĠMáº·t": 2523,
      "ĠHáº§u": 2524,
      "ĠÃł": 2525,
      "Ġtia": 2526,
      "ĠdÃły": 2527,
      "Ġthiá»ĩp": 2528,
      "Ã£n": 2529,
      "ĠthuÃª": 2530,
      "Ġrá»§i": 2531,
      "ĠÄĳáº¯n": 2532,
      "Ġnáº¥u": 2533,
      "Ġru": 2534,
      "Ġxong": 2535,
      "ĠSao": 2536,
      "eria": 2537,
      "ĠPar": 2538,
      "Ġ198": 2539,
      "Ġcá»Ļt": 2540,
      "Ġlá»Ļn": 2541,
      "Ġmá»Ļ": 2542,
      "ĠmÃ²": 2543,
      "Ġbinh": 2544,
      "ĠhÆ°á»Ľc": 2545,
      "ĠÄĲÃ£": 2546,
      "ĠthÃ¡nh": 2547,
      "ĠOk": 2548,
      "Ġbá»Ļt": 2549,
      "ĠbÃ£i": 2550,
      "Ġkáº¹": 2551,
      "ĠTV": 2552,
      "ĠgiÃłnh": 2553,
      "ĠtÃ³c": 2554,
      "ĠbÃ³": 2555,
      "Ġtruyá»ĩn": 2556,
      "ĠngÅ©": 2557,
      "ĠphÃ³": 2558,
      "Æ°á»Ľt": 2559,
      "ĠChar": 2560,
      "ĠÄĳá»ĳc": 2561,
      "ĠÄĳá»ĳt": 2562,
      "Ĺng": 2563,
      "ĠÄĳÃłi": 2564,
      "ĠrÄĥng": 2565,
      "ĠxÆ°a": 2566,
      "Ġcháº©n": 2567,
      "ph": 2568,
      "Ġro": 2569,
      "Ġdá»įc": 2570,
      "iá»ĩng": 2571,
      "ĠGeo": 2572,
      "ĠmÃ¡t": 2573,
      "Ġthuáº§n": 2574,
      "ti": 2575,
      "Ġi": 2576,
      "Ġbáº¡c": 2577,
      "Ġhuyáº¿t": 2578,
      "ĠrÆ°á»¡i": 2579,
      "ĠnÆ¡": 2580,
      "Ġmiá»ģn": 2581,
      "Ġchá»«ng": 2582,
      "ĠPhá»": 2583,
      "ico": 2584,
      "rael": 2585,
      "co": 2586,
      "Ġtáº·ng": 2587,
      "ĠÄĳÄ©a": 2588,
      "ĠgÆ°Æ¡ng": 2589,
      "Ã½t": 2590,
      "ĠLÃ½": 2591,
      "ara": 2592,
      "lin": 2593,
      "te": 2594,
      "Ġáº¥m": 2595,
      "Ġhiáº¿n": 2596,
      "Ġráº¯c": 2597,
      "ĠxÃ¢m": 2598,
      "Ġnháº¥n": 2599,
      "ĠSc": 2600,
      "ĠnÃ©m": 2601,
      "ĠvÆ°á»Ŀn": 2602,
      "ĠngÃłi": 2603,
      "Ġnhá»ī": 2604,
      "ĠÄĲÃ´i": 2605,
      "ain": 2606,
      "ama": 2607,
      "enn": 2608,
      "Ġcá»ĳt": 2609,
      "Ġ500": 2610,
      "ock": 2611,
      "Ġtrá»Ļn": 2612,
      "Ġxáº¡": 2613,
      "ĠBan": 2614,
      "ĠAd": 2615,
      "ĠkhÃ³c": 2616,
      "gh": 2617,
      "Ġláº»": 2618,
      "Ġthan": 2619,
      "ĠquÃª": 2620,
      "Ã¹i": 2621,
      "ĠHy": 2622,
      "Ġ24": 2623,
      "Ã¨m": 2624,
      "ĠTá»ķ": 2625,
      "ĠIsrael": 2626,
      "įt": 2627,
      "Ġcáº©n": 2628,
      "aceb": 2629,
      "Ġtuá»³": 2630,
      "ta": 2631,
      "Ġngu": 2632,
      "ĠdÃŃnh": 2633,
      "iáº¿c": 2634,
      "ĠBra": 2635,
      "acebook": 2636,
      "Ġmiá»ĩng": 2637,
      "ĠrÃło": 2638,
      "ĠÄĳá»Ľn": 2639,
      "ĠCÆ¡": 2640,
      "ina": 2641,
      "ĠRob": 2642,
      "ada": 2643,
      "Ġtáº¡m": 2644,
      "Ġbáº¯c": 2645,
      "Ġtháº©m": 2646,
      "ĠSan": 2647,
      "Ġtuá»ĩ": 2648,
      "ĠmiÃªu": 2649,
      "Ġchai": 2650,
      "ĠÄĳÃ³n": 2651,
      "ĠÃĢ": 2652,
      "Ġháº¹n": 2653,
      "od": 2654,
      "Ġmáº©u": 2655,
      "Ã¡y": 2656,
      "Ġsa": 2657,
      "Ġngáº§m": 2658,
      "Ġlá»ıng": 2659,
      "Ġphá»ķi": 2660,
      "ĠKh": 2661,
      "Ġcá»ĳc": 2662,
      "ĠGiÃ¡o": 2663,
      "ID": 2664,
      "³i": 2665,
      "ĠtÃ²": 2666,
      "ĠgÃł": 2667,
      "ĠnhÃ¡": 2668,
      "ĠÄĳÃ¡y": 2669,
      "ĠDan": 2670,
      "áº©m": 2671,
      "Ġnháº¡y": 2672,
      "ĠFacebook": 2673,
      "ĠÄĳáºŃu": 2674,
      "Ġblog": 2675,
      "Ġhiá»ĩp": 2676,
      "ĠvuÃ´ng": 2677,
      "ĠÆ¡i": 2678,
      "ĠlÃ£o": 2679,
      "Ġbáº¡ch": 2680,
      "ĠMich": 2681,
      "Ġháº¡ng": 2682,
      "Ġthoáº£ng": 2683,
      "ĠCháº¯c": 2684,
      "Ġgame": 2685,
      "ĠcÆ°á»Ŀng": 2686,
      "ĠtrÃ´i": 2687,
      "ĠCáº£": 2688,
      "ĠThá»Ŀi": 2689,
      "ley": 2690,
      "ĠCalif": 2691,
      "ek": 2692,
      "ĠtÃ¢y": 2693,
      "Ġly": 2694,
      "ĠkiÃªn": 2695,
      "Ġhá»ĳ": 2696,
      "ĠquÃ¡i": 2697,
      "ĠCá»±c": 2698,
      "ĠChuyá»ĩn": 2699,
      "ornia": 2700,
      "ach": 2701,
      "Ġthá»£": 2702,
      "Ġrá»ĵ": 2703,
      "ĠdÃłn": 2704,
      "Ã£ng": 2705,
      "Ġhoáº¡i": 2706,
      "ĠMÄ©": 2707,
      "ĠGiá»ĳng": 2708,
      "ĠCalifornia": 2709,
      "Ġtráº¯c": 2710,
      "Ġpin": 2711,
      "ĠquÃ¡n": 2712,
      "Ġháº±ng": 2713,
      "ĠDNA": 2714,
      "ĠTháºŃm": 2715,
      "ĠtÃ³m": 2716,
      "ĠnÆ°á»Ľng": 2717,
      "Ġleo": 2718,
      "Ġtráº¡m": 2719,
      "Ġhá»©a": 2720,
      "ĠBill": 2721,
      "Ġcháº¥n": 2722,
      "amb": 2723,
      "ron": 2724,
      "sh": 2725,
      "ĠÄĳáº£ng": 2726,
      "ĠlÃ¢y": 2727,
      "ĠngÃ£": 2728,
      "ĠquÃ©t": 2729,
      "ĠgiÆ°á»Ŀng": 2730,
      "ĠgiÃły": 2731,
      "ĠnÃ©t": 2732,
      "Ġngá»±a": 2733,
      "ĠTw": 2734,
      "ĠÄĳeo": 2735,
      "ĠrÃ´": 2736,
      "Ġnho": 2737,
      "ĠchÄĥng": 2738,
      "ĠKinh": 2739,
      "und": 2740,
      "ĠlÆ°ng": 2741,
      "Ã¬a": 2742,
      "ĠTal": 2743,
      "ĠxÃŃ": 2744,
      "ĠMc": 2745,
      "Ġ197": 2746,
      "ĠOK": 2747,
      "Ġtuy": 2748,
      "Ġtuyáº¿t": 2749,
      "Ġváº¯c": 2750,
      "Ġmáº»": 2751,
      "ĠCÃ¹ng": 2752,
      "ĠLáº§n": 2753,
      "ĠmÃ£n": 2754,
      "ĠtÄ©nh": 2755,
      "ĠCol": 2756,
      "ĠÄĲáº¿n": 2757,
      "ĠKáº¿t": 2758,
      "Ġtiáº¿c": 2759,
      "ith": 2760,
      "ĠÄĳáº¿m": 2761,
      "ĠmÃ¨o": 2762,
      "ĠkÃ¨m": 2763,
      "ass": 2764,
      "ĠNhÃ¢n": 2765,
      "exico": 2766,
      "ĠChris": 2767,
      "ce": 2768,
      "³c": 2769,
      "Ġninh": 2770,
      "ĠtrÄĥng": 2771,
      "ĠdÃ¡n": 2772,
      "ĠThe": 2773,
      "ĠKhÃ¡n": 2774,
      "Ġbá»¥ng": 2775,
      "pp": 2776,
      "ĠtÃ¡m": 2777,
      "Ġcong": 2778,
      "ĠdÃ²": 2779,
      "áº«y": 2780,
      "Ġ300": 2781,
      "ĠIra": 2782,
      "anda": 2783,
      "ĠgÃ³i": 2784,
      "«n": 2785,
      "ĠlÄĥn": 2786,
      "ĠdÃ£": 2787,
      "Ġhá»ıng": 2788,
      "ĠBáº¥t": 2789,
      "ĠPau": 2790,
      "ate": 2791,
      "ber": 2792,
      "ma": 2793,
      "ĠquÃł": 2794,
      "ĠkhuyÃªn": 2795,
      "ĠMexico": 2796,
      "ĠÃ©p": 2797,
      "Ġtiá»ĩc": 2798,
      "Ġvinh": 2799,
      "Ġtráº§n": 2800,
      "Ġgiáº¥u": 2801,
      "áº«m": 2802,
      "Ġemail": 2803,
      "ite": 2804,
      "Ġgá»¡": 2805,
      "ĠiP": 2806,
      "ĠlÃ´i": 2807,
      "ĠhÆ°": 2808,
      "ĠthÃ³i": 2809,
      "Ġmá»Ŀ": 2810,
      "uá»¹": 2811,
      "Ġ2000": 2812,
      "ĠNghá»ĩ": 2813,
      "IDS": 2814,
      "tin": 2815,
      "Ġcá»±": 2816,
      "Ġlá»ģ": 2817,
      "Ġlá»ĩnh": 2818,
      "Ġdá»©t": 2819,
      "ĠÃļ": 2820,
      "Ġcá»¥m": 2821,
      "ĠHoÃ¡": 2822,
      "stein": 2823,
      "ĠCanada": 2824,
      "zil": 2825,
      "ĠlÃ¢m": 2826,
      "Ġtrá»ĳn": 2827,
      "Ġngon": 2828,
      "ĠgÃ£": 2829,
      "Ġheo": 2830,
      "Ġtá»ĭ": 2831,
      "ĠHá»Ļi": 2832,
      "Ġphiá»ģn": 2833,
      "ath": 2834,
      "ĠkÃªnh": 2835,
      "ĠchÃ¬m": 2836,
      "og": 2837,
      "Ġtung": 2838,
      "Ġlu": 2839,
      "Ġláº·n": 2840,
      "ĠbÃ£o": 2841,
      "ĠdÆ°": 2842,
      "ĠNga": 2843,
      "ĠlÃ£m": 2844,
      "ĠBrazil": 2845,
      "Ġim": 2846,
      "Ġand": 2847,
      "ĠbuÃ´n": 2848,
      "Ã¡p": 2849,
      "Ġngá»įt": 2850,
      "ĠgÃµ": 2851,
      "ĠÄĳá»±c": 2852,
      "Ġkhao": 2853,
      "ĠGeor": 2854,
      "ky": 2855,
      "ĠgiÆ¡": 2856,
      "ĠMáº·c": 2857,
      "ĠAIDS": 2858,
      "ford": 2859,
      "ler": 2860,
      "ug": 2861,
      "ĠÆ°": 2862,
      "Ġcáº¥t": 2863,
      "Ġva": 2864,
      "Ġdao": 2865,
      "ĠthÄĥng": 2866,
      "ĠquÃŃ": 2867,
      "ĠgiÃ¡n": 2868,
      "ĠVÃłi": 2869,
      "ĠÄĲiá»ĥn": 2870,
      "Ġmá»ĩnh": 2871,
      "Ġkhoan": 2872,
      "ĠDÄ©": 2873,
      "Ġvirus": 2874,
      "ĠÃļc": 2875,
      "ham": 2876,
      "ĠsÃłn": 2877,
      "ĠTrÆ°á»Ŀng": 2878,
      "Ġthuáº¿": 2879,
      "ĠcÃºm": 2880,
      "ram": 2881,
      "ver": 2882,
      "ĠtrÆ°a": 2883,
      "Ġhang": 2884,
      "ĠhÃłm": 2885,
      "Ġthá»ķi": 2886,
      "quang": 2887,
      "ĠTim": 2888,
      "ĠBer": 2889,
      "ĠBar": 2890,
      "ĠMon": 2891,
      "ĠLond": 2892,
      "ĠAnd": 2893,
      "Ġcar": 2894,
      "Ġlang": 2895,
      "ĠbáºŃn": 2896,
      "Ġbáº¿p": 2897,
      "ĠdÃ¡ng": 2898,
      "Ġxinh": 2899,
      "ind": 2900,
      "Ġsá»¯a": 2901,
      "ĠSp": 2902,
      "ĠPal": 2903,
      "ĠLondon": 2904,
      "ric": 2905,
      "ĠtÆ°Æ¡i": 2906,
      "ĠlÃµi": 2907,
      "ĠbÃ¹ng": 2908,
      "ĠRáºŃp": 2909,
      "ĠKenya": 2910,
      "ĠtÃ¢n": 2911,
      "ĠlÃłn": 2912,
      "ĠdÆ°á»£c": 2913,
      "Æ°á»£n": 2914,
      "ĠLe": 2915,
      "ĠGáº§n": 2916,
      "ĠHá»įc": 2917,
      "ĠJam": 2918,
      "ĠEd": 2919,
      "Ġbá»¥i": 2920,
      "Ġcáº¥m": 2921,
      "Ġnáº£y": 2922,
      "Ã³i": 2923,
      "Ġsan": 2924,
      "Ġngáº¯m": 2925,
      "ĠrÃ©t": 2926,
      "ĠTiáº¿p": 2927,
      "ĠphÃ¬": 2928,
      "Ġkhá»ī": 2929,
      "ĠquÃ¡t": 2930,
      "Ġtáº¯m": 2931,
      "ĠsÆ°u": 2932,
      "á»Ļm": 2933,
      "Ġtháº»": 2934,
      "ĠBen": 2935,
      "Ġháº£i": 2936,
      "ĠtuÃ½": 2937,
      "Ġcamera": 2938,
      "Ġliá»ģu": 2939,
      "ĠlÆ°á»Ŀng": 2940,
      "Ġbu": 2941,
      "Ġtá»§": 2942,
      "ĠRos": 2943,
      "Ġ196": 2944,
      "Ġoxy": 2945,
      "ĠâĢĵ": 2946,
      "ĠÆ°a": 2947,
      "ĠcÆ°á»Ľi": 2948,
      "Ġmuá»Ĺi": 2949,
      "ĠCO": 2950,
      "ann": 2951,
      "ĠSá»": 2952,
      "hing": 2953,
      "Ġthá»ĭnh": 2954,
      "itter": 2955,
      "ling": 2956,
      "ĠKhoáº£ng": 2957,
      "iz": 2958,
      "©o": 2959,
      "ĠlÆ°á»Ľt": 2960,
      "Ġsay": 2961,
      "ĠsÆ¡n": 2962,
      "ĠrÃ£i": 2963,
      "ĠBao": 2964,
      "ĠBÃłi": 2965,
      "ĠthÃ¡p": 2966,
      "Ġ400": 2967,
      "ĠchÃºa": 2968,
      "ĠkhÃ´n": 2969,
      "ĠBá»©c": 2970,
      "ĠIraq": 2971,
      "Ġná»Ł": 2972,
      "ĠtrÆ°á»£t": 2973,
      "ĠthÃ¹ng": 2974,
      "Ġnháº«n": 2975,
      "ĠBl": 2976,
      "ins": 2977,
      "ĠTrá»Ŀi": 2978,
      "Ġnan": 2979,
      "ĠngáºŃp": 2980,
      "Ġngá»ĳc": 2981,
      "Ġthá»īnh": 2982,
      "ĠCá»Ļng": 2983,
      "Ġnháº¯m": 2984,
      "ĠBe": 2985,
      "Ġtrá»¥c": 2986,
      "ĠthÃ¡m": 2987,
      "Ġthua": 2988,
      "ĠThiÃªn": 2989,
      "ĠkÃŃn": 2990,
      "Ġ150": 2991,
      "DP": 2992,
      "ĠtÆ°á»Ľng": 2993,
      "Ġná»ĳt": 2994,
      "ĠphÃº": 2995,
      "ĠnÃłng": 2996,
      "Ġgiam": 2997,
      "ĠNig": 2998,
      "ĠchÃ¢m": 2999,
      "ĠMay": 3000,
      "ĠthÃŃnh": 3001,
      "Ġpha": 3002,
      "Ġbá»ĳt": 3003,
      "Ġfeet": 3004,
      "ĠdÃ¡m": 3005,
      "ĠquÃ£ng": 3006,
      "ĠxÃ³m": 3007,
      "ĠGDP": 3008,
      "Ġdáº¯t": 3009,
      "ĠViá»ĩn": 3010,
      "ĠBá»ĳ": 3011,
      "Ġkhá»Ľp": 3012,
      "ĠTwitter": 3013,
      "ĠcáºŃy": 3014,
      "Ġcuá»Ļn": 3015,
      "Ġnáº¯ng": 3016,
      "Ġsung": 3017,
      "Ġthiá»ĩt": 3018,
      "ĠphÃ¡i": 3019,
      "ĠGre": 3020,
      "SA": 3021,
      "by": 3022,
      "ĠlÃ´ng": 3023,
      "ĠbÆ¡": 3024,
      "Ġrau": 3025,
      "Æ°á»Ľp": 3026,
      "ĠHÆ¡n": 3027,
      "Ġtoáº£": 3028,
      "ĠthÃ¡o": 3029,
      "lip": 3030,
      "Ġpháº¡t": 3031,
      "Ġmáº¡n": 3032,
      "Ġbong": 3033,
      "ĠtrÃł": 3034,
      "Ġgáº¥u": 3035,
      "ĠnhÃ£n": 3036,
      "áº»o": 3037,
      "ĠDá»": 3038,
      "ĠWas": 3039,
      "Ġháº§m": 3040,
      "he": 3041,
      "Ġtuyá»ĥn": 3042,
      "ĠcÆ°á»¡ng": 3043,
      "ĠÄĳuÃ´i": 3044,
      "Ġná»į": 3045,
      "ĠdÃ£y": 3046,
      "Ġvá»Ł": 3047,
      "ĠTin": 3048,
      "Ġkhuy": 3049,
      "ĠkhÆ¡i": 3050,
      "ony": 3051,
      "ĠBos": 3052,
      "ĠAb": 3053,
      "ĠAng": 3054,
      "ĠÃĶi": 3055,
      "ood": 3056,
      "ĠThÃ´ng": 3057,
      "ov": 3058,
      "áº¿ch": 3059,
      "ĠchÆ°á»Ľc": 3060,
      "ĠTÆ°Æ¡ng": 3061,
      "ĠBang": 3062,
      "ĠBÃ¬nh": 3063,
      "ĠNgo": 3064,
      "ĠThÃłnh": 3065,
      "ĠEin": 3066,
      "olf": 3067,
      "ĠHá»ĩ": 3068,
      "Ġe": 3069,
      "Ġti": 3070,
      "ĠÄĳÃ¢m": 3071,
      "ĠlÃ²": 3072,
      "ĠlÃ¡t": 3073,
      "Ġsli": 3074,
      "Ġnhá»Ł": 3075,
      "ĠNÃły": 3076,
      "ana": 3077,
      "Ġbá»Ľt": 3078,
      "Ġthuáº«n": 3079,
      "ĠYou": 3080,
      "ĠChá»§": 3081,
      "ĠEinstein": 3082,
      "ren": 3083,
      "Ġmuá»Ļn": 3084,
      "ĠthÆ°a": 3085,
      "ĠTá»±": 3086,
      "Ġchá»Ł": 3087,
      "Ġranh": 3088,
      "ĠSm": 3089,
      "Ġhá»ĩt": 3090,
      "ĠDÆ°Æ¡ng": 3091,
      "ĠThá»Ń": 3092,
      "ĠchÃ¬a": 3093,
      "ĠPaul": 3094,
      "ĠlÃ¹i": 3095,
      "Ġbá»į": 3096,
      "ĠTiáº¿ng": 3097,
      "Ġchá»¥c": 3098,
      "Ġmá»ĩt": 3099,
      "ĠÄĳiÃªu": 3100,
      "Ġlog": 3101,
      "ael": 3102,
      "ne": 3103,
      "oy": 3104,
      "Ġj": 3105,
      "Ġhoáº£": 3106,
      "Ġmá»¹": 3107,
      "ĠSá»ĳ": 3108,
      "Ã©o": 3109,
      "ĠDá»±": 3110,
      "ĠNgÃłi": 3111,
      "ĠChiáº¿n": 3112,
      "Ġláº¡m": 3113,
      "ĠhÃ²n": 3114,
      "Ġslide": 3115,
      "Ġcac": 3116,
      "Ġvua": 3117,
      "ĠbÃºt": 3118,
      "Ġngá»±c": 3119,
      "Ġpháº³ng": 3120,
      "ĠHÃł": 3121,
      "Ġná»£": 3122,
      "ĠNha": 3123,
      "ĠÄĳá»ĵi": 3124,
      "ort": 3125,
      "ĠMá»¥c": 3126,
      "ĠWil": 3127,
      "ĠthÃ´n": 3128,
      "ĠHoáº£": 3129,
      "urg": 3130,
      "ĠStev": 3131,
      "Ġá»ĵn": 3132,
      "hington": 3133,
      "xi": 3134,
      "§m": 3135,
      "Ġváº¹": 3136,
      "Æ°Æ¡n": 3137,
      "ĠmÃºa": 3138,
      "ĠkhÃºc": 3139,
      "Ġtráº¥n": 3140,
      "ĠgÃ¡nh": 3141,
      "ĠÄĳá»Ľi": 3142,
      "Ġcá»Łi": 3143,
      "ĠCáºŃp": 3144,
      "Ġnháº·": 3145,
      "Ġsá»©": 3146,
      "ĠPet": 3147,
      "ĠFranc": 3148,
      "ĠWashington": 3149,
      "ka": 3150,
      "za": 3151,
      "ĩn": 3152,
      "Ġmáº¥u": 3153,
      "ĠBáº£o": 3154,
      "Ġsá»ĳc": 3155,
      "ĠMI": 3156,
      "Ġká»ĭp": 3157,
      "ĠQuan": 3158,
      "ĠGeorge": 3159,
      "Ġcarbon": 3160,
      "ier": 3161,
      "Ġváº£i": 3162,
      "Ġrung": 3163,
      "Ġmá»ıi": 3164,
      "Ġrá»ħ": 3165,
      "ĠTEDx": 3166,
      "ĠCá»©": 3167,
      "ĠKhoa": 3168,
      "ld": 3169,
      "site": 3170,
      "Ġduyá»ĩt": 3171,
      "á»ĳm": 3172,
      "áºŃm": 3173,
      "ĠCr": 3174,
      "Ġnghiá»ĩn": 3175,
      "ĠRich": 3176,
      "ĠJon": 3177,
      "ĠChiáº¿c": 3178,
      "ett": 3179,
      "ĠThom": 3180,
      "ola": 3181,
      "ander": 3182,
      "ike": 3183,
      "ĠkhÃ´i": 3184,
      "ĠhÃ£ng": 3185,
      "ĠCharles": 3186,
      "ĠhÆ°u": 3187,
      "ĠrÃ¡p": 3188,
      "Ġcá»ĳi": 3189,
      "ĠthÃ¢m": 3190,
      "ĠMa": 3191,
      "ĠHÃłng": 3192,
      "are": 3193,
      "Ġnghá»ĭch": 3194,
      "Ġngoan": 3195,
      "ĠWik": 3196,
      "Ġinternet": 3197,
      "Ġwebsite": 3198,
      "ĠNigeria": 3199,
      "30": 3200,
      "een": 3201,
      "ĠlÆ°á»¡ng": 3202,
      "ĠbÃª": 3203,
      "Ġkhiáº¿m": 3204,
      "ĠHÃ¬nh": 3205,
      "Ġkháº³ng": 3206,
      "Ġhá»ĵng": 3207,
      "ĠOh": 3208,
      "ĠLoáº¡i": 3209,
      "Ġnháº·t": 3210,
      "Ġa": 3211,
      "Ġcuá»ĵng": 3212,
      "ĠvÃ¢y": 3213,
      "ĠláºŃt": 3214,
      "ĠmÃ¢u": 3215,
      "Ġnhiáº¿p": 3216,
      "Ġtha": 3217,
      "ĠTá»ĳt": 3218,
      "Ġmá»ĵ": 3219,
      "inc": 3220,
      "ĠÄĳá»ĭch": 3221,
      "ĠDar": 3222,
      "ĠThá»ķ": 3223,
      "lex": 3224,
      "Ġco": 3225,
      "Ġgan": 3226,
      "Ġsáº¯t": 3227,
      "ĠBro": 3228,
      "ĠLa": 3229,
      "ĠLu": 3230,
      "ĠkhÃ³i": 3231,
      "ĠThÆ°á»£ng": 3232,
      "ĠphÃŃm": 3233,
      "Ġ2008": 3234,
      "ĠBá»ĩnh": 3235,
      "ĠNghe": 3236,
      "eph": 3237,
      "ĠToÃłn": 3238,
      "Ġháº¹p": 3239,
      "Ġcacbon": 3240,
      "ĠMIT": 3241,
      "ĠvÆ°Æ¡n": 3242,
      "Ġráº¯n": 3243,
      "ĠCo": 3244,
      "ĠNa": 3245,
      "Ġ1000": 3246,
      "ĠHiá»ĩp": 3247,
      "ĠPr": 3248,
      "ĠPak": 3249,
      "ĠRÃµ": 3250,
      "Ġ35": 3251,
      "ĠJos": 3252,
      "ĠWal": 3253,
      "ast": 3254,
      "ĠQuÃ¡": 3255,
      "ube": 3256,
      "ĠAdam": 3257,
      "ĠMichael": 3258,
      "iel": 3259,
      "ĠÄĳÃłm": 3260,
      "Ġmáº£ng": 3261,
      "ĠTÃ¬nh": 3262,
      "Ġkhuyáº¿t": 3263,
      "ĠSch": 3264,
      "ĠLos": 3265,
      "ĠÄĳÃ¡o": 3266,
      "Ġ45": 3267,
      "ĠFrancis": 3268,
      "PS": 3269,
      "ĠÄĳáº»": 3270,
      "Ġnon": 3271,
      "Ġlong": 3272,
      "Ġstr": 3273,
      "Ġgá»ĳi": 3274,
      "Ġcá»«u": 3275,
      "ĠphÃ´": 3276,
      "ĠkhoÃ¡i": 3277,
      "ĠÄĳoan": 3278,
      "ela": 3279,
      "Ġrá»Ńa": 3280,
      "Ġtáº§n": 3281,
      "Ġcáº¡n": 3282,
      "ĠTÃªn": 3283,
      "ĠHe": 3284,
      "ĠHig": 3285,
      "ĠRe": 3286,
      "ĠEl": 3287,
      "edia": 3288,
      "ĠThomas": 3289,
      "ĠPakistan": 3290,
      "Ġstress": 3291,
      "ward": 3292,
      "ĠcÆ°á»Ľp": 3293,
      "Ġmanh": 3294,
      "ĠbÃ¹": 3295,
      "Ġsáº¡n": 3296,
      "Ġdáº¡o": 3297,
      "ĠdÃ¢m": 3298,
      "Ġdáº£i": 3299,
      "Ġdáº»o": 3300,
      "ĠNe": 3301,
      "ĠmÃłng": 3302,
      "ĠBáº¯t": 3303,
      "Ġmá»ĵi": 3304,
      "ĠchÃŃn": 3305,
      "ĠJe": 3306,
      "ĠCha": 3307,
      "ica": 3308,
      "olly": 3309,
      "ve": 3310,
      "ĠÄĳáº¡n": 3311,
      "ĠláºŃn": 3312,
      "Ġtreo": 3313,
      "ĠtrÃ¢n": 3314,
      "Ġhack": 3315,
      "ĠBÃªn": 3316,
      "ĠMÃ¡y": 3317,
      "end": 3318,
      "ĠNgÃ¢n": 3319,
      "ĠJu": 3320,
      "ĠThiáº¿t": 3321,
      "ash": 3322,
      "Ġlá»ĩch": 3323,
      "Ġváº¹n": 3324,
      "20": 3325,
      "yn": 3326,
      "¥ng": 3327,
      "Ġcáº¯m": 3328,
      "ĠÄĳáº¡c": 3329,
      "ĠTiáº¿n": 3330,
      "Ġlá»£n": 3331,
      "ĠSu": 3332,
      "ĠPM": 3333,
      "ĠDi": 3334,
      "ĠDÃ¢n": 3335,
      "ĠDer": 3336,
      "ĠFre": 3337,
      "Ġ75": 3338,
      "ĠbÆ¡m": 3339,
      "ĠRichard": 3340,
      "ck": 3341,
      "di": 3342,
      "lan": 3343,
      "Äĳ": 3344,
      "ĠtÃ´ng": 3345,
      "Ġcáº¯p": 3346,
      "ĠvÄ©nh": 3347,
      "Ġde": 3348,
      "Ġlá»Ŀ": 3349,
      "ĠÄĳá»ģn": 3350,
      "ĠquyÃªn": 3351,
      "apt": 3352,
      "ĠOb": 3353,
      "ĠMark": 3354,
      "ĠHaiti": 3355,
      "pe": 3356,
      "§a": 3357,
      "Ġbá»įc": 3358,
      "Ġbáº¯p": 3359,
      "Ġkiá»ĩt": 3360,
      "Ġham": 3361,
      "ĠnhÃłng": 3362,
      "ĠkhiÃªu": 3363,
      "ĠHÃłn": 3364,
      "ami": 3365,
      "ĠGPS": 3366,
      "ice": 3367,
      "ĠtuÃ¢n": 3368,
      "rid": 3369,
      "Ġgene": 3370,
      "Ġ2010": 3371,
      "ĠFrank": 3372,
      "Ġkáº¹o": 3373,
      "Ġkáº¹t": 3374,
      "ĠbuÃ½t": 3375,
      "Ġkhuynh": 3376,
      "com": 3377,
      "lor": 3378,
      "per": 3379,
      "ĠvÃ©": 3380,
      "Ġláº¥p": 3381,
      "ĠmÃ²n": 3382,
      "Ġbia": 3383,
      "Ġhuyá»ģn": 3384,
      "Ġdá»įn": 3385,
      "ĠTom": 3386,
      "ĠNA": 3387,
      "ĠNÆ¡i": 3388,
      "Ġnháº§m": 3389,
      "ĠMal": 3390,
      "ĠAt": 3391,
      "ĠGr": 3392,
      "ĠchÃºc": 3393,
      "lie": 3394,
      "ĠKá»ĥ": 3395,
      "ĠÃĤm": 3396,
      "ound": 3397,
      "ĠÄĳai": 3398,
      "Ġmic": 3399,
      "á»Ļp": 3400,
      "ĠÄĳá»Ĺ": 3401,
      "Ġtháº¯c": 3402,
      "ĠgiÃ£n": 3403,
      "ĠCam": 3404,
      "Ġná»ģ": 3405,
      "Ġ23": 3406,
      "Ġtá»±a": 3407,
      "ark": 3408,
      "ester": 3409,
      "ation": 3410,
      "acc": 3411,
      "ĠPhá»¥": 3412,
      "ĠRobert": 3413,
      "ft": 3414,
      "Ġamp": 3415,
      "Ġvay": 3416,
      "ĠlÅ©ng": 3417,
      "ĠmÆ°á»Ŀi": 3418,
      "ĠtrÃº": 3419,
      "Ġga": 3420,
      "ĠráºŃp": 3421,
      "ĠxÃ¡m": 3422,
      "ĠChÃł": 3423,
      "rÃºt": 3424,
      "win": 3425,
      "ĭnh": 3426,
      "ĠcÆ°Æ¡ng": 3427,
      "Ġmá»įc": 3428,
      "Ġthá»ķ": 3429,
      "Ġdá»Ł": 3430,
      "Ġvá»Ĺ": 3431,
      "ĠchÄĥn": 3432,
      "Ġtháº±ng": 3433,
      "ĠthÃ©p": 3434,
      "ĠMÃ¬nh": 3435,
      "Ġmá»ıng": 3436,
      "Ġcá»±u": 3437,
      "ĠAngel": 3438,
      "RI": 3439,
      "ĠnÃªu": 3440,
      "ĠvÆ°á»£ng": 3441,
      "Ġdá»ĳc": 3442,
      "ĠÄĳá»£t": 3443,
      "ĠkhÃ©o": 3444,
      "ĠTuyá»ĩt": 3445,
      "ĠNÆ°á»Ľc": 3446,
      "ĠÄĲa": 3447,
      "ĠLáº¡p": 3448,
      "Ġngá»«a": 3449,
      "org": 3450,
      "ĠTá»ķng": 3451,
      "ĠJames": 3452,
      "hone": 3453,
      "ĠnÃ¡t": 3454,
      "ĠlÆ°á»£t": 3455,
      "ĠsÃ´i": 3456,
      "ĠdÅ©ng": 3457,
      "Ġcháº£": 3458,
      "ĠHáº£i": 3459,
      "uá»³": 3460,
      "ĠhÃ´i": 3461,
      "ide": 3462,
      "ĠNghiÃªn": 3463,
      "ĠHarv": 3464,
      "ox": 3465,
      "Ġst": 3466,
      "Ġráº½": 3467,
      "Ġqui": 3468,
      "ĠxÃ´i": 3469,
      "ĠCl": 3470,
      "Ġchá»£": 3471,
      "ĠÄĲiá»ĥm": 3472,
      "ĠÄĲá»ĵng": 3473,
      "ĠBal": 3474,
      "Ġmá»ī": 3475,
      "amin": 3476,
      "ĠthoÃ¡i": 3477,
      "ity": 3478,
      "ney": 3479,
      "Ġnáº£n": 3480,
      "Ġhung": 3481,
      "ĠmÃły": 3482,
      "Ġbá»Ĺng": 3483,
      "ĠhoÃłi": 3484,
      "ĠphÃ¡c": 3485,
      "Ġháº¡ch": 3486,
      "Å©i": 3487,
      "old": 3488,
      "Ġ194": 3489,
      "ĠScot": 3490,
      "ner": 3491,
      "ok": 3492,
      "Ġvang": 3493,
      "ĠtráºŃt": 3494,
      "Ġdá»Ļi": 3495,
      "Ġrad": 3496,
      "ĠSinh": 3497,
      "ĠGia": 3498,
      "ĠbÃ¡ch": 3499,
      "ates": 3500,
      "ĠChÃ¡": 3501,
      "Ġ2007": 3502,
      "ĠQuÃ½": 3503,
      "ago": 3504,
      "Ġtháº§m": 3505,
      "ĠnÃ©n": 3506,
      "ĠTalk": 3507,
      "Ġtiá»ħn": 3508,
      "ĠÄĳáº½": 3509,
      "Ġvan": 3510,
      "ĠvÃµ": 3511,
      "Ġmen": 3512,
      "Ġbáº¥y": 3513,
      "ĠgÃ¡c": 3514,
      "Ġchua": 3515,
      "ĠxÄĥng": 3516,
      "Ġnghiá»ĩt": 3517,
      "ĠBÃ¡c": 3518,
      "ĠSam": 3519,
      "Ġtrá»«u": 3520,
      "Ġ99": 3521,
      "ĠCarol": 3522,
      "uck": 3523,
      "ĠPhÆ°Æ¡ng": 3524,
      "ĠxÃŃu": 3525,
      "Ġmuá»ĳi": 3526,
      "ĠbÃ¬a": 3527,
      "Ġngháº": 3528,
      "Ġhá»¥t": 3529,
      "Ġná»¥": 3530,
      "ĠKhá»": 3531,
      "ĠSe": 3532,
      "ĠAlex": 3533,
      "ĠGab": 3534,
      "Ġpho": 3535,
      "Ġcá»ķng": 3536,
      "ĠiPhone": 3537,
      "ĠObama": 3538,
      "me": 3539,
      "ĠÄĳÃł": 3540,
      "ĠlÆ¡": 3541,
      "Ġláº¯c": 3542,
      "Ġtháº³m": 3543,
      "ĠxÃ©": 3544,
      "ĠxÃŃch": 3545,
      "ĠApp": 3546,
      "ĠGu": 3547,
      "low": 3548,
      "ĠThÃ¡nh": 3549,
      "ipedia": 3550,
      "Ġruá»ĵi": 3551,
      "ĠSmith": 3552,
      "ĠSteve": 3553,
      "lad": 3554,
      "pt": 3555,
      "van": 3556,
      "Ġá»ĳc": 3557,
      "ĠlÃºa": 3558,
      "Ġmá»Ļng": 3559,
      "Ã¡u": 3560,
      "ĠsÃºc": 3561,
      "Ġtrá»Ļm": 3562,
      "Ġgiáº·t": 3563,
      "ĠNob": 3564,
      "ĠhÃ³c": 3565,
      "ĠTráº»": 3566,
      "ĠTrans": 3567,
      "imer": 3568,
      "ĠQua": 3569,
      "Ġsoáº¡n": 3570,
      "Ġvá»¥n": 3571,
      "ĠInd": 3572,
      "ĠNASA": 3573,
      "bert": 3574,
      "cel": 3575,
      "´n": 3576,
      "Ġá»ĳm": 3577,
      "ĠmÆ°Æ¡i": 3578,
      "ĠbÆ°á»Ľ": 3579,
      "ĠgÅ©i": 3580,
      "ĠrÅ©": 3581,
      "Ġthe": 3582,
      "ĠxÆ°á»Łng": 3583,
      "ĠxÆ°á»Ľng": 3584,
      "Ġchá»£t": 3585,
      "ĠÄĲi": 3586,
      "ĠtÃŃm": 3587,
      "ĠRom": 3588,
      "ĠChÃło": 3589,
      "atch": 3590,
      "iss": 3591,
      "ĠOr": 3592,
      "Ġof": 3593,
      "umb": 3594,
      "ĠWikipedia": 3595,
      "toc": 3596,
      "Ġal": 3597,
      "Ġáº¿ch": 3598,
      "ĠmÆ°á»£n": 3599,
      "ĠtrÃ¡ng": 3600,
      "Ġngáº«m": 3601,
      "ĠTÆ°á»Łng": 3602,
      "ĠBig": 3603,
      "Ã¹m": 3604,
      "Ġcháº½": 3605,
      "ĠhÃ©t": 3606,
      "ĠMan": 3607,
      "ĠÄĳá»Ļn": 3608,
      "Ġ---": 3609,
      "ĠkhoÃ¡ng": 3610,
      "ĠSah": 3611,
      "ern": 3612,
      "Ġ22": 3613,
      "ald": 3614,
      "ĠHoÃł": 3615,
      "thal": 3616,
      "ĠMartin": 3617,
      "ivi": 3618,
      "ĠHarvard": 3619,
      "ny": 3620,
      "ros": 3621,
      "ĠcÆ°á»£c": 3622,
      "ĠvÃ¡n": 3623,
      "ĠlÃ¢n": 3624,
      "Ġbáº©n": 3625,
      "ĠtrÃ¡n": 3626,
      "ĠÄĳá»ĩ": 3627,
      "ĠnhÆ°á»Ŀng": 3628,
      "Ġcá»ĳng": 3629,
      "Ġquáº·c": 3630,
      "áº±n": 3631,
      "ÃŃt": 3632,
      "Ġdá»Ĺ": 3633,
      "ĠnhÃło": 3634,
      "ĠLáº¥y": 3635,
      "Ġquyáº¿n": 3636,
      "ĠChá»ĭ": 3637,
      "ĠNghÄ©a": 3638,
      "ĠParis": 3639,
      "ĠDarwin": 3640,
      "ĠDerek": 3641,
      "ĠlÃ¡nh": 3642,
      "Ġmáº¿n": 3643,
      "Ġbáº¥m": 3644,
      "ĠÄĲiá»ĩn": 3645,
      "ĠgÃ¬n": 3646,
      "Ġná»ĵng": 3647,
      "ĠKháº": 3648,
      "ary": 3649,
      "ĠbÃ¡m": 3650,
      "Ġnháº¡t": 3651,
      "icon": 3652,
      "ĠGiá»įng": 3653,
      "Ġ2009": 3654,
      "ĠGiÃ¡": 3655,
      "berg": 3656,
      "Ġlá»ģu": 3657,
      "ĠFrancisco": 3658,
      "Ġhacker": 3659,
      "ĠAngeles": 3660,
      "ĠNobel": 3661,
      "eah": 3662,
      "mp": 3663,
      "ĳc": 3664,
      "ĠsÃ´": 3665,
      "Ġhiáº¿p": 3666,
      "ĠTor": 3667,
      "ota": 3668,
      "Ġsáº¯m": 3669,
      "ĠMad": 3670,
      "ĠsÃ¡o": 3671,
      "Ġ36": 3672,
      "oran": 3673,
      "ish": 3674,
      "Ġrá»Ĺng": 3675,
      "ĠmÃ£nh": 3676,
      "ĠÃ´m": 3677,
      "Ġxá»ī": 3678,
      "attan": 3679,
      "Ġruá»Ļt": 3680,
      "tocin": 3681,
      "PA": 3682,
      "der": 3683,
      "dro": 3684,
      "ix": 3685,
      "ĠcÃłi": 3686,
      "ĠnÃ´": 3687,
      "ĠlÃ¹ng": 3688,
      "Ġluá»¹": 3689,
      "Ġnhá»ĩn": 3690,
      "ĠCáº§n": 3691,
      "ĠCop": 3692,
      "ĠÄĲáº¥y": 3693,
      "ones": 3694,
      "ĠchÃ´n": 3695,
      "Ġtháº¥m": 3696,
      "Ġmá»ķ": 3697,
      "ink": 3698,
      "Ġphun": 3699,
      "ĠNguyÃªn": 3700,
      "ĠWeb": 3701,
      "Ġoh": 3702,
      "azon": 3703,
      "ĠLoÃłi": 3704,
      "ĠGreen": 3705,
      "Ġlogic": 3706,
      "Ġradio": 3707,
      "Ġváº¡ch": 3708,
      "Ġthung": 3709,
      "Ġgiá»įt": 3710,
      "Ġlá»ĵng": 3711,
      "ĠxuÃ¢n": 3712,
      "ĠQuá»¹": 3713,
      "ĠJer": 3714,
      "ush": 3715,
      "Ġ2005": 3716,
      "udio": 3717,
      "aptop": 3718,
      "ĠChÃ¡u": 3719,
      "ĠSahara": 3720,
      "cri": 3721,
      "len": 3722,
      "ts": 3723,
      "tor": 3724,
      "ĠsÃ©t": 3725,
      "Ġtriá»ĩt": 3726,
      "ĠrÃ£": 3727,
      "Ġcá»į": 3728,
      "Ġvá»Ŀ": 3729,
      "ĠthÆ°á»£ng": 3730,
      "ĠxÄĥm": 3731,
      "Ġlá»¡": 3732,
      "ĠManh": 3733,
      "ĠNhÄ©": 3734,
      "ĠLeg": 3735,
      "eth": 3736,
      "Ġchá»įc": 3737,
      "ace": 3738,
      "rop": 3739,
      "Ġinch": 3740,
      "Ġhuynh": 3741,
      "ĠAmazon": 3742,
      "ĠChrist": 3743,
      "ĠhÃ£m": 3744,
      "ĠNgoÃłi": 3745,
      "ĠPeter": 3746,
      "bur": 3747,
      "eh": 3748,
      "tÃ´": 3749,
      "ĠtÃª": 3750,
      "Ġtivi": 3751,
      "ĠvÃ²i": 3752,
      "ĠlÄĥng": 3753,
      "ĠlÃ©o": 3754,
      "ĠmÃ³ng": 3755,
      "ĠbÃ³c": 3756,
      "Ġsho": 3757,
      "Ġrun": 3758,
      "ĠSÄ©": 3759,
      "ĠLib": 3760,
      "Ġ27": 3761,
      "ĠWor": 3762,
      "raham": 3763,
      "ĠGiáº£i": 3764,
      "ĠStan": 3765,
      "age": 3766,
      "azz": 3767,
      "heimer": 3768,
      "cript": 3769,
      "ĠManhattan": 3770,
      "ria": 3771,
      "uk": 3772,
      "wood": 3773,
      "zheimer": 3774,
      "Ġáº©m": 3775,
      "ĠÄĳc": 3776,
      "ĠvÃ²": 3777,
      "Ġquáº¡": 3778,
      "ĠSy": 3779,
      "Ġtá»±u": 3780,
      "Ġvá»ĭnh": 3781,
      "ĠRw": 3782,
      "ĠEric": 3783,
      "ilicon": 3784,
      "ĠAlzheimer": 3785,
      "Ġoxytocin": 3786,
      "ĠSá»©c": 3787,
      "ca": 3788,
      "cago": 3789,
      "ef": 3790,
      "ja": 3791,
      "line": 3792,
      "ss": 3793,
      "ĠÃ¡i": 3794,
      "Ġtuá»·": 3795,
      "Ġli": 3796,
      "Ġvá»©t": 3797,
      "ĠTÆ°": 3798,
      "ĠTÃ¡c": 3799,
      "ĠVen": 3800,
      "ĠCÃ¡": 3801,
      "Ġchá»Ľp": 3802,
      "ĠÄĲo": 3803,
      "ĠÄĲáº£ng": 3804,
      "ĠkhiÃªm": 3805,
      "Ġcháº±m": 3806,
      "Ġmá»³": 3807,
      "ĠHaw": 3808,
      "ĠAh": 3809,
      "ens": 3810,
      "ĠJack": 3811,
      "ĠEn": 3812,
      "ĠchuÃ´ng": 3813,
      "ĠkÃ¬a": 3814,
      "ĠChicago": 3815,
      "SD": 3816,
      "gs": 3817,
      "mer": 3818,
      "to": 3819,
      "Ġnáº¿p": 3820,
      "ĠlÆ°á»¡i": 3821,
      "Ġluá»ĵng": 3822,
      "Ġlaptop": 3823,
      "Ġbá»ĳc": 3824,
      "Ġkm": 3825,
      "Ġngáº©n": 3826,
      "ĠÄĳÃ³m": 3827,
      "ĠxÃł": 3828,
      "ĠÄĲÆ°á»Ŀng": 3829,
      "ĠBÆ°á»Ľc": 3830,
      "ĠchÃ¹": 3831,
      "ĠSub": 3832,
      "Ġ26": 3833,
      "ĠGal": 3834,
      "oster": 3835,
      "ĠII": 3836,
      "ĠThÆ°á»Ŀng": 3837,
      "ĠThÆ°a": 3838,
      "uss": 3839,
      "Ġ600": 3840,
      "Ġnhiá»ħu": 3841,
      "oca": 3842,
      "Ġ250": 3843,
      "Ġ1990": 3844,
      "ĠBoston": 3845,
      "ĠvÃµng": 3846,
      "ĠRwanda": 3847,
      "ez": 3848,
      "mm": 3849,
      "tit": 3850,
      "xin": 3851,
      "ĠÆ": 3852,
      "Ġ000": 3853,
      "ĠkiÃªng": 3854,
      "ĠngÆ°ng": 3855,
      "Ġgáº¡ch": 3856,
      "Ġron": 3857,
      "Ġtháº¯t": 3858,
      "ĠVÄĥn": 3859,
      "Ġbá»ĵi": 3860,
      "ĠhoÃłnh": 3861,
      "Ġdá»ĭp": 3862,
      "air": 3863,
      "ĠMT": 3864,
      "ĠMe": 3865,
      "ĠAc": 3866,
      "ĠLuáºŃt": 3867,
      "ĠDe": 3868,
      "iá»ħu": 3869,
      "ĠÄĳoáº¡t": 3870,
      "ala": 3871,
      "ĠChÆ°a": 3872,
      "rian": 3873,
      "ĠJoe": 3874,
      "Ġlui": 3875,
      "Ġáº¥u": 3876,
      "Ġcu": 3877,
      "Ġcent": 3878,
      "ĠÄĳÃºc": 3879,
      "ĠÄĳuá»ĳi": 3880,
      "Ġvacc": 3881,
      "Ġsá»į": 3882,
      "ĠgáºŃy": 3883,
      "ĠVan": 3884,
      "ĠCoca": 3885,
      "ĠÄĲÆ¡n": 3886,
      "ĠnhÃ³c": 3887,
      "ĠkhoÄĥn": 3888,
      "ĠSim": 3889,
      "Æ°á»Łi": 3890,
      "ĠLat": 3891,
      "Ġngá»Ľ": 3892,
      "ĠXem": 3893,
      "ĠÄĳÃ´la": 3894,
      "ĠThÃ¬": 3895,
      "ĠThÃªm": 3896,
      "ĠGiai": 3897,
      "Ġtuá»µ": 3898,
      "ĠMont": 3899,
      "Ġnano": 3900,
      "our": 3901,
      "rew": 3902,
      "£m": 3903,
      "Ńng": 3904,
      "ĠÄĳáºŃm": 3905,
      "Ġgolf": 3906,
      "oth": 3907,
      "Ġbá»ĥ": 3908,
      "ĠhoÃ£n": 3909,
      "ĠhÃŃt": 3910,
      "ĠMRI": 3911,
      "Ġmá»¡": 3912,
      "ĠHans": 3913,
      "ĠTrá»Ł": 3914,
      "ĠPer": 3915,
      "ĠDel": 3916,
      "imb": 3917,
      "ĠJim": 3918,
      "athan": 3919,
      "Ġrá»ī": 3920,
      "ĠÄĲá»©a": 3921,
      "ust": 3922,
      "liam": 3923,
      "ĠháºŃn": 3924,
      "Ġhydro": 3925,
      "ĠPhÃ¡t": 3926,
      "ĠWilliam": 3927,
      "ridge": 3928,
      "ĠGabby": 3929,
      "ĠApple": 3930,
      "Ġtiá»ĩm": 3931,
      "Ġváº£": 3932,
      "Ġngá»Ļt": 3933,
      "Ġnhá»§": 3934,
      "ĠnÃłn": 3935,
      "ĠVáºŃt": 3936,
      "ĠCE": 3937,
      "ĠÄĲá»Ļng": 3938,
      "ĠHÃłnh": 3939,
      "ĠHen": 3940,
      "ĠGates": 3941,
      "ĠJan": 3942,
      "ure": 3943,
      "Ġ95": 3944,
      "ĠQuay": 3945,
      "ĠUy": 3946,
      "ĠghÃª": 3947,
      "Ġhá»ķng": 3948,
      "ĠHá»£p": 3949,
      "ĠTranscript": 3950,
      "ĠSubtit": 3951,
      "ĠSubtitles": 3952,
      "lick": 3953,
      "ue": 3954,
      "½n": 3955,
      "Ġon": 3956,
      "Ġcanh": 3957,
      "ĠÄĳiá»ģn": 3958,
      "Ġvá»Ļi": 3959,
      "Ġlam": 3960,
      "ĠbÄĥn": 3961,
      "Ġbáº§y": 3962,
      "ĠgÃ£y": 3963,
      "Ġgom": 3964,
      "Ġchuyá»ģn": 3965,
      "ĠViá»ĩt": 3966,
      "ĠgiáºŃt": 3967,
      "ĠBab": 3968,
      "ĠMic": 3969,
      "ĠSw": 3970,
      "emen": 3971,
      "hia": 3972,
      "ĠWar": 3973,
      "ĠOx": 3974,
      "ĠPhÃ²ng": 3975,
      "Ġquá»·": 3976,
      "iano": 3977,
      "ĠPark": 3978,
      "ĠnhÃ¡nh": 3979,
      "ĠTimes": 3980,
      "ĠBrow": 3981,
      "Ġngháº½n": 3982,
      "ĠÆ°Æ¡ng": 3983,
      "Ġváº¥t": 3984,
      "Ġbáº©m": 3985,
      "Ġgien": 3986,
      "Ġhoan": 3987,
      "ĠBon": 3988,
      "ĠMÃłu": 3989,
      "ĠKoran": 3990,
      "ĠgiÃ¡p": 3991,
      "Ġ32": 3992,
      "ĠNhá»Ŀ": 3993,
      "Ġ195": 3994,
      "Ġ2004": 3995,
      "Ġ2006": 3996,
      "ida": 3997,
      "ĠZe": 3998,
      "ĠOkay": 3999,
      "Ġmicro": 4000,
      "car": 4001,
      "ster": 4002,
      "Ġor": 4003,
      "Ńi": 4004,
      "Ġlá»į": 4005,
      "Ġmáº§m": 4006,
      "Ġbáº»": 4007,
      "ĠsÃºp": 4008,
      "ĠtrÃºng": 4009,
      "Ġdáº¡i": 4010,
      "ĠchÃły": 4011,
      "ĠthiÃªng": 4012,
      "ĠTes": 4013,
      "ĠTas": 4014,
      "ĠNan": 4015,
      "ĠNor": 4016,
      "Ġbá»ĵ": 4017,
      "ĠBur": 4018,
      "Ġdá»ĩt": 4019,
      "ĠHáº¯n": 4020,
      "ini": 4021,
      "ĠSá»Ń": 4022,
      "ĠGo": 4023,
      "ĠPat": 4024,
      "ĠWat": 4025,
      "ĠFlor": 4026,
      "Ġ65": 4027,
      "ĠGiáº£": 4028,
      "ĠÄĳá»ĳm": 4029,
      "ĠPalest": 4030,
      "cÃ´": 4031,
      "lar": 4032,
      "oft": 4033,
      "Ġuy": 4034,
      "ĠÃło": 4035,
      "ĠtÃ¹ng": 4036,
      "Ġváº·t": 4037,
      "Ġlá»Ļt": 4038,
      "ĠsÆ°á»Ľng": 4039,
      "Ġráº¡p": 4040,
      "ĠÄĳá»¥ng": 4041,
      "Ġnhá»ĭ": 4042,
      "ĠTony": 4043,
      "ĠnÃ³n": 4044,
      "ĠxÃ¡ch": 4045,
      "ĠÄĲáº·c": 4046,
      "ĠhÃ´ng": 4047,
      "ĠMy": 4048,
      "inson": 4049,
      "Ġ28": 4050,
      "enz": 4051,
      "ĠRio": 4052,
      "ale": 4053,
      "esh": 4054,
      "ĠphiÃªu": 4055,
      "Ġphá»ĳt": 4056,
      "ĠWhi": 4057,
      "ĠHoÃłn": 4058,
      "ĠStar": 4059,
      "Ġxoáº¯n": 4060,
      "Ġxá»©": 4061,
      "Ġ1970": 4062,
      "Ġ1960": 4063,
      "ĠvÃ²m": 4064,
      "go": 4065,
      "uel": 4066,
      "Ġuá»ĳn": 4067,
      "Ńp": 4068,
      "ĠvÆ°Æ¡ng": 4069,
      "Ġrá»Ļn": 4070,
      "ĠrÃ¬a": 4071,
      "Ġtá»ĭch": 4072,
      "ĠTÃŃnh": 4073,
      "Ġque": 4074,
      "ongo": 4075,
      "ĠVáº«n": 4076,
      "ĠÄĲáº¡o": 4077,
      "ĠMac": 4078,
      "ĠMah": 4079,
      "ĠKim": 4080,
      "ĠKing": 4081,
      "erson": 4082,
      "ĠGand": 4083,
      "ĠDon": 4084,
      "alia": 4085,
      "ĠHoward": 4086,
      "lian": 4087,
      "Ġ2003": 4088,
      "ĠQuÃ¢n": 4089,
      "Ġ2011": 4090,
      "ĠNá»ģn": 4091,
      "lu": 4092,
      "we": 4093,
      "Ġclip": 4094,
      "Ġmá»ĳc": 4095,
      "Ġbiáº¿m": 4096,
      "Ġthá»ĳt": 4097,
      "ĠdáºŃp": 4098,
      "ĠkhÃ¹ng": 4099,
      "ĠcÃ¡p": 4100,
      "Ġtháº¯n": 4101,
      "ĠCamb": 4102,
      "Ġkhan": 4103,
      "Ġkhen": 4104,
      "ĠNÃ£o": 4105,
      "Ġnháº¥p": 4106,
      "Ġcáº£ng": 4107,
      "Ġká»ģ": 4108,
      "ile": 4109,
      "omb": 4110,
      "ĠYemen": 4111,
      "red": 4112,
      "ĠUg": 4113,
      "igami": 4114,
      "ther": 4115,
      "Ġ120": 4116,
      "ĠtÃ´m": 4117,
      "izza": 4118,
      "Ġvaccine": 4119,
      "ĠHenry": 4120,
      "Ġorigami": 4121,
      "Tube": 4122,
      "na": 4123,
      "Ġel": 4124,
      "Ġlau": 4125,
      "Ġbá»±c": 4126,
      "ĠbÃºa": 4127,
      "Ġkem": 4128,
      "Ġkáº½": 4129,
      "Ġkáº¹p": 4130,
      "Ġpiano": 4131,
      "Ġcá»§ng": 4132,
      "ĠTan": 4133,
      "ĠCongo": 4134,
      "ĠnhÃ£": 4135,
      "int": 4136,
      "ĠchÃŃp": 4137,
      "ĠnhÃłm": 4138,
      "Ġkhoai": 4139,
      "ĠSing": 4140,
      "Ġká»ĩ": 4141,
      "ĠAp": 4142,
      "ĠLad": 4143,
      "Ġsá»Ńng": 4144,
      "Ġá»§i": 4145,
      "ĠthoÃ¡ng": 4146,
      "ĠPháºŃt": 4147,
      "outh": 4148,
      "ĠchÃ³c": 4149,
      "ĠNá»¯": 4150,
      "ĠYouTube": 4151,
      "Ġax": 4152,
      "ĠÄĳá»ĩm": 4153,
      "ĠWorld": 4154,
      "ĠTasman": 4155,
      "dy": 4156,
      "ger": 4157,
      "ke": 4158,
      "ris": 4159,
      "ten": 4160,
      "ĠtÄĥm": 4161,
      "ĠÄĳinh": 4162,
      "ĠmÃ©p": 4163,
      "ĠsÆ°á»Ŀn": 4164,
      "ĠtrÃ¹m": 4165,
      "Ġgáº¡t": 4166,
      "ĠchÆ°á»Ľng": 4167,
      "Ġtam": 4168,
      "Ġxá»Ļn": 4169,
      "ĠCA": 4170,
      "ĠCy": 4171,
      "ĠchoÃ¡ng": 4172,
      "ĠBush": 4173,
      "ĠBrian": 4174,
      "Ġdá»ĵn": 4175,
      "ĠMÃ¹a": 4176,
      "Ġmá»Ľ": 4177,
      "ĠKar": 4178,
      "ĠShi": 4179,
      "ĠSÃ¡u": 4180,
      "ĠGhan": 4181,
      "Ġphe": 4182,
      "ĠphÆ¡i": 4183,
      "Ġvá»ĭt": 4184,
      "Ġ3000": 4185,
      "Ġrá»¡": 4186,
      "ĠFord": 4187,
      "Ġ....": 4188,
      "ĠhÃ¡i": 4189,
      "ĠghÃ©": 4190,
      "ĠthÆ¡m": 4191,
      "ĠArist": 4192,
      "ĠhuÃ½t": 4193,
      "Ġstudio": 4194,
      "mpic": 4195,
      "ĠMicros": 4196,
      "ĠUganda": 4197,
      "ĠGhana": 4198,
      "Cola": 4199,
      "lob": 4200,
      "Ġtáº¡ng": 4201,
      "Ġtriá»ģu": 4202,
      "ĠtrÃ¨o": 4203,
      "Ġgai": 4204,
      "Ġdai": 4205,
      "Ġthiá»ģn": 4206,
      "ĠTáº¡o": 4207,
      "ĠVÃ´": 4208,
      "ĠnhÃ©t": 4209,
      "ĠHer": 4210,
      "ĠKÃ¬": 4211,
      "Ġtá»ĳng": 4212,
      "ĠLED": 4213,
      "ĠGen": 4214,
      "ĠPl": 4215,
      "arah": 4216,
      "ĠRáº±ng": 4217,
      "ĠÄĳom": 4218,
      "Ġngá»¥c": 4219,
      "ĠNgÃ´i": 4220,
      "ĠmÃ´t": 4221,
      "Ġrá»Ĺi": 4222,
      "ĠFG": 4223,
      "ille": 4224,
      "ĠÄĲá»ı": 4225,
      "itz": 4226,
      "righ": 4227,
      "igh": 4228,
      "ĠThÃ¡ng": 4229,
      "lyn": 4230,
      "iban": 4231,
      "ĠToÃł": 4232,
      "Ġdá»ĭu": 4233,
      "ĠHiggs": 4234,
      "ĠbÆ°á»Ľm": 4235,
      "ĠSyria": 4236,
      "ĠOxford": 4237,
      "ĠAristot": 4238,
      "ba": 4239,
      "hen": 4240,
      "up": 4241,
      "¯á»": 4242,
      "ĠÃ¢u": 4243,
      "ĭt": 4244,
      "ĠtÃºng": 4245,
      "ĠmÆ°u": 4246,
      "Ġsc": 4247,
      "ĠngÆ°": 4248,
      "ĠhÃłn": 4249,
      "ĠrÃ¢u": 4250,
      "ĠrÃ¨n": 4251,
      "ĠTÃłi": 4252,
      "Ġtang": 4253,
      "Ġgieo": 4254,
      "ĠNL": 4255,
      "ĠMatt": 4256,
      "Ġkháº©n": 4257,
      "Ġphiáº¿n": 4258,
      "Ġtrá»įn": 4259,
      "Ġngá»«": 4260,
      "Ġ33": 4261,
      "ĠWall": 4262,
      "Ġ1950": 4263,
      "Ġ85": 4264,
      "unt": 4265,
      "eda": 4266,
      "ect": 4267,
      "ĠLego": 4268,
      "ĠCambridge": 4269,
      "ĠMicrosoft": 4270,
      "ĠAristotle": 4271,
      "af": 4272,
      "ium": 4273,
      "kg": 4274,
      "ker": 4275,
      "nes": 4276,
      "ªnh": 4277,
      "Ġam": 4278,
      "įn": 4279,
      "Ľc": 4280,
      "Ġtáº©y": 4281,
      "Ġváº§n": 4282,
      "ĠbÃ³n": 4283,
      "ĠhÆ°ng": 4284,
      "ĠdÃª": 4285,
      "ĠÄĳá»¥c": 4286,
      "ĠTu": 4287,
      "ĠVÅ©": 4288,
      "ÃŃn": 4289,
      "ĠBu": 4290,
      "ĠhÃ¢m": 4291,
      "ĠMil": 4292,
      "ĠMand": 4293,
      "Ġháº»": 4294,
      "ĠSal": 4295,
      "Ġtrá»ħ": 4296,
      "Ġdol": 4297,
      "Ġngá»¥": 4298,
      "etro": 4299,
      "ati": 4300,
      "itch": 4301,
      "ĠGiá»Ľi": 4302,
      "ĠUn": 4303,
      "ower": 4304,
      "ĠBrook": 4305,
      "ĠJosh": 4306,
      "ropy": 4307,
      "ze": 4308,
      "¥i": 4309,
      "ĭa": 4310,
      "ĠÄĳÃ²n": 4311,
      "Ġváº¡n": 4312,
      "Ġbanh": 4313,
      "Ġbá»Ļc": 4314,
      "Ġbuá»ĵng": 4315,
      "Ġpizza": 4316,
      "ĠdÆ¡i": 4317,
      "Ġdáº¹p": 4318,
      "Ġcá»ĵn": 4319,
      "Ġvá»įt": 4320,
      "áº¥ng": 4321,
      "ĠcÃ³c": 4322,
      "ĠchiÃªm": 4323,
      "á»ĳp": 4324,
      "ĠTáº¿": 4325,
      "ĠVir": 4326,
      "Ġxay": 4327,
      "ĠthÃ¨": 4328,
      "ania": 4329,
      "ĠÄĲá»Ļt": 4330,
      "ĠBob": 4331,
      "ĠMel": 4332,
      "Ġphá»ĵng": 4333,
      "ĠSW": 4334,
      "ĠSer": 4335,
      "eop": 4336,
      "Ġtrá»«ng": 4337,
      "ĠLak": 4338,
      "ĠLester": 4339,
      "Ġá»ª": 4340,
      "ari": 4341,
      "ĠRo": 4342,
      "ĠRock": 4343,
      "ĠÃįt": 4344,
      "ĠNgÆ°á»£c": 4345,
      "ĠÄĲá»ĭa": 4346,
      "ĠHoÃłng": 4347,
      "ĠOs": 4348,
      "ĠOly": 4349,
      "Ġ2001": 4350,
      "ĠTaliban": 4351,
      "Ġjazz": 4352,
      "anderthal": 4353,
      "ĠNeanderthal": 4354,
      "Ġshow": 4355,
      "ĠStanford": 4356,
      "right": 4357,
      "mon": 4358,
      "¡c": 4359,
      "´i": 4360,
      "Ġac": 4361,
      "Ġent": 4362,
      "ĠÆ°á»Ľt": 4363,
      "ĠÄĳÃ¨": 4364,
      "Ġváº¯ng": 4365,
      "Ġváº©n": 4366,
      "ĠlÃ´": 4367,
      "ĠlÃª": 4368,
      "Ġser": 4369,
      "Ġrá»ĳt": 4370,
      "Ġpound": 4371,
      "Ġnha": 4372,
      "Ġvá»Ľ": 4373,
      "Ġchay": 4374,
      "Ġnhá»Ļ": 4375,
      "ĠTex": 4376,
      "ĠnghiÃªng": 4377,
      "Ġbá»ĵn": 4378,
      "ĠBay": 4379,
      "ĠMu": 4380,
      "ĠphÃ¡o": 4381,
      "ĠKi": 4382,
      "ĠSÃ¡ng": 4383,
      "Ġquad": 4384,
      "ĠPan": 4385,
      "Ġngá»£i": 4386,
      "Ġngá»Ńi": 4387,
      "ĠJenn": 4388,
      "Ġ55": 4389,
      "ĠXÃ´": 4390,
      "aser": 4391,
      "ĠYeah": 4392,
      "ĠÃ´tÃ´": 4393,
      "oph": 4394,
      "ardo": 4395,
      "thur": 4396,
      "ulin": 4397,
      "ĠShak": 4398,
      "ĠAmy": 4399,
      "ĠâĢĶ": 4400,
      "ĠCharlie": 4401,
      "ĠAbraham": 4402,
      "ĠÆ¯á»": 4403,
      "ĠFlorida": 4404,
      "ĠTexas": 4405,
      "enh": 4406,
      "mo": 4407,
      "Ġáº¥p": 4408,
      "ĠnÃ¢u": 4409,
      "Ġnuá»ĳt": 4410,
      "ĠbÆ°u": 4411,
      "Ġbáº«y": 4412,
      "ĠkÃ¬m": 4413,
      "ĠngÃ¢y": 4414,
      "ĠdÆ°a": 4415,
      "Ġnhi": 4416,
      "ĠTur": 4417,
      "Ġtao": 4418,
      "Æ°á»£m": 4419,
      "ĠVi": 4420,
      "Ġxáº£o": 4421,
      "ĠCP": 4422,
      "ĠNel": 4423,
      "ant": 4424,
      "ĠBol": 4425,
      "ĠBá»ĳn": 4426,
      "ĠnhÃ´": 4427,
      "ĠHolly": 4428,
      "ĠKy": 4429,
      "ĠAv": 4430,
      "ĠLáº¡i": 4431,
      "ĠLar": 4432,
      "ĠRay": 4433,
      "ora": 4434,
      "ĠbÃ¡t": 4435,
      "ĠChÆ°Æ¡ng": 4436,
      "Ġbá»ıng": 4437,
      "ĠEli": 4438,
      "ĠQuáº£": 4439,
      "agen": 4440,
      "own": 4441,
      "ĠBron": 4442,
      "Ġtháº¡o": 4443,
      "Ġ1980": 4444,
      "ĠDaniel": 4445,
      "ĠJeff": 4446,
      "Ġonline": 4447,
      "ĠthÃ¨m": 4448,
      "Ġentropy": 4449,
      "ĠÆ¯á»Ľc": 4450,
      "AR": 4451,
      "fe": 4452,
      "ha": 4453,
      "kins": 4454,
      "sulin": 4455,
      "Ġtáº£o": 4456,
      "Ġcay": 4457,
      "ĠÄĳáº¯m": 4458,
      "Ġnáº¡p": 4459,
      "Ġbáº¿n": 4460,
      "Ġbáº©y": 4461,
      "ĠngÆ°Æ¡i": 4462,
      "áº¿m": 4463,
      "Ġrá»±c": 4464,
      "ĠdÃ¢ng": 4465,
      "ĠchiÃªn": 4466,
      "Ġthen": 4467,
      "Ã¬u": 4468,
      "ĠquáºŃn": 4469,
      "Ġxáº¿": 4470,
      "ĠNord": 4471,
      "Ġpháº¿": 4472,
      "ĠÄĲÆ°Æ¡ng": 4473,
      "ĠMáº¡ch": 4474,
      "ĠAri": 4475,
      "ĠTrÃ´ng": 4476,
      "ĠDa": 4477,
      "ory": 4478,
      "ĠvirÃºt": 4479,
      "ĠWolf": 4480,
      "ole": 4481,
      "ĠVá»ĭnh": 4482,
      "ĠThÃŃ": 4483,
      "ĠGiÃ¡ng": 4484,
      "ĠUSD": 4485,
      "ĠxoÃ¡y": 4486,
      "ĠYout": 4487,
      "ĠchÃ¹m": 4488,
      "ĠOlympic": 4489,
      "den": 4490,
      "rap": 4491,
      "se": 4492,
      "Ġuá»·": 4493,
      "Ġcá»Ļ": 4494,
      "ĠnÃŃn": 4495,
      "Ġlay": 4496,
      "Ġgay": 4497,
      "Ġdiá»ģu": 4498,
      "Ġthiáº¿p": 4499,
      "Ġthuá»³": 4500,
      "Ġnhá»ĵi": 4501,
      "ĠTay": 4502,
      "ĠTam": 4503,
      "ĠTá»ĳi": 4504,
      "ĠTit": 4505,
      "ĠVÆ°Æ¡ng": 4506,
      "Ġkhiáº¿u": 4507,
      "ĠÄĲáº¿": 4508,
      "ĠMor": 4509,
      "ĠHu": 4510,
      "ĠKev": 4511,
      "ĠSouth": 4512,
      "emp": 4513,
      "ĠAs": 4514,
      "ĠLau": 4515,
      "ero": 4516,
      "ĠNgÃ´n": 4517,
      "Ġ37": 4518,
      "ĠviÃªm": 4519,
      "ĠQuyá»ģn": 4520,
      "Ġsoi": 4521,
      "ata": 4522,
      "Ġ2050": 4523,
      "Ġ700": 4524,
      "ĠThÃ´i": 4525,
      "rog": 4526,
      "ĠStew": 4527,
      "agh": 4528,
      "Ġnhuá»Ļm": 4529,
      "ĠNhÃ³m": 4530,
      "ĠNghÄ©": 4531,
      "ĠLá»Ŀi": 4532,
      "ĠLá»ĭch": 4533,
      "ĠLá»Ľn": 4534,
      "ĠluÃ¢n": 4535,
      "ĠRosling": 4536,
      "ĠÄĲoáº¡n": 4537,
      "ĠBrown": 4538,
      "ĠCyrus": 4539,
      "Ġdollar": 4540,
      "Ġnhá»Ļn": 4541,
      "ĠYoutube": 4542,
      "500": 4543,
      "BM": 4544,
      "gar": 4545,
      "oh": 4546,
      "oot": 4547,
      "yan": 4548,
      "Ġlá»Ļi": 4549,
      "ĠláºŃu": 4550,
      "ĠsÃ¹ng": 4551,
      "Ġtrinh": 4552,
      "Ġtrá»Ļi": 4553,
      "Ġgá»Ļp": 4554,
      "Ġtháº¯p": 4555,
      "ĠTÃ¬m": 4556,
      "ĠxÃ´": 4557,
      "ĠxÃ¡": 4558,
      "Ġxáº£": 4559,
      "Ġxen": 4560,
      "ĠCap": 4561,
      "ĠkhÄĥng": 4562,
      "Ġnghiá»ģn": 4563,
      "chia": 4564,
      "ĠÄĲÃ¡ng": 4565,
      "ĠhÃ©": 4566,
      "ĠhÃ¢n": 4567,
      "ĠMos": 4568,
      "ĠMill": 4569,
      "ino": 4570,
      "ĠKiáº¿n": 4571,
      "ĠSi": 4572,
      "ĠLong": 4573,
      "ere": 4574,
      "Ã©n": 4575,
      "Ġ29": 4576,
      "ĠGil": 4577,
      "ĠDV": 4578,
      "ĠRon": 4579,
      "Ġ31": 4580,
      "ĠJac": 4581,
      "Ġkhuáº¥t": 4582,
      "ison": 4583,
      "ĠWow": 4584,
      "ĠFor": 4585,
      "Ġ191": 4586,
      "ever": 4587,
      "ĠToÃ¡n": 4588,
      "Ġbá»ķng": 4589,
      "ĠAndrew": 4590,
      "urger": 4591,
      "ĠLatin": 4592,
      "ĠWatson": 4593,
      "ĠNorden": 4594,
      "TC": 4595,
      "rut": 4596,
      "ĠÃ¢n": 4597,
      "Ġtw": 4598,
      "Ġtua": 4599,
      "Ġcai": 4600,
      "ĠlÆ°á»£m": 4601,
      "Ġmar": 4602,
      "Ġmá»įt": 4603,
      "Ġbáº¿": 4604,
      "Ġkeo": 4605,
      "Ġsáº¿p": 4606,
      "ĠsÃ³i": 4607,
      "ĠtrÃªu": 4608,
      "ĠngÃ´": 4609,
      "Ġngá»Ļ": 4610,
      "ĠgáºŃp": 4611,
      "Ġray": 4612,
      "Ġria": 4613,
      "ĠnhÄĥn": 4614,
      "ĠTiá»ģn": 4615,
      "ĠTed": 4616,
      "ĠCáº§u": 4617,
      "ĠÄĲan": 4618,
      "ona": 4619,
      "Ġdá»¡": 4620,
      "ĠMat": 4621,
      "ĠMur": 4622,
      "ĠMike": 4623,
      "ĠHill": 4624,
      "ĠKÃŃnh": 4625,
      "ĠkhoÃ¡n": 4626,
      "ĠGore": 4627,
      "ĠDis": 4628,
      "ĠDetro": 4629,
      "aland": 4630,
      "eton": 4631,
      "eting": 4632,
      "ĠEar": 4633,
      "ĠEur": 4634,
      "ĠThá»ĳng": 4635,
      "oll": 4636,
      "Ġchip": 4637,
      "Ġ800": 4638,
      "ĠStre": 4639,
      "ĠSteph": 4640,
      "Ġinsulin": 4641,
      "ĠCháº¥t": 4642,
      "ĠAir": 4643,
      "ĠArthur": 4644,
      "ĠÃģnh": 4645,
      "tron": 4646,
      "ĠScotland": 4647,
      "ĠKháº£": 4648,
      "Ġcuáº£": 4649,
      "ĠCEO": 4650,
      "ĠPalestine": 4651,
      "ĠSingap": 4652,
      "lobal": 4653,
      "ĠMandela": 4654,
      "ĠDetroit": 4655,
      "ĠStephen": 4656,
      "EC": 4657,
      "gin": 4658,
      "mad": 4659,
      "§y": 4660,
      "Ġcáº©u": 4661,
      "Ġne": 4662,
      "Ġnit": 4663,
      "Ġváº«y": 4664,
      "Ġlaser": 4665,
      "Ġmil": 4666,
      "Ġmark": 4667,
      "Ġsáº£nh": 4668,
      "ĠtrÆ°Æ¡ng": 4669,
      "Ġráº£i": 4670,
      "Ġdang": 4671,
      "ĠkhÃ©p": 4672,
      "ĠkhÃ¢u": 4673,
      "Ã¢t": 4674,
      "ĠCD": 4675,
      "Ġkhe": 4676,
      "ĠNo": 4677,
      "ĠÄĲÆ°a": 4678,
      "Ġbá»Ľi": 4679,
      "ĠBi": 4680,
      "ĠBá»įn": 4681,
      "Ġháº£": 4682,
      "ĠKiá»ĥu": 4683,
      "ĠSom": 4684,
      "Ġkhá»ĳn": 4685,
      "ĠMá»Ľi": 4686,
      "espe": 4687,
      "Ġrá»ķ": 4688,
      "oop": 4689,
      "ĠhÃ¡n": 4690,
      "iana": 4691,
      "ansas": 4692,
      "ĠbÃ³p": 4693,
      "sha": 4694,
      "ĠBlack": 4695,
      "ĠNgoáº¡i": 4696,
      "ĠIndones": 4697,
      "burgh": 4698,
      "Ġháº»o": 4699,
      "ĠShakespe": 4700,
      "ĠHollywood": 4701,
      "ĠBronx": 4702,
      "ĠStreet": 4703,
      "ĠSingapore": 4704,
      "ĠIndonesia": 4705,
      "BC": 4706,
      "ies": 4707,
      "nia": 4708,
      "pam": 4709,
      "ven": 4710,
      "via": 4711,
      "ĠtÆ¡": 4712,
      "ĠÄĳÃłng": 4713,
      "ĠnÃ£y": 4714,
      "Ġváº·n": 4715,
      "ĠlÆ°á»£n": 4716,
      "ĠngÆ¡i": 4717,
      "Ġgiáº¿ng": 4718,
      "ĠvÃłn": 4719,
      "Ġthá»ģ": 4720,
      "Ġdev": 4721,
      "Ġtá»¥t": 4722,
      "ĠxÃłi": 4723,
      "ĠCá»ĳ": 4724,
      "Ġchá»ĳn": 4725,
      "oto": 4726,
      "Ġsá»ıi": 4727,
      "Ġkhoang": 4728,
      "ĠLew": 4729,
      "ĠLee": 4730,
      "ence": 4731,
      "Ġkhá»ĳc": 4732,
      "ĠGold": 4733,
      "ĠRobot": 4734,
      "ĠNguá»ĵn": 4735,
      "ali": 4736,
      "ĠIr": 4737,
      "ĠIcel": 4738,
      "ĠEc": 4739,
      "ĠEt": 4740,
      "ĠEver": 4741,
      "ictor": 4742,
      "ĠFer": 4743,
      "ĠXÃ£": 4744,
      "ĠYo": 4745,
      "Ġcháº·ng": 4746,
      "ĠJoseph": 4747,
      "ĠphÃ´i": 4748,
      "ĠbÃ¹n": 4749,
      "ĠLaden": 4750,
      "ĠNelson": 4751,
      "ĠDVD": 4752,
      "ĠIceland": 4753,
      "BI": 4754,
      "MA": 4755,
      "NC": 4756,
      "bá»ĳt": 4757,
      "dam": 4758,
      "jo": 4759,
      "kel": 4760,
      "Ġnáº¡": 4761,
      "Ġnuá»ĳi": 4762,
      "Ġnáº¯p": 4763,
      "Ġnáº¿m": 4764,
      "ĠvÃ¡ch": 4765,
      "ĠlÃ¡ch": 4766,
      "ĠliÃªng": 4767,
      "Ġmi": 4768,
      "ĠmuÃ´n": 4769,
      "Ġngáº¯t": 4770,
      "ĠngÃło": 4771,
      "ĠhÄĥng": 4772,
      "ĠhÃłu": 4773,
      "ĠrÃ²": 4774,
      "Ġráº·ng": 4775,
      "ĠÄĳá»įng": 4776,
      "ĠnhÆ°á»£c": 4777,
      "que": 4778,
      "ĠThÃº": 4779,
      "ĠTÃ¢m": 4780,
      "Ġquáº¡t": 4781,
      "ĠVictor": 4782,
      "Ġxi": 4783,
      "ĠxÆ¡": 4784,
      "ĠCáº£nh": 4785,
      "Ġkhiáº¿t": 4786,
      "ĠÄĳÃ£i": 4787,
      "á»įng": 4788,
      "ĠÄĲÃ´": 4789,
      "Ġlá»©a": 4790,
      "Ġlá»Ńng": 4791,
      "ĠBáº£y": 4792,
      "ĠMag": 4793,
      "ĠKn": 4794,
      "ĠSand": 4795,
      "Ġloa": 4796,
      "ĠTruyá»ģn": 4797,
      "ĠÄĳá»ĵn": 4798,
      "Ġbá»Ļi": 4799,
      "ĠPro": 4800,
      "ĠPop": 4801,
      "ĠDÆ°á»Ŀng": 4802,
      "ĠDen": 4803,
      "ĠDÆ°á»Ľi": 4804,
      "osh": 4805,
      "atar": 4806,
      "Ġ46": 4807,
      "ĠEs": 4808,
      "ilet": 4809,
      "Ġmáº¹o": 4810,
      "ĠÄĲá»ĭnh": 4811,
      "olm": 4812,
      "Ġ2002": 4813,
      "ĠAlbert": 4814,
      "ĠNháº¡c": 4815,
      "ivers": 4816,
      "pha": 4817,
      "ĠKhu": 4818,
      "Ġlogo": 4819,
      "ĠbÃªnh": 4820,
      "ĠCarolina": 4821,
      "ĠMontana": 4822,
      "ĠZealand": 4823,
      "Ġtweet": 4824,
      "Ġmarketing": 4825,
      "ĠShakespeare": 4826,
      "din": 4827,
      "ear": 4828,
      "har": 4829,
      "mar": 4830,
      "ville": 4831,
      "Ġ+": 4832,
      "īa": 4833,
      "ĠtÃ¡t": 4834,
      "Ġclick": 4835,
      "ĠÄĳan": 4836,
      "ĠÄĳun": 4837,
      "ĠvÃ¡y": 4838,
      "Ġláº¥n": 4839,
      "Ġlen": 4840,
      "Ġbon": 4841,
      "Ġkil": 4842,
      "Ġsuá»ĳi": 4843,
      "Ġhiáº¿u": 4844,
      "ĠdÃ¢u": 4845,
      "ĠTer": 4846,
      "ĠquÄĥng": 4847,
      "ĠVal": 4848,
      "ĠthÃª": 4849,
      "oton": 4850,
      "ĠÄĲÃłn": 4851,
      "ĠBÄĥng": 4852,
      "Ġdá»Ŀi": 4853,
      "ĠMÃ´": 4854,
      "ĠMáº¥y": 4855,
      "ĠMá»Ļc": 4856,
      "ĠMá»ĳi": 4857,
      "ĠHan": 4858,
      "ĠHam": 4859,
      "Ġtoa": 4860,
      "Ġtoilet": 4861,
      "ĠSuy": 4862,
      "ĠSilicon": 4863,
      "eron": 4864,
      "aron": 4865,
      "Ġngoáº¡n": 4866,
      "ĠJay": 4867,
      "ĠIBM": 4868,
      "Ġ48": 4869,
      "ĠED": 4870,
      "Ġrá»ĩt": 4871,
      "Ġchui": 4872,
      "Ġchuá»Ļng": 4873,
      "ollo": 4874,
      "ĠNewton": 4875,
      "ĠQuáº£ng": 4876,
      "ĠUá»": 4877,
      "ĠMcC": 4878,
      "ĠGandhi": 4879,
      "Ġelec": 4880,
      "Ġscan": 4881,
      "ĠJoshua": 4882,
      "ĠVirgin": 4883,
      "ĠKevin": 4884,
      "Ġdevil": 4885,
      "do": 4886,
      "nie": 4887,
      "oint": 4888,
      "rin": 4889,
      "si": 4890,
      "ye": 4891,
      "¥a": 4892,
      "ĠÃ´i": 4893,
      "ĠÆ¡": 4894,
      "ĠÃªm": 4895,
      "Ġop": 4896,
      "ĠtÆ°á»Ľc": 4897,
      "Ġtáº¡c": 4898,
      "Ġcal": 4899,
      "Ġcáº¯n": 4900,
      "Ġcua": 4901,
      "Ġsp": 4902,
      "ĠÄĳá»©t": 4903,
      "Ġchuá»ĳi": 4904,
      "ĠcÃ¡n": 4905,
      "ĠNick": 4906,
      "ani": 4907,
      "ĠÄĲá»ĵ": 4908,
      "ĠMÃ´i": 4909,
      "Ġná»©t": 4910,
      "ĠKáº¿": 4911,
      "hic": 4912,
      "ĠLou": 4913,
      "Ġkhá»Ń": 4914,
      "ĠGÃ´": 4915,
      "Ġá»ıi": 4916,
      "ĠJul": 4917,
      "Ġnháº¡o": 4918,
      "ĠXÃ¢y": 4919,
      "Ġ1900": 4920,
      "Ġ1930": 4921,
      "ĠChÃ¢n": 4922,
      "omp": 4923,
      "ĠChá»¯": 4924,
      "agos": 4925,
      "Ġquá»µ": 4926,
      "ĠSher": 4927,
      "Ġ1999": 4928,
      "ĠChile": 4929,
      "ylon": 4930,
      "ĠnhÃ¡t": 4931,
      "ĠLeon": 4932,
      "ĠDelhi": 4933,
      "Ġelectron": 4934,
      "bo": 4935,
      "mi": 4936,
      "ni": 4937,
      "pi": 4938,
      "ui": 4939,
      "ux": 4940,
      "ħn": 4941,
      "ĠÄĳáº¡m": 4942,
      "ĠlÃ³t": 4943,
      "Ġbar": 4944,
      "Ġkiá»ģm": 4945,
      "ĠtrÃ³i": 4946,
      "Ġngáº£": 4947,
      "Ġthá»ĳn": 4948,
      "Ġcá»įc": 4949,
      "Ġhá»Ł": 4950,
      "Ġtá»Ľ": 4951,
      "ĠCÃłng": 4952,
      "ĠClin": 4953,
      "Ġkhinh": 4954,
      "ĠBJ": 4955,
      "ĠBuá»ķi": 4956,
      "ĠBud": 4957,
      "Ġdá»ĵi": 4958,
      "ĠMer": 4959,
      "ĠMas": 4960,
      "ĠMiss": 4961,
      "Ġsá»©a": 4962,
      "ĠKu": 4963,
      "ĠSai": 4964,
      "ĠSarah": 4965,
      "ĠAR": 4966,
      "ĠLin": 4967,
      "ĠRam": 4968,
      "ĠRed": 4969,
      "Ġ38": 4970,
      "ĠTháº§n": 4971,
      "eland": 4972,
      "ĠChuyáº¿n": 4973,
      "ĠThÆ°Æ¡ng": 4974,
      "Ġ44": 4975,
      "ĠWe": 4976,
      "ĠWright": 4977,
      "oly": 4978,
      "Ġcháº¡p": 4979,
      "ĠPhil": 4980,
      "ĠAlpha": 4981,
      "Ġcafe": 4982,
      "ĠPhÃŃa": 4983,
      "ĠCarl": 4984,
      "Ġ2012": 4985,
      "ĠHigh": 4986,
      "ĠAtlan": 4987,
      "ĠScott": 4988,
      "ĠAlexander": 4989,
      "ĠSimon": 4990,
      "ĠJane": 4991,
      "ĠWolfram": 4992,
      "ĠLewis": 4993,
      "ĠUá»·": 4994,
      "HA": 4995,
      "aeda": 4996,
      "burg": 4997,
      "hai": 4998,
      "las": 4999,
      "so": 5000,
      "ves": 5001,
      "yd": 5002,
      "¨n": 5003,
      "¹n": 5004,
      "ĠÂ": 5005,
      "Ġtáº»": 5006,
      "Ġcáº¡o": 5007,
      "ĠcÆ°á»¡i": 5008,
      "ĠÄĳÃŃnh": 5009,
      "ĠnhÃº": 5010,
      "Ġnáº¿n": 5011,
      "Ġnáº·c": 5012,
      "Ġná»Ļp": 5013,
      "ĠvÆ°á»Ľng": 5014,
      "Ġlá»įt": 5015,
      "Ġbin": 5016,
      "ĠsÆ°á»Łi": 5017,
      "Ġtre": 5018,
      "ĠgÄĥng": 5019,
      "Ġha": 5020,
      "Ġthá»ı": 5021,
      "Ġthá»«ng": 5022,
      "Ġrong": 5023,
      "ĠdÃło": 5024,
      "ĠTemp": 5025,
      "Ġquáº©n": 5026,
      "ĠViáº¿t": 5027,
      "ĠgiÃłn": 5028,
      "Ġxá»ĳp": 5029,
      "ĠCuá»ĳn": 5030,
      "ĠNÄĥng": 5031,
      "Ġnháº¥c": 5032,
      "ĠÄĲÃ¢u": 5033,
      "Ġhoi": 5034,
      "ĠcháºŃt": 5035,
      "Ãºm": 5036,
      "ĠMáº¡ng": 5037,
      "ĠHiá»ĩu": 5038,
      "Æ°Æ¡c": 5039,
      "Ġsá»Ŀ": 5040,
      "ĠKr": 5041,
      "ĠSO": 5042,
      "ĠSo": 5043,
      "ĠGG": 5044,
      "ĠphÃłn": 5045,
      "ĠRand": 5046,
      "ĠQuy": 5047,
      "ĠThuáºŃt": 5048,
      "ato": 5049,
      "Ġrá»Ľt": 5050,
      "Ġchá»įi": 5051,
      "ĠWK": 5052,
      "ĠWi": 5053,
      "ĠphÃŃch": 5054,
      "oid": 5055,
      "row": 5056,
      "opia": 5057,
      "Ġngá»§i": 5058,
      "ĠÄĳá»ĳn": 5059,
      "ake": 5060,
      "Ġok": 5061,
      "ĠZimb": 5062,
      "ĠCá»¥": 5063,
      "ĠArg": 5064,
      "Ġnguá»Ļi": 5065,
      "ĠColumb": 5066,
      "ational": 5067,
      "ĠTanz": 5068,
      "ight": 5069,
      "ĠStewart": 5070,
      "ĠDisney": 5071,
      "Global": 5072,
      "ech": 5073,
      "ij": 5074,
      "km": 5075,
      "nik": 5076,
      "¥y": 5077,
      "³t": 5078,
      "ĠÃ´n": 5079,
      "Ġáº¯c": 5080,
      "Ġenz": 5081,
      "ĩch": 5082,
      "Ġtiá»ĩt": 5083,
      "Ġcáº±n": 5084,
      "ĠvÃ£": 5085,
      "Ġbe": 5086,
      "ĠbÃ¬": 5087,
      "Ġbá»įt": 5088,
      "Ġngáº¡o": 5089,
      "Ġgáº¯t": 5090,
      "Ġhao": 5091,
      "Ġcá»Ľ": 5092,
      "ĠthiÃªu": 5093,
      "ĠTuá»ķi": 5094,
      "Ġxáº¥p": 5095,
      "ĠCÄĥn": 5096,
      "ĠNathan": 5097,
      "Ġchá»ĳc": 5098,
      "ott": 5099,
      "Ġbá»Ŀi": 5100,
      "uyá»ħn": 5101,
      "ĠMi": 5102,
      "ĠMÆ°á»Ŀi": 5103,
      "Ġphá»Ľt": 5104,
      "ĠKal": 5105,
      "ĠKel": 5106,
      "ĠkhoÃ¡c": 5107,
      "ĠSus": 5108,
      "ĠAg": 5109,
      "ĠtÃŃt": 5110,
      "ĠTrÃŃ": 5111,
      "Ġá»§": 5112,
      "ĠDr": 5113,
      "ĠRa": 5114,
      "ors": 5115,
      "ĠJH": 5116,
      "ĠJill": 5117,
      "ĠJord": 5118,
      "ĠEv": 5119,
      "ĠThá»§": 5120,
      "ĠThá»ĭ": 5121,
      "ĠThá»īnh": 5122,
      "ĠFri": 5123,
      "ĠXu": 5124,
      "Ġ2030": 5125,
      "ters": 5126,
      "urt": 5127,
      "ĠVá»Ĺ": 5128,
      "ooh": 5129,
      "entina": 5130,
      "ĠCá»©u": 5131,
      "ĠJohnny": 5132,
      "ĠPhong": 5133,
      "ĠNá»Ĺi": 5134,
      "Ġ1984": 5135,
      "inda": 5136,
      "ĠBrooklyn": 5137,
      "pamine": 5138,
      "BA": 5139,
      "bum": 5140,
      "lash": 5141,
      "uit": 5142,
      "way": 5143,
      "well": 5144,
      "zab": 5145,
      "Ġtuá»Ļc": 5146,
      "ĠcÆ°a": 5147,
      "ĠÄĳiáº¿u": 5148,
      "ĠnhÃºng": 5149,
      "ĠvÃ¹i": 5150,
      "ĠtrÃ¡": 5151,
      "ĠtrÃłng": 5152,
      "Ġngá»įc": 5153,
      "Ġgo": 5154,
      "Ġgáº¡o": 5155,
      "Ġghen": 5156,
      "ĠvÃłnh": 5157,
      "ĠrÃ¬u": 5158,
      "Ġpop": 5159,
      "Ġposter": 5160,
      "ĠdÆ°ng": 5161,
      "Ġdáº³ng": 5162,
      "Ġvá»±ng": 5163,
      "Ġnhá»¥c": 5164,
      "Ġtháº£y": 5165,
      "iá»ģng": 5166,
      "ĠCas": 5167,
      "ĠChÃºc": 5168,
      "Ġbá»ī": 5169,
      "Ġlá»¥a": 5170,
      "ĠBh": 5171,
      "ĠBot": 5172,
      "ĠBiáº¿t": 5173,
      "ĠBÃ¡o": 5174,
      "Ġmá»ĭ": 5175,
      "ĠKe": 5176,
      "ĠKat": 5177,
      "ĠSier": 5178,
      "Ġtrá»ĩ": 5179,
      "ĠAus": 5180,
      "ĠLang": 5181,
      "ĠTranh": 5182,
      "ĠTrÃ²": 5183,
      "ĠgiÃ¡ng": 5184,
      "Ġá»«": 5185,
      "ĠDu": 5186,
      "Ġphanh": 5187,
      "ĠRog": 5188,
      "ĠNgá»": 5189,
      "ost": 5190,
      "ĠIg": 5191,
      "etti": 5192,
      "Ġkhuáº¿ch": 5193,
      "ican": 5194,
      "ĠXe": 5195,
      "use": 5196,
      "ĠTEDGlobal": 5197,
      "ĠVá»ĭ": 5198,
      "rab": 5199,
      "Ġgá»Ľm": 5200,
      "ĠhÃ¡o": 5201,
      "rey": 5202,
      "ops": 5203,
      "ĠKá»¹": 5204,
      "ardy": 5205,
      "iff": 5206,
      "ĠCá»§a": 5207,
      "eck": 5208,
      "Ġáº¢o": 5209,
      "ĠmÃ¬n": 5210,
      "ĠNghá»ĭ": 5211,
      "ĠMoz": 5212,
      "ĠMoore": 5213,
      "ĠiPod": 5214,
      "ĠDá»ĭch": 5215,
      "ĠBosnia": 5216,
      "ĠCopenh": 5217,
      "ĠVenice": 5218,
      "ĠHawai": 5219,
      "ĠParkinson": 5220,
      "Ġaxit": 5221,
      "ĠElizab": 5222,
      "ĠEthi": 5223,
      "ĠVirginia": 5224,
      "ĠJulia": 5225,
      "ĠTanzania": 5226,
      "ĠCopenhagen": 5227,
      "ĠElizabeth": 5228,
      "MS": 5229,
      "RA": 5230,
      "fa": 5231,
      "my": 5232,
      "tamin": 5233,
      "vÃł": 5234,
      "zler": 5235,
      "Ġah": 5236,
      "ĠcÃłnh": 5237,
      "ĠÄĤ": 5238,
      "ĠÄĥ": 5239,
      "ĠÄĳáº·n": 5240,
      "Ġná»Ļ": 5241,
      "Ġváº¯t": 5242,
      "Ġven": 5243,
      "ĠlÃ¡ng": 5244,
      "ĠmÃ¡c": 5245,
      "Ġmet": 5246,
      "ĠmÃ©o": 5247,
      "Ġbuá»ĵ": 5248,
      "Ġkg": 5249,
      "Ġkiá»ģu": 5250,
      "Ġgl": 5251,
      "Ġchinh": 5252,
      "Ġnhá»©c": 5253,
      "Ġnhá»įn": 5254,
      "Ġcá»§i": 5255,
      "Ġtá»Ł": 5256,
      "ĠTáºŃp": 5257,
      "ĠTel": 5258,
      "ĠTÃ³m": 5259,
      "ĠCa": 5260,
      "ĠCÃ¢y": 5261,
      "Ġpháº£": 5262,
      "ĠchoÃłng": 5263,
      "Ġlá»¥t": 5264,
      "Ġhon": 5265,
      "ĠBir": 5266,
      "ĠBell": 5267,
      "ĠBert": 5268,
      "ĠMau": 5269,
      "ĠHav": 5270,
      "ĠHir": 5271,
      "Ġná»Ľi": 5272,
      "ĠchÃŃch": 5273,
      "ĠKo": 5274,
      "ĠSk": 5275,
      "ĠSun": 5276,
      "ĠSyl": 5277,
      "ĠSky": 5278,
      "ame": 5279,
      "ĠTrang": 5280,
      "ĠPower": 5281,
      "Ġdopamine": 5282,
      "Å©a": 5283,
      "alem": 5284,
      "Ġvitamin": 5285,
      "ose": 5286,
      "elp": 5287,
      "Ġnháº¡i": 5288,
      "ics": 5289,
      "ĠFar": 5290,
      "ily": 5291,
      "Ġ193": 5292,
      "usalem": 5293,
      "Ġ72": 5294,
      "ĠMarc": 5295,
      "aze": 5296,
      "ĠCá»¥c": 5297,
      "ĠBrit": 5298,
      "ive": 5299,
      "Ġtá»¥ng": 5300,
      "ĠPhá»¥c": 5301,
      "aine": 5302,
      "ĠColomb": 5303,
      "ĠGeorg": 5304,
      "ĠEdward": 5305,
      "ĠMaya": 5306,
      "ucks": 5307,
      "Ġalbum": 5308,
      "ĠJerusalem": 5309,
      "ĠTeszler": 5310,
      "ĠEDI": 5311,
      "Ġopera": 5312,
      "ĠClinton": 5313,
      "ĠArgentina": 5314,
      "Ġbuá»ĵm": 5315,
      "IA": 5316,
      "PTC": 5317,
      "eas": 5318,
      "ken": 5319,
      "ned": 5320,
      "rr": 5321,
      "sy": 5322,
      "áº³n": 5323,
      "ĠcÃło": 5324,
      "ĠÄĳÆ°Æ¡c": 5325,
      "Ġná»±c": 5326,
      "Ġnáº¥c": 5327,
      "ĠlÆ°á»Ŀi": 5328,
      "ĠliÃªu": 5329,
      "Ġmu": 5330,
      "Ġman": 5331,
      "ĠmÃ´ng": 5332,
      "Ġbá»±": 5333,
      "ĠsÆ°Æ¡ng": 5334,
      "Ġsilicon": 5335,
      "Ġhuá»³": 5336,
      "Ġthá»ĳi": 5337,
      "Ġdiá»ħu": 5338,
      "Ġvá»īa": 5339,
      "Ġnhá»ĳt": 5340,
      "ĠTáº¡p": 5341,
      "Ġquáº§y": 5342,
      "ĠNá»Ļi": 5343,
      "ĠBas": 5344,
      "ĠMin": 5345,
      "ĠHung": 5346,
      "ĠHel": 5347,
      "ĠKhan": 5348,
      "Ġtoáº¡": 5349,
      "Ġkhoe": 5350,
      "hidi": 5351,
      "ĠLine": 5352,
      "ĠLinc": 5353,
      "erom": 5354,
      "ering": 5355,
      "ĠPort": 5356,
      "ĠDiá»ħn": 5357,
      "Ġviol": 5358,
      "ellow": 5359,
      "ĠIm": 5360,
      "isa": 5361,
      "Ġ42": 5362,
      "oln": 5363,
      "Ġ192": 5364,
      "ĠPhilip": 5365,
      "ĠkÃ©p": 5366,
      "ĠVá»¥": 5367,
      "Ġ96": 5368,
      "ĠTá»«ng": 5369,
      "ĠQuáº§n": 5370,
      "ĠCháº¿t": 5371,
      "ĠPhÃ¢n": 5372,
      "ĠNháº¥t": 5373,
      "ĠBá»ı": 5374,
      "ula": 5375,
      "ĠArch": 5376,
      "ĠCarn": 5377,
      "ĠAmer": 5378,
      "Ġ130": 5379,
      "hammad": 5380,
      "ĠBenj": 5381,
      "ĠJones": 5382,
      "ĠLuÃ¢n": 5383,
      "ĠBabylon": 5384,
      "ĠTuáº§n": 5385,
      "ĠMuhammad": 5386,
      "ĠColumbia": 5387,
      "ĠSierra": 5388,
      "ĠEthiopia": 5389,
      "ĠSylvia": 5390,
      "ĠLincoln": 5391,
      "12": 5392,
      "CA": 5393,
      "ko": 5394,
      "men": 5395,
      "wich": 5396,
      "Ġáº£": 5397,
      "Ġao": 5398,
      "Ġtáº¡": 5399,
      "ĠcÃºi": 5400,
      "ĠÄĳáº¯ng": 5401,
      "ĠÄĳáº§m": 5402,
      "Ġlung": 5403,
      "ĠlÃºng": 5404,
      "ĠlÃ©n": 5405,
      "Ġkiáº¿p": 5406,
      "áº¡y": 5407,
      "ĠgÃ¡n": 5408,
      "Ġgáº§y": 5409,
      "Ġgá»ĳm": 5410,
      "Ġráº£nh": 5411,
      "ĠrÃ¹a": 5412,
      "Ġdáº¡n": 5413,
      "ĠchÃł": 5414,
      "ĠTinh": 5415,
      "ĠTáº¥m": 5416,
      "Ġtaxi": 5417,
      "ĠnÃ³c": 5418,
      "Ġxáº»": 5419,
      "ĠNic": 5420,
      "ĠNiá»ģm": 5421,
      "ĠNep": 5422,
      "Ġchá»ķ": 5423,
      "ĠmÃłi": 5424,
      "ĠÄĲáº·t": 5425,
      "ĠÄĲÃło": 5426,
      "ĠBá»ĵ": 5427,
      "ĠchÃªnh": 5428,
      "ĠMinh": 5429,
      "ĠHa": 5430,
      "ĠNhiá»ĩm": 5431,
      "ĠSib": 5432,
      "ĠLÆ°á»£ng": 5433,
      "ĠLÃ²ng": 5434,
      "ĠLaw": 5435,
      "ĠLuc": 5436,
      "ĠTráº¯ng": 5437,
      "ĠGod": 5438,
      "ĠPri": 5439,
      "Ġá»Ľt": 5440,
      "ĠDá»±a": 5441,
      "Ġphiá»ĩn": 5442,
      "Ġpherom": 5443,
      "ĠRoy": 5444,
      "Ġ350": 5445,
      "ĠxuÃ´i": 5446,
      "ĠTháº¥y": 5447,
      "ĠbÃ¡u": 5448,
      "ĠQatar": 5449,
      "ĠJes": 5450,
      "ĠChu": 5451,
      "ĠThÆ°": 5452,
      "ĠWest": 5453,
      "ĠFort": 5454,
      "ila": 5455,
      "ild": 5456,
      "asc": 5457,
      "itt": 5458,
      "ĠOEC": 5459,
      "acy": 5460,
      "ĠYÃªu": 5461,
      "ĠPhilad": 5462,
      "Ġ86": 5463,
      "Ġgá»¥c": 5464,
      "ĠTá»Ľi": 5465,
      "ĠGiao": 5466,
      "ĠUC": 5467,
      "ĠgÃ³t": 5468,
      "ĠsuÃ½t": 5469,
      "ĠNháºŃn": 5470,
      "utan": 5471,
      "ifer": 5472,
      "ĠShe": 5473,
      "ĠMov": 5474,
      "ĠnhÃ¡y": 5475,
      "ĠiPad": 5476,
      "ather": 5477,
      "kyo": 5478,
      "ĠBern": 5479,
      "ĠAnderson": 5480,
      "ĠLeone": 5481,
      "ĠJonathan": 5482,
      "ĠBroad": 5483,
      "ĠJulian": 5484,
      "ĠCameron": 5485,
      "Ġmá»īa": 5486,
      "ĠGreenland": 5487,
      "ĠNorth": 5488,
      "ĠApollo": 5489,
      "Ġacid": 5490,
      "ĠSomalia": 5491,
      "keley": 5492,
      "ĠVictoria": 5493,
      "ĠLeonardo": 5494,
      "ĠZimbab": 5495,
      "ĠHawaii": 5496,
      "PTCHA": 5497,
      "Ġhuá»³nh": 5498,
      "ĠOECD": 5499,
      "200": 5500,
      "LA": 5501,
      "fi": 5502,
      "grap": 5503,
      "lah": 5504,
      "ule": 5505,
      "vÃŃt": 5506,
      "Ġz": 5507,
      "ĠÆ°Æ¡i": 5508,
      "ĠcÃ´i": 5509,
      "ĠcÄĥm": 5510,
      "ĠÄĳÆ°á»Ŀi": 5511,
      "ĠÄĳiá»ĥu": 5512,
      "Ġsá»Ļ": 5513,
      "Ġsáº¥u": 5514,
      "ĠngÃ¢m": 5515,
      "Ġhen": 5516,
      "Ġthá»ī": 5517,
      "Ġrock": 5518,
      "Ġhá»©c": 5519,
      "Ġtháº£n": 5520,
      "Ġquáº¥n": 5521,
      "Ġgiáº§y": 5522,
      "ĠxÃ¬": 5523,
      "ĠxÃło": 5524,
      "ĠCity": 5525,
      "ĠNet": 5526,
      "ĠNational": 5527,
      "otter": 5528,
      "Ġbá»ĩ": 5529,
      "ĠBÃŃ": 5530,
      "ĠBiá»ĥu": 5531,
      "ĠBel": 5532,
      "Ġcháº£o": 5533,
      "ĠchÃ©o": 5534,
      "ĠnhÃŃ": 5535,
      "ĠHi": 5536,
      "ĠHiá»ĥn": 5537,
      "ĠHáº³n": 5538,
      "inburgh": 5539,
      "Æ°Æ¡m": 5540,
      "ĠKer": 5541,
      "ĠKam": 5542,
      "Ġbá»ĭt": 5543,
      "ĠSiÃªu": 5544,
      "ĠSol": 5545,
      "ĠAO": 5546,
      "ĠGh": 5547,
      "ĠDub": 5548,
      "ĠRad": 5549,
      "Ġngoáº·t": 5550,
      "ĠMá»©c": 5551,
      "Ġvirut": 5552,
      "ĠbÃ©n": 5553,
      "ĠIt": 5554,
      "ater": 5555,
      "ĠEx": 5556,
      "ĠXanh": 5557,
      "ĠOp": 5558,
      "Ġ64": 5559,
      "Ġtá»īa": 5560,
      "ĠlÃ£i": 5561,
      "Ġ98": 5562,
      "ĠTá»ī": 5563,
      "rib": 5564,
      "ĠNews": 5565,
      "ĠUh": 5566,
      "ĠUsha": 5567,
      "opa": 5568,
      "Ġcá»Ńu": 5569,
      "igan": 5570,
      "ĠAlice": 5571,
      "Ġoxi": 5572,
      "Ġ185": 5573,
      "Ġ187": 5574,
      "Ġxá»ķ": 5575,
      "ulu": 5576,
      "ĠAnn": 5577,
      "uba": 5578,
      "ĠEmma": 5579,
      "utnik": 5580,
      "ĠTokyo": 5581,
      "Ġ160": 5582,
      "Ġ140": 5583,
      "ennis": 5584,
      "ĠMcD": 5585,
      "ĠBerkeley": 5586,
      "ĠSputnik": 5587,
      "ĠEdinburgh": 5588,
      "Ġeur": 5589,
      "ield": 5590,
      "ĠBali": 5591,
      "Ġmá»īm": 5592,
      "ĠKhá»ĳi": 5593,
      "ladesh": 5594,
      "ĠStarb": 5595,
      "ĠTasmanian": 5596,
      "ĠEarth": 5597,
      "ĠKelly": 5598,
      "Ġtá»Łm": 5599,
      "azeera": 5600,
      "ĠSiberia": 5601,
      "ĠZimbabwe": 5602,
      "ĠUshahidi": 5603,
      "10": 5604,
      "OX": 5605,
      "bor": 5606,
      "hh": 5607,
      "ih": 5608,
      "rick": 5609,
      "tÃ´ng": 5610,
      "wen": 5611,
      "¹o": 5612,
      "Ġ=": 5613,
      "Ġion": 5614,
      "ĠtÃ½": 5615,
      "ĠtÃ²i": 5616,
      "ĠcÃły": 5617,
      "ĠcÃºng": 5618,
      "ĠcÆ°ng": 5619,
      "ĠÄĳiáº¿c": 5620,
      "Ġváº§y": 5621,
      "Ġmáº§u": 5622,
      "Ġmá»Ļc": 5623,
      "Ġngá»±": 5624,
      "Ġnguá»µ": 5625,
      "Ġgas": 5626,
      "Ġhamb": 5627,
      "Ġrá»ĵng": 5628,
      "ĠráºŃm": 5629,
      "Ġpoly": 5630,
      "ĠdÃ¬": 5631,
      "ĠÄĳá»±": 5632,
      "ĠÄĳá»Ĺi": 5633,
      "Ġnham": 5634,
      "Æ¡c": 5635,
      "Ġquáº¥y": 5636,
      "ĠxÃ¡o": 5637,
      "ĠxÃ³t": 5638,
      "ĠCN": 5639,
      "ĠCamp": 5640,
      "ĠNike": 5641,
      "Ġgiá»¥c": 5642,
      "ĠÄĲÃłi": 5643,
      "Ġhor": 5644,
      "ĠBR": 5645,
      "ĠBoy": 5646,
      "Ã¹n": 5647,
      "ĠMá»Ł": 5648,
      "ĠMáº¯t": 5649,
      "ĠHad": 5650,
      "ĠSá»ĳng": 5651,
      "ĠSud": 5652,
      "ĠsÃ¡p": 5653,
      "ĠTriá»ģu": 5654,
      "ĠGran": 5655,
      "ĠPol": 5656,
      "ĠPenn": 5657,
      "ĠmÃ¡nh": 5658,
      "ĠRá»": 5659,
      "alk": 5660,
      "ĠTháº§y": 5661,
      "ĠKhÃ³": 5662,
      "ĠJeop": 5663,
      "ĠJazeera": 5664,
      "Ġ5000": 5665,
      "ĠEle": 5666,
      "ĠEve": 5667,
      "ĠFOX": 5668,
      "aska": 5669,
      "ĠÄĲá»Ŀi": 5670,
      "iti": 5671,
      "ade": 5672,
      "obi": 5673,
      "uron": 5674,
      "une": 5675,
      "ĠGiÃ¡m": 5676,
      "ĠDoug": 5677,
      "Ġxoa": 5678,
      "Ġ180": 5679,
      "Ġxá»ĭt": 5680,
      "ĠchÃ³p": 5681,
      "ĠAnas": 5682,
      "ĠKhÃ¡c": 5683,
      "egie": 5684,
      "Ġ1996": 5685,
      "ĠÃģo": 5686,
      "ĠKenned": 5687,
      "ĠMichigan": 5688,
      "ĠBangladesh": 5689,
      "rence": 5690,
      "ĠSteven": 5691,
      "ĠLuther": 5692,
      "ĠbÆ°á»Ľu": 5693,
      "thalate": 5694,
      "ĠCopern": 5695,
      "ĠrÃ£nh": 5696,
      "ĠChristoph": 5697,
      "ĠTesla": 5698,
      "ĠWhit": 5699,
      "ĠAtlanta": 5700,
      "ĠÄĤn": 5701,
      "ĠÄĥng": 5702,
      "elphia": 5703,
      "ĠColombia": 5704,
      "ĠCarnegie": 5705,
      "ĠBenjamin": 5706,
      "ĠPhiladelphia": 5707,
      "ĠMovem": 5708,
      "ĠStarbucks": 5709,
      "ĠKennedy": 5710,
      "40": 5711,
      "DA": 5712,
      "EA": 5713,
      "Sp": 5714,
      "ble": 5715,
      "bie": 5716,
      "key": 5717,
      "lem": 5718,
      "med": 5719,
      "mart": 5720,
      "shi": 5721,
      "ston": 5722,
      "zÆ¡": 5723,
      "Ġooh": 5724,
      "ħu": 5725,
      "Ġtest": 5726,
      "Ġcm": 5727,
      "Ġna": 5728,
      "ĠvÃ´i": 5729,
      "ĠvÃ¡c": 5730,
      "Ġviá»ģn": 5731,
      "Ġláº§y": 5732,
      "ĠbÃ´i": 5733,
      "Ġbáº§m": 5734,
      "Ġbit": 5735,
      "Ġsand": 5736,
      "Ġtriá»ħn": 5737,
      "Ġhel": 5738,
      "ĠrÃł": 5739,
      "ĠduyÃªn": 5740,
      "Ġchiáº¿t": 5741,
      "ĠTáº¡ng": 5742,
      "ĠTah": 5743,
      "Ġgiun": 5744,
      "ĠxÃ¢u": 5745,
      "Ġxáº¯n": 5746,
      "ĠCai": 5747,
      "ĠNair": 5748,
      "Ġchá»ĵn": 5749,
      "ĠÄĲÃ´n": 5750,
      "ĠBiá»ĥn": 5751,
      "ĠBÃ¡nh": 5752,
      "Ġcháº£i": 5753,
      "ĠchÃ©n": 5754,
      "ĠMong": 5755,
      "ĠMáº¥t": 5756,
      "ĠMap": 5757,
      "ĠMitch": 5758,
      "ĠHal": 5759,
      "ĠSÃ¡ch": 5760,
      "ĠSuá»ĳt": 5761,
      "Ġtrá»Ľ": 5762,
      "Ġtrá»Ĺi": 5763,
      "ĠAK": 5764,
      "ĠAM": 5765,
      "ĠAch": 5766,
      "Ġkhá»ĳng": 5767,
      "ĠGar": 5768,
      "ĠGá»Ńi": 5769,
      "Ġyeah": 5770,
      "ĠDJ": 5771,
      "ĠDanh": 5772,
      "ĠRick": 5773,
      "ĠRach": 5774,
      "ĠNgÃłnh": 5775,
      "aly": 5776,
      "ĠCher": 5777,
      "ĠIvan": 5778,
      "Ġ58": 5779,
      "Ġ43": 5780,
      "ĠEng": 5781,
      "apagos": 5782,
      "ĠWell": 5783,
      "olas": 5784,
      "ome": 5785,
      "omen": 5786,
      "ĠYves": 5787,
      "ĠGiá»¯a": 5788,
      "ura": 5789,
      "Ġ93": 5790,
      "oir": 5791,
      "Ġghim": 5792,
      "reg": 5793,
      "ĠQuÃŃ": 5794,
      "ĠUng": 5795,
      "opatch": 5796,
      "ĠPháº£n": 5797,
      "the": 5798,
      "ĠMarco": 5799,
      "ava": 5800,
      "ĠJoel": 5801,
      "ĠchÃ³i": 5802,
      "ĠEmily": 5803,
      "Ġ1998": 5804,
      "Ġtá»¥i": 5805,
      "ĠâĢ¦": 5806,
      "phone": 5807,
      "phere": 5808,
      "ĠPhá»ĳ": 5809,
      "Ġhá»ĳc": 5810,
      "ĠDá»¯": 5811,
      "ĠSuper": 5812,
      "ĠHawk": 5813,
      "ĠJackson": 5814,
      "ĠGalapagos": 5815,
      "ĠWarren": 5816,
      "ĠNanopatch": 5817,
      "ĠTasmania": 5818,
      "ĠLakota": 5819,
      "ĠnhÃ´m": 5820,
      "ĠEverest": 5821,
      "ĠSusan": 5822,
      "ĠRoger": 5823,
      "ĠHungary": 5824,
      "graphic": 5825,
      "ihad": 5826,
      "Ġhamburger": 5827,
      "ĠMovember": 5828,
      "..": 5829,
      "nÃ´": 5830,
      "pu": 5831,
      "sc": 5832,
      "tt": 5833,
      "tan": 5834,
      "tim": 5835,
      "zz": 5836,
      "zona": 5837,
      "ĠáºŃp": 5838,
      "Ġet": 5839,
      "Ġtá»Ļt": 5840,
      "ĠÄĳáº¯c": 5841,
      "Ġno": 5842,
      "há»ģ": 5843,
      "Ġve": 5844,
      "ĠvÃ¡": 5845,
      "ĠvÅ©ng": 5846,
      "Ġviá»ĩt": 5847,
      "Ġláº«y": 5848,
      "ĠbÃłnh": 5849,
      "ĠbÃłng": 5850,
      "ĠsáºŃp": 5851,
      "ĠngÆ°á»Ľc": 5852,
      "Ġngáº·t": 5853,
      "Ġnguyá»ĩt": 5854,
      "Ġgel": 5855,
      "ĠgáºŃt": 5856,
      "Ġgiá»ģng": 5857,
      "Ġghá»ģ": 5858,
      "Ġthá»§ng": 5859,
      "Ġdáº¥n": 5860,
      "ĠnhÆ°á»£ng": 5861,
      "ĠTá»Ń": 5862,
      "ĠCor": 5863,
      "ĠNÃ´": 5864,
      "ĠphÃ´ng": 5865,
      "ĠÄĲÃ¡m": 5866,
      "ĠÄĲÃªm": 5867,
      "onald": 5868,
      "ĠBeet": 5869,
      "aig": 5870,
      "ait": 5871,
      "Ġcháº±ng": 5872,
      "ĠMumb": 5873,
      "ĠHáº¡t": 5874,
      "inn": 5875,
      "ĠKáº»": 5876,
      "ĠKansas": 5877,
      "ĠSá»Ł": 5878,
      "ĠSad": 5879,
      "eman": 5880,
      "ĠAaron": 5881,
      "ĠLáº¡t": 5882,
      "ĠLeb": 5883,
      "ĠPep": 5884,
      "ial": 5885,
      "ĠDÃłn": 5886,
      "ĠDÃ¹ng": 5887,
      "ĠRes": 5888,
      "ĠquÃ¡ng": 5889,
      "ĠKhÃŃ": 5890,
      "ĠbÃ¡ng": 5891,
      "ello": 5892,
      "ĠJess": 5893,
      "ĠIM": 5894,
      "Ġkhuáº¥y": 5895,
      "Ġ52": 5896,
      "ĠES": 5897,
      "ĠXÃ©t": 5898,
      "Ġ190": 5899,
      "ĠOli": 5900,
      "ĠOak": 5901,
      "omet": 5902,
      "ĠChá»Ŀ": 5903,
      "ĠChá»©ng": 5904,
      "Ġ74": 5905,
      "ĠUr": 5906,
      "Ġox": 5907,
      "ocr": 5908,
      "Ġhip": 5909,
      "ĠJohnson": 5910,
      "Ġ1994": 5911,
      "Ġ1995": 5912,
      "attle": 5913,
      "ĠTrá»ĭ": 5914,
      "ĠBeat": 5915,
      "inceton": 5916,
      "ĠPrinceton": 5917,
      "ĠSamuel": 5918,
      "osterone": 5919,
      "ĠCAPTCHA": 5920,
      "ĠFGM": 5921,
      "ĠArizona": 5922,
      "ĠLouis": 5923,
      "ĠTempest": 5924,
      "ĠBhutan": 5925,
      "ĠNepal": 5926,
      "ĠSudan": 5927,
      "ĠJeopardy": 5928,
      "ĠChristopher": 5929,
      "ĠMumbai": 5930,
      "25": 5931,
      "80": 5932,
      "SC": 5933,
      "ct": 5934,
      "cy": 5935,
      "cent": 5936,
      "da": 5937,
      "má»Ļt": 5938,
      "mÃ´n": 5939,
      "rÃ´": 5940,
      "ray": 5941,
      "vis": 5942,
      "±n": 5943,
      "Ġ)": 5944,
      "Ġamin": 5945,
      "Ġtáº£n": 5946,
      "Ġtáº·c": 5947,
      "ĠtÆ°á»Ľi": 5948,
      "ĠcÃ²i": 5949,
      "Ġcáº©m": 5950,
      "ĠÄĳáºŃy": 5951,
      "ĠÄĳáº¯p": 5952,
      "ĠnÃ¡o": 5953,
      "Ġvuá»ĳt": 5954,
      "Ġviáº¿ng": 5955,
      "Ġme": 5956,
      "Ġmao": 5957,
      "Ġmáº·n": 5958,
      "ĠbÃ£": 5959,
      "ĠsuÃ´n": 5960,
      "ĠtrÆ¡n": 5961,
      "ĠtrÃ¹": 5962,
      "Ġgram": 5963,
      "ĠhiÃªn": 5964,
      "Ġreo": 5965,
      "Ġnhai": 5966,
      "Ġcá»«": 5967,
      "Ġnhá»įc": 5968,
      "Ġtháº¹n": 5969,
      "ĠTai": 5970,
      "ĠTiÃªu": 5971,
      "ĠTáº§m": 5972,
      "ĠTÃ¡m": 5973,
      "ĠVik": 5974,
      "á»±u": 5975,
      "ĠCS": 5976,
      "Ġchá»Ļ": 5977,
      "ĠthÃ¢": 5978,
      "Ġsáº¹o": 5979,
      "chi": 5980,
      "cher": 5981,
      "ĠphÃ¬nh": 5982,
      "ons": 5983,
      "onto": 5984,
      "ĠBo": 5985,
      "ĠBil": 5986,
      "ĠMen": 5987,
      "ĠMus": 5988,
      "ĠMass": 5989,
      "ĠHol": 5990,
      "Ġná»ĵi": 5991,
      "ĠKur": 5992,
      "Ġbá»ĭch": 5993,
      "ĠSa": 5994,
      "ĠSn": 5995,
      "ĠSen": 5996,
      "ĠSeb": 5997,
      "emy": 5998,
      "Ġká»µ": 5999,
      "ĠAur": 6000,
      "ĠAsh": 6001,
      "ĠLai": 6002,
      "ĠLá»±c": 6003,
      "ĠLuÃ´n": 6004,
      "ĠGro": 6005,
      "ĠPH": 6006,
      "ĠDie": 6007,
      "ĠRW": 6008,
      "ĠRiv": 6009,
      "ĠRod": 6010,
      "ĠNgÆ°Æ¡i": 6011,
      "imal": 6012,
      "imet": 6013,
      "osau": 6014,
      "ĠChad": 6015,
      "ĠIP": 6016,
      "ette": 6017,
      "ĠThu": 6018,
      "ats": 6019,
      "atur": 6020,
      "Ġ41": 6021,
      "Ġ47": 6022,
      "icus": 6023,
      "ĠFox": 6024,
      "ado": 6025,
      "Ġ97": 6026,
      "Ġ900": 6027,
      "ĠlÃŃt": 6028,
      "ĠTá»©c": 6029,
      "ĠGiáº¥c": 6030,
      "ĠStr": 6031,
      "ĠInter": 6032,
      "ĠAlan": 6033,
      "ĠAlaska": 6034,
      "hoven": 6035,
      "ump": 6036,
      "ĠThÃ¡ch": 6037,
      "Ġfan": 6038,
      "str": 6039,
      "eller": 6040,
      "Ġáº¢nh": 6041,
      "ĠprÃ´": 6042,
      "ĠTime": 6043,
      "ĠBerlin": 6044,
      "ĠDá»ħ": 6045,
      "ĠJonas": 6046,
      "ĠGrand": 6047,
      "ĠClay": 6048,
      "ĠRomo": 6049,
      "ĠKirib": 6050,
      "ĠJennifer": 6051,
      "ĠLarry": 6052,
      "ĠTaylor": 6053,
      "Ġenzy": 6054,
      "ĠHavard": 6055,
      "ĠSkype": 6056,
      "Ġviolin": 6057,
      "ĠJesus": 6058,
      "Ġthá»īu": 6059,
      "Ġtestosterone": 6060,
      "ĠCairo": 6061,
      "ĠRachel": 6062,
      "ĠBeethoven": 6063,
      "ĠKiribati": 6064,
      "99": 6065,
      "NG": 6066,
      "ban": 6067,
      "cou": 6068,
      "ean": 6069,
      "kr": 6070,
      "ool": 6071,
      "sw": 6072,
      "tel": 6073,
      "word": 6074,
      "yc": 6075,
      "yo": 6076,
      "Ġq": 6077,
      "Ġáº§m": 6078,
      "Ġit": 6079,
      "ĠcÃ¢m": 6080,
      "ĠÄĳÃª": 6081,
      "Ġnang": 6082,
      "Ġnai": 6083,
      "Ġvv": 6084,
      "Ġlá»ĳ": 6085,
      "Ġlá»Ļng": 6086,
      "Ġliá»ħu": 6087,
      "Ġbo": 6088,
      "ĠkiÃªu": 6089,
      "Ġsáº¡c": 6090,
      "Ġngáº§n": 6091,
      "Ġnguá»": 6092,
      "ĠgÃ´n": 6093,
      "Ġgáº§m": 6094,
      "ĠhÆ°Æ¡": 6095,
      "ĠrÃ²ng": 6096,
      "ĠrÃ¡ch": 6097,
      "Ġdáº¥y": 6098,
      "Ġcá»Ĺi": 6099,
      "Ġchanh": 6100,
      "Ġquáº³ng": 6101,
      "ĠVáºŃn": 6102,
      "ĠVua": 6103,
      "ĠVol": 6104,
      "Ġgiang": 6105,
      "Ġxá»Ł": 6106,
      "ĠCur": 6107,
      "ĠCuba": 6108,
      "ĠNáº¥m": 6109,
      "Ġchá»ķi": 6110,
      "ĠthÃ¬nh": 6111,
      "Ġhá»įng": 6112,
      "Ġnháº½": 6113,
      "ĠBÃłn": 6114,
      "ĠMul": 6115,
      "ĠMama": 6116,
      "ĠHá»ĵng": 6117,
      "aus": 6118,
      "ines": 6119,
      "Ġháº¯c": 6120,
      "Ġsá»¥t": 6121,
      "ĠSA": 6122,
      "ĠSR": 6123,
      "ĠSáº£n": 6124,
      "Ġtrá»ı": 6125,
      "Ġká»ĭ": 6126,
      "ĠLi": 6127,
      "ĠLÃªn": 6128,
      "ĠLáºŃp": 6129,
      "ĠTrÆ°á»Łng": 6130,
      "ene": 6131,
      "ĠGl": 6132,
      "ĠGan": 6133,
      "ias": 6134,
      "Ġá»ľ": 6135,
      "ĠDÃ²ng": 6136,
      "ĠDick": 6137,
      "Ġphao": 6138,
      "ĠRid": 6139,
      "ĠRyan": 6140,
      "Ġngá»£p": 6141,
      "Ġ34": 6142,
      "orm": 6143,
      "ĠÃŃn": 6144,
      "alin": 6145,
      "oshi": 6146,
      "ĠJers": 6147,
      "ĠIQ": 6148,
      "ĠThung": 6149,
      "ister": 6150,
      "Ġ450": 6151,
      "ĠbazÆ¡": 6152,
      "ĠWill": 6153,
      "Ġláº½o": 6154,
      "ĠXL": 6155,
      "oli": 6156,
      "ĠHoáº¡t": 6157,
      "ustin": 6158,
      "Ġ77": 6159,
      "ring": 6160,
      "ĠStef": 6161,
      "Ġbanjo": 6162,
      "ĠUN": 6163,
      "ĠCháº¡": 6164,
      "ington": 6165,
      "Ġ125": 6166,
      "eyer": 6167,
      "ĠMargar": 6168,
      "ĠYorker": 6169,
      "oud": 6170,
      "ows": 6171,
      "stan": 6172,
      "ĠCá»ķ": 6173,
      "ĠArt": 6174,
      "ĠhÃ¨n": 6175,
      "ĠChia": 6176,
      "ĠChim": 6177,
      "Ġgames": 6178,
      "tech": 6179,
      "ĠScr": 6180,
      "ĠMcK": 6181,
      "Ġ1975": 6182,
      "ĠGreat": 6183,
      "ĠCru": 6184,
      "ĠJean": 6185,
      "ĠFree": 6186,
      "ĠGrace": 6187,
      "ĠSeattle": 6188,
      "ĠPlato": 6189,
      "ĠLesterland": 6190,
      "ĠJefferson": 6191,
      "ĠTitus": 6192,
      "ĠEuropa": 6193,
      "ĠJordan": 6194,
      "ĠLawrence": 6195,
      "ĠMcDonald": 6196,
      "ĠÄĳá»±Æ¡c": 6197,
      "ĠCNN": 6198,
      "Ġsandwich": 6199,
      "ĠCheryl": 6200,
      "ĠJersey": 6201,
      "ĠMargaret": 6202,
      "RNA": 6203,
      "TÃ´i": 6204,
      "Women": 6205,
      "br": 6206,
      "eng": 6207,
      "ead": 6208,
      "fur": 6209,
      "iro": 6210,
      "nd": 6211,
      "off": 6212,
      "rina": 6213,
      "uela": 6214,
      "¨ng": 6215,
      "²i": 6216,
      "Ġen": 6217,
      "ĠÄĳÃºt": 6218,
      "ĠnÃ²ng": 6219,
      "Ġnáº¥ng": 6220,
      "Ġlink": 6221,
      "ĠmiÃªn": 6222,
      "ĠmÄ©": 6223,
      "ĠmÆ°á»Ŀng": 6224,
      "ĠbÃº": 6225,
      "Ġbus": 6226,
      "Ġki": 6227,
      "ĠkÃ¨n": 6228,
      "Ġsh": 6229,
      "ĠtrÃºt": 6230,
      "Ġgáº·m": 6231,
      "Ġrá»įi": 6232,
      "Ġráº¡c": 6233,
      "Ġráº¡ng": 6234,
      "Ġráº©y": 6235,
      "Ġpass": 6236,
      "ĠdÃ¨": 6237,
      "ĠthÃł": 6238,
      "Ġtá»©": 6239,
      "ĠTH": 6240,
      "ĠTS": 6241,
      "ĠTi": 6242,
      "ĠTob": 6243,
      "ĠTun": 6244,
      "ĠTáº¡m": 6245,
      "ĠVÃ¹ng": 6246,
      "ĠVer": 6247,
      "ĠVÃ²ng": 6248,
      "ĠVinc": 6249,
      "ĠxÃ³i": 6250,
      "ĠCC": 6251,
      "ĠCÆ°á»Ŀi": 6252,
      "ĠCao": 6253,
      "Ġpháº«n": 6254,
      "Ġgiá»ħu": 6255,
      "cha": 6256,
      "Ġnháº¥m": 6257,
      "ĠÄĲá»Ļi": 6258,
      "ĠBM": 6259,
      "ĠBiáº¿n": 6260,
      "ĠBÃ©": 6261,
      "ĠMai": 6262,
      "ĠMet": 6263,
      "ĠHáº¡": 6264,
      "ĠHas": 6265,
      "ĠHÃ¡t": 6266,
      "ĠHann": 6267,
      "Ġsá»«ng": 6268,
      "ĠKib": 6269,
      "Ġbá»ĭp": 6270,
      "ĠSáº¯p": 6271,
      "ĠAV": 6272,
      "ĠAim": 6273,
      "ĠArab": 6274,
      "ĠloÃ©": 6275,
      "ĠLH": 6276,
      "ĠLáº¡y": 6277,
      "Ġkhá»Ŀ": 6278,
      "ĠGary": 6279,
      "ĠGraham": 6280,
      "Ġá»¨ng": 6281,
      "ĠDam": 6282,
      "ĠDAR": 6283,
      "ĠDiana": 6284,
      "Ġphthalate": 6285,
      "áº¹o": 6286,
      "ĠRuss": 6287,
      "ori": 6288,
      "ĠNhá»Ľ": 6289,
      "Ġthuá»Ł": 6290,
      "iÃªt": 6291,
      "ĠJar": 6292,
      "ĠTho": 6293,
      "ĠThanh": 6294,
      "ĠTham": 6295,
      "ĠThuá»ĳc": 6296,
      "ĠThuyáº¿t": 6297,
      "Ġ4000": 6298,
      "ĠWh": 6299,
      "ĠFul": 6300,
      "ĠFib": 6301,
      "ĠFBI": 6302,
      "ĠÄĲá»£i": 6303,
      "ĠOn": 6304,
      "ĠOreg": 6305,
      "Ġláº¡y": 6306,
      "act": 6307,
      "rah": 6308,
      "lipp": 6309,
      "ĠDoha": 6310,
      "ĠQuáº£n": 6311,
      "ĠConn": 6312,
      "opy": 6313,
      "ĠKá»·": 6314,
      "thew": 6315,
      "able": 6316,
      "ĠMary": 6317,
      "inea": 6318,
      "illa": 6319,
      "ĠBá»ĭ": 6320,
      "aza": 6321,
      "iva": 6322,
      "Ġtháº¡c": 6323,
      "Ġ1997": 6324,
      "ĠIsland": 6325,
      "allon": 6326,
      "ĠPhÆ°á»£ng": 6327,
      "ĠTrá»«": 6328,
      "ĠGeographic": 6329,
      "ĠMcG": 6330,
      "athon": 6331,
      "ĠbuÃ´ng": 6332,
      "ĠRoss": 6333,
      "ĠBlue": 6334,
      "ĠBeau": 6335,
      "ĠBeach": 6336,
      "Ġkhuya": 6337,
      "ĠJuli": 6338,
      "ĠKhá»§ng": 6339,
      "ĠGuinea": 6340,
      "ĠRome": 6341,
      "ĠToronto": 6342,
      "ĠJerry": 6343,
      "ĠDean": 6344,
      "ĠPeru": 6345,
      "ĠShir": 6346,
      "ĠKyoto": 6347,
      "aghetti": 6348,
      "Ġmarathon": 6349,
      "ĠMurray": 6350,
      "ĠDenis": 6351,
      "ĠthÃªu": 6352,
      "otonin": 6353,
      "Ġspaghetti": 6354,
      "ĠFried": 6355,
      "ĠKeith": 6356,
      "ĠKatrina": 6357,
      "ĠBertie": 6358,
      "ĠFOXO": 6359,
      "ĠNairobi": 6360,
      "ĠMitchell": 6361,
      "ĠHawking": 6362,
      "timore": 6363,
      "ĠOliver": 6364,
      "ĠDiego": 6365,
      "couver": 6366,
      "ĠhÆ°Æ¡u": 6367,
      "Ġpassword": 6368,
      "ĠAimee": 6369,
      "ĠOregon": 6370,
      "CC": 6371,
      "bá»ĳn": 6372,
      "fred": 6373,
      "µng": 6374,
      "Äĳi": 6375,
      "ĠÆ°á»Ľp": 6376,
      "ģu": 6377,
      "áºµn": 6378,
      "Ġtem": 6379,
      "Ġteen": 6380,
      "ĠcÃµi": 6381,
      "ĠÄĳiá»ģm": 6382,
      "ĠÄĳáº«m": 6383,
      "ĠÄĳáº¥ng": 6384,
      "ĠnÃ´i": 6385,
      "ĠnÃ´n": 6386,
      "Ġnáº·n": 6387,
      "há»¯ng": 6388,
      "ĠvÃ³c": 6389,
      "Ġlon": 6390,
      "Ġmiá»ĩt": 6391,
      "Ġbáº§n": 6392,
      "ĠkiÃªm": 6393,
      "Ġsáº£y": 6394,
      "Ġsáº¥m": 6395,
      "Ġsáº£i": 6396,
      "Ġtro": 6397,
      "ĠtrÃ¢u": 6398,
      "Ġnguyá»ģn": 6399,
      "Ġgá»Łi": 6400,
      "ĠrÃłnh": 6401,
      "Ġráº¡ch": 6402,
      "Ġprog": 6403,
      "Ġdáº«u": 6404,
      "ĠcÃ¡u": 6405,
      "Ġnhá»ķ": 6406,
      "ĠTiÃªn": 6407,
      "ĠTÃ´n": 6408,
      "ĠCL": 6409,
      "ĠCÆ¡n": 6410,
      "ĠNÃ´ng": 6411,
      "ĠNich": 6412,
      "Ġchá»ĩch": 6413,
      "anon": 6414,
      "anic": 6415,
      "ays": 6416,
      "Ġrap": 6417,
      "Ġhoáº¡n": 6418,
      "ont": 6419,
      "onacc": 6420,
      "ĠBÃ³ng": 6421,
      "ĠBlo": 6422,
      "ĠMG": 6423,
      "ĠMÃª": 6424,
      "ĠMÃ£": 6425,
      "ĠMot": 6426,
      "ĠMÃły": 6427,
      "ĠMiá»ħn": 6428,
      "ĠHall": 6429,
      "ĠHimal": 6430,
      "Ġsá»¡": 6431,
      "ĠNhiÃªn": 6432,
      "ĠKÃŃch": 6433,
      "Ġtop": 6434,
      "ĠSil": 6435,
      "ĠSMS": 6436,
      "his": 6437,
      "ĠLÃ¢m": 6438,
      "ĠLen": 6439,
      "ĠLim": 6440,
      "ĠLuáºŃn": 6441,
      "ĠTrÄĥng": 6442,
      "ĠTreas": 6443,
      "ĠGay": 6444,
      "ĠGer": 6445,
      "ĠGord": 6446,
      "ĠGeh": 6447,
      "ĠGwen": 6448,
      "ĠcÆ¡m": 6449,
      "ĠPier": 6450,
      "ĠDP": 6451,
      "ĠDÃ¢y": 6452,
      "ĠDáº§u": 6453,
      "ĠDáº¥u": 6454,
      "ĠDor": 6455,
      "Ġphu": 6456,
      "Ġtrá»įt": 6457,
      "ĠRG": 6458,
      "Ġxuáº©n": 6459,
      "alore": 6460,
      "ĠviÃª": 6461,
      "ese": 6462,
      "ĠQaeda": 6463,
      "ĠJas": 6464,
      "ĠJud": 6465,
      "Ġthoa": 6466,
      "eta": 6467,
      "etown": 6468,
      "Ġ54": 6469,
      "atz": 6470,
      "Ġrá»¥ng": 6471,
      "app": 6472,
      "ĠFr": 6473,
      "ĠFDA": 6474,
      "ĠÄĲá»©ng": 6475,
      "ita": 6476,
      "Ġ2020": 6477,
      "ĠOxy": 6478,
      "Ġ6000": 6479,
      "ĠChá»ĳng": 6480,
      "Ġ82": 6481,
      "rie": 6482,
      "ĠStir": 6483,
      "ĠStock": 6484,
      "ĠState": 6485,
      "ĠUkr": 6486,
      "rane": 6487,
      "ĠAllen": 6488,
      "agan": 6489,
      "ager": 6490,
      "tha": 6491,
      "abad": 6492,
      "ĠMario": 6493,
      "Ġfile": 6494,
      "owitz": 6495,
      "ĠBá»Ŀ": 6496,
      "ĠBrend": 6497,
      "Ġcanxi": 6498,
      "Ġ1992": 6499,
      "ĠDave": 6500,
      "ĠNá»Ńa": 6501,
      "ĠhÃ£nh": 6502,
      "ĠxÃŃt": 6503,
      "athem": 6504,
      "ĠRose": 6505,
      "ĠBangalore": 6506,
      "ĠCraig": 6507,
      "ĠWiki": 6508,
      "eeney": 6509,
      "ĠWalker": 6510,
      "ĠSchw": 6511,
      "ĠJulie": 6512,
      "ĠFranklin": 6513,
      "ĠBaltimore": 6514,
      "Ġ1945": 6515,
      "Ġshock": 6516,
      "ĠVenez": 6517,
      "ĠVancouver": 6518,
      "ĠmicroRNA": 6519,
      "Ġserotonin": 6520,
      "ĠBolt": 6521,
      "ĠMatthew": 6522,
      "Ġneuron": 6523,
      "Ġcalo": 6524,
      "Ġmá»ĭn": 6525,
      "Ġmetan": 6526,
      "ĠDubai": 6527,
      "ĠCopernicus": 6528,
      "ĠLebanon": 6529,
      "ĠOakland": 6530,
      "ĠCháº¡y": 6531,
      "ĠTunis": 6532,
      "ĠFibonacc": 6533,
      "ĠHimalay": 6534,
      "ĠTreasure": 6535,
      "ĠVenezuela": 6536,
      "ĠFibonacci": 6537,
      "field": 6538,
      "hr": 6539,
      "ire": 6540,
      "lÃª": 6541,
      "lav": 6542,
      "oz": 6543,
      "ral": 6544,
      "tion": 6545,
      "¡i": 6546,
      "²m": 6547,
      "Ġ#": 6548,
      "ĠtÃº": 6549,
      "Ġcat": 6550,
      "ĠvÃª": 6551,
      "Ġláº©n": 6552,
      "Ġmá»Ļi": 6553,
      "ĠmÃºt": 6554,
      "Ġbáº¡t": 6555,
      "ĠsÃºt": 6556,
      "Ġsun": 6557,
      "ĠngÃ¡ch": 6558,
      "ĠgÃ²": 6559,
      "ĠgÃło": 6560,
      "ĠgÃ¡y": 6561,
      "Ġgallon": 6562,
      "Ġhun": 6563,
      "ĠrÆ°á»Łi": 6564,
      "Ġduá»Ĺi": 6565,
      "Ġdáº«m": 6566,
      "Ġtá»ĥ": 6567,
      "ĠTy": 6568,
      "ĠTiá»ĥu": 6569,
      "ĠTenn": 6570,
      "ĠTeh": 6571,
      "ĠquáºŃt": 6572,
      "ĠgiÃ²n": 6573,
      "ĠxÃ´ng": 6574,
      "ĠCent": 6575,
      "otosh": 6576,
      "ange": 6577,
      "ĠÄĲáº¡t": 6578,
      "Ġbá»¥c": 6579,
      "ĠBÃ¡n": 6580,
      "ĠBuá»ĵn": 6581,
      "Ġcháº¯t": 6582,
      "ĠKiá»ĥm": 6583,
      "ĠKle": 6584,
      "ĠSob": 6585,
      "ĠAli": 6586,
      "ĠloÃł": 6587,
      "ĠLeo": 6588,
      "ĠLev": 6589,
      "ĠLock": 6590,
      "ĠLike": 6591,
      "erb": 6592,
      "enberg": 6593,
      "ĠGaza": 6594,
      "ĠPap": 6595,
      "ĠPink": 6596,
      "ĠPotter": 6597,
      "Ġá»ªm": 6598,
      "Ġyou": 6599,
      "ĠDol": 6600,
      "Ġphai": 6601,
      "ĠRory": 6602,
      "ĠTháºŃp": 6603,
      "ĠMá»Ŀi": 6604,
      "ĠChern": 6605,
      "Ġthoi": 6606,
      "ĠIl": 6607,
      "Ġ53": 6608,
      "Ġ57": 6609,
      "ĠEss": 6610,
      "ĠThá»©c": 6611,
      "ĠFellow": 6612,
      "ĠXáº¿p": 6613,
      "ition": 6614,
      "usd": 6615,
      "Ġ68": 6616,
      "ĠYale": 6617,
      "ĠnghÃªnh": 6618,
      "obs": 6619,
      "obyl": 6620,
      "Ġáº¨n": 6621,
      "Ġ78": 6622,
      "lider": 6623,
      "ĠSaudi": 6624,
      "ĠTá»·": 6625,
      "ĠTá»ĩ": 6626,
      "rig": 6627,
      "unk": 6628,
      "ree": 6629,
      "nett": 6630,
      "ideo": 6631,
      "ĠAlfred": 6632,
      "ĠCháº¿": 6633,
      "ings": 6634,
      "aks": 6635,
      "ave": 6636,
      "Ġquá»³": 6637,
      "ould": 6638,
      "Ġ404": 6639,
      "ĠAnth": 6640,
      "Ġ110": 6641,
      "ibo": 6642,
      "ife": 6643,
      "mann": 6644,
      "ĠKhÃ¡i": 6645,
      "ĠKhÃ¡ch": 6646,
      "ecca": 6647,
      "awa": 6648,
      "uce": 6649,
      "eech": 6650,
      "ĠHarlem": 6651,
      "lins": 6652,
      "ĠBilly": 6653,
      "berry": 6654,
      "ĠAndr": 6655,
      "ĠPalm": 6656,
      "ĠJamai": 6657,
      "ĠGreg": 6658,
      "ĠAbu": 6659,
      "ĠLiberia": 6660,
      "ĠSweeney": 6661,
      "ĠGando": 6662,
      "ĠaxÃŃt": 6663,
      "ĠCAD": 6664,
      "ĠMelinda": 6665,
      "ĠPanthe": 6666,
      "Ġnitric": 6667,
      "ĠnhÃºn": 6668,
      "ĠSOPA": 6669,
      "echn": 6670,
      "ĠMozart": 6671,
      "Ġgluc": 6672,
      "ĠAmerican": 6673,
      "Ġhorm": 6674,
      "ĠPepsi": 6675,
      "osaurus": 6676,
      "ĠStirling": 6677,
      "ĠTehran": 6678,
      "otoshop": 6679,
      "ĠSobule": 6680,
      "ĠChernobyl": 6681,
      ".&": 6682,
      "15": 6683,
      "SE": 6684,
      "bin": 6685,
      "let": 6686,
      "mail": 6687,
      "pkins": 6688,
      "tic": 6689,
      "ww": 6690,
      "¡n": 6691,
      "£c": 6692,
      "«m": 6693,
      "µm": 6694,
      "Ġ00": 6695,
      "ĠuyÃªn": 6696,
      "Ġáº£m": 6697,
      "Ġter": 6698,
      "Ġcomp": 6699,
      "ĠÄĳÅ©a": 6700,
      "Ġná»įc": 6701,
      "ĠvÄĥng": 6702,
      "ĠvÃ£n": 6703,
      "Ġlanh": 6704,
      "Ġláº«m": 6705,
      "Ġmau": 6706,
      "Ġbiáº¿ng": 6707,
      "Ġson": 6708,
      "ĠgÃ¢n": 6709,
      "Ġgra": 6710,
      "Ġthá»¥c": 6711,
      "ĠrÃ¡n": 6712,
      "Ġpa": 6713,
      "Ġdá»ĳt": 6714,
      "Ġchen": 6715,
      "Ġchuá»ĵng": 6716,
      "Ġhá»Ŀi": 6717,
      "ĠVui": 6718,
      "ĠClo": 6719,
      "ĠNico": 6720,
      "ĠNov": 6721,
      "Ġchá»Ńng": 6722,
      "Ġnháº£m": 6723,
      "ĠÄĲÃ¡nh": 6724,
      "ĠBah": 6725,
      "ĠMÃłn": 6726,
      "ĠMed": 6727,
      "ĠMak": 6728,
      "ĠMeyer": 6729,
      "ĠnhÃ¬": 6730,
      "ĠHong": 6731,
      "ĠHiáº¿n": 6732,
      "ĠHun": 6733,
      "ĠHaz": 6734,
      "ĠNhiáº¿p": 6735,
      "ĠKay": 6736,
      "ĠSang": 6737,
      "ĠSara": 6738,
      "emala": 6739,
      "ĠAz": 6740,
      "ĠAil": 6741,
      "ĠTrá»įng": 6742,
      "ĠGiÃª": 6743,
      "ĠPI": 6744,
      "ĠPu": 6745,
      "ars": 6746,
      "ĠDai": 6747,
      "ĠDur": 6748,
      "ĠDeb": 6749,
      "ĠRu": 6750,
      "ĠReb": 6751,
      "Ġngá»Ńa": 6752,
      "ĠNguy": 6753,
      "ĠÃ¡t": 6754,
      "esa": 6755,
      "esk": 6756,
      "Ãµm": 6757,
      "ĠJustin": 6758,
      "ĠIx": 6759,
      "atemala": 6760,
      "ĠEast": 6761,
      "ĠEvan": 6762,
      "ĠThá»ĥ": 6763,
      "ĠWood": 6764,
      "Ġvá»¥ng": 6765,
      "its": 6766,
      "olate": 6767,
      "ĠOoh": 6768,
      "ĠOtt": 6769,
      "oman": 6770,
      "urch": 6771,
      "ĠChá»©c": 6772,
      "ĠChá»įn": 6773,
      "ĠkÃ©n": 6774,
      "Ġ84": 6775,
      "ĠsÆ°ng": 6776,
      "rir": 6777,
      "rof": 6778,
      "ĠStone": 6779,
      "ĠDow": 6780,
      "ĠDoanh": 6781,
      "ream": 6782,
      "ĠIntel": 6783,
      "aha": 6784,
      "ĠAlb": 6785,
      "aga": 6786,
      "Ġ186": 6787,
      "oux": 6788,
      "ĠThÃ¡p": 6789,
      "Ġfoot": 6790,
      "extin": 6791,
      "ĠShar": 6792,
      "ĠBruce": 6793,
      "awi": 6794,
      "ĠCaltech": 6795,
      "ĠLá»£i": 6796,
      "ĠMoMA": 6797,
      "Ġ1989": 6798,
      "ĠSanta": 6799,
      "ambia": 6800,
      "ĠIrag": 6801,
      "Ġluáº©n": 6802,
      "ĠBarack": 6803,
      "insky": 6804,
      "astian": 6805,
      "ĠNeil": 6806,
      "oko": 6807,
      "ĠxÃ©n": 6808,
      "ĠGuatemala": 6809,
      "ĠTora": 6810,
      "Ġ360": 6811,
      "ĠLatinh": 6812,
      "ĠWilliams": 6813,
      "ĠBonnie": 6814,
      "sterdam": 6815,
      "ĠNorman": 6816,
      "ĠWhite": 6817,
      "ĠUnivers": 6818,
      "ĠOscar": 6819,
      "ĠMoses": 6820,
      "ĠLangley": 6821,
      "ĠHelen": 6822,
      "Ġpheromone": 6823,
      "ĠOprah": 6824,
      "Speech": 6825,
      "shire": 6826,
      "ĠTahrir": 6827,
      "ĠStefan": 6828,
      "ĠFreeSpeech": 6829,
      "Ġprogeria": 6830,
      "ĠGehry": 6831,
      "ĠTenness": 6832,
      "ĠDolby": 6833,
      "ĠEssex": 6834,
      "IC": 6835,
      "MED": 6836,
      "Talk": 6837,
      "cá»": 6838,
      "cia": 6839,
      "gan": 6840,
      "jev": 6841,
      "ject": 6842,
      "ki": 6843,
      "kansas": 6844,
      "lot": 6845,
      "met": 6846,
      "mud": 6847,
      "moud": 6848,
      "ois": 6849,
      "syl": 6850,
      "yon": 6851,
      "¬a": 6852,
      "Ġis": 6853,
      "ĠÃºt": 6854,
      "Ġaw": 6855,
      "ĩp": 6856,
      "ım": 6857,
      "Ġtáº¥u": 6858,
      "ĠtÃºp": 6859,
      "ĠtuÃ´n": 6860,
      "Ġcá»Ļi": 6861,
      "ĠcáºŃt": 6862,
      "Ġcello": 6863,
      "Ġcopy": 6864,
      "ĠÄĳáº¥m": 6865,
      "Ġnung": 6866,
      "ĠnhÃºt": 6867,
      "Ġnoi": 6868,
      "ĠnÃ¡u": 6869,
      "ĠvÃ¡ng": 6870,
      "Ġláº§u": 6871,
      "ĠmÃŃ": 6872,
      "ĠsÃªn": 6873,
      "Ġsáº£o": 6874,
      "Ġtru": 6875,
      "ĠngÃ³": 6876,
      "ĠngÆ¡": 6877,
      "Ġngáº¥t": 6878,
      "Ġngáº¥m": 6879,
      "Ġgáº·t": 6880,
      "Ġrá»Ļ": 6881,
      "ĠrÆ¡": 6882,
      "Ġpen": 6883,
      "Ġdáº·n": 6884,
      "Ġnhoi": 6885,
      "ĠchiÃªu": 6886,
      "Ġthiá»ĥn": 6887,
      "ĠTar": 6888,
      "ĠTarah": 6889,
      "ĠVáº»": 6890,
      "ĠViá»ħn": 6891,
      "ĠCoo": 6892,
      "ĠCÃ¡nh": 6893,
      "ĠNBA": 6894,
      "Ġchá»¯ng": 6895,
      "ote": 6896,
      "Ġgiá»Ł": 6897,
      "ĠÄĲá»Ļc": 6898,
      "ĠhoÃ¡n": 6899,
      "ĠhoÃ³c": 6900,
      "ĠBand": 6901,
      "ĠcháºŃ": 6902,
      "ĠhÃ³t": 6903,
      "ĠMA": 6904,
      "ĠMik": 6905,
      "ĠMir": 6906,
      "ĠHS": 6907,
      "ĠHáº¡nh": 6908,
      "Ġháº±n": 6909,
      "Ġsá»¥c": 6910,
      "Ġsá»¥n": 6911,
      "Ġphá»ĵn": 6912,
      "ĠKent": 6913,
      "ĠKep": 6914,
      "ĠKir": 6915,
      "ĠKate": 6916,
      "Ġbá»ĭa": 6917,
      "Ġkhoáº£": 6918,
      "Ġkhoanh": 6919,
      "ĠkhoÃ¡t": 6920,
      "ĠSS": 6921,
      "ĠSis": 6922,
      "ĠSri": 6923,
      "ĠSho": 6924,
      "ĠSolly": 6925,
      "ĠAG": 6926,
      "ĠAye": 6927,
      "Ġloang": 6928,
      "ĠloÃ£ng": 6929,
      "ĠLá»±a": 6930,
      "ĠTriá»ĥn": 6931,
      "ĠGol": 6932,
      "ĠGri": 6933,
      "ĠPy": 6934,
      "ĠPor": 6935,
      "ĠPic": 6936,
      "ĠPost": 6937,
      "Ġdoo": 6938,
      "Ġyo": 6939,
      "ĠDáº¡": 6940,
      "ĠDennis": 6941,
      "ĠÃģn": 6942,
      "Ġ39": 6943,
      "elle": 6944,
      "eline": 6945,
      "ĠQuyá»ĥn": 6946,
      "ĠJake": 6947,
      "ĠChen": 6948,
      "ĠChuyá»ĥn": 6949,
      "ĠINC": 6950,
      "ets": 6951,
      "ĠThula": 6952,
      "Ġrá»¥i": 6953,
      "ĠFed": 6954,
      "ĠFey": 6955,
      "asa": 6956,
      "aster": 6957,
      "leans": 6958,
      "oma": 6959,
      "Ġ67": 6960,
      "ĠGiá»¯": 6961,
      "adi": 6962,
      "obo": 6963,
      "ĠTEDWomen": 6964,
      "ĠTEDMED": 6965,
      "ĠTEDTalk": 6966,
      "ĠChá»¥p": 6967,
      "ĠChá»ĵng": 6968,
      "ĠVá»£": 6969,
      "rich": 6970,
      "ĠStand": 6971,
      "ĠStein": 6972,
      "Ġdaf": 6973,
      "Ġwatt": 6974,
      "Ġ10000": 6975,
      "iger": 6976,
      "ingo": 6977,
      "hoa": 6978,
      "aba": 6979,
      "aki": 6980,
      "ĠMaria": 6981,
      "ĠMarsh": 6982,
      "ĠJoey": 6983,
      "umara": 6984,
      "ĠZK": 6985,
      "ĠKhÃ¡m": 6986,
      "ĠArkansas": 6987,
      "ĠBrand": 6988,
      "ĠTod": 6989,
      "ĠCarter": 6990,
      "ookie": 6991,
      "awatt": 6992,
      "artz": 6993,
      "ĠLoan": 6994,
      "ĠHá»ıi": 6995,
      "Ġ2013": 6996,
      "ĠPhiÃªn": 6997,
      "ipp": 6998,
      "ĠHarry": 6999,
      "ĠMoham": 7000,
      "Ġ1986": 7001,
      "Ġblogger": 7002,
      "achus": 7003,
      "ĠnhoÃ¡ng": 7004,
      "inder": 7005,
      "ĠPalextin": 7006,
      "ĠDá»«ng": 7007,
      "etts": 7008,
      "ĠMax": 7009,
      "ĠCoch": 7010,
      "vania": 7011,
      "ĠOrleans": 7012,
      "ĠBono": 7013,
      "ĠGoering": 7014,
      "ĠMahmoud": 7015,
      "Ġkáº½m": 7016,
      "ĠKarl": 7017,
      "Ġngá»«Æ¡i": 7018,
      "untu": 7019,
      "ĠSerg": 7020,
      "ĠAriel": 7021,
      "ĠMiller": 7022,
      "ĠGilbert": 7023,
      "ĠJacqu": 7024,
      "ĠIráº¯c": 7025,
      "ĠIreland": 7026,
      "ĠEcon": 7027,
      "ĠWeibo": 7028,
      "ĠAustr": 7029,
      "ĠHiroshi": 7030,
      "ĠArchie": 7031,
      "ĠUhm": 7032,
      "ĠPennsyl": 7033,
      "ĠESG": 7034,
      "ĠKibera": 7035,
      "ĠNicholas": 7036,
      "ĠBloom": 7037,
      "ĠviÃªc": 7038,
      "ĠAnthony": 7039,
      "ĠPantheon": 7040,
      "ĠAilen": 7041,
      "ĠPIPA": 7042,
      "ĠToraja": 7043,
      "ĠTennessee": 7044,
      "ĠTarahumara": 7045,
      "ĠCooper": 7046,
      "ĠKepler": 7047,
      "ĠPennsylvania": 7048,
      "600": 7049,
      "EF": 7050,
      "EG": 7051,
      "Hz": 7052,
      "OL": 7053,
      "OS": 7054,
      "Point": 7055,
      "bao": 7056,
      "box": 7057,
      "cm": 7058,
      "cam": 7059,
      "colm": 7060,
      "colate": 7061,
      "eus": 7062,
      "fli": 7063,
      "gen": 7064,
      "gie": 7065,
      "holm": 7066,
      "kar": 7067,
      "leton": 7068,
      "nhá»¯ng": 7069,
      "pson": 7070,
      "ril": 7071,
      "thá»": 7072,
      "tein": 7073,
      "tail": 7074,
      "zero": 7075,
      "ÄĲ": 7076,
      "Ġar": 7077,
      "Ġest": 7078,
      "áº©ng": 7079,
      "ĠÄ©": 7080,
      "ĠÄĳáº£": 7081,
      "ĠÄĳong": 7082,
      "ĠÄĳÃ¹i": 7083,
      "Ġnáº¡i": 7084,
      "Ġneo": 7085,
      "Ġnáº¡t": 7086,
      "Ġnáº¥p": 7087,
      "ĠnÃ¡ch": 7088,
      "ĠnÃºm": 7089,
      "Ġváº¥p": 7090,
      "ĠlÃ¬nh": 7091,
      "Ġlá»ĳc": 7092,
      "Ġluá»ĵn": 7093,
      "ĠlÃ³ng": 7094,
      "Ġmem": 7095,
      "ĠmÄĥng": 7096,
      "Ã´c": 7097,
      "ĠsÃłnh": 7098,
      "ĠsÃ²": 7099,
      "Ġgh": 7100,
      "ĠrÃ¢m": 7101,
      "Ġráº¯m": 7102,
      "Ġráº«y": 7103,
      "ĠdÃ©p": 7104,
      "Ġcá»£t": 7105,
      "ĠthuyÃªn": 7106,
      "Ġhá»īnh": 7107,
      "ĠTÃ¡i": 7108,
      "ĠTuyÃªn": 7109,
      "ĠTá»ĳc": 7110,
      "ĠTá»Ļi": 7111,
      "ĠTÃłu": 7112,
      "ĠTso": 7113,
      "ĠVÃ¢y": 7114,
      "ĠViÃªn": 7115,
      "ĠVÆ°á»£t": 7116,
      "ĠVideo": 7117,
      "Ġxao": 7118,
      "ĠCH": 7119,
      "ĠCom": 7120,
      "ĠCIA": 7121,
      "ĠNi": 7122,
      "ĠNar": 7123,
      "ĠNat": 7124,
      "ĠNik": 7125,
      "ĠthÃ©t": 7126,
      "Ġchocolate": 7127,
      "ĠVÃłng": 7128,
      "ĠÄĲang": 7129,
      "ĠÄĲáº¥u": 7130,
      "Ġhop": 7131,
      "ĠBP": 7132,
      "ĠBy": 7133,
      "ĠBáº£ng": 7134,
      "ĠBow": 7135,
      "ĠhÃ¹": 7136,
      "ĠMang": 7137,
      "ĠMao": 7138,
      "ĠMeg": 7139,
      "ĠMathem": 7140,
      "ĠHot": 7141,
      "ĠHá»ĵ": 7142,
      "ĠHit": 7143,
      "ĠHamp": 7144,
      "ĠHmm": 7145,
      "Ġsá»§a": 7146,
      "ĠNhanh": 7147,
      "ĠNhiá»ĩt": 7148,
      "ĠKÃ´ng": 7149,
      "ĠKos": 7150,
      "ĠKiva": 7151,
      "Ġtour": 7152,
      "ĠkhoÃ©": 7153,
      "ĠSáºµn": 7154,
      "ĠLes": 7155,
      "ĠLab": 7156,
      "ĠLyn": 7157,
      "ĠLimb": 7158,
      "erat": 7159,
      "amas": 7160,
      "ĠGe": 7161,
      "ĠGÃ¬": 7162,
      "ĠGit": 7163,
      "ĠGul": 7164,
      "ĠPart": 7165,
      "Ġá»Ķ": 7166,
      "Ġá»Ŀ": 7167,
      "aren": 7168,
      "ĠDD": 7169,
      "ĠDáº§n": 7170,
      "ĠDem": 7171,
      "ĠDun": 7172,
      "Ġvá»ĭn": 7173,
      "ĠRow": 7174,
      "Ġngá»Ŀi": 7175,
      "els": 7176,
      "elt": 7177,
      "elli": 7178,
      "ĠIK": 7179,
      "atica": 7180,
      "Ġrá»£": 7181,
      "Ġrá»ĩp": 7182,
      "icut": 7183,
      "ĠWang": 7184,
      "ĠWin": 7185,
      "ĠWoo": 7186,
      "ĠWind": 7187,
      "ĠFai": 7188,
      "ĠFound": 7189,
      "ilot": 7190,
      "iley": 7191,
      "ĠXa": 7192,
      "ĠÄĲá»§": 7193,
      "ĠÄĲá»ģ": 7194,
      "ites": 7195,
      "itra": 7196,
      "ĠHopkins": 7197,
      "ĠOl": 7198,
      "ĠOdy": 7199,
      "ĠChÃŃn": 7200,
      "ĠChÃ¬a": 7201,
      "ĠYáº¿u": 7202,
      "adore": 7203,
      "Ġvá»ĩt": 7204,
      "ĠPhim": 7205,
      "ĠPhilipp": 7206,
      "ĠChá»©": 7207,
      "Ġ76": 7208,
      "Ġ94": 7209,
      "eber": 7210,
      "ĠTá»¥i": 7211,
      "ĠInst": 7212,
      "Ġwater": 7213,
      "Ġ1500": 7214,
      "ĠnghiÃ£": 7215,
      "agu": 7216,
      "ĠbÃŃp": 7217,
      "hod": 7218,
      "ĠMaryl": 7219,
      "ĠPhÃ³ng": 7220,
      "ĠJohan": 7221,
      "Ġ1800": 7222,
      "Ġtháº§u": 7223,
      "ĠShah": 7224,
      "ĠBrad": 7225,
      "ĠJohns": 7226,
      "ĠAmsterdam": 7227,
      "ĠChild": 7228,
      "trol": 7229,
      "Ġgamma": 7230,
      "ĠNá»ķ": 7231,
      "ĠLanka": 7232,
      "Ġ1985": 7233,
      "Ġ1988": 7234,
      "ĠCharlot": 7235,
      "ĠSci": 7236,
      "ambi": 7237,
      "itha": 7238,
      "oga": 7239,
      "ogy": 7240,
      "ĠBarb": 7241,
      "ĠAndy": 7242,
      "ĠSá»¹": 7243,
      "ĠeB": 7244,
      "oyager": 7245,
      "ĠNauy": 7246,
      "astle": 7247,
      "ĠRezero": 7248,
      "ĠFred": 7249,
      "ĠFreud": 7250,
      "ĠMalcolm": 7251,
      "ĠLibya": 7252,
      "ĠStanley": 7253,
      "ĠAhmed": 7254,
      "ĠJimmy": 7255,
      "ĠBrowne": 7256,
      "ĠPalestin": 7257,
      "ĠDonald": 7258,
      "ecticut": 7259,
      "ĠBayes": 7260,
      "moor": 7261,
      "ĠSioux": 7262,
      "Ġmilimet": 7263,
      "ĠNoel": 7264,
      "ĠNoah": 7265,
      "ĠYoung": 7266,
      "ĠLinux": 7267,
      "ĠPhillip": 7268,
      "ĠAgnes": 7269,
      "ĠPowerPoint": 7270,
      "ĠUCLA": 7271,
      "ĠBroadmoor": 7272,
      "stone": 7273,
      "Ġchá»Ļp": 7274,
      "ĠSebastian": 7275,
      "ĠAurora": 7276,
      "ĠScratch": 7277,
      "ĠConnecticut": 7278,
      "ĠJason": 7279,
      "ĠJamaica": 7280,
      "Ġglucose": 7281,
      "jevo": 7282,
      "ĠcháºŃu": 7283,
      "achusetts": 7284,
      "ĠCochrane": 7285,
      "flix": 7286,
      "ĠMathematica": 7287,
      "ĠOdyss": 7288,
      "ĠMaryland": 7289,
      "ĠCharlotte": 7290,
      "100": 7291,
      "ET": 7292,
      "Iá»": 7293,
      "Le": 7294,
      "Qaeda": 7295,
      "aa": 7296,
      "ax": 7297,
      "bes": 7298,
      "cop": 7299,
      "dit": 7300,
      "fel": 7301,
      "gg": 7302,
      "horn": 7303,
      "ji": 7304,
      "lau": 7305,
      "mÃ©t": 7306,
      "mond": 7307,
      "minder": 7308,
      "rk": 7309,
      "rit": 7310,
      "su": 7311,
      "uchia": 7312,
      "va": 7313,
      "vin": 7314,
      "val": 7315,
      "wa": 7316,
      "west": 7317,
      "wait": 7318,
      "xter": 7319,
      "yota": 7320,
      "©y": 7321,
      "Ã©c": 7322,
      "Ã§a": 7323,
      "ĠÆ°Æ¡m": 7324,
      "Ġcoc": 7325,
      "Ġcáº·n": 7326,
      "Ġcock": 7327,
      "ĠÄĳáº§n": 7328,
      "ĠÄĳÆ°á»Ľc": 7329,
      "Ġvon": 7330,
      "Ġváº¡t": 7331,
      "ĠvÆ°á»£n": 7332,
      "ĠlÆ°": 7333,
      "Ġlá»Ł": 7334,
      "Ġmeg": 7335,
      "Ġbl": 7336,
      "ĠbÃ´": 7337,
      "Ġsuyá»ħn": 7338,
      "ĠtrÆ¡": 7339,
      "ĠtrÆ°á»Ľng": 7340,
      "ĠngÃł": 7341,
      "ĠngÃµ": 7342,
      "ĠngÃ³c": 7343,
      "ĠngÃ²i": 7344,
      "Ġngáº©ng": 7345,
      "Ġráº§u": 7346,
      "Ġráº§m": 7347,
      "Ġpar": 7348,
      "Ġdáº¿": 7349,
      "Ġdem": 7350,
      "Ġdáº¡t": 7351,
      "Ġdáº±n": 7352,
      "ĠÄĳá»ħ": 7353,
      "Ġcá»ıi": 7354,
      "Ġcá»ĵng": 7355,
      "ĠTon": 7356,
      "ĠThi": 7357,
      "Ġquáº·ng": 7358,
      "ĠVai": 7359,
      "ĠVel": 7360,
      "ĠVÆ°á»Ŀn": 7361,
      "ĠVoyager": 7362,
      "ĠgiÃ´ng": 7363,
      "ĠCÃº": 7364,
      "ĠCro": 7365,
      "ĠCá»±u": 7366,
      "ĠNáº¡n": 7367,
      "ĠNao": 7368,
      "ĠmÃło": 7369,
      "che": 7370,
      "ĠÄĲáº£o": 7371,
      "ĠÄĲá»ĳc": 7372,
      "ĠBart": 7373,
      "ĠBever": 7374,
      "ĠkhÃ¡nh": 7375,
      "ĠcháºŃp": 7376,
      "ĠchÃ¨o": 7377,
      "ĠchÃ¨n": 7378,
      "ĠhÃª": 7379,
      "ĠhÃ³m": 7380,
      "ĠMW": 7381,
      "ĠMob": 7382,
      "ĠMÃ³n": 7383,
      "ĠMid": 7384,
      "ĠMard": 7385,
      "ĠMorg": 7386,
      "ĠMBI": 7387,
      "ĠMBA": 7388,
      "ĠHP": 7389,
      "ĠHut": 7390,
      "ĠHind": 7391,
      "ĠHuck": 7392,
      "Ġná»ĥ": 7393,
      "ĠNhu": 7394,
      "ĠKB": 7395,
      "ĠKan": 7396,
      "ĠKid": 7397,
      "ĠKab": 7398,
      "ĠSB": 7399,
      "ĠSong": 7400,
      "ĠSÃ´ng": 7401,
      "ĠSel": 7402,
      "ĠSur": 7403,
      "hio": 7404,
      "ĠAT": 7405,
      "Ġloanh": 7406,
      "ĠLy": 7407,
      "ĠLiz": 7408,
      "aman": 7409,
      "ĠTrÃ¬nh": 7410,
      "ĠTric": 7411,
      "ĠGap": 7412,
      "ĠPe": 7413,
      "ĠPia": 7414,
      "ĠPit": 7415,
      "ĠPur": 7416,
      "ĠPran": 7417,
      "ĠPasc": 7418,
      "iag": 7419,
      "arin": 7420,
      "Ġyoga": 7421,
      "ĠDáº¡ng": 7422,
      "Ġphiá»ĩt": 7423,
      "ĠRub": 7424,
      "ĠRivers": 7425,
      "Ġngá»£m": 7426,
      "ĠNghi": 7427,
      "oro": 7428,
      "ĠNhá»ĭp": 7429,
      "alie": 7430,
      "osev": 7431,
      "osphere": 7432,
      "ĠQuyáº¿t": 7433,
      "ĠJK": 7434,
      "ĠJR": 7435,
      "ĠChuyÃªn": 7436,
      "ĠImp": 7437,
      "etas": 7438,
      "Ġ56": 7439,
      "atÃ´ng": 7440,
      "atma": 7441,
      "ape": 7442,
      "ĠWy": 7443,
      "ĠWis": 7444,
      "itic": 7445,
      "ĠHomo": 7446,
      "Ġ1991": 7447,
      "Ġ1993": 7448,
      "ĠOz": 7449,
      "lev": 7450,
      "ady": 7451,
      "urn": 7452,
      "ĠTEDster": 7453,
      "Ġ7000": 7454,
      "Ġ91": 7455,
      "Ġ89": 7456,
      "ĠchÃ¡nh": 7457,
      "riel": 7458,
      "unch": 7459,
      "roÃ§a": 7460,
      "ĠGiÃºp": 7461,
      "ĠCháº£": 7462,
      "Ġsul": 7463,
      "aby": 7464,
      "ĠMars": 7465,
      "hane": 7466,
      "Ġ188": 7467,
      "Ġ189": 7468,
      "ough": 7469,
      "ĠchÃ³t": 7470,
      "owan": 7471,
      "ĠAnne": 7472,
      "iflu": 7473,
      "ĠShaw": 7474,
      "manuel": 7475,
      "ĠArm": 7476,
      "ĠKhoáº£nh": 7477,
      "ĠBaxter": 7478,
      "Ġproton": 7479,
      "ipcar": 7480,
      "ĠLá»ħ": 7481,
      "ĠHarris": 7482,
      "Ġruá»Ļng": 7483,
      "phua": 7484,
      "ĠScoop": 7485,
      "ĠRobinson": 7486,
      "ĠKhal": 7487,
      "ĠDanny": 7488,
      "asso": 7489,
      "ĠMonter": 7490,
      "ĠJamie": 7491,
      "ovo": 7492,
      "ortis": 7493,
      "ĠWilson": 7494,
      "Ġmá»ĵm": 7495,
      "ĠLuke": 7496,
      "ĠNaj": 7497,
      "ĠWalmart": 7498,
      "ĠHeather": 7499,
      "ĠElvis": 7500,
      "ĠJuan": 7501,
      "ynt": 7502,
      "ĠDiet": 7503,
      "ĠFreeman": 7504,
      "ĠMalays": 7505,
      "Ġ1940": 7506,
      "ĠSean": 7507,
      "ĠGuard": 7508,
      "ĠIndiana": 7509,
      "ĠLibÄĥng": 7510,
      "ĠBonnet": 7511,
      "ĠMahatma": 7512,
      "ĠKaren": 7513,
      "ĠBuff": 7514,
      "ĠRockett": 7515,
      "ĠOsama": 7516,
      "ĠTamiflu": 7517,
      "rogen": 7518,
      "ĠmaratÃ´ng": 7519,
      "ĠBiosphere": 7520,
      "ĠEvel": 7521,
      "ĠHirsh": 7522,
      "ĠNetflix": 7523,
      "ĠRadio": 7524,
      "Ġeuro": 7525,
      "ĠGrant": 7526,
      "ĠElec": 7527,
      "ĠRives": 7528,
      "ĠqÃºi": 7529,
      "ĠRussell": 7530,
      "ĠGordon": 7531,
      "ĠStockholm": 7532,
      "ĠBrenda": 7533,
      "Ġcatadore": 7534,
      "ĠCentral": 7535,
      "ĠPapua": 7536,
      "ĠBahamas": 7537,
      "ĠSarajevo": 7538,
      "ĠIxaren": 7539,
      "ĠINCRA": 7540,
      "ĠEconom": 7541,
      "ĠAustralia": 7542,
      "eratops": 7543,
      "ĠIKEA": 7544,
      "ĠFoundation": 7545,
      "ĠOdysseus": 7546,
      "Ġcocktail": 7547,
      "ĠBeverly": 7548,
      "ĠTriceratops": 7549,
      "ĠGapminder": 7550,
      "ĠPascal": 7551,
      "ĠMalaysia": 7552,
      "13": 7553,
      "45": 7554,
      "IP": 7555,
      "bi": 7556,
      "bus": 7557,
      "cer": 7558,
      "eu": 7559,
      "fus": 7560,
      "gi": 7561,
      "gram": 7562,
      "ju": 7563,
      "jan": 7564,
      "kh": 7565,
      "kim": 7566,
      "lÃ´": 7567,
      "och": 7568,
      "oon": 7569,
      "rl": 7570,
      "ress": 7571,
      "rett": 7572,
      "tes": 7573,
      "uh": 7574,
      "uch": 7575,
      "vi": 7576,
      "vet": 7577,
      "vent": 7578,
      "Ġad": 7579,
      "Ġep": 7580,
      "ĠtÃºm": 7581,
      "ĠcÃ²": 7582,
      "Ġcortis": 7583,
      "ĠÄĳÄĥ": 7584,
      "ĠÄĳuá»": 7585,
      "Ġni": 7586,
      "ĠnÃ¨": 7587,
      "Ġlá»Ļc": 7588,
      "ĠlÃµm": 7589,
      "Ġbá»Ł": 7590,
      "Ġsen": 7591,
      "Ġsal": 7592,
      "ĠtrÅ©ng": 7593,
      "Ġgt": 7594,
      "Ġganh": 7595,
      "Ġgeo": 7596,
      "ĠgÃ£i": 7597,
      "Ġgoogle": 7598,
      "ĠhÅ©": 7599,
      "Ġthá»ģm": 7600,
      "ĠrÃ¹ng": 7601,
      "ĠrÄĥn": 7602,
      "ĠrÃ³t": 7603,
      "Ãªt": 7604,
      "ĠdÃ³": 7605,
      "ĠdÃŃ": 7606,
      "ĠdiÃªm": 7607,
      "Ġnhan": 7608,
      "Ġnhung": 7609,
      "Ġnhen": 7610,
      "Ġvá»ĵng": 7611,
      "Ġvá»Ľt": 7612,
      "Ġchk": 7613,
      "Ġchang": 7614,
      "Ġchuá»ĵn": 7615,
      "Ġchat": 7616,
      "ĠchÆ°ng": 7617,
      "Ġnhá»ĳi": 7618,
      "Ġtá»£n": 7619,
      "ĠTG": 7620,
      "ĠTÃłng": 7621,
      "ĠTÃ¢n": 7622,
      "ĠnÃłnh": 7623,
      "ĠquÃ¢y": 7624,
      "ĠViv": 7625,
      "ĠCass": 7626,
      "ĠCynt": 7627,
      "ĠNin": 7628,
      "anc": 7629,
      "ano": 7630,
      "anistan": 7631,
      "Ġrain": 7632,
      "Ġgiá»ı": 7633,
      "Ġbá»«a": 7634,
      "ĠBáº¥y": 7635,
      "ĠBre": 7636,
      "ĠBBC": 7637,
      "aid": 7638,
      "ĠnÄĥn": 7639,
      "ĠMP": 7640,
      "ĠMÃ´ng": 7641,
      "ĠMáº«u": 7642,
      "ĠMub": 7643,
      "ĠMell": 7644,
      "ĠMolly": 7645,
      "ĠnhÃŃm": 7646,
      "ĠnhÃ³t": 7647,
      "ĠHon": 7648,
      "ĠHÆ°á»Ľng": 7649,
      "ĠHey": 7650,
      "ĠHum": 7651,
      "Ġná»ī": 7652,
      "ĠKap": 7653,
      "ĠKas": 7654,
      "Ġtoken": 7655,
      "ĠAC": 7656,
      "ĠAst": 7657,
      "ĠLA": 7658,
      "ĠLas": 7659,
      "ĠLáº¡nh": 7660,
      "ĠTrin": 7661,
      "ĠTroy": 7662,
      "ena": 7663,
      "ĠGá»įi": 7664,
      "ĠGáº¥p": 7665,
      "ĠPA": 7666,
      "ĠPo": 7667,
      "ĠPac": 7668,
      "ĠPilot": 7669,
      "arak": 7670,
      "ĠDes": 7671,
      "ĠphÆ°á»Ľc": 7672,
      "ĠRem": 7673,
      "ĠRec": 7674,
      "ĠReg": 7675,
      "ĠRiley": 7676,
      "Ġxua": 7677,
      "ĠTháº±ng": 7678,
      "imÃ©t": 7679,
      "osp": 7680,
      "oss": 7681,
      "ĠJava": 7682,
      "atan": 7683,
      "isco": 7684,
      "ĠEb": 7685,
      "ĠEEG": 7686,
      "Ġrá»¯a": 7687,
      "ĠWide": 7688,
      "ĠFlick": 7689,
      "Ġdiox": 7690,
      "itan": 7691,
      "Ġ101": 7692,
      "ĠHob": 7693,
      "Ġ1920": 7694,
      "ĠOw": 7695,
      "ĠOhio": 7696,
      "Ġ66": 7697,
      "ader": 7698,
      "ĠChá»Ĺ": 7699,
      "ĠChá»§ng": 7700,
      "Ġ750": 7701,
      "ĠVá»«a": 7702,
      "Ġlab": 7703,
      "Ġgá»ī": 7704,
      "ĠTá»Ľ": 7705,
      "ĠTá»Ŀ": 7706,
      "ĠGian": 7707,
      "ĠGiáº£m": 7708,
      "ĠStudio": 7709,
      "ĠUp": 7710,
      "ĠUt": 7711,
      "ĠAlg": 7712,
      "ĠAlt": 7713,
      "agas": 7714,
      "load": 7715,
      "tonia": 7716,
      "ĠoÃł": 7717,
      "Ġnhuáº§n": 7718,
      "ĠNháº£y": 7719,
      "Ġ401": 7720,
      "umann": 7721,
      "Ġ2500": 7722,
      "ĠBroth": 7723,
      "ĠToyota": 7724,
      "arty": 7725,
      "ĠHá»Ĺ": 7726,
      "Ġ2015": 7727,
      "ffiti": 7728,
      "ĠKend": 7729,
      "ĠPhotoshop": 7730,
      "ĠTrá»¥c": 7731,
      "Ġ1983": 7732,
      "ĠGeoff": 7733,
      "linois": 7734,
      "ĠRobb": 7735,
      "ĠMichel": 7736,
      "ĠTweet": 7737,
      "Ġ1973": 7738,
      "Ġ1979": 7739,
      "ĠColor": 7740,
      "Ġ1965": 7741,
      "anne": 7742,
      "Ġjihad": 7743,
      "ĠCritic": 7744,
      "etty": 7745,
      "ĠWales": 7746,
      "ĠHeh": 7747,
      "Äĳá»": 7748,
      "ĠClark": 7749,
      "ĠGabriel": 7750,
      "tsburgh": 7751,
      "ĠGalil": 7752,
      "ĠÆł": 7753,
      "ĠAccent": 7754,
      "Ġ1957": 7755,
      "ĠBurn": 7756,
      "ĠWater": 7757,
      "cÃ´la": 7758,
      "Ġká»ģnh": 7759,
      "Ġ1918": 7760,
      "ĠARN": 7761,
      "ĠLinus": 7762,
      "ĠvÃ£nh": 7763,
      "lashy": 7764,
      "ĠgoÃ¡": 7765,
      "ĠCasey": 7766,
      "ĠGeorgia": 7767,
      "ĠCampuchia": 7768,
      "ĠRá»«ng": 7769,
      "ĠAchill": 7770,
      "ĠIMF": 7771,
      "ocrates": 7772,
      "Ġamino": 7773,
      "ĠViking": 7774,
      "ĠthÃ¢y": 7775,
      "ĠBilbao": 7776,
      "ĠMassachusetts": 7777,
      "ĠKurd": 7778,
      "strong": 7779,
      "ĠprÃ´tein": 7780,
      "Ġenzyme": 7781,
      "Ġnguá»Ŀi": 7782,
      "ĠVinci": 7783,
      "ĠDARPA": 7784,
      "ĠDenisov": 7785,
      "ĠFriedman": 7786,
      "ĠGayla": 7787,
      "ĠJudy": 7788,
      "ĠTunisia": 7789,
      "ĠIllinois": 7790,
      "Ġgraffiti": 7791,
      "ĠHunter": 7792,
      "ĠRufus": 7793,
      "ĠrÆ¡m": 7794,
      "ĠSisy": 7795,
      "ĠShow": 7796,
      "ĠPicasso": 7797,
      "ĠMarshall": 7798,
      "ĠSergey": 7799,
      "ĠHiroshima": 7800,
      "Ġestrogen": 7801,
      "ĠHitler": 7802,
      "ĠHampshire": 7803,
      "ĠKosovo": 7804,
      "Ġá»Ķn": 7805,
      "ĠNaomi": 7806,
      "ĠPittsburgh": 7807,
      "ĠMonterey": 7808,
      "ĠGuardian": 7809,
      "Ġcortisol": 7810,
      "ĠCynthia": 7811,
      "ĠMubarak": 7812,
      "ĠMellon": 7813,
      "ĠFlickr": 7814,
      "ĠAccenture": 7815,
      "14": 7816,
      "19": 7817,
      "29": 7818,
      "800": 7819,
      "ER": 7820,
      "ES": 7821,
      "HO": 7822,
      "Prin": 7823,
      "RN": 7824,
      "bab": 7825,
      "cas": 7826,
      "dor": 7827,
      "hy": 7828,
      "hop": 7829,
      "iy": 7830,
      "ior": 7831,
      "ku": 7832,
      "khÃ": 7833,
      "lam": 7834,
      "lic": 7835,
      "lus": 7836,
      "lair": 7837,
      "ment": 7838,
      "nick": 7839,
      "oac": 7840,
      "ru": 7841,
      "ráºŃp": 7842,
      "rat": 7843,
      "rass": 7844,
      "rne": 7845,
      "wick": 7846,
      "xon": 7847,
      "yle": 7848,
      "zone": 7849,
      "¢t": 7850,
      "·ng": 7851,
      "Ġ(": 7852,
      "ĠhÃº": 7853,
      "Ġau": 7854,
      "ĠÃºp": 7855,
      "Ġáº¯p": 7856,
      "Ġusd": 7857,
      "ķng": 7858,
      "ĠtÃ©": 7859,
      "Ġten": 7860,
      "Ġciv": 7861,
      "ĠÄĳÃªn": 7862,
      "ĠÄĳÃ¹ng": 7863,
      "ĠvÆ¡": 7864,
      "ĠlÃº": 7865,
      "Ġláº¹": 7866,
      "Ġmm": 7867,
      "ĠmÃ¹ng": 7868,
      "Ġmáº¯ng": 7869,
      "Ġmix": 7870,
      "ĠbÃ¹a": 7871,
      "ĠbiÃªt": 7872,
      "Ġsáº§u": 7873,
      "ĠtrÄĥn": 7874,
      "ĠtrÃ²ng": 7875,
      "Ġtrans": 7876,
      "Ġngáº§u": 7877,
      "ĠngÆ°á»£ng": 7878,
      "Ġngáº¡t": 7879,
      "ĠgÃłng": 7880,
      "Ġhuyá»ĩn": 7881,
      "ĠrÃªn": 7882,
      "ĠrÃ¨m": 7883,
      "Ġpl": 7884,
      "Ġdáº·t": 7885,
      "ĠnhÃłn": 7886,
      "quez": 7887,
      "Ġvá»ĥ": 7888,
      "Ġvá»¥t": 7889,
      "Ġchao": 7890,
      "ĠchÅ©ng": 7891,
      "Ġchuá»Ļc": 7892,
      "Ġnhá»©ng": 7893,
      "Ġhá»ĳt": 7894,
      "ĠTD": 7895,
      "ĠTáº¡": 7896,
      "ĠTiá»ĩn": 7897,
      "ĠTuyáº¿t": 7898,
      "ĠTib": 7899,
      "ĠVis": 7900,
      "Ġxiáº¿t": 7901,
      "ĠCáº¥p": 7902,
      "ĠCos": 7903,
      "ĠCorn": 7904,
      "ĠCod": 7905,
      "ĠComp": 7906,
      "ĠClev": 7907,
      "Ġkhay": 7908,
      "ĠNG": 7909,
      "ĠNI": 7910,
      "ĠNÃºi": 7911,
      "ĠNev": 7912,
      "Ġchá»«": 7913,
      "Ġchá»«a": 7914,
      "ĠthÃ²i": 7915,
      "any": 7916,
      "anan": 7917,
      "Ġrao": 7918,
      "Ġgiá»Ŀi": 7919,
      "Ġnháº§y": 7920,
      "onia": 7921,
      "oney": 7922,
      "onie": 7923,
      "ĠBong": 7924,
      "ĠBáº§u": 7925,
      "ĠBin": 7926,
      "ĠBit": 7927,
      "ĠBut": 7928,
      "Ġcháº§n": 7929,
      "ĠchÃ©m": 7930,
      "ĠhÃ©o": 7931,
      "ĠMM": 7932,
      "ĠMÃ¢y": 7933,
      "ĠMÃ£i": 7934,
      "ĠMedia": 7935,
      "ĠnhÃµm": 7936,
      "ĠHC": 7937,
      "ĠHÆ¡i": 7938,
      "ĠHud": 7939,
      "ĠHunt": 7940,
      "ĠnghÄ©nh": 7941,
      "Ġsá»¯ng": 7942,
      "Ġsá»ĵi": 7943,
      "Ġphá»ī": 7944,
      "ĠphÃ¡ch": 7945,
      "ĠKia": 7946,
      "ĠKey": 7947,
      "ĠtoÃ¡i": 7948,
      "ĠSar": 7949,
      "ĠSop": 7950,
      "ĠSag": 7951,
      "ĠSinc": 7952,
      "ema": 7953,
      "Ġtrá»Ŀ": 7954,
      "ĠAI": 7955,
      "ĠAy": 7956,
      "ĠAth": 7957,
      "ĠABC": 7958,
      "ĠLG": 7959,
      "ĠLÃŃ": 7960,
      "ĠLá»ĳi": 7961,
      "ĠLáº¯ng": 7962,
      "ĠLÅ©": 7963,
      "ĠLur": 7964,
      "ĠLOL": 7965,
      "erk": 7966,
      "ery": 7967,
      "uá»ĩ": 7968,
      "ames": 7969,
      "ĠTrÃ¡ch": 7970,
      "ĠTráº£i": 7971,
      "Ġkhá»©u": 7972,
      "ĠGard": 7973,
      "ĠGlad": 7974,
      "ĠPC": 7975,
      "ĠPin": 7976,
      "ĠPre": 7977,
      "ĠPho": 7978,
      "ĠPav": 7979,
      "ĠPach": 7980,
      "Ġkháº¯t": 7981,
      "ĠmÃ¡ch": 7982,
      "Ġyáº¿n": 7983,
      "Ġphoton": 7984,
      "Ġháº¡c": 7985,
      "ĠRab": 7986,
      "ĠRum": 7987,
      "ĠRá»ĳt": 7988,
      "ĠRep": 7989,
      "Ġngá»¡": 7990,
      "ĠNgá»ĵi": 7991,
      "orth": 7992,
      "esar": 7993,
      "esome": 7994,
      "ĠJihad": 7995,
      "ĠChin": 7996,
      "ĠChÆ¡i": 7997,
      "ĠChurch": 7998,
      "ĠThÆ°á»Łng": 7999
    },
    "merges": [
      [
        "á",
        "»"
      ],
      [
        "á",
        "º"
      ],
      [
        "Ġ",
        "t"
      ],
      [
        "n",
        "g"
      ],
      [
        "Ġ",
        "c"
      ],
      [
        "Ġ",
        "Ä"
      ],
      [
        "Ã",
        "ł"
      ],
      [
        "ĠÄ",
        "ĳ"
      ],
      [
        "Ġ",
        "n"
      ],
      [
        "h",
        "á»"
      ],
      [
        "h",
        "Ã"
      ],
      [
        "Ġ",
        "v"
      ],
      [
        "Ġ",
        "l"
      ],
      [
        "Æ",
        "°"
      ],
      [
        "Ġ",
        "m"
      ],
      [
        "Ġ",
        ","
      ],
      [
        "Ġ",
        "b"
      ],
      [
        "Ã",
        "³"
      ],
      [
        "Ġ",
        "."
      ],
      [
        "Ġ",
        "k"
      ],
      [
        "i",
        "á»"
      ],
      [
        "h",
        "áº"
      ],
      [
        "Ã",
        "´"
      ],
      [
        "Ã",
        "¡"
      ],
      [
        "n",
        "h"
      ],
      [
        "Ġ",
        "s"
      ],
      [
        "Ġt",
        "r"
      ],
      [
        "Æ°",
        "á»"
      ],
      [
        "áº",
        "¡"
      ],
      [
        "á»",
        "Ļ"
      ],
      [
        "Ġ",
        "ng"
      ],
      [
        "Ġ",
        "g"
      ],
      [
        "Ġl",
        "Ãł"
      ],
      [
        "áº",
        "¿"
      ],
      [
        "Ã´",
        "i"
      ],
      [
        "Ġv",
        "Ãł"
      ],
      [
        "Ġ",
        "h"
      ],
      [
        "Ġt",
        "há»"
      ],
      [
        "áº",
        "£"
      ],
      [
        "Ġ",
        "r"
      ],
      [
        "Ã",
        "ª"
      ],
      [
        "hÃ",
        "º"
      ],
      [
        "á»Ļ",
        "t"
      ],
      [
        "Ġ",
        "p"
      ],
      [
        "Ġ",
        "d"
      ],
      [
        "ĠÄĳ",
        "á»"
      ],
      [
        "Ġn",
        "h"
      ],
      [
        "Ġt",
        "Ã´i"
      ],
      [
        "q",
        "u"
      ],
      [
        "Ġc",
        "á»"
      ],
      [
        "Ġv",
        "á»"
      ],
      [
        "Ġm",
        "á»Ļt"
      ],
      [
        "áº",
        "¥"
      ],
      [
        "Ġc",
        "Ã³"
      ],
      [
        "Ġk",
        "hÃ"
      ],
      [
        "Ġc",
        "h"
      ],
      [
        "hÃº",
        "ng"
      ],
      [
        "Ãª",
        "n"
      ],
      [
        "Ġc",
        "Ã¡"
      ],
      [
        "Ġt",
        "h"
      ],
      [
        "Ã",
        "¬"
      ],
      [
        "¯",
        "ng"
      ],
      [
        "Ġn",
        "há»"
      ],
      [
        "á»",
        "ĳ"
      ],
      [
        "iá»",
        "ĩ"
      ],
      [
        "Ã",
        "¢"
      ],
      [
        "Ġ",
        "há»"
      ],
      [
        "Ŀ",
        "i"
      ],
      [
        "Æ",
        "¡"
      ],
      [
        "Ľ",
        "i"
      ],
      [
        "Ġnhá»",
        "¯ng"
      ],
      [
        "Ġt",
        "háº"
      ],
      [
        "Ġc",
        "hÃºng"
      ],
      [
        "Ġcá»",
        "§"
      ],
      [
        "Ġcá»§",
        "a"
      ],
      [
        "´",
        "ng"
      ],
      [
        "i",
        "áº¿"
      ],
      [
        "Ġt",
        "á»"
      ],
      [
        "Ġ",
        "T"
      ],
      [
        "áº¡",
        "n"
      ],
      [
        "Ġt",
        "a"
      ],
      [
        "Ã",
        "£"
      ],
      [
        "ĠcÃ¡",
        "c"
      ],
      [
        "Ġn",
        "Ãł"
      ],
      [
        "Ġ",
        "qu"
      ],
      [
        "iá»",
        "ģ"
      ],
      [
        "ĠkhÃ",
        "´ng"
      ],
      [
        "Æ°á»",
        "£"
      ],
      [
        "Ġn",
        "Ã³"
      ],
      [
        "á»",
        "Ł"
      ],
      [
        "áº",
        "§"
      ],
      [
        "o",
        "ng"
      ],
      [
        "áº",
        "Ń"
      ],
      [
        "Ġ",
        "V"
      ],
      [
        "Æ°á»",
        "Ŀi"
      ],
      [
        "á»",
        "±"
      ],
      [
        "Ġg",
        "i"
      ],
      [
        "ĠÄĳ",
        "Ã³"
      ],
      [
        "Ġ",
        "x"
      ],
      [
        "Ġ",
        "C"
      ],
      [
        "iá»ģ",
        "u"
      ],
      [
        "Ġng",
        "Æ°á»Ŀi"
      ],
      [
        "Ġb",
        "áº¡n"
      ],
      [
        "Ġk",
        "h"
      ],
      [
        "áº¥",
        "t"
      ],
      [
        "áº¡",
        "i"
      ],
      [
        "Ġ",
        "N"
      ],
      [
        "Ġtr",
        "ong"
      ],
      [
        "Ġthá»",
        "ĥ"
      ],
      [
        "Æ°á»£",
        "c"
      ],
      [
        "u",
        "y"
      ],
      [
        "ĠnÃł",
        "y"
      ],
      [
        "ĠÄĳ",
        "Ã£"
      ],
      [
        "Ġc",
        "há»"
      ],
      [
        "Ä",
        "ĥ"
      ],
      [
        "ĠÄĳ",
        "Æ°á»£c"
      ],
      [
        "Ġt",
        "hÃ"
      ],
      [
        "Ġnh",
        "Æ°"
      ],
      [
        "Ġ",
        "&"
      ],
      [
        "Ã¢",
        "y"
      ],
      [
        "Ġhá»",
        "į"
      ],
      [
        "o",
        "t"
      ],
      [
        "Ġp",
        "háº"
      ],
      [
        "Ġvá»",
        "Ľi"
      ],
      [
        "Ġng",
        "h"
      ],
      [
        "qu",
        "ot"
      ],
      [
        "Ġch",
        "o"
      ],
      [
        "a",
        "n"
      ],
      [
        "ĠV",
        "Ãł"
      ],
      [
        "a",
        "y"
      ],
      [
        "Ġr",
        "a"
      ],
      [
        "Ġs",
        "áº"
      ],
      [
        "Ġs",
        "á»±"
      ],
      [
        "Ġg",
        "iá»"
      ],
      [
        "Ġm",
        "Ãł"
      ],
      [
        "ĠlÃł",
        "m"
      ],
      [
        "c",
        "h"
      ],
      [
        "Ã´",
        "ng"
      ],
      [
        "áº",
        "±"
      ],
      [
        "Ġn",
        "háº"
      ],
      [
        "a",
        "ng"
      ],
      [
        "Ġp",
        "hÃ"
      ],
      [
        "Ġ",
        "á»Ł"
      ],
      [
        "i",
        "Ãªn"
      ],
      [
        "á»",
        "į"
      ],
      [
        "áº±",
        "ng"
      ],
      [
        "ĠÄĳá»",
        "ĥ"
      ],
      [
        "Ġc",
        "áº£"
      ],
      [
        "Ġvá»",
        "ģ"
      ],
      [
        "ĠÄ",
        "Ĳ"
      ],
      [
        "Ã",
        "Ń"
      ],
      [
        "Ã¬",
        "nh"
      ],
      [
        "Ġsáº",
        "½"
      ],
      [
        "Ġb",
        "á»"
      ],
      [
        "u",
        "á»ĳ"
      ],
      [
        "iá»",
        "ĥ"
      ],
      [
        "Æ¡",
        "n"
      ],
      [
        "iáº¿",
        "t"
      ],
      [
        "£",
        "i"
      ],
      [
        "ĠÄĳ",
        "iá»ģu"
      ],
      [
        "Ä",
        "©"
      ],
      [
        "áº",
        "·"
      ],
      [
        "Ġtháº",
        "¿"
      ],
      [
        "Ġl",
        "á»"
      ],
      [
        "Ġh",
        "o"
      ],
      [
        "o",
        "n"
      ],
      [
        "Æ°á»",
        "Ľ"
      ],
      [
        "áº¿",
        "n"
      ],
      [
        "áº§",
        "u"
      ],
      [
        "Ġtá»",
        "«"
      ],
      [
        "áº",
        "¯"
      ],
      [
        "Ġkh",
        "i"
      ],
      [
        "Ãł",
        "nh"
      ],
      [
        "©",
        "ng"
      ],
      [
        "Ġ",
        "B"
      ],
      [
        "uy",
        "á»"
      ],
      [
        "a",
        "nh"
      ],
      [
        "ĠkhÃ",
        "¡"
      ],
      [
        "Ã",
        "¹"
      ],
      [
        "ĠT",
        "Ã´i"
      ],
      [
        "Ġs",
        "á»ĳ"
      ],
      [
        "i",
        "nh"
      ],
      [
        "±",
        "c"
      ],
      [
        "ĠnÃ³",
        "i"
      ],
      [
        "áº§",
        "n"
      ],
      [
        "a",
        "o"
      ],
      [
        "Ġd",
        "á»"
      ],
      [
        "a",
        "i"
      ],
      [
        "Ġc",
        "háº"
      ],
      [
        "©",
        "c"
      ],
      [
        "iá»ĩ",
        "n"
      ],
      [
        "Ġc",
        "hÃ"
      ],
      [
        "Ã",
        "º"
      ],
      [
        "Ġn",
        "Äĥ"
      ],
      [
        "Ġ",
        "1"
      ],
      [
        "ĠÄĳ",
        "áº¿n"
      ],
      [
        "Ġtháº",
        "¥"
      ],
      [
        "Ġ",
        "hÃ"
      ],
      [
        "Ġ",
        "?"
      ],
      [
        "Ġpháº",
        "£i"
      ],
      [
        "Ġ",
        "M"
      ],
      [
        "Ġn",
        "hÃ"
      ],
      [
        "iá»ĩ",
        "c"
      ],
      [
        "Æ°á»",
        "Ŀ"
      ],
      [
        "Æ°á»Ľ",
        "c"
      ],
      [
        "Ã",
        "²"
      ],
      [
        "Ġr",
        "áº±ng"
      ],
      [
        "ĠvÃł",
        "o"
      ],
      [
        "Ġg",
        "Ã¬"
      ],
      [
        "Æ°á»Ŀ",
        "ng"
      ],
      [
        "ĠÄĳ",
        "ang"
      ],
      [
        "Ġm",
        "á»"
      ],
      [
        "Ãł",
        "n"
      ],
      [
        "Ġv",
        "iá»ĩc"
      ],
      [
        "Ġ",
        "H"
      ],
      [
        "a",
        "u"
      ],
      [
        "Ġl",
        "áº¡i"
      ],
      [
        "Ġv",
        "áºŃ"
      ],
      [
        "Ġtháº¥",
        "y"
      ],
      [
        "Ġngh",
        "Ä©"
      ],
      [
        "ĠÄĳ",
        "á»Ļ"
      ],
      [
        "Ġr",
        "áº¥t"
      ],
      [
        "ĠcÃ¡c",
        "h"
      ],
      [
        "Ã",
        "½"
      ],
      [
        "i",
        "n"
      ],
      [
        "Ġh",
        "Æ¡n"
      ],
      [
        "Ġn",
        "á»"
      ],
      [
        "áº¥",
        "y"
      ],
      [
        "Ġnh",
        "iá»ģu"
      ],
      [
        "Æ°",
        "Æ¡"
      ],
      [
        "Ãł",
        "i"
      ],
      [
        "¢",
        "n"
      ],
      [
        "Ġ",
        "háº"
      ],
      [
        "áº£",
        "n"
      ],
      [
        "Ã¹",
        "ng"
      ],
      [
        "Ġthá»",
        "±c"
      ],
      [
        "iáº¿",
        "n"
      ],
      [
        "ĠÄĳ",
        "áº§u"
      ],
      [
        "Æ°Æ¡",
        "ng"
      ],
      [
        "ĠÄĳ",
        "Ã¢y"
      ],
      [
        "¥",
        "t"
      ],
      [
        "Ġ",
        "-"
      ],
      [
        "Ġhá»į",
        "c"
      ],
      [
        "Ġc",
        "on"
      ],
      [
        "ĠkhÃ¡",
        "c"
      ],
      [
        "ķ",
        "i"
      ],
      [
        "Ġchá»",
        "ī"
      ],
      [
        "Ã¢",
        "u"
      ],
      [
        "á»į",
        "i"
      ],
      [
        "áº¡",
        "o"
      ],
      [
        "Ġs",
        "á»"
      ],
      [
        "áº¿",
        "u"
      ],
      [
        "Ġc",
        "Ã´ng"
      ],
      [
        "Ġtr",
        "Ãªn"
      ],
      [
        "á»",
        "ĵ"
      ],
      [
        "ĠcÃ¡",
        "i"
      ],
      [
        "Ġv",
        "Ã¬"
      ],
      [
        "ĠnÃł",
        "o"
      ],
      [
        "Ã¡",
        "c"
      ],
      [
        "Ġb",
        "iáº¿t"
      ],
      [
        "áº¿",
        "t"
      ],
      [
        "ĠC",
        "hÃºng"
      ],
      [
        "ĠÄĳá»",
        "ģ"
      ],
      [
        "u",
        "ng"
      ],
      [
        "ĠchÃ",
        "Ń"
      ],
      [
        "uyá»",
        "ĩ"
      ],
      [
        "Ãł",
        "ng"
      ],
      [
        "Ġp",
        "há»"
      ],
      [
        "iá»ĩ",
        "u"
      ],
      [
        "ĠphÃ",
        "¡"
      ],
      [
        "ĠN",
        "h"
      ],
      [
        "ĠnÄĥ",
        "m"
      ],
      [
        "Å",
        "©ng"
      ],
      [
        "Æ¡",
        "i"
      ],
      [
        "ĠÄĳ",
        "i"
      ],
      [
        "uá»ĳ",
        "n"
      ],
      [
        "Ġthá»",
        "©"
      ],
      [
        "Ġdá»",
        "¥"
      ],
      [
        "Ġth",
        "Ãłnh"
      ],
      [
        "Ġ",
        "K"
      ],
      [
        "á»Ļ",
        "c"
      ],
      [
        "Ġ",
        ":"
      ],
      [
        "Ġ-",
        "-"
      ],
      [
        "áº¯",
        "t"
      ],
      [
        "Ġc",
        "Å©ng"
      ],
      [
        "Ġnh",
        "Ãł"
      ],
      [
        "ĠNh",
        "Æ°"
      ],
      [
        "u",
        "á»Ļc"
      ],
      [
        "ĳ",
        "ng"
      ],
      [
        "Ġbá»",
        "ĭ"
      ],
      [
        "Ġt",
        "o"
      ],
      [
        "áº",
        "»"
      ],
      [
        "Ġkh",
        "o"
      ],
      [
        "Ġqu",
        "an"
      ],
      [
        "Ġ",
        "S"
      ],
      [
        "Ġm",
        "uá»ĳn"
      ],
      [
        "Ġtháº",
        "Ń"
      ],
      [
        "Ġs",
        "Ã¡"
      ],
      [
        "e",
        "o"
      ],
      [
        "e",
        "m"
      ],
      [
        "Ġnháº",
        "Ń"
      ],
      [
        "Ġtr",
        "á»"
      ],
      [
        "Ġm",
        "Ã¬nh"
      ],
      [
        "¯",
        "a"
      ],
      [
        "h",
        "i"
      ],
      [
        "ĠnhÆ°",
        "ng"
      ],
      [
        "Ġnháº",
        "¥t"
      ],
      [
        "Ġk",
        "á»"
      ],
      [
        "ĠNhÆ°",
        "ng"
      ],
      [
        "Æ°á»",
        "Ł"
      ],
      [
        "Ġt",
        "áº¡o"
      ],
      [
        "áº",
        "«"
      ],
      [
        "Æ°á»Ł",
        "ng"
      ],
      [
        "ĠÄĳá»Ļ",
        "ng"
      ],
      [
        "Ġt",
        "á»ĳ"
      ],
      [
        "Ġgiá»",
        "Ľi"
      ],
      [
        "ĠchÃŃ",
        "nh"
      ],
      [
        "Ġ",
        "A"
      ],
      [
        "Ġl",
        "o"
      ],
      [
        "Ġn",
        "Ãªn"
      ],
      [
        "Ġgi",
        "áº£"
      ],
      [
        "ĠváºŃ",
        "y"
      ],
      [
        "á»Ł",
        "i"
      ],
      [
        "áº·",
        "t"
      ],
      [
        "§",
        "n"
      ],
      [
        "ģ",
        "n"
      ],
      [
        "Ãł",
        "y"
      ],
      [
        "Ġlá»",
        "Ľ"
      ],
      [
        "¬",
        "nh"
      ],
      [
        "Ãª",
        "u"
      ],
      [
        "ĠhÃ",
        "¬nh"
      ],
      [
        "Æ°",
        "a"
      ],
      [
        "Ã²",
        "n"
      ],
      [
        "ı",
        "i"
      ],
      [
        "iá»ĥ",
        "u"
      ],
      [
        "Ġgiá»",
        "Ŀ"
      ],
      [
        "Ġh",
        "iá»ĩn"
      ],
      [
        "Ġt",
        "ÃŃ"
      ],
      [
        "Ã¢",
        "n"
      ],
      [
        "Ġsá»ĳ",
        "ng"
      ],
      [
        "uyá»ĩ",
        "n"
      ],
      [
        "Ġt",
        "iáº¿"
      ],
      [
        "Ġt",
        "áº¡i"
      ],
      [
        "Ġn",
        "áº¿u"
      ],
      [
        "ĠnháºŃ",
        "n"
      ],
      [
        "Ġm",
        "á»įi"
      ],
      [
        "Ġ",
        "L"
      ],
      [
        "Æ°á»£",
        "ng"
      ],
      [
        "áº¥",
        "n"
      ],
      [
        "Ã¡",
        "i"
      ],
      [
        "e",
        "r"
      ],
      [
        "u",
        "á»"
      ],
      [
        "Ġqu",
        "y"
      ],
      [
        "¬",
        "n"
      ],
      [
        "Ġc",
        "uá»Ļc"
      ],
      [
        "Ã",
        "©"
      ],
      [
        "Ġc",
        "áº§n"
      ],
      [
        "Ġ",
        "2"
      ],
      [
        "Ġh",
        "ay"
      ],
      [
        "ĥ",
        "n"
      ],
      [
        "a",
        "m"
      ],
      [
        "Ã¡",
        "n"
      ],
      [
        "Ġtá»",
        "±"
      ],
      [
        "áº·",
        "c"
      ],
      [
        "áºŃ",
        "p"
      ],
      [
        "ĠthÃ",
        "¬"
      ],
      [
        "ĠT",
        "r"
      ],
      [
        "u",
        "áºŃ"
      ],
      [
        "á»ĵ",
        "i"
      ],
      [
        "Ã¢",
        "m"
      ],
      [
        "ĠÄĳá»",
        "ĭ"
      ],
      [
        "0",
        "0"
      ],
      [
        "Ġt",
        "áº¥t"
      ],
      [
        "ĠÄĳá»",
        "ĵ"
      ],
      [
        "Ġ",
        "Ã´ng"
      ],
      [
        "Ġ",
        "áº¥y"
      ],
      [
        "Ġb",
        "á»Łi"
      ],
      [
        "e",
        "n"
      ],
      [
        "Ġtá»",
        "Ľi"
      ],
      [
        "Ġth",
        "eo"
      ],
      [
        "Ġb",
        "áº¯t"
      ],
      [
        "Ġc",
        "Ã²n"
      ],
      [
        "ĠnhÃ",
        "¬n"
      ],
      [
        "iá»ĥ",
        "m"
      ],
      [
        "Ġlá»Ľ",
        "n"
      ],
      [
        "ĠÄĳ",
        "Ã¡"
      ],
      [
        "Ġc",
        "Ã¹ng"
      ],
      [
        "Ġb",
        "áº±ng"
      ],
      [
        "Ġ",
        "Ã½"
      ],
      [
        "áº«",
        "n"
      ],
      [
        "Ġcáº£",
        "m"
      ],
      [
        "iá»ĥ",
        "n"
      ],
      [
        "Ġt",
        "áº¿"
      ],
      [
        "Ãº",
        "c"
      ],
      [
        "Ġs",
        "au"
      ],
      [
        "Ġdá»¥",
        "ng"
      ],
      [
        "ĠtháºŃ",
        "t"
      ],
      [
        "Ġcá»",
        "©"
      ],
      [
        "Ġl",
        "Ãªn"
      ],
      [
        "Ġgi",
        "Ã¡"
      ],
      [
        "Ġ",
        "anh"
      ],
      [
        "Ġc",
        "Ã¢u"
      ],
      [
        "Ġb",
        "áº£n"
      ],
      [
        "Ġt",
        "in"
      ],
      [
        "Ġs",
        "ao"
      ],
      [
        "Ġqu",
        "a"
      ],
      [
        "Ġthá»",
        "Ŀi"
      ],
      [
        "Ġch",
        "uyá»ĩn"
      ],
      [
        "Ġk",
        "há»"
      ],
      [
        "Ġtr",
        "á»Ł"
      ],
      [
        "Ġb",
        "á»Ļ"
      ],
      [
        "iá»ĩ",
        "m"
      ],
      [
        "Ġ",
        "G"
      ],
      [
        "Ġng",
        "Ãły"
      ],
      [
        "Ã´",
        "n"
      ],
      [
        "ĠnhÃ",
        "¢n"
      ],
      [
        "Ġc",
        "Æ¡"
      ],
      [
        "Ġ",
        "P"
      ],
      [
        "Ġhá»",
        "Ļ"
      ],
      [
        "Ġs",
        "inh"
      ],
      [
        "Ġk",
        "háº"
      ],
      [
        "Äĥ",
        "n"
      ],
      [
        "ĳ",
        "i"
      ],
      [
        "Ĺ",
        "i"
      ],
      [
        "¥",
        "c"
      ],
      [
        "ĠthÃ",
        "Ń"
      ],
      [
        "áº£",
        "ng"
      ],
      [
        "áº£",
        "nh"
      ],
      [
        "ĠnÄĥ",
        "ng"
      ],
      [
        "Ġsá»",
        "Ń"
      ],
      [
        "Ġtr",
        "Æ°á»Ľc"
      ],
      [
        "ĠphÃ¡",
        "t"
      ],
      [
        "Ġn",
        "Æ°á»Ľc"
      ],
      [
        "i",
        "a"
      ],
      [
        "ĠÄĳá»",
        "ķi"
      ],
      [
        "iá»ĩ",
        "t"
      ],
      [
        "ĠN",
        "Ã³"
      ],
      [
        "Ġto",
        "Ãłn"
      ],
      [
        "Ġm",
        "Ã¡"
      ],
      [
        "Ġpháº",
        "§n"
      ],
      [
        "Ã¬",
        "m"
      ],
      [
        "Ġn",
        "Æ¡i"
      ],
      [
        "Ġgi",
        "a"
      ],
      [
        "Ġd",
        "o"
      ],
      [
        "ĠthÃ",
        "´ng"
      ],
      [
        "Ġ",
        "á»"
      ],
      [
        "Ġd",
        "á»±"
      ],
      [
        "Ġt",
        "Ã¬m"
      ],
      [
        "Ġnh",
        "au"
      ],
      [
        "a",
        "r"
      ],
      [
        "Ġth",
        "ay"
      ],
      [
        "Ġmá»",
        "Ľi"
      ],
      [
        "Ġ",
        "y"
      ],
      [
        "Ġv",
        "áº¥n"
      ],
      [
        "ĠÄĳá»ĭ",
        "nh"
      ],
      [
        "Ġhá»",
        "ĩ"
      ],
      [
        "Ġtr",
        "Æ°á»Ŀng"
      ],
      [
        "Ġng",
        "há»"
      ],
      [
        "Ġ",
        "D"
      ],
      [
        "Ġnh",
        "iÃªn"
      ],
      [
        "ĠtÃŃ",
        "nh"
      ],
      [
        "Ġp",
        "h"
      ],
      [
        "iá»",
        "ħ"
      ],
      [
        "ĠÄĲ",
        "Ã¢y"
      ],
      [
        "Ġtr",
        "Ã¬nh"
      ],
      [
        "Ġm",
        "áº¡"
      ],
      [
        "Ġtá»ĳ",
        "t"
      ],
      [
        "Ġt",
        "Æ°á»Łng"
      ],
      [
        "Ġk",
        "áº¿t"
      ],
      [
        "Äĥ",
        "ng"
      ],
      [
        "ĠváºŃ",
        "t"
      ],
      [
        "Ġh",
        "Ãłng"
      ],
      [
        "Ġl",
        "Ã½"
      ],
      [
        "Ġhá»",
        "ıi"
      ],
      [
        "¿",
        "t"
      ],
      [
        "Ġháº",
        "¡"
      ],
      [
        "ĠB",
        "áº¡n"
      ],
      [
        "£",
        "p"
      ],
      [
        "ĠmÃ¡",
        "y"
      ],
      [
        "Ġ",
        "áº£nh"
      ],
      [
        "á»±",
        "c"
      ],
      [
        "uáºŃ",
        "t"
      ],
      [
        "á»ĳ",
        "i"
      ],
      [
        "ĠthÃ",
        "¡"
      ],
      [
        "Ġhá»",
        "£p"
      ],
      [
        "ĠÄĲ",
        "Ã³"
      ],
      [
        "áº¡",
        "t"
      ],
      [
        "Ġm",
        "áº·t"
      ],
      [
        "¯",
        "c"
      ],
      [
        "Ġtiáº¿",
        "p"
      ],
      [
        "Ġh",
        "Ãłnh"
      ],
      [
        "Ġná»",
        "¯a"
      ],
      [
        "Ġk",
        "inh"
      ],
      [
        "³",
        "ng"
      ],
      [
        "Ġgi",
        "an"
      ],
      [
        "Ġthá»",
        "©c"
      ],
      [
        "Ġhá»Ļ",
        "i"
      ],
      [
        "Ġtr",
        "á»į"
      ],
      [
        "Ġvá»",
        "ĭ"
      ],
      [
        "Ġth",
        "iáº¿t"
      ],
      [
        "Ġch",
        "iáº¿"
      ],
      [
        "áº",
        "¹"
      ],
      [
        "áº¥",
        "u"
      ],
      [
        "uy",
        "Ãªn"
      ],
      [
        "Ń",
        "a"
      ],
      [
        "Ġr",
        "á»ĵi"
      ],
      [
        "Ãł",
        "o"
      ],
      [
        "Ġx",
        "em"
      ],
      [
        "áºŃ",
        "y"
      ],
      [
        "Ġl",
        "iá»ĩu"
      ],
      [
        "Ġtrá»į",
        "ng"
      ],
      [
        "Ġho",
        "Ã¡"
      ],
      [
        "uá»",
        "ķi"
      ],
      [
        "ĠthÃŃ",
        "ch"
      ],
      [
        "Ġc",
        "Ã´"
      ],
      [
        "Ġ",
        "R"
      ],
      [
        "áº",
        "©"
      ],
      [
        "áº£",
        "o"
      ],
      [
        "ĩ",
        "nh"
      ],
      [
        "ĠÄĳá»ĵ",
        "ng"
      ],
      [
        "iá»ħ",
        "n"
      ],
      [
        "Ġgiáº£",
        "i"
      ],
      [
        "i",
        "Ãªu"
      ],
      [
        "Ġtr",
        "áº»"
      ],
      [
        "Ġl",
        "Æ°á»£ng"
      ],
      [
        "Ġh",
        "ai"
      ],
      [
        "ĠÄĳ",
        "o"
      ],
      [
        "Ġqu",
        "Ã¡"
      ],
      [
        "Ġ",
        "ai"
      ],
      [
        "Ġng",
        "á»"
      ],
      [
        "Ġth",
        "Æ°á»Ŀng"
      ],
      [
        "Ġb",
        "áº¥t"
      ],
      [
        "Ġ",
        "Ã"
      ],
      [
        "ĠvÃł",
        "i"
      ],
      [
        "ĠÄĳá»ģ",
        "u"
      ],
      [
        "áº",
        "½"
      ],
      [
        "ĠN",
        "g"
      ],
      [
        "Ġt",
        "iÃªn"
      ],
      [
        "ĠM",
        "á»Ļt"
      ],
      [
        "ĠÄĳá»",
        "ĳi"
      ],
      [
        "ĠsÃ¡",
        "ng"
      ],
      [
        "á»Ļ",
        "ng"
      ],
      [
        "Ġtr",
        "áº£"
      ],
      [
        "Ġh",
        "iá»ĥu"
      ],
      [
        "Ġt",
        "Ã¢m"
      ],
      [
        "Ġn",
        "ay"
      ],
      [
        "Ġlo",
        "áº¡i"
      ],
      [
        "Ġ",
        "3"
      ],
      [
        "Ġgiá»",
        "ĳng"
      ],
      [
        "Ġl",
        "áº§n"
      ],
      [
        "áº£",
        "y"
      ],
      [
        "ĠV",
        "Ã¬"
      ],
      [
        "Ġcá»©",
        "u"
      ],
      [
        "Ġt",
        "hÃº"
      ],
      [
        "Ġb",
        "ao"
      ],
      [
        "Ġbá»",
        "ĩnh"
      ],
      [
        "Ġthá»",
        "ĳng"
      ],
      [
        "ĭ",
        "ch"
      ],
      [
        "Ã²",
        "ng"
      ],
      [
        "Ġv",
        "iÃªn"
      ],
      [
        "Ãº",
        "ng"
      ],
      [
        "£",
        "y"
      ],
      [
        "Ġnghá»",
        "ĩ"
      ],
      [
        "iá»ģ",
        "n"
      ],
      [
        "ĠÄĳ",
        "iá»ĥm"
      ],
      [
        "ĠnghÄ©",
        "a"
      ],
      [
        "hÃº",
        "t"
      ],
      [
        "Ġng",
        "o"
      ],
      [
        "Ġg",
        "á»įi"
      ],
      [
        "ĠC",
        "Ã³"
      ],
      [
        "Ġnhá»",
        "ı"
      ],
      [
        "ĠV",
        "áºŃy"
      ],
      [
        "áº",
        "¯ng"
      ],
      [
        "ĠH",
        "á»į"
      ],
      [
        "ĠÄĳ",
        "Æ°a"
      ],
      [
        "Ġt",
        "Æ°Æ¡ng"
      ],
      [
        "Ġho",
        "Ãłn"
      ],
      [
        "Ġx",
        "u"
      ],
      [
        "Ġngh",
        "iá»ĩm"
      ],
      [
        "Ġqu",
        "áº£"
      ],
      [
        "Ġt",
        "Ã¡c"
      ],
      [
        "ĠÄĳ",
        "Æ°á»Ŀng"
      ],
      [
        "uyá»",
        "ĥn"
      ],
      [
        "o",
        "r"
      ],
      [
        "Ġv",
        "áº«n"
      ],
      [
        "uyá»ĩ",
        "t"
      ],
      [
        "Ġcá»",
        "ĳ"
      ],
      [
        "Å",
        "©"
      ],
      [
        "Ġx",
        "áº£y"
      ],
      [
        "Äĥ",
        "m"
      ],
      [
        "uyá»",
        "ģn"
      ],
      [
        "Ġchiáº¿",
        "c"
      ],
      [
        "á»ĳ",
        "c"
      ],
      [
        "Ġth",
        "uáºŃt"
      ],
      [
        "Ġb",
        "iá»ĩt"
      ],
      [
        "Ġd",
        "Ã¹ng"
      ],
      [
        "ĠN",
        "há»"
      ],
      [
        "Ġ",
        "ÃŃ"
      ],
      [
        "ĠÄĳ",
        "áº¡i"
      ],
      [
        "Ġho",
        "áº·c"
      ],
      [
        "a",
        "l"
      ],
      [
        "ĠT",
        "háº"
      ],
      [
        "Ġb",
        "Ãªn"
      ],
      [
        "Ġtá»«",
        "ng"
      ],
      [
        "Ġd",
        "Ã¢n"
      ],
      [
        "Ġtr",
        "iá»ĥn"
      ],
      [
        "Ġl",
        "Ãºc"
      ],
      [
        "Ġch",
        "uyá»ĥn"
      ],
      [
        "iá»ĩ",
        "p"
      ],
      [
        "Ã£",
        "o"
      ],
      [
        "Ġd",
        "iá»ħn"
      ],
      [
        "ĠÄĲ",
        "iá»ģu"
      ],
      [
        "Ġtrá»",
        "ĭ"
      ],
      [
        "Ġquy",
        "áº¿t"
      ],
      [
        "«",
        "ng"
      ],
      [
        "ĠNhá»",
        "¯ng"
      ],
      [
        "Ġc",
        "ao"
      ],
      [
        "Ġngh",
        "e"
      ],
      [
        "Ġth",
        "u"
      ],
      [
        "Ãº",
        "p"
      ],
      [
        "ĠÄ",
        "ĥn"
      ],
      [
        "Ġd",
        "áº¡"
      ],
      [
        "u",
        "Ã´n"
      ],
      [
        "Ġt",
        "uyá»ĩt"
      ],
      [
        "uá»ĳ",
        "c"
      ],
      [
        "áº¯",
        "c"
      ],
      [
        "ĠM",
        "á»"
      ],
      [
        "Ġmá»",
        "Ĺi"
      ],
      [
        "Ġtá»",
        "ķ"
      ],
      [
        "Ġc",
        "áº§u"
      ],
      [
        "Ġkho",
        "áº£ng"
      ],
      [
        "uá»ĳ",
        "i"
      ],
      [
        "Ġv",
        "i"
      ],
      [
        "ĠN",
        "áº¿u"
      ],
      [
        "Ġl",
        "á»±c"
      ],
      [
        "Ġk",
        "áº¿"
      ],
      [
        "Ġcháº",
        "¥t"
      ],
      [
        "Ġphá»",
        "¥"
      ],
      [
        "ĠK",
        "hÃ"
      ],
      [
        "Ġ",
        "Ã¡"
      ],
      [
        "Ġb",
        "Ã¡"
      ],
      [
        "áº¥",
        "p"
      ],
      [
        "i",
        "m"
      ],
      [
        "Ġlá»",
        "Ŀi"
      ],
      [
        "ĠgiÃ¡",
        "o"
      ],
      [
        "Ġgi",
        "Ãºp"
      ],
      [
        "ĠÄĳ",
        "áº¥t"
      ],
      [
        "e",
        "s"
      ],
      [
        "²",
        "ng"
      ],
      [
        "Ġ",
        "em"
      ],
      [
        "Ġ",
        "Æ¡n"
      ],
      [
        "Ã",
        "µ"
      ],
      [
        "©",
        "a"
      ],
      [
        "Ġtr",
        "ung"
      ],
      [
        "Ġchá»",
        "§"
      ],
      [
        "áº©",
        "n"
      ],
      [
        "Ġb",
        "áº£o"
      ],
      [
        "Ġkháº",
        "£"
      ],
      [
        "Ġná»",
        "¯"
      ],
      [
        "Ġt",
        "iáº¿n"
      ],
      [
        "o",
        "s"
      ],
      [
        "Ġháº",
        "¿t"
      ],
      [
        "ĠphÃ",
        "²ng"
      ],
      [
        "Æ°á»",
        "Ľi"
      ],
      [
        "Ġch",
        "Æ°a"
      ],
      [
        "e",
        "l"
      ],
      [
        "Ġt",
        "Ã¬nh"
      ],
      [
        "Ġngh",
        "iÃªn"
      ],
      [
        "Ġ",
        "Q"
      ],
      [
        "Ġxu",
        "áº¥t"
      ],
      [
        "Æ°á»Ľ",
        "ng"
      ],
      [
        "Ġx",
        "e"
      ],
      [
        "Ġm",
        "ang"
      ],
      [
        "Ġl",
        "iÃªn"
      ],
      [
        "ĠphÃ",
        "¢n"
      ],
      [
        "ĠA",
        "nh"
      ],
      [
        "Ġtr",
        "anh"
      ],
      [
        "Ġb",
        "Ãłi"
      ],
      [
        "ĠkhÃ",
        "³"
      ],
      [
        "ĠÄĳ",
        "Æ¡n"
      ],
      [
        "áº¯",
        "n"
      ],
      [
        "Ġn",
        "Ã£o"
      ],
      [
        "Ġt",
        "áºŃp"
      ],
      [
        "Ġtr",
        "uyá»ģn"
      ],
      [
        "¥",
        "p"
      ],
      [
        "Ġt",
        "uá»ķi"
      ],
      [
        "ĠÄĳ",
        "Ãºng"
      ],
      [
        "Ġph",
        "Æ°Æ¡ng"
      ],
      [
        "ĠÄĳ",
        "iá»ĩn"
      ],
      [
        "Ġb",
        "Ã¬nh"
      ],
      [
        "ĠÄĳ",
        "áº·t"
      ],
      [
        "©",
        "m"
      ],
      [
        "Ġt",
        "Æ°á»£ng"
      ],
      [
        "i",
        "Ãª"
      ],
      [
        "Ġta",
        "y"
      ],
      [
        "Ġb",
        "iáº¿n"
      ],
      [
        "uá»ĳ",
        "ng"
      ],
      [
        "ĠK",
        "hi"
      ],
      [
        "u",
        "á»ĵ"
      ],
      [
        "Ġt",
        "iá»ģn"
      ],
      [
        "Ġgiá»",
        "¯a"
      ],
      [
        "Ġ",
        "J"
      ],
      [
        "Ġy",
        "Ãªu"
      ],
      [
        "Ġs",
        "áº£n"
      ],
      [
        "Ġtiáº¿",
        "ng"
      ],
      [
        "©",
        "p"
      ],
      [
        "ĠhÃ",
        "£y"
      ],
      [
        "ĠC",
        "h"
      ],
      [
        "Ġng",
        "ay"
      ],
      [
        "Ġth",
        "o"
      ],
      [
        "Ġb",
        "Ã©"
      ],
      [
        "áº·",
        "p"
      ],
      [
        "Ġquy",
        "á»"
      ],
      [
        "Ġkho",
        "a"
      ],
      [
        "áºŃ",
        "n"
      ],
      [
        "áº¡",
        "c"
      ],
      [
        "ĠKhÃ",
        "´ng"
      ],
      [
        "áº§",
        "m"
[...]
