{
  "version": "1.0",
  "truncation": null,
  "padding": null,
  "added_tokens": [
    {
      "id": 0,
      "content": "<pad>",
      "single_word": false,
      "lstrip": false,
      "rstrip": false,
      "normalized": false,
      "special": true
    },
    {
      "id": 1,
      "content": "<sos>",
      "single_word": false,
      "lstrip": false,
      "rstrip": false,
      "normalized": false,
      "special": true
    },
    {
      "id": 2,
      "content": "<eos>",
      "single_word": false,
      "lstrip": false,
      "rstrip": false,
      "normalized": false,
      "special": true
    },
    {
      "id": 3,
      "content": "<unk>",
      "single_word": false,
      "lstrip": false,
      "rstrip": false,
      "normalized": false,
      "special": true
    }
  ],
  "normalizer": null,
  "pre_tokenizer": {
    "type": "ByteLevel",
    "add_prefix_space": true,
    "trim_offsets": true,
    "use_regex": true
  },
  "post_processor": null,
  "decoder": {
    "type": "ByteLevel",
    "add_prefix_space": true,
    "trim_offsets": true,
    "use_regex": true
  },
  "model": {
    "type": "BPE",
    "dropout": null,
    "unk_token": "<unk>",
    "continuing_subword_prefix": null,
    "end_of_word_suffix": null,
    "fuse_unk": false,
    "byte_fallback": false,
    "ignore_merges": false,
    "vocab": {
      "<pad>": 0,
      "<sos>": 1,
      "<eos>": 2,
      "<unk>": 3,
      "!": 4,
      "\"": 5,
      "#": 6,
      "$": 7,
      "%": 8,
      "&": 9,
      "'": 10,
      "(": 11,
      ")": 12,
      "*": 13,
      "+": 14,
      ",": 15,
      "-": 16,
      ".": 17,
      "/": 18,
      "0": 19,
      "1": 20,
      "2": 21,
      "3": 22,
      "4": 23,
      "5": 24,
      "6": 25,
      "7": 26,
      "8": 27,
      "9": 28,
      ":": 29,
      ";": 30,
      "<": 31,
      "=": 32,
      ">": 33,
      "?": 34,
      "@": 35,
      "A": 36,
      "B": 37,
      "C": 38,
      "D": 39,
      "E": 40,
      "F": 41,
      "G": 42,
      "H": 43,
      "I": 44,
      "J": 45,
      "K": 46,
      "L": 47,
      "M": 48,
      "N": 49,
      "O": 50,
      "P": 51,
      "Q": 52,
      "R": 53,
      "S": 54,
      "T": 55,
      "U": 56,
      "V": 57,
      "W": 58,
      "X": 59,
      "Y": 60,
      "Z": 61,
      "[": 62,
      "\\": 63,
      "]": 64,
      "^": 65,
      "_": 66,
      "`": 67,
      "a": 68,
      "b": 69,
      "c": 70,
      "d": 71,
      "e": 72,
      "f": 73,
      "g": 74,
      "h": 75,
      "i": 76,
      "j": 77,
      "k": 78,
      "l": 79,
      "m": 80,
      "n": 81,
      "o": 82,
      "p": 83,
      "q": 84,
      "r": 85,
      "s": 86,
      "t": 87,
      "u": 88,
      "v": 89,
      "w": 90,
      "x": 91,
      "y": 92,
      "z": 93,
      "{": 94,
      "|": 95,
      "}": 96,
      "~": 97,
      "¡": 98,
      "¢": 99,
      "£": 100,
      "¤": 101,
      "¥": 102,
      "¦": 103,
      "§": 104,
      "¨": 105,
      "©": 106,
      "ª": 107,
      "«": 108,
      "¬": 109,
      "®": 110,
      "¯": 111,
      "°": 112,
      "±": 113,
      "²": 114,
      "³": 115,
      "´": 116,
      "µ": 117,
      "¶": 118,
      "·": 119,
      "¸": 120,
      "¹": 121,
      "º": 122,
      "»": 123,
      "¼": 124,
      "½": 125,
      "¾": 126,
      "¿": 127,
      "À": 128,
      "Á": 129,
      "Â": 130,
      "Ã": 131,
      "Ä": 132,
      "Å": 133,
      "Æ": 134,
      "Ç": 135,
      "È": 136,
      "É": 137,
      "Ê": 138,
      "Ë": 139,
      "Ì": 140,
      "Í": 141,
      "Î": 142,
      "Ï": 143,
      "Ð": 144,
      "Ñ": 145,
      "Ò": 146,
      "Ó": 147,
      "Ô": 148,
      "Õ": 149,
      "Ö": 150,
      "×": 151,
      "Ø": 152,
      "Ù": 153,
      "Ú": 154,
      "Û": 155,
      "Ü": 156,
      "Ý": 157,
      "Þ": 158,
      "ß": 159,
      "à": 160,
      "á": 161,
      "â": 162,
      "ã": 163,
      "ä": 164,
      "å": 165,
      "æ": 166,
      "ç": 167,
      "è": 168,
      "é": 169,
      "ê": 170,
      "ë": 171,
      "ì": 172,
      "í": 173,
      "î": 174,
      "ï": 175,
      "ð": 176,
      "ñ": 177,
      "ò": 178,
      "ó": 179,
      "ô": 180,
      "õ": 181,
      "ö": 182,
      "÷": 183,
      "ø": 184,
      "ù": 185,
      "ú": 186,
      "û": 187,
      "ü": 188,
      "ý": 189,
      "þ": 190,
      "ÿ": 191,
      "Ā": 192,
      "ā": 193,
      "Ă": 194,
      "ă": 195,
      "Ą": 196,
      "ą": 197,
      "Ć": 198,
      "ć": 199,
      "Ĉ": 200,
      "ĉ": 201,
      "Ċ": 202,
      "ċ": 203,
      "Č": 204,
      "č": 205,
      "Ď": 206,
      "ď": 207,
      "Đ": 208,
      "đ": 209,
      "Ē": 210,
      "ē": 211,
      "Ĕ": 212,
      "ĕ": 213,
      "Ė": 214,
      "ė": 215,
      "Ę": 216,
      "ę": 217,
      "Ě": 218,
      "ě": 219,
      "Ĝ": 220,
      "ĝ": 221,
      "Ğ": 222,
      "ğ": 223,
      "Ġ": 224,
      "ġ": 225,
      "Ģ": 226,
      "ģ": 227,
      "Ĥ": 228,
      "ĥ": 229,
      "Ħ": 230,
      "ħ": 231,
      "Ĩ": 232,
      "ĩ": 233,
      "Ī": 234,
      "ī": 235,
      "Ĭ": 236,
      "ĭ": 237,
      "Į": 238,
      "į": 239,
      "İ": 240,
      "ı": 241,
      "Ĳ": 242,
      "ĳ": 243,
      "Ĵ": 244,
      "ĵ": 245,
      "Ķ": 246,
      "ķ": 247,
      "ĸ": 248,
      "Ĺ": 249,
      "ĺ": 250,
      "Ļ": 251,
      "ļ": 252,
      "Ľ": 253,
      "ľ": 254,
      "Ŀ": 255,
      "ŀ": 256,
      "Ł": 257,
      "ł": 258,
      "Ń": 259,
      "Ġt": 260,
      "Ġth": 261,
      "Ġa": 262,
      "in": 263,
      "Ġ,": 264,
      "Ġw": 265,
      "Ġthe": 266,
      "re": 267,
      "Ġ.": 268,
      "Ġo": 269,
      "Ġs": 270,
      "at": 271,
      "nd": 272,
      "er": 273,
      "ou": 274,
      "Ġc": 275,
      "is": 276,
      "Ġ&": 277,
      "it": 278,
      "os": 279,
      "Ġb": 280,
      "ing": 281,
      "Ġm": 282,
      "en": 283,
      "ap": 284,
      "Ġh": 285,
      "on": 286,
      "Ġto": 287,
      "Ġp": 288,
      "Ġf": 289,
      "es": 290,
      "an": 291,
      "apos": 292,
      "Ġd": 293,
      "or": 294,
      "Ġof": 295,
      "al": 296,
      "ĠI": 297,
      "Ġin": 298,
      "Ġand": 299,
      "ed": 300,
      "Ġl": 301,
      "ar": 302,
      "ot": 303,
      "Ġy": 304,
      "Ġthat": 305,
      "om": 306,
      "Ġg": 307,
      "as": 308,
      "ic": 309,
      "le": 310,
      "ve": 311,
      "Ġyou": 312,
      "ll": 313,
      "Ġn": 314,
      "Ġwe": 315,
      "Ġwh": 316,
      "ow": 317,
      "Ġe": 318,
      "ĠA": 319,
      "us": 320,
      "Ġis": 321,
      "ly": 322,
      "Ġbe": 323,
      "ut": 324,
      "ion": 325,
      "Ġit": 326,
      "et": 327,
      "ĠT": 328,
      "Ġre": 329,
      "ent": 330,
      "qu": 331,
      "ct": 332,
      "Ġon": 333,
      "ld": 334,
      "ver": 335,
      "ay": 336,
      "id": 337,
      "ĠTh": 338,
      "ĠAnd": 339,
      "Ġha": 340,
      "im": 341,
      "ĠS": 342,
      "Ġthis": 343,
      "ur": 344,
      "ig": 345,
      "Ġst": 346,
      "ch": 347,
      "ere": 348,
      "quot": 349,
      "ro": 350,
      "ke": 351,
      "Ġfor": 352,
      "ce": 353,
      "ĠW": 354,
      "if": 355,
      "se": 356,
      "Ġwas": 357,
      "ir": 358,
      "am": 359,
      "op": 360,
      "ith": 361,
      "Ġan": 362,
      "Ġdo": 363,
      "st": 364,
      "Ġare": 365,
      "ol": 366,
      "ally": 367,
      "Ġwith": 368,
      "th": 369,
      "Ġhave": 370,
      "ra": 371,
      "Ġab": 372,
      "Ġgo": 373,
      "Ġu": 374,
      "Ġthey": 375,
      "Ġse": 376,
      "Ġcan": 377,
      "Ġk": 378,
      "ĠB": 379,
      "ation": 380,
      "Ġas": 381,
      "Ġ-": 382,
      "Ġ--": 383,
      "out": 384,
      "ht": 385,
      "Ġli": 386,
      "Ġsh": 387,
      "Ġwor": 388,
      "ad": 389,
      "ĠSo": 390,
      "Ġ?": 391,
      "Ġwhat": 392,
      "Ġhe": 393,
      "od": 394,
      "Ġme": 395,
      "ould": 396,
      "Ġcom": 397,
      "ill": 398,
      "very": 399,
      "Ġne": 400,
      "Ġat": 401,
      "Ġabout": 402,
      "ge": 403,
      "ter": 404,
      "ant": 405,
      "Ġnot": 406,
      "ul": 407,
      "il": 408,
      "Ġso": 409,
      "ore": 410,
      "ĠThe": 411,
      "Ġfr": 412,
      "Ġall": 413,
      "ust": 414,
      "ers": 415,
      "Ġj": 416,
      "Ġex": 417,
      "Ġch": 418,
      "Ġde": 419,
      "Ġr": 420,
      "Ġus": 421,
      "Ġmy": 422,
      "ight": 423,
      "Ġsom": 424,
      "Ġpro": 425,
      "Ġpe": 426,
      "ear": 427,
      "Ġor": 428,
      "art": 429,
      "ess": 430,
      "ople": 431,
      "ĠWe": 432,
      "Ġthere": 433,
      "Ġcon": 434,
      "ck": 435,
      "ate": 436,
      "Ġpeople": 437,
      "ĠIt": 438,
      "Ġlike": 439,
      "um": 440,
      "ure": 441,
      "ies": 442,
      "ok": 443,
      "ĠN": 444,
      "ive": 445,
      "Ġone": 446,
      "Ġfrom": 447,
      "est": 448,
      "ist": 449,
      "ity": 450,
      "nt": 451,
      "Ġlo": 452,
      "ble": 453,
      "ĠH": 454,
      "Ġma": 455,
      "ĠM": 456,
      "Ġkn": 457,
      "Ġour": 458,
      "use": 459,
      "Ġbec": 460,
      "Ġv": 461,
      "ind": 462,
      "Ġbut": 463,
      "Ġte": 464,
      "ect": 465,
      "rou": 466,
      "Ġout": 467,
      "Ġal": 468,
      "ink": 469,
      "Ġ:": 470,
      "all": 471,
      "Ġint": 472,
      "un": 473,
      "ĠC": 474,
      "ause": 475,
      "Ġjust": 476,
      "ide": 477,
      "Ġknow": 478,
      "Ġsp": 479,
      "and": 480,
      "Ġthem": 481,
      "Ġthing": 482,
      "ie": 483,
      "Ġtr": 484,
      "ĠBut": 485,
      "Ġsee": 486,
      "Ġthese": 487,
      "her": 488,
      "Ġif": 489,
      "ort": 490,
      "ci": 491,
      "Ġwho": 492,
      "Ġup": 493,
      "ĠY": 494,
      "Ġthink": 495,
      "Ġvery": 496,
      "Ġget": 497,
      "el": 498,
      "ich": 499,
      "Ġby": 500,
      "one": 501,
      "Ġwhen": 502,
      "ain": 503,
      "Ġpl": 504,
      "Ġact": 505,
      "Ġyour": 506,
      "Ġmore": 507,
      "Ġ1": 508,
      "iv": 509,
      "ĠWh": 510,
      "Ġsome": 511,
      "Ġgoing": 512,
      "Ġim": 513,
      "Ġyear": 514,
      "Ġbecause": 515,
      "em": 516,
      "Ġhad": 517,
      "our": 518,
      "Ġsa": 519,
      "Ġwould": 520,
      "ost": 521,
      "Ġwere": 522,
      "og": 523,
      "Ġhow": 524,
      "ame": 525,
      "Ġtheir": 526,
      "ine": 527,
      "ĠO": 528,
      "Ġtim": 529,
      "ose": 530,
      "ast": 531,
      "Ġwhich": 532,
      "ment": 533,
      "Ġwork": 534,
      "Ġsu": 535,
      "Ġwant": 536,
      "Ġreally": 537,
      "Ġlook": 538,
      "iz": 539,
      "ually": 540,
      "are": 541,
      "Ġcomp": 542,
      "gh": 543,
      "00": 544,
      "act": 545,
      "reat": 546,
      "ous": 547,
      "ard": 548,
      "Ġway": 549,
      "ĠE": 550,
      "ack": 551,
      "Ġen": 552,
      "Ġta": 553,
      "Ġworld": 554,
      "ĠP": 555,
      "ab": 556,
      "hing": 557,
      "Ġle": 558,
      "ĠD": 559,
      "ĠYou": 560,
      "ans": 561,
      "Ġexp": 562,
      "ag": 563,
      "ther": 564,
      "Ġhere": 565,
      "ong": 566,
      "Ġthen": 567,
      "Ġtime": 568,
      "Ġhas": 569,
      "ĠThis": 570,
      "ĠG": 571,
      "pp": 572,
      "ĠL": 573,
      "ions": 574,
      "Ġevery": 575,
      "Ġper": 576,
      "Ġsay": 577,
      "app": 578,
      "alk": 579,
      "age": 580,
      "Ġdon": 581,
      "Ġactually": 582,
      "Ġman": 583,
      "Ġqu": 584,
      "Ġinto": 585,
      "Ġev": 586,
      "ace": 587,
      "Ġcould": 588,
      "ud": 589,
      "ence": 590,
      "res": 591,
      "Ġwill": 592,
      "ild": 593,
      "ĠF": 594,
      "Ġfe": 595,
      "Ġyears": 596,
      "Ġdid": 597,
      "Ġnow": 598,
      "Ġother": 599,
      "ĠNow": 600,
      "ĠIn": 601,
      "ach": 602,
      "Ġthings": 603,
      "Ġag": 604,
      "itt": 605,
      "Ġwhere": 606,
      "iff": 607,
      "nder": 608,
      "Ġno": 609,
      "ff": 610,
      "ĠThey": 611,
      "ical": 612,
      "Ġsomet": 613,
      "ice": 614,
      "Ġdiff": 615,
      "Ġhapp": 616,
      "Ġmake": 617,
      "Ġneed": 618,
      "Ġun": 619,
      "Ġany": 620,
      "Ġthan": 621,
      "Ġtw": 622,
      "Ġcl": 623,
      "Ġpr": 624,
      "Ġbeen": 625,
      "ĠR": 626,
      "ip": 627,
      "so": 628,
      "Ġimp": 629,
      "irst": 630,
      "ome": 631,
      "Ġsaid": 632,
      "Ġstart": 633,
      "Ġ2": 634,
      "ia": 635,
      "Ġar": 636,
      "ife": 637,
      "red": 638,
      "Ġpart": 639,
      "ory": 640,
      "ree": 641,
      "ry": 642,
      "pt": 643,
      "Ġco": 644,
      "Ġover": 645,
      "Ġbu": 646,
      "Ġsomething": 647,
      "Ġtwo": 648,
      "own": 649,
      "uch": 650,
      "ite": 651,
      "orm": 652,
      "Ġright": 653,
      "Ġdis": 654,
      "ount": 655,
      "ass": 656,
      "ang": 657,
      "round": 658,
      "Ġback": 659,
      "ign": 660,
      "Ġmuch": 661,
      "ep": 662,
      "ib": 663,
      "Ġdiffere": 664,
      "ound": 665,
      "Ġfirst": 666,
      "Ġnew": 667,
      "sel": 668,
      "ac": 669,
      "Ġcall": 670,
      "ens": 671,
      "Ġshe": 672,
      "Ġtalk": 673,
      "ue": 674,
      "Ġthose": 675,
      "ĠJ": 676,
      "rain": 677,
      "Ġpo": 678,
      "Ġmo": 679,
      "Ġalso": 680,
      "olog": 681,
      "Ġspe": 682,
      "ater": 683,
      "ves": 684,
      "Ġgot": 685,
      "cent": 686,
      "lo": 687,
      "Ġro": 688,
      "Ġlife": 689,
      "ght": 690,
      "Ġcont": 691,
      "king": 692,
      "ult": 693,
      "Ġlot": 694,
      "Ġkind": 695,
      "ple": 696,
      "ittle": 697,
      "Ġac": 698,
      "Ġlittle": 699,
      "vel": 700,
      "way": 701,
      "Ġunder": 702,
      "Ġbet": 703,
      "ody": 704,
      "Ġhis": 705,
      "ĠThat": 706,
      "ber": 707,
      "Ġmost": 708,
      "oss": 709,
      "ru": 710,
      "ving": 711,
      "Ġph": 712,
      "Ġam": 713,
      "Ġfo": 714,
      "Ġres": 715,
      "ell": 716,
      "Ġday": 717,
      "Ġonly": 718,
      "ated": 719,
      "able": 720,
      "Ġeven": 721,
      "ations": 722,
      "ĠWhat": 723,
      "Ġher": 724,
      "ial": 725,
      "Ġdes": 726,
      "co": 727,
      "Ġad": 728,
      "ict": 729,
      "Ġbo": 730,
      "Ġmany": 731,
      "Ġtake": 732,
      "Ġdifferent": 733,
      "Ġ;": 734,
      "rough": 735,
      "Ġgood": 736,
      "ank": 737,
      "Ġsy": 738,
      "ire": 739,
      "Ġshow": 740,
      "du": 741,
      "Ġhum": 742,
      "ick": 743,
      "Ġem": 744,
      "Ġreal": 745,
      "ance": 746,
      "Ġide": 747,
      "ĠU": 748,
      "ase": 749,
      "Ġgr": 750,
      "Ġthrough": 751,
      "Ġaround": 752,
      "int": 753,
      "Ġdoes": 754,
      "cess": 755,
      "ĠHe": 756,
      "other": 757,
      "ĠThere": 758,
      "ak": 759,
      "ning": 760,
      "Ġpre": 761,
      "Ġcomm": 762,
      "ish": 763,
      "ents": 764,
      "form": 765,
      "Ġtell": 766,
      "Ġoff": 767,
      "Ġdown": 768,
      "ms": 769,
      "ange": 770,
      "Ġbeing": 771,
      "ath": 772,
      "Ġput": 773,
      "ress": 774,
      "Ġuse": 775,
      "Ġwr": 776,
      "ible": 777,
      "Ġthou": 778,
      "Ġproble": 779,
      "ful": 780,
      "ade": 781,
      "wn": 782,
      "Ġhappen": 783,
      "Ġsm": 784,
      "ors": 785,
      "les": 786,
      "ark": 787,
      "ary": 788,
      "Ġinc": 789,
      "xt": 790,
      "ether": 791,
      "ject": 792,
      "Ġfact": 793,
      "ual": 794,
      "ĠCh": 795,
      "day": 796,
      "Ġsame": 797,
      "Ġcount": 798,
      "ĠWell": 799,
      "lect": 800,
      "iver": 801,
      "ord": 802,
      "Ġsc": 803,
      "ne": 804,
      "Ġbr": 805,
      "Ġmay": 806,
      "ower": 807,
      "Ġtry": 808,
      "Ġcome": 809,
      "ces": 810,
      "Ġbig": 811,
      "stem": 812,
      "ys": 813,
      "ĠIf": 814,
      "ting": 815,
      "ile": 816,
      "Ġgen": 817,
      "Ġpers": 818,
      "per": 819,
      "urn": 820,
      "ars": 821,
      "tern": 822,
      "Ġthree": 823,
      "Ġdoing": 824,
      "Ġdec": 825,
      "ved": 826,
      "Ġfind": 827,
      "Ġgreat": 828,
      "ons": 829,
      "Ġsur": 830,
      "Ġexper": 831,
      "chn": 832,
      "ically": 833,
      "self": 834,
      "te": 835,
      "Ġhuman": 836,
      "ĠK": 837,
      "Ġpercent": 838,
      "cial": 839,
      "Ġquest": 840,
      "fter": 841,
      "Ġtra": 842,
      "Ġwell": 843,
      "Ġbrain": 844,
      "fore": 845,
      "Ġchild": 846,
      "be": 847,
      "nds": 848,
      "Ġsystem": 849,
      "we": 850,
      "ics": 851,
      "ied": 852,
      "Ġapp": 853,
      "Ġlear": 854,
      "Ġlet": 855,
      "Ġown": 856,
      "Ġstud": 857,
      "body": 858,
      "Ġcalled": 859,
      "Ġtechn": 860,
      "Ġwhy": 861,
      "Ġind": 862,
      "ating": 863,
      "Ġsim": 864,
      "igh": 865,
      "thing": 866,
      "ian": 867,
      "Ġra": 868,
      "Ġinv": 869,
      "ition": 870,
      "av": 871,
      "Ġcr": 872,
      "illion": 873,
      "Ġbuild": 874,
      "Ġmade": 875,
      "Ġwom": 876,
      "Ġgu": 877,
      "Ġbl": 878,
      "ren": 879,
      "Ġbel": 880,
      "ology": 881,
      "ric": 882,
      "ates": 883,
      "Ġrem": 884,
      "Ġagain": 885,
      "Ġshould": 886,
      "ious": 887,
      "Ġimport": 888,
      "mer": 889,
      "Ġcol": 890,
      "Ġunderst": 891,
      "Ġcreat": 892,
      "Ġask": 893,
      "Ġlong": 894,
      "con": 895,
      "ize": 896,
      "lp": 897,
      "ĠThank": 898,
      "Ġchange": 899,
      "olut": 900,
      "Ġperson": 901,
      "ities": 902,
      "ty": 903,
      "ub": 904,
      "Ġins": 905,
      "Ġend": 906,
      "Ġtoday": 907,
      "lic": 908,
      "cho": 909,
      "pe": 910,
      "Ġfeel": 911,
      "ĠBe": 912,
      "Ġdidn": 913,
      "Ġthought": 914,
      "Ġimportant": 915,
      "Ġafter": 916,
      "ail": 917,
      "Ġidea": 918,
      "Ġfl": 919,
      "Ġ3": 920,
      "amp": 921,
      "Ġmean": 922,
      "Ġsci": 923,
      "ft": 924,
      "ise": 925,
      "he": 926,
      "Ġcour": 927,
      "ew": 928,
      "Ġob": 929,
      "chool": 930,
      "Ġlast": 931,
      "ĠSt": 932,
      "Ġhelp": 933,
      "Ġstarted": 934,
      "erest": 935,
      "Ġunderstand": 936,
      "Ġtrans": 937,
      "Ġwent": 938,
      "Ġbas": 939,
      "Ġits": 940,
      "ull": 941,
      "Ġinst": 942,
      "ese": 943,
      "ope": 944,
      "Ġrel": 945,
      "Ġbefore": 946,
      "Ġstory": 947,
      "Ġproblem": 948,
      "Ġbelie": 949,
      "ily": 950,
      "Ġmight": 951,
      "kes": 952,
      "Ġke": 953,
      "ough": 954,
      "Ġdr": 955,
      "Ġcar": 956,
      "Ġdesign": 957,
      "als": 958,
      "Ġpower": 959,
      "Ġplay": 960,
      "gan": 961,
      "ob": 962,
      "Ġ&#": 963,
      "ave": 964,
      "Ġpol": 965,
      "Ġprodu": 966,
      "Ġinterest": 967,
      "Ġhim": 968,
      "Ġnever": 969,
      "ĠHow": 970,
      "000": 971,
      "Ġart": 972,
      "Ġinter": 973,
      "Ġgive": 974,
      "Ġcourse": 975,
      "Ġbetter": 976,
      "ular": 977,
      "und": 978,
      "Ġkid": 979,
      "Ġschool": 980,
      "Ġcons": 981,
      "Ġturn": 982,
      "Ġstill": 983,
      "Ġable": 984,
      "Ġfam": 985,
      "Ġfound": 986,
      "ists": 987,
      "ction": 988,
      "ility": 989,
      "old": 990,
      "Ġent": 991,
      "Ġimag": 992,
      "Ġpoint": 993,
      "Ġfew": 994,
      "ert": 995,
      "Ġlearn": 996,
      "Ġbit": 997,
      "ven": 998,
      "ience": 999,
      "ĠWhen": 1000,
      "oc": 1001,
      "velop": 1002,
      "Ġcame": 1003,
      "ix": 1004,
      "ather": 1005,
      "ween": 1006,
      "Ġcommun": 1007,
      "Ġnext": 1008,
      "Ġstr": 1009,
      "atch": 1010,
      "Ġtog": 1011,
      "Ġtogether": 1012,
      "pl": 1013,
      "ness": 1014,
      "Ġeach": 1015,
      "Ġanother": 1016,
      "Ġdat": 1017,
      "ng": 1018,
      "oth": 1019,
      "Ġcell": 1020,
      "erg": 1021,
      "Ġlove": 1022,
      "uc": 1023,
      "Ġexam": 1024,
      "ited": 1025,
      "Ġcomple": 1026,
      "Ġbetween": 1027,
      "Ġquestion": 1028,
      "ense": 1029,
      "Ġdevelop": 1030,
      "read": 1031,
      "Ġhigh": 1032,
      "alth": 1033,
      "ized": 1034,
      "Ġago": 1035,
      "Ġnum": 1036,
      "arch": 1037,
      "Ġmod": 1038,
      "Ġsl": 1039,
      "Ġsort": 1040,
      "Ġ19": 1041,
      "ward": 1042,
      "Ġ10": 1043,
      "az": 1044,
      "Ġcre": 1045,
      "iss": 1046,
      "Ġplace": 1047,
      "ork": 1048,
      "Ġword": 1049,
      "Ġmin": 1050,
      "Ġused": 1051,
      "Ġmon": 1052,
      "iness": 1053,
      "Ġdata": 1054,
      "Ġ20": 1055,
      "ph": 1056,
      "Ġpat": 1057,
      "cy": 1058,
      "ings": 1059,
      "ures": 1060,
      "meric": 1061,
      "Ġfour": 1062,
      "ways": 1063,
      "Ġgrow": 1064,
      "Ġext": 1065,
      "Ġtoo": 1066,
      "Ġgra": 1067,
      "Ġser": 1068,
      "oney": 1069,
      "Ġwomen": 1070,
      "Ġmom": 1071,
      "Ġatt": 1072,
      "Ġplan": 1073,
      "Ġexample": 1074,
      "aph": 1075,
      "Ġlight": 1076,
      "formation": 1077,
      "Ġmed": 1078,
      "Ġfin": 1079,
      "Ġla": 1080,
      "ood": 1081,
      "Ġmet": 1082,
      "ific": 1083,
      "ced": 1084,
      "conom": 1085,
      "ered": 1086,
      "Ġwater": 1087,
      "Ġold": 1088,
      "cept": 1089,
      "ĠBec": 1090,
      "Ġread": 1091,
      "Ġdone": 1092,
      "Ġop": 1093,
      "ĠAmeric": 1094,
      "ĠBecause": 1095,
      "Ġlive": 1096,
      "Ġcare": 1097,
      "Ġsmall": 1098,
      "Ġless": 1099,
      "Ġdoesn": 1100,
      "ets": 1101,
      "Ġwanted": 1102,
      "Ġtechnology": 1103,
      "cond": 1104,
      "Ġmus": 1105,
      "ative": 1106,
      "ah": 1107,
      "ger": 1108,
      "Ġbeh": 1109,
      "Ġlooking": 1110,
      "ĠAf": 1111,
      "Ġalways": 1112,
      "ably": 1113,
      "Ġchang": 1114,
      "Ġbelieve": 1115,
      "Ġed": 1116,
      "Ġrec": 1117,
      "Ġcent": 1118,
      "selves": 1119,
      "ale": 1120,
      "Ġeconom": 1121,
      "Ġmoney": 1122,
      "Ġeff": 1123,
      "ĠV": 1124,
      "ands": 1125,
      "Ġchildren": 1126,
      "Ġever": 1127,
      "Ġpartic": 1128,
      "Ġgiv": 1129,
      "Ġgener": 1130,
      "Ġcomput": 1131,
      "Ġ5": 1132,
      "Ġexpl": 1133,
      "Ġreas": 1134,
      "Ġworking": 1135,
      "Ġposs": 1136,
      "Ġwhole": 1137,
      "Ġteach": 1138,
      "Ġrep": 1139,
      "Ġfar": 1140,
      "Ġbus": 1141,
      "Ġter": 1142,
      "Ġaway": 1143,
      "Ġbook": 1144,
      "Ġhard": 1145,
      "Ġproject": 1146,
      "Ġear": 1147,
      "Ġinformation": 1148,
      "ational": 1149,
      "Ġmove": 1150,
      "ĠMy": 1151,
      "Ġdem": 1152,
      "Ġcountry": 1153,
      "led": 1154,
      "Ġ4": 1155,
      "Ġnat": 1156,
      "Ġtrying": 1157,
      "Ġkids": 1158,
      "nce": 1159,
      "Ġhome": 1160,
      "Ġel": 1161,
      "Ġfood": 1162,
      "Ġcreate": 1163,
      "Ġmind": 1164,
      "ĠUn": 1165,
      "Ġreg": 1166,
      "Ġhealth": 1167,
      "ries": 1168,
      "air": 1169,
      "Ġresp": 1170,
      "Ġlar": 1171,
      "vers": 1172,
      "ural": 1173,
      "hip": 1174,
      "Ġrun": 1175,
      "ote": 1176,
      "ĠAs": 1177,
      "Ġstu": 1178,
      "Ġbi": 1179,
      "Ġfrie": 1180,
      "cer": 1181,
      "ird": 1182,
      "Ġlead": 1183,
      "olution": 1184,
      "Ġmeans": 1185,
      "Ġusing": 1186,
      "Ġmillion": 1187,
      "Ġfive": 1188,
      "atter": 1189,
      "ism": 1190,
      "nect": 1191,
      "Ġeng": 1192,
      "ments": 1193,
      "pr": 1194,
      "ont": 1195,
      "ract": 1196,
      "wh": 1197,
      "Ġpict": 1198,
      "Ġvis": 1199,
      "gg": 1200,
      "gr": 1201,
      "Ġfun": 1202,
      "Ġsk": 1203,
      "Ġcou": 1204,
      "ident": 1205,
      "Ġbecome": 1206,
      "Ġsupp": 1207,
      "Ġpass": 1208,
      "Ġsing": 1209,
      "Ġprocess": 1210,
      "Ġsub": 1211,
      "ins": 1212,
      "Ġopen": 1213,
      "ines": 1214,
      "Ġhand": 1215,
      "Ġspace": 1216,
      "Ġmaybe": 1217,
      "Ġfut": 1218,
      "ruct": 1219,
      "Ġacc": 1220,
      "Ġinf": 1221,
      "its": 1222,
      "aut": 1223,
      "Ġdoll": 1224,
      "Ġconf": 1225,
      "ten": 1226,
      "Ġpub": 1227,
      "ories": 1228,
      "iron": 1229,
      "Ġtook": 1230,
      "Ġsecond": 1231,
      "Ġthinking": 1232,
      "ĠOne": 1233,
      "ED": 1234,
      "Ġcor": 1235,
      "Ġcompan": 1236,
      "aces": 1237,
      "Ġeverything": 1238,
      "Ġshare": 1239,
      "rib": 1240,
      "Ġwalk": 1241,
      "Ġanim": 1242,
      "Ġfuture": 1243,
      "ond": 1244,
      "Ġcap": 1245,
      "Ġform": 1246,
      "sw": 1247,
      "Ġbest": 1248,
      "Ġorgan": 1249,
      "Ġenerg": 1250,
      "Ġsays": 1251,
      "Ġquite": 1252,
      "roup": 1253,
      "ĠShe": 1254,
      "Ġ!": 1255,
      "iew": 1256,
      "ention": 1257,
      "ues": 1258,
      "Ġprob": 1259,
      "ivers": 1260,
      "Ġsocial": 1261,
      "ĠIs": 1262,
      "Ġcontro": 1263,
      "Ġnumber": 1264,
      "Ġsoci": 1265,
      "Ġsol": 1266,
      "ogr": 1267,
      "Ġenough": 1268,
      "iting": 1269,
      "vern": 1270,
      "alf": 1271,
      "Ġelect": 1272,
      "lob": 1273,
      "Ġansw": 1274,
      "Ġleft": 1275,
      "ek": 1276,
      "Ġlives": 1277,
      "Ġhead": 1278,
      "Ġcomes": 1279,
      "ake": 1280,
      "ner": 1281,
      "ety": 1282,
      "Ġpop": 1283,
      "Ġcle": 1284,
      "ĠAfric": 1285,
      "ĠNo": 1286,
      "ertain": 1287,
      "Ġgetting": 1288,
      "Ġenergy": 1289,
      "ĠWhy": 1290,
      "ouse": 1291,
      "ĠChin": 1292,
      "Ġgroup": 1293,
      "arr": 1294,
      "ĠThese": 1295,
      "Ġbody": 1296,
      "Ġbeg": 1297,
      "kay": 1298,
      "Ġmaking": 1299,
      "irl": 1300,
      "Ġpres": 1301,
      "cus": 1302,
      "ier": 1303,
      "ĠTED": 1304,
      "ĠInd": 1305,
      "ital": 1306,
      "Ġtimes": 1307,
      "Ġmonth": 1308,
      "Ġenv": 1309,
      "ĠFor": 1310,
      "ying": 1311,
      "Ġrese": 1312,
      "Ġset": 1313,
      "Ġval": 1314,
      "ever": 1315,
      "Ġroom": 1316,
      "ts": 1317,
      "Ġaut": 1318,
      "Ġmoment": 1319,
      "Ġhappened": 1320,
      "Ġsense": 1321,
      "Ġspec": 1322,
      "reen": 1323,
      "Ġmakes": 1324,
      "Ġcountries": 1325,
      "ices": 1326,
      "Ġprobably": 1327,
      "tty": 1328,
      "Ġjob": 1329,
      "Ġsound": 1330,
      "Ġwithout": 1331,
      "ross": 1332,
      "Ġgovern": 1333,
      "ĠLet": 1334,
      "ĠAn": 1335,
      "Ġconnect": 1336,
      "Ġbusiness": 1337,
      "Ġtalking": 1338,
      "Ġkeep": 1339,
      "imes": 1340,
      "Ġdollars": 1341,
      "Ġinteresting": 1342,
      "Ġtop": 1343,
      "Ġwar": 1344,
      "Ġpie": 1345,
      "ior": 1346,
      "Ġbeaut": 1347,
      "idd": 1348,
      "Ġmusic": 1349,
      "Ġresearch": 1350,
      "uring": 1351,
      "Ġdist": 1352,
      "angu": 1353,
      "io": 1354,
      "Ġdef": 1355,
      "Ġreason": 1356,
      "Ġexperience": 1357,
      "Ġtold": 1358,
      "Ġ200": 1359,
      "Ġadd": 1360,
      "Ġphot": 1361,
      "aps": 1362,
      "Ġpretty": 1363,
      "lobal": 1364,
      "Ġenviron": 1365,
      "Ġty": 1366,
      "Ġhist": 1367,
      "Ġeduc": 1368,
      "Ġelse": 1369,
      "Ġscience": 1370,
      "Ġminut": 1371,
      "Ġyoung": 1372,
      "Ġcur": 1373,
      "Ġey": 1374,
      "Ġsuch": 1375,
      "Ġacross": 1376,
      "Ġcult": 1377,
      "Ġallow": 1378,
      "Ġphys": 1379,
      "Ġsimple": 1380,
      "Ġwo": 1381,
      "Ġstand": 1382,
      "Ġopp": 1383,
      "ided": 1384,
      "Ġpolit": 1385,
      "Ġdet": 1386,
      "ient": 1387,
      "ately": 1388,
      "93": 1389,
      "Ġmatter": 1390,
      "Ġcells": 1391,
      "Ġcho": 1392,
      "Ġlangu": 1393,
      "Ġsign": 1394,
      "Ġmen": 1395,
      "Ġsaw": 1396,
      "Ġstuff": 1397,
      "Ġhalf": 1398,
      "Ġvide": 1399,
      "91": 1400,
      "bo": 1401,
      "Ġcase": 1402,
      "Ġside": 1403,
      "Ġeas": 1404,
      "Ġways": 1405,
      "Ġasked": 1406,
      "Ġliving": 1407,
      "der": 1408,
      "ĠHere": 1409,
      "Ġstop": 1410,
      "Ġprot": 1411,
      "ember": 1412,
      "Ġscient": 1413,
      "ĠNew": 1414,
      "Ġfamily": 1415,
      "Ġmor": 1416,
      "Ġmodel": 1417,
      "Ġinside": 1418,
      "work": 1419,
      "Ġanything": 1420,
      "ead": 1421,
      "Ġhour": 1422,
      "ortun": 1423,
      "gs": 1424,
      "Ġbuilding": 1425,
      "Ġhope": 1426,
      "ality": 1427,
      "Ġweek": 1428,
      "Ġmem": 1429,
      "Ġbring": 1430,
      "Ġbad": 1431,
      "Ġlist": 1432,
      "Ġhappens": 1433,
      "Ġlater": 1434,
      "llow": 1435,
      "Ġgoes": 1436,
      "man": 1437,
      "ograph": 1438,
      "Ġcoming": 1439,
      "where": 1440,
      "Ġwhile": 1441,
      "ulation": 1442,
      "ince": 1443,
      "lf": 1444,
      "ught": 1445,
      "Ġchar": 1446,
      "Ġwrong": 1447,
      "ream": 1448,
      "Ġparticular": 1449,
      "Ġrest": 1450,
      "Ġpain": 1451,
      "Ġlab": 1452,
      "Ġglobal": 1453,
      "ĠAll": 1454,
      "ime": 1455,
      "Ġsuc": 1456,
      "end": 1457,
      "Ġmark": 1458,
      "Ġsingle": 1459,
      "Ġbre": 1460,
      "Ġwatch": 1461,
      "ilt": 1462,
      "Ġenvironment": 1463,
      "Ġair": 1464,
      "most": 1465,
      "Ġyet": 1466,
      "Ġref": 1467,
      "Ġproblems": 1468,
      "uge": 1469,
      "iter": 1470,
      "ott": 1471,
      "Ġfig": 1472,
      "ivid": 1473,
      "Ġage": 1474,
      "Ġgirl": 1475,
      "Ġequ": 1476,
      "Ġprof": 1477,
      "arent": 1478,
      "Ġsit": 1479,
      "Ġhaving": 1480,
      "Ġdays": 1481,
      "Ġwonder": 1482,
      "orn": 1483,
      "Ġheart": 1484,
      "Ġthous": 1485,
      "Ġcomplete": 1486,
      "Ġbegin": 1487,
      "Ġseen": 1488,
      "Ġcontrol": 1489,
      "Ġsomeone": 1490,
      "Ġmyself": 1491,
      "Ġmach": 1492,
      "Ġwords": 1493,
      "Ġbillion": 1494,
      "Ġeffect": 1495,
      "Ġpublic": 1496,
      "Ġanswer": 1497,
      "less": 1498,
      "ash": 1499,
      "Ġcertain": 1500,
      "ape": 1501,
      "aterial": 1502,
      "Ġoften": 1503,
      "ots": 1504,
      "ization": 1505,
      "Ġlevel": 1506,
      "Ġsaying": 1507,
      "Ġamaz": 1508,
      "eng": 1509,
      "Ġhear": 1510,
      "Ġrob": 1511,
      "Ġwithin": 1512,
      "Ġpicture": 1513,
      "Ġloc": 1514,
      "no": 1515,
      "Ġideas": 1516,
      "Ġsix": 1517,
      "Ġlooked": 1518,
      "ike": 1519,
      "Ġtest": 1520,
      "itive": 1521,
      "Ġself": 1522,
      "Ġsure": 1523,
      "Ġwhether": 1524,
      "Ġboth": 1525,
      "Ġpossible": 1526,
      "Ġcity": 1527,
      "Ġproduct": 1528,
      "ters": 1529,
      "med": 1530,
      "Ġkill": 1531,
      "Ġcomputer": 1532,
      "Ġfore": 1533,
      "Ġcommunity": 1534,
      "Ġdev": 1535,
      "ĠEar": 1536,
      "Ġonce": 1537,
      "ling": 1538,
      "Ġnothing": 1539,
      "iverse": 1540,
      "ĠAl": 1541,
      "lish": 1542,
      "Ġ30": 1543,
      "Ġlanguage": 1544,
      "Ġvideo": 1545,
      "ĠSe": 1546,
      "Ġexact": 1547,
      "Ġtrue": 1548,
      "Ġdise": 1549,
      "up": 1550,
      "Ġclass": 1551,
      "Ġpos": 1552,
      "ants": 1553,
      "ĠAfrica": 1554,
      "side": 1555,
      "Ġfil": 1556,
      "unch": 1557,
      "Ġunt": 1558,
      "Ġmaterial": 1559,
      "aper": 1560,
      "Ġindivid": 1561,
      "gram": 1562,
      "Ġalmost": 1563,
      "Ġworks": 1564,
      "Ġnews": 1565,
      "Ġblo": 1566,
      "Ġcond": 1567,
      "rem": 1568,
      "Ġsw": 1569,
      "Ġentire": 1570,
      "Ġiss": 1571,
      "Ġche": 1572,
      "Ġmag": 1573,
      "Ġnight": 1574,
      "rop": 1575,
      "Ġamazing": 1576,
      "ware": 1577,
      "ury": 1578,
      "ready": 1579,
      "pect": 1580,
      "ering": 1581,
      "ene": 1582,
      "Ġpar": 1583,
      "Ġbeautif": 1584,
      "Ġincred": 1585,
      "de": 1586,
      "Ġface": 1587,
      "ases": 1588,
      "Ġremember": 1589,
      "iddle": 1590,
      "Ġchall": 1591,
      "Ġdisco": 1592,
      "Ġbasically": 1593,
      "Ġindividual": 1594,
      "ĠEarth": 1595,
      "Ġheard": 1596,
      "Ġimagine": 1597,
      "undred": 1598,
      "Ġgl": 1599,
      "Ġspend": 1600,
      "Ġ50": 1601,
      "Ġcost": 1602,
      "Ġdecided": 1603,
      "Ġlooks": 1604,
      "ely": 1605,
      "Ġtreat": 1606,
      "Ġass": 1607,
      "ĠDo": 1608,
      "Ġalready": 1609,
      "ĠOr": 1610,
      "Ġfull": 1611,
      "Ġexc": 1612,
      "ĠIntern": 1613,
      "Ġhistory": 1614,
      "uck": 1615,
      "get": 1616,
      "Ġaff": 1617,
      "imate": 1618,
      "Ġguy": 1619,
      "Ġfriends": 1620,
      "Ġtool": 1621,
      "ages": 1622,
      "Ġexperim": 1623,
      "Ġpast": 1624,
      "ustr": 1625,
      "ives": 1626,
      "ock": 1627,
      "Ġbuilt": 1628,
      "Ġwa": 1629,
      "Ġnet": 1630,
      "Ġcontin": 1631,
      "Ġadv": 1632,
      "Ġsuccess": 1633,
      "ired": 1634,
      "Ġdire": 1635,
      "Ġ6": 1636,
      "ĠUnited": 1637,
      "osed": 1638,
      "Ġstories": 1639,
      "Ġ15": 1640,
      "Ġhundred": 1641,
      "Ġret": 1642,
      "ken": 1643,
      "Ġ9": 1644,
      "atic": 1645,
      "ĠFr": 1646,
      "Ġcollect": 1647,
      "Ġfigure": 1648,
      "ex": 1649,
      "vious": 1650,
      "ĠSh": 1651,
      "Ġstate": 1652,
      "ield": 1653,
      "ĠOkay": 1654,
      "Ġfollow": 1655,
      "Ġcouple": 1656,
      "Ġpay": 1657,
      "Ġbeautiful": 1658,
      "Ġâ": 1659,
      "Ġwasn": 1660,
      "Ġorder": 1661,
      "Ġresult": 1662,
      "Ġmonths": 1663,
      "Ġgovernment": 1664,
      "Ġpiece": 1665,
      "ĠâĢ": 1666,
      "Ġeducation": 1667,
      "bs": 1668,
      "cing": 1669,
      "land": 1670,
      "Ġlarge": 1671,
      "to": 1672,
      "ĠAt": 1673,
      "Ġprogram": 1674,
      "ĠEvery": 1675,
      "Ġfree": 1676,
      "Ġtrain": 1677,
      "Ġhuge": 1678,
      "ional": 1679,
      "Ġsec": 1680,
      "Ġminutes": 1681,
      "Ġ7": 1682,
      "Ġbecame": 1683,
      "ivity": 1684,
      "Ġuntil": 1685,
      "Ġdeep": 1686,
      "Ġca": 1687,
      "ĠAr": 1688,
      "Ġtaking": 1689,
      "bers": 1690,
      "ising": 1691,
      "Ġuniverse": 1692,
      "Ġconst": 1693,
      "Ġthough": 1694,
      "Ġsociety": 1695,
      "Ġview": 1696,
      "ret": 1697,
      "ames": 1698,
      "Ġeverybody": 1699,
      "Ġwoman": 1700,
      "br": 1701,
      "Ġ8": 1702,
      "etic": 1703,
      "ined": 1704,
      "Ġ100": 1705,
      "ision": 1706,
      "ush": 1707,
      "Ġthemselves": 1708,
      "Ġquick": 1709,
      "Ġdra": 1710,
      "Ġlearned": 1711,
      "Ġmust": 1712,
      "Ġfront": 1713,
      "Ġengine": 1714,
      "ental": 1715,
      "Ġincre": 1716,
      "Ġappro": 1717,
      "Ġplanet": 1718,
      "Ġteam": 1719,
      "ared": 1720,
      "Ġexactly": 1721,
      "aster": 1722,
      "ĠBr": 1723,
      "Ġcomplex": 1724,
      "ians": 1725,
      "Ġjo": 1726,
      "ĠStates": 1727,
      "ĠInternet": 1728,
      "Ġmil": 1729,
      "Ġdi": 1730,
      "Ġcreated": 1731,
      "omes": 1732,
      "Ġfocus": 1733,
      "aking": 1734,
      "Ġgets": 1735,
      "Ġcancer": 1736,
      "line": 1737,
      "Ġinno": 1738,
      "Ġspeak": 1739,
      "Ġbehav": 1740,
      "ĠChina": 1741,
      "sy": 1742,
      "Ġfund": 1743,
      "Ġcompletely": 1744,
      "Ġhouse": 1745,
      "ĠâĢĶ": 1746,
      "outh": 1747,
      "ĠCan": 1748,
      "Ġhappening": 1749,
      "Ġstudy": 1750,
      "Ġsex": 1751,
      "Ġvir": 1752,
      "Ġknew": 1753,
      "Ġstruct": 1754,
      "ane": 1755,
      "thers": 1756,
      "ats": 1757,
      "Ġname": 1758,
      "Ġquestions": 1759,
      "Ġhours": 1760,
      "Ġsomebody": 1761,
      "ĠGo": 1762,
      "ien": 1763,
      "Ġprov": 1764,
      "Ġplaces": 1765,
      "Ġnature": 1766,
      "cul": 1767,
      "dd": 1768,
      "Ġisn": 1769,
      "Ġkinds": 1770,
      "Ġitself": 1771,
      "ability": 1772,
      "eah": 1773,
      "Ġvo": 1774,
      "Ġlaw": 1775,
      "Ġshows": 1776,
      "Ġ..": 1777,
      "Ġbab": 1778,
      "icult": 1779,
      "Ġourselves": 1780,
      "Ġve": 1781,
      "Ġcra": 1782,
      "Ġgame": 1783,
      "Ġagainst": 1784,
      "Ġ...": 1785,
      "Ġemp": 1786,
      "Ġav": 1787,
      "Ġones": 1788,
      "Ġdifference": 1789,
      "Ġabs": 1790,
      "Ġmeet": 1791,
      "Ġeveryone": 1792,
      "itting": 1793,
      "ones": 1794,
      "Ġdep": 1795,
      "Ġlisten": 1796,
      "cle": 1797,
      "gest": 1798,
      "Ġmess": 1799,
      "ogn": 1800,
      "aw": 1801,
      "iqu": 1802,
      "ĠThen": 1803,
      "Ġopportun": 1804,
      "Ġothers": 1805,
      "ee": 1806,
      "Ġsince": 1807,
      "Ġparent": 1808,
      "vation": 1809,
      "Ġclear": 1810,
      "ĠOh": 1811,
      "Ġexpect": 1812,
      "Ġstudents": 1813,
      "Ġobject": 1814,
      "Ġclose": 1815,
      "row": 1816,
      "Ġgave": 1817,
      "ute": 1818,
      "Ġworked": 1819,
      "Ġsometimes": 1820,
      "ming": 1821,
      "Ġmother": 1822,
      "Ġinvest": 1823,
      "Ġrelations": 1824,
      "Ġexplain": 1825,
      "Ġhold": 1826,
      "asure": 1827,
      "olved": 1828,
      "att": 1829,
      "Ġris": 1830,
      "ĠPe": 1831,
      "istic": 1832,
      "Ġcompany": 1833,
      "Ġline": 1834,
      "Ġdifficult": 1835,
      "Ġrather": 1836,
      "ern": 1837,
      "acter": 1838,
      "Ġrad": 1839,
      "iol": 1840,
      "Ġwon": 1841,
      "ator": 1842,
      "ature": 1843,
      "Ġfail": 1844,
      "Ġdru": 1845,
      "Ġthird": 1846,
      "ients": 1847,
      "Ġaud": 1848,
      "Ġcouldn": 1849,
      "ĠIndia": 1850,
      "Ġdisease": 1851,
      "cc": 1852,
      "lud": 1853,
      "Ġneur": 1854,
      "ĠGod": 1855,
      "Ġsurpr": 1856,
      "Ġthousands": 1857,
      "haps": 1858,
      "Ġmass": 1859,
      "Ġinteract": 1860,
      "ĠAmerican": 1861,
      "urs": 1862,
      "Ġdeal": 1863,
      "Ġimpro": 1864,
      "ĠEng": 1865,
      "ibly": 1866,
      "Ġsimp": 1867,
      "Ġnetwork": 1868,
      "Ġbott": 1869,
      "ctor": 1870,
      "Ġmiss": 1871,
      "ĠAmerica": 1872,
      "Ġpot": 1873,
      "ential": 1874,
      "ination": 1875,
      "ider": 1876,
      "Ġamount": 1877,
      "Ġland": 1878,
      "illions": 1879,
      "Ġhappy": 1880,
      "iversity": 1881,
      "Ġill": 1882,
      "Ġda": 1883,
      "omet": 1884,
      "Ġnorm": 1885,
      "Ġoutside": 1886,
      "Ġliter": 1887,
      "Ġlearning": 1888,
      "Ġchanged": 1889,
      "Ġtyp": 1890,
      "ks": 1891,
      "Ġarch": 1892,
      "Ġpowerful": 1893,
      "aring": 1894,
      "Ġstep": 1895,
      "Ġtakes": 1896,
      "Ġcoll": 1897,
      "Ġemot": 1898,
      "Ġoil": 1899,
      "Ġcir": 1900,
      "Ġalong": 1901,
      "Ġdel": 1902,
      "Ġsystems": 1903,
      "Ġearly": 1904,
      "Ġmarket": 1905,
      "Ġbehavior": 1906,
      "Ġident": 1907,
      "Ġwind": 1908,
      "Ġrev": 1909,
      "ĠSome": 1910,
      "Ġpopulation": 1911,
      "ron": 1912,
      "ump": 1913,
      "ĠEur": 1914,
      "Ġsens": 1915,
      "Ġdeath": 1916,
      "elt": 1917,
      "ĠOn": 1918,
      "Ġturns": 1919,
      "Ġleast": 1920,
      "Ġinstead": 1921,
      "Ġspecies": 1922,
      "Ġduring": 1923,
      "Ġele": 1924,
      "Ġjour": 1925,
      "Ġblack": 1926,
      "Ġmic": 1927,
      "Ġpred": 1928,
      "Ġshort": 1929,
      "Ġguys": 1930,
      "Ġpresent": 1931,
      "not": 1932,
      "Ġz": 1933,
      "Ġfly": 1934,
      "Ġfear": 1935,
      "Ġmachine": 1936,
      "oh": 1937,
      "wards": 1938,
      "Ġculture": 1939,
      "ift": 1940,
      "Ġlots": 1941,
      "Ġmiddle": 1942,
      "Ġdemoc": 1943,
      "Ġanimals": 1944,
      "sych": 1945,
      "vered": 1946,
      "ĠTo": 1947,
      "Ġoper": 1948,
      "Ġstre": 1949,
      "ither": 1950,
      "ĠYork": 1951,
      "Ġrealized": 1952,
      "ased": 1953,
      "Ġeat": 1954,
      "Ġeasy": 1955,
      "fect": 1956,
      "Ġmot": 1957,
      "Ġpaper": 1958,
      "Ġyourself": 1959,
      "Ġextra": 1960,
      "Ġgreen": 1961,
      "Ġfre": 1962,
      "Ġfall": 1963,
      "Ġgrand": 1964,
      "Ġrecent": 1965,
      "Ġgiven": 1966,
      "Ġprotect": 1967,
      "Ġvar": 1968,
      "Ġimage": 1969,
      "Ġarg": 1970,
      "Ġdig": 1971,
      "Ġmole": 1972,
      "ony": 1973,
      "Ġdream": 1974,
      "Ġhands": 1975,
      "ption": 1976,
      "ully": 1977,
      "Ġbehind": 1978,
      "Ġnatural": 1979,
      "verage": 1980,
      "astic": 1981,
      "jor": 1982,
      "Ġcut": 1983,
      "Ġneeded": 1984,
      "ium": 1985,
      "Ġes": 1986,
      "ery": 1987,
      "ides": 1988,
      "Ġsimply": 1989,
      "leep": 1990,
      "Ġant": 1991,
      "ove": 1992,
      "Ġmath": 1993,
      "Ġneeds": 1994,
      "Ġpersonal": 1995,
      "Ġfight": 1996,
      "Ġfather": 1997,
      "Ġsaf": 1998,
      "Ġrelationship": 1999,
      "Ġseven": 2000,
      "Ġexist": 2001,
      "Ġeyes": 2002,
      "Ġnon": 2003,
      "Ġcolle": 2004,
      "Ġfinally": 2005,
      "Ġpract": 2006,
      "Ġlow": 2007,
      "Ġfield": 2008,
      "face": 2009,
      "room": 2010,
      "Ġ12": 2011,
      "Ġleave": 2012,
      "Ġcompanies": 2013,
      "Ġhy": 2014,
      "Ġcentury": 2015,
      "year": 2016,
      "era": 2017,
      "Ġtem": 2018,
      "Ġeconomic": 2019,
      "Ġred": 2020,
      "Ġstay": 2021,
      "ode": 2022,
      "Ġtrad": 2023,
      "ledge": 2024,
      "ĠEurope": 2025,
      "itions": 2026,
      "Ġfelt": 2027,
      "Ġperform": 2028,
      "ĠRe": 2029,
      "inary": 2030,
      "oph": 2031,
      "Ġlocal": 2032,
      "Ġmajor": 2033,
      "els": 2034,
      "Ġ18": 2035,
      "Ġmedia": 2036,
      "Ġsupport": 2037,
      "Ġpolitical": 2038,
      "Ġbro": 2039,
      "ney": 2040,
      "Ġarea": 2041,
      "ource": 2042,
      "Ġturned": 2043,
      "Ġterr": 2044,
      "Ġsuper": 2045,
      "Ġaccess": 2046,
      "Ġlim": 2047,
      "cious": 2048,
      "avor": 2049,
      "Ġobvious": 2050,
      "Ġ40": 2051,
      "Ġvalue": 2052,
      "ially": 2053,
      "vent": 2054,
      "rew": 2055,
      "Ġcommon": 2056,
      "Ġfamil": 2057,
      "osp": 2058,
      "Ġsun": 2059,
      "Ġpsych": 2060,
      "ived": 2061,
      "Ġtaken": 2062,
      "Ġserv": 2063,
      "Ġple": 2064,
      "Ġspent": 2065,
      "Ġperhaps": 2066,
      "ological": 2067,
      "Ġcommunic": 2068,
      "Ġfriend": 2069,
      "Ġbreak": 2070,
      "Ġbeginning": 2071,
      "ĠPeople": 2072,
      "ison": 2073,
      "Ġcannot": 2074,
      "Ġchem": 2075,
      "Ġemb": 2076,
      "NA": 2077,
      "idence": 2078,
      "rodu": 2079,
      "Ġseeing": 2080,
      "Ġpattern": 2081,
      "Ġrecord": 2082,
      "Ġtre": 2083,
      "ows": 2084,
      "Ġstrong": 2085,
      "Ġmoving": 2086,
      "Ġkey": 2087,
      "orth": 2088,
      "Ġviol": 2089,
      "Ġlonger": 2090,
      "Ġextrem": 2091,
      "ipp": 2092,
      "Ġsent": 2093,
      "ument": 2094,
      "ills": 2095,
      "cr": 2096,
      "ann": 2097,
      "Ġparts": 2098,
      "Ġleaders": 2099,
      "rought": 2100,
      "gen": 2101,
      "ook": 2102,
      "inal": 2103,
      "Ġleg": 2104,
      "Ġeight": 2105,
      "fully": 2106,
      "Ġmult": 2107,
      "ĠNot": 2108,
      "ĠMay": 2109,
      "Ġperfect": 2110,
      "Ġsurv": 2111,
      "Ġphotograph": 2112,
      "Ġwonderful": 2113,
      "Ġquickly": 2114,
      "Ġbegan": 2115,
      "Ġreach": 2116,
      "iving": 2117,
      "Ġdraw": 2118,
      "ule": 2119,
      "unt": 2120,
      "Ġgrowth": 2121,
      "Ġcal": 2122,
      "Ġsize": 2123,
      "Ġground": 2124,
      "Ġevent": 2125,
      "Ġinclud": 2126,
      "cl": 2127,
      "itch": 2128,
      "ĠJust": 2129,
      "ources": 2130,
      "Ġterms": 2131,
      "Ġexperiment": 2132,
      "Ġfilm": 2133,
      "Ġparents": 2134,
      "Ġess": 2135,
      "uth": 2136,
      "Ġspecial": 2137,
      "Ġabsolut": 2138,
      "crib": 2139,
      "lt": 2140,
      "mb": 2141,
      "Ġrequ": 2142,
      "Ġcool": 2143,
      "port": 2144,
      "Ġsqu": 2145,
      "Ġlost": 2146,
      "hood": 2147,
      "itect": 2148,
      "Ġpick": 2149,
      "ung": 2150,
      "ĠYes": 2151,
      "ole": 2152,
      "Ġcy": 2153,
      "Ġwin": 2154,
      "Ġtot": 2155,
      "Ġimpact": 2156,
      "Ġbox": 2157,
      "Ġcities": 2158,
      "Ġwrite": 2159,
      "Ġrobot": 2160,
      "Ġcam": 2161,
      "Ġtravel": 2162,
      "Ġvers": 2163,
      "Ġsend": 2164,
      "ĠChr": 2165,
      "Ġmorning": 2166,
      "Ġoce": 2167,
      "Ġnear": 2168,
      "Ġtried": 2169,
      "Ġbuy": 2170,
      "Ġimages": 2171,
      "Ġrepres": 2172,
      "Ġge": 2173,
      "Ġanal": 2174,
      "ĠMan": 2175,
      "ler": 2176,
      "rent": 2177,
      "ilar": 2178,
      "Ġknowledge": 2179,
      "ĠOur": 2180,
      "Ġocc": 2181,
      "oud": 2182,
      "ustain": 2183,
      "Ġenc": 2184,
      "by": 2185,
      "bor": 2186,
      "Ġciv": 2187,
      "ised": 2188,
      "Ġdead": 2189,
      "Ġrecogn": 2190,
      "ribut": 2191,
      "Ġbene": 2192,
      "Ġapproach": 2193,
      "ively": 2194,
      "Ġspread": 2195,
      "cially": 2196,
      "Ġinsp": 2197,
      "Ġsitu": 2198,
      "Ġpoor": 2199,
      "Ġaverage": 2200,
      "ĠTw": 2201,
      "Ġconv": 2202,
      "Ġfeed": 2203,
      "Ġconsum": 2204,
      "Ġweeks": 2205,
      "Ġrisk": 2206,
      "Ġarchitect": 2207,
      "Ġmeasure": 2208,
      "Ġattention": 2209,
      "Ġsitting": 2210,
      "ales": 2211,
      "Ġobs": 2212,
      "Ġdirect": 2213,
      "Ġopportunity": 2214,
      "Ġsum": 2215,
      "Ġsleep": 2216,
      "Ġcamp": 2217,
      "ances": 2218,
      "Ġreality": 2219,
      "Ġfeeling": 2220,
      "Ġrele": 2221,
      "Ġwouldn": 2222,
      "Ġmeaning": 2223,
      "Ġauth": 2224,
      "Ġcaus": 2225,
      "ĠEnglish": 2226,
      "Ġdest": 2227,
      "Ġeither": 2228,
      "Ġwhatever": 2229,
      "ĠYeah": 2230,
      "ards": 2231,
      "ĠDNA": 2232,
      "ression": 2233,
      "zy": 2234,
      "ators": 2235,
      "itut": 2236,
      "ateg": 2237,
      "Ġflo": 2238,
      "oy": 2239,
      "Ġborn": 2240,
      "iction": 2241,
      "Ġchanges": 2242,
      "ton": 2243,
      "Ġap": 2244,
      "Ġbrought": 2245,
      "enge": 2246,
      "Ġcomb": 2247,
      "izing": 2248,
      "Ġeconomy": 2249,
      "ggest": 2250,
      "eed": 2251,
      "Ġopt": 2252,
      "Ġorig": 2253,
      "Ġsuggest": 2254,
      "anger": 2255,
      "Ġstructure": 2256,
      "com": 2257,
      "apt": 2258,
      "Ġfast": 2259,
      "Ġyes": 2260,
      "cks": 2261,
      "ibility": 2262,
      "acy": 2263,
      "Ġbased": 2264,
      "Ġinterested": 2265,
      "Ġgiving": 2266,
      "Ġbooks": 2267,
      "Ġrespons": 2268,
      "erm": 2269,
      "orld": 2270,
      "Ġ25": 2271,
      "Ġphysical": 2272,
      "ored": 2273,
      "Ġice": 2274,
      "iny": 2275,
      "Ġdie": 2276,
      "ĠWith": 2277,
      "aged": 2278,
      "Ġgrowing": 2279,
      "Ġprofess": 2280,
      "dden": 2281,
      "ext": 2282,
      "Ġstage": 2283,
      "Ġability": 2284,
      "Ġsudden": 2285,
      "Ġtools": 2286,
      "Ġvoice": 2287,
      "Ġfavor": 2288,
      "Ġseems": 2289,
      "Ġdeveloped": 2290,
      "Ġanimal": 2291,
      "xy": 2292,
      "Ġhosp": 2293,
      "Ġgone": 2294,
      "Ġindust": 2295,
      "Ġmodern": 2296,
      "ĠRight": 2297,
      "Ġcirc": 2298,
      "Ġfac": 2299,
      "Ġste": 2300,
      "Ġstat": 2301,
      "Ġknown": 2302,
      "racy": 2303,
      "Ġsoft": 2304,
      "loy": 2305,
      "Ġrealize": 2306,
      "Ġblue": 2307,
      "ĠLe": 2308,
      "Ġeye": 2309,
      "Ġ/": 2310,
      "ĠZ": 2311,
      "ĠPh": 2312,
      "Ġpriv": 2313,
      "Ġaffect": 2314,
      "Ġdark": 2315,
      "ug": 2316,
      "Ġaw": 2317,
      "ouch": 2318,
      "Ġpress": 2319,
      "Ġredu": 2320,
      "Ġfoot": 2321,
      "Ġhar": 2322,
      "Ġfire": 2323,
      "asc": 2324,
      "ains": 2325,
      "Ġsmart": 2326,
      "Ġnumbers": 2327,
      "Ġpull": 2328,
      "Ġvac": 2329,
      "Ġtext": 2330,
      "Ġwrote": 2331,
      "Ġcrit": 2332,
      "Ġdeveloping": 2333,
      "Ġissue": 2334,
      "Ġchallenge": 2335,
      "urb": 2336,
      "Ġinvent": 2337,
      "Ġscientists": 2338,
      "lict": 2339,
      "ites": 2340,
      "Ġmain": 2341,
      "Ġthank": 2342,
      "Ġclimate": 2343,
      "Ġdescrib": 2344,
      "Ġrunning": 2345,
      "Ġincredible": 2346,
      "ĠBy": 2347,
      "Ġunderstanding": 2348,
      "sh": 2349,
      "Ġnice": 2350,
      "amples": 2351,
      "ĠChinese": 2352,
      "Ġpur": 2353,
      "Ġpath": 2354,
      "Ġstarting": 2355,
      "Ġpoll": 2356,
      "Ġhumans": 2357,
      "Ġcreating": 2358,
      "ged": 2359,
      "ral": 2360,
      "Ġsustain": 2361,
      "Ġsho": 2362,
      "Ġsave": 2363,
      "Ġbottom": 2364,
      "Ġtradition": 2365,
      "Ġaudience": 2366,
      "Ġcivil": 2367,
      "bon": 2368,
      "chie": 2369,
      "Ġroad": 2370,
      "ai": 2371,
      "Ġmillions": 2372,
      "Ġaren": 2373,
      "ensive": 2374,
      "Ġgirls": 2375,
      "of": 2376,
      "Ġhor": 2377,
      "Ġpost": 2378,
      "vert": 2379,
      "Ġplaying": 2380,
      "Ġsolution": 2381,
      "Ġscale": 2382,
      "Ġknows": 2383,
      "Ġwriting": 2384,
      "Ġcolor": 2385,
      "Ġhot": 2386,
      "Ġneigh": 2387,
      "Ġconvers": 2388,
      "Ġbenef": 2389,
      "Ġtele": 2390,
      "Ġalone": 2391,
      "Ġliterally": 2392,
      "gress": 2393,
      "oon": 2394,
      "Ġintern": 2395,
      "pecially": 2396,
      "ny": 2397,
      "Ġsong": 2398,
      "ister": 2399,
      "omen": 2400,
      "Ġanyone": 2401,
      "Ġrelig": 2402,
      "Ġslow": 2403,
      "Ġblood": 2404,
      "Ġareas": 2405,
      "Ġseem": 2406,
      "Ġmov": 2407,
      "Ġonline": 2408,
      "ĠWorld": 2409,
      "amed": 2410,
      "Ġrul": 2411,
      "ĠWhere": 2412,
      "ĠDe": 2413,
      "Ġtelling": 2414,
      "ik": 2415,
      "lu": 2416,
      "Ġfem": 2417,
      "Ġconcept": 2418,
      "Ġguess": 2419,
      "Ġgives": 2420,
      "Ġinnovation": 2421,
      "par": 2422,
      "icy": 2423,
      "istan": 2424,
      "Ġtruth": 2425,
      "Ġbaby": 2426,
      "Ġwall": 2427,
      "Ġhon": 2428,
      "Ġworth": 2429,
      "Ġdevelopment": 2430,
      "erence": 2431,
      "Ġasking": 2432,
      "ĠPr": 2433,
      "Ġexperien": 2434,
      "Ġpredict": 2435,
      "Ġsoon": 2436,
      "Ġrate": 2437,
      "Ġvill": 2438,
      "Ġsolve": 2439,
      "Ġtype": 2440,
      "Ġforward": 2441,
      "Ġprop": 2442,
      "Ġpatients": 2443,
      "Ġhundreds": 2444,
      "Ġbra": 2445,
      "let": 2446,
      "Ġdeg": 2447,
      "Ġphone": 2448,
      "Ġtechnolog": 2449,
      "Ġlif": 2450,
      "Ġdepe": 2451,
      "Ġpatient": 2452,
      "iet": 2453,
      "Ġprom": 2454,
      "Ġshowed": 2455,
      "por": 2456,
      "Ġtheory": 2457,
      "Ġtransform": 2458,
      "Ġdiscovered": 2459,
      "ĠGoog": 2460,
      "Ġwhite": 2461,
      "Ġpeace": 2462,
      "Ġsuff": 2463,
      "Ġcop": 2464,
      "Ġforce": 2465,
      "Ġimm": 2466,
      "Ġavail": 2467,
      "Ġnormal": 2468,
      "Ġfa": 2469,
      "irth": 2470,
      "ĠOK": 2471,
      "ellig": 2472,
      "go": 2473,
      "Ġer": 2474,
      "Ġsil": 2475,
      "Ġsounds": 2476,
      "book": 2477,
      "ique": 2478,
      "erv": 2479,
      "asing": 2480,
      "entially": 2481,
      "Ġvol": 2482,
      "Ġtrust": 2483,
      "Ġarr": 2484,
      "Ġcurrent": 2485,
      "Ġast": 2486,
      "ĠSouth": 2487,
      "Ġproduce": 2488,
      "Ġcenter": 2489,
      "Ġgeneration": 2490,
      "Ġpictures": 2491,
      "Ġespecially": 2492,
      "Ġfeet": 2493,
      "Ġsubject": 2494,
      "Ġrepresent": 2495,
      "Ġindustry": 2496,
      "Ġmar": 2497,
      "ified": 2498,
      "Ġproper": 2499,
      "Ġmovement": 2500,
      "Ġfundam": 2501,
      "Ġplant": 2502,
      "Ġsimilar": 2503,
      "Ġincredibly": 2504,
      "ĠIm": 2505,
      "Ġstra": 2506,
      "Ġtalked": 2507,
      "Ġchanging": 2508,
      "Ġmaterials": 2509,
      "Ġchalleng": 2510,
      "Ġpotential": 2511,
      "Ġocean": 2512,
      "Ġbed": 2513,
      "ley": 2514,
      "usion": 2515,
      "ify": 2516,
      "Ġserious": 2517,
      "yond": 2518,
      "Ġcars": 2519,
      "Ġgames": 2520,
      "Ġcompet": 2521,
      "Ġteachers": 2522,
      "iod": 2523,
      "Ġtouch": 2524,
      "chan": 2525,
      "Ġbur": 2526,
      "Ġsurface": 2527,
      "osing": 2528,
      "imens": 2529,
      "abor": 2530,
      "iant": 2531,
      "oll": 2532,
      "Ġchance": 2533,
      "ĠJoh": 2534,
      "Ġresources": 2535,
      "Ġinvolved": 2536,
      "Ġabsolutely": 2537,
      "Ġachie": 2538,
      "Ġokay": 2539,
      "Ġhaven": 2540,
      "Ġconflict": 2541,
      "ences": 2542,
      "Ġdefin": 2543,
      "Ġissues": 2544,
      "ĠGoogle": 2545,
      "isions": 2546,
      "Ġtable": 2547,
      "Ġevolution": 2548,
      "Ġsell": 2549,
      "Ġshape": 2550,
      "Ġhappiness": 2551,
      "assion": 2552,
      "Ġtrack": 2553,
      "Ġjourney": 2554,
      "Ġball": 2555,
      "ilities": 2556,
      "Ġperiod": 2557,
      "Ġson": 2558,
      "Ġmarr": 2559,
      "Ġamong": 2560,
      "Ġcarbon": 2561,
      "pre": 2562,
      "Ġsn": 2563,
      "Ġdanger": 2564,
      "ival": 2565,
      "ĠDon": 2566,
      "Ġfunction": 2567,
      "Ġgroups": 2568,
      "Ġdetail": 2569,
      "bit": 2570,
      "ran": 2571,
      "Ġtiny": 2572,
      "ero": 2573,
      "Ġbeyond": 2574,
      "Ġrece": 2575,
      "Ġult": 2576,
      "Ġintellig": 2577,
      "Ġschools": 2578,
      "Ġgeneral": 2579,
      "Ġvisual": 2580,
      "Ġmicro": 2581,
      "Ġavailable": 2582,
      "like": 2583,
      "Ġsat": 2584,
      "Ġbirth": 2585,
      "Ġnecess": 2586,
      "Ġtechnologies": 2587,
      "yr": 2588,
      "Ġfur": 2589,
      "Ġlay": 2590,
      "Ġstru": 2591,
      "Ġmessage": 2592,
      "Ġest": 2593,
      "oring": 2594,
      "ades": 2595,
      "Ġflow": 2596,
      "Ġvision": 2597,
      "Ġchoice": 2598,
      "Ġdemocracy": 2599,
      "Ġstreet": 2600,
      "Ġsituation": 2601,
      "Ġsold": 2602,
      "Ġtend": 2603,
      "Ġprin": 2604,
      "Ġrules": 2605,
      "Ġhit": 2606,
      "Ġdevice": 2607,
      "Ġrecently": 2608,
      "Ġdou": 2609,
      "str": 2610,
      "Ġrich": 2611,
      "head": 2612,
      "Ġelectric": 2613,
      "Ġ60": 2614,
      "Ġ80": 2615,
      "put": 2616,
      "Ġwish": 2617,
      "Ġcause": 2618,
      "Ġbreat": 2619,
      "Ġreact": 2620,
      "Ġ11": 2621,
      "Ġflu": 2622,
      "Ġmedic": 2623,
      "Ġprojects": 2624,
      "ĠJohn": 2625,
      "light": 2626,
      "ency": 2627,
      "Ġfair": 2628,
      "Ġlea": 2629,
      "Ġmeth": 2630,
      "iar": 2631,
      "ishing": 2632,
      "osph": 2633,
      "Ġmap": 2634,
      "arily": 2635,
      "ĠCom": 2636,
      "Ġattack": 2637,
      "Ġaccount": 2638,
      "Ġindividuals": 2639,
      "Ġmiles": 2640,
      "Ġrevolution": 2641,
      "Ġfu": 2642,
      "odies": 2643,
      "Ġneg": 2644,
      "Ġlikely": 2645,
      "Ġbecomes": 2646,
      "Ġputting": 2647,
      "Ġtells": 2648,
      "Ġoffice": 2649,
      "Ġwalking": 2650,
      "Ġmemory": 2651,
      "Ġdigital": 2652,
      "Ġsea": 2653,
      "Ġboy": 2654,
      "Ġcross": 2655,
      "cuss": 2656,
      "apan": 2657,
      "Ġactiv": 2658,
      "Ġbigger": 2659,
      "Ġdrive": 2660,
      "ned": 2661,
      "uit": 2662,
      "Ġdied": 2663,
      "ĠAm": 2664,
      "ĠAfter": 2665,
      "ĠFirst": 2666,
      "ips": 2667,
      "ĠJapan": 2668,
      "ressed": 2669,
      "Ġpassion": 2670,
      "oms": 2671,
      "Ġevidence": 2672,
      "ĠInst": 2673,
      "Ġcreative": 2674,
      "ĠMaybe": 2675,
      "uly": 2676,
      "Ġmechan": 2677,
      "Ġexcept": 2678,
      "Ġarm": 2679,
      "Ġreasons": 2680,
      "ma": 2681,
      "yn": 2682,
      "Ġdesigned": 2683,
      "Ġmedical": 2684,
      "ires": 2685,
      "Ġce": 2686,
      "eter": 2687,
      "rage": 2688,
      "Ġsearch": 2689,
      "Ġaction": 2690,
      "ously": 2691,
      "Ġresults": 2692,
      "oke": 2693,
      "Ġcit": 2694,
      "Ġdiv": 2695,
      "ĠOf": 2696,
      "Ġcompassion": 2697,
      "Ġmob": 2698,
      "fort": 2699,
      "ges": 2700,
      "pan": 2701,
      "ask": 2702,
      "une": 2703,
      "ĠLook": 2704,
      "Ġimprove": 2705,
      "ted": 2706,
      "Ġtar": 2707,
      "Ġtowards": 2708,
      "ĠWest": 2709,
      "cient": 2710,
      "Ġeverywhere": 2711,
      "Ġemerg": 2712,
      "Ġcris": 2713,
      "Ġaware": 2714,
      "Ġnine": 2715,
      "Ġwaste": 2716,
      "Ġlived": 2717,
      "antly": 2718,
      "Ġblind": 2719,
      "Ġclean": 2720,
      "Ġcrazy": 2721,
      "Ġdrug": 2722,
      "IV": 2723,
      "view": 2724,
      "ĠWho": 2725,
      "Ġconscious": 2726,
      "Ġready": 2727,
      "medi": 2728,
      "Ġfavorite": 2729,
      "Ġsoftware": 2730,
      "more": 2731,
      "Ġlose": 2732,
      "agn": 2733,
      "Ġprim": 2734,
      "Ġstarts": 2735,
      "Ġphil": 2736,
      "Ġbasic": 2737,
      "Ġinstitut": 2738,
      "Ġparticip": 2739,
      "Ġteacher": 2740,
      "Ġcart": 2741,
      "Ġbird": 2742,
      "Ġled": 2743,
      "ama": 2744,
      "ores": 2745,
      "Ġunf": 2746,
      "Ġrain": 2747,
      "onse": 2748,
      "Ġlt": 2749,
      "Ġgt": 2750,
      "ctors": 2751,
      "ished": 2752,
      "olutions": 2753,
      "Ġcertainly": 2754,
      "ĠAre": 2755,
      "Ġexamples": 2756,
      "ĠHIV": 2757,
      "Ġtaught": 2758,
      "Ġbiggest": 2759,
      "Ġscientific": 2760,
      "Ġbacter": 2761,
      "edom": 2762,
      "Ġonto": 2763,
      "Ġtrial": 2764,
      "Ġminds": 2765,
      "ina": 2766,
      "Ġrid": 2767,
      "Ġprint": 2768,
      "Ġmoved": 2769,
      "Ġscreen": 2770,
      "Ġtransl": 2771,
      "Ġobviously": 2772,
      "Ġfurther": 2773,
      "Ġmis": 2774,
      "Ġpu": 2775,
      "estern": 2776,
      "ĠTV": 2777,
      "Ġsever": 2778,
      "Ġprogress": 2779,
      "Ġintrodu": 2780,
      "izations": 2781,
      "ĠGe": 2782,
      "Ġquality": 2783,
      "Ġcomputers": 2784,
      "Ġmoral": 2785,
      "Ġparticularly": 2786,
      "Ġextraord": 2787,
      "Ġmolec": 2788,
      "Ġviolence": 2789,
      "Ġcitiz": 2790,
      "Ġcode": 2791,
      "anc": 2792,
      "ala": 2793,
      "Ġep": 2794,
      "Ġmeant": 2795,
      "umb": 2796,
      "ude": 2797,
      "Ġcontent": 2798,
      "Ġcontext": 2799,
      "ruction": 2800,
      "Ġshowing": 2801,
      "ĠBrit": 2802,
      "Ġcamera": 2803,
      "Ġencou": 2804,
      "Ġneighbor": 2805,
      "Ġfaster": 2806,
      "Ġdin": 2807,
      "urity": 2808,
      "ĠCar": 2809,
      "ech": 2810,
      "ground": 2811,
      "ĠEast": 2812,
      "Ġconsider": 2813,
      "Ġcommunities": 2814,
      "Ġchoose": 2815,
      "Ġapart": 2816,
      "Ġthreat": 2817,
      "Ġmount": 2818,
      "Ġnational": 2819,
      "rab": 2820,
      "Ġreport": 2821,
      "ĠSw": 2822,
      "amm": 2823,
      "Ġgraph": 2824,
      "Ġindeed": 2825,
      "ners": 2826,
      "Ġaf": 2827,
      "Ġdoor": 2828,
      "Ġadm": 2829,
      "Ġdecisions": 2830,
      "Ġregion": 2831,
      "Ġresponse": 2832,
      "Ġsurprising": 2833,
      "Ġsafe": 2834,
      "Ġauthor": 2835,
      "come": 2836,
      "oming": 2837,
      "Ġwhe": 2838,
      "Ġstudent": 2839,
      "Ġsolar": 2840,
      "Ġforest": 2841,
      "Ġhospital": 2842,
      "Ġvacc": 2843,
      "Ġseveral": 2844,
      "nces": 2845,
      "ture": 2846,
      "eth": 2847,
      "ĠEven": 2848,
      "akes": 2849,
      "Ġmagic": 2850,
      "Ġdrugs": 2851,
      "Ġtotally": 2852,
      "ging": 2853,
      "rast": 2854,
      "Ġsand": 2855,
      "ims": 2856,
      "ĠDav": 2857,
      "Ġbrains": 2858,
      "others": 2859,
      "Ġconnected": 2860,
      "Ġec": 2861,
      "Ġworse": 2862,
      "ĠMar": 2863,
      "Ġcloud": 2864,
      "Ġ199": 2865,
      "Ġsociet": 2866,
      "nal": 2867,
      "ĠMost": 2868,
      "Ġpositive": 2869,
      "Ġvirus": 2870,
      "Ġremark": 2871,
      "Ġstrateg": 2872,
      "Ġther": 2873,
      "Ġbar": 2874,
      "Ġfant": 2875,
      "Ġfix": 2876,
      "Ġnobody": 2877,
      "Ġprison": 2878,
      "ucle": 2879,
      "Ġassum": 2880,
      "Ġwait": 2881,
      "Ġvirt": 2882,
      "Ġcollabor": 2883,
      "ued": 2884,
      "Ġswe": 2885,
      "Ġdam": 2886,
      "ĠNorth": 2887,
      "Ġimmedi": 2888,
      "Ġwants": 2889,
      "Ġcarry": 2890,
      "ĠAfgh": 2891,
      "Ġjobs": 2892,
      "Ġwatching": 2893,
      "Ġmine": 2894,
      "Ġfish": 2895,
      "Ġgrew": 2896,
      "verty": 2897,
      "Ġshown": 2898,
      "conds": 2899,
      "place": 2900,
      "Ġchemical": 2901,
      "atory": 2902,
      "Ġpush": 2903,
      "Ġwebs": 2904,
      "Ġstick": 2905,
      "ops": 2906,
      "Ġadult": 2907,
      "Ġallowed": 2908,
      "dom": 2909,
      "Ġmental": 2910,
      "Ġnotice": 2911,
      "Ġspir": 2912,
      "Ġperspect": 2913,
      "tend": 2914,
      "Ġinflu": 2915,
      "Ġdetect": 2916,
      "Ġreturn": 2917,
      "Ġtraining": 2918,
      "how": 2919,
      "Ġbodies": 2920,
      "Ġdom": 2921,
      "iger": 2922,
      "ĠCal": 2923,
      "Ġ16": 2924,
      "Ġdecision": 2925,
      "Ġfinan": 2926,
      "Ġskin": 2927,
      "Ġinfect": 2928,
      "Ġincluding": 2929,
      "Ġmovie": 2930,
      "Ġvillage": 2931,
      "Ġmethod": 2932,
      "oid": 2933,
      "idge": 2934,
      "oles": 2935,
      "ĠCl": 2936,
      "ffic": 2937,
      "Ġanybody": 2938,
      "Ġdiscuss": 2939,
      "Ġrock": 2940,
      "Ġappear": 2941,
      "Ġstudies": 2942,
      "Ġcharacter": 2943,
      "Ġposition": 2944,
      "Ġcontinue": 2945,
      "Ġobjects": 2946,
      "Ġtrees": 2947,
      "ĠChrist": 2948,
      "Ġsuddenly": 2949,
      "iers": 2950,
      "Ġfasc": 2951,
      "ays": 2952,
      "Ġunivers": 2953,
      "Ġfill": 2954,
      "Ġactivity": 2955,
      "agine": 2956,
      "soci": 2957,
      "Ġbuildings": 2958,
      "Ġfarm": 2959,
      "Ġlargest": 2960,
      "ughter": 2961,
      "Ġign": 2962,
      "Ġbal": 2963,
      "Ġbom": 2964,
      "Ġbank": 2965,
      "Ġfine": 2966,
      "Ġnamed": 2967,
      "ĠTod": 2968,
      "ief": 2969,
      "Ġeventually": 2970,
      "ĠAfghan": 2971,
      "inct": 2972,
      "Ġwife": 2973,
      "ought": 2974,
      "Ġstress": 2975,
      "Ġsepar": 2976,
      "Ġ14": 2977,
      "Ġclos": 2978,
      "Ġpoverty": 2979,
      "Ġtemper": 2980,
      "Ġcrisis": 2981,
      "icle": 2982,
      "ĠAd": 2983,
      "Ġtruly": 2984,
      "ĠPro": 2985,
      "Ġ201": 2986,
      "Ġminute": 2987,
      "men": 2988,
      "ped": 2989,
      "ĠQ": 2990,
      "itary": 2991,
      "Ġluck": 2992,
      "Ġnucle": 2993,
      "Ġforms": 2994,
      "Ġdeb": 2995,
      "itten": 2996,
      "Ġprote": 2997,
      "Ġincome": 2998,
      "Ġkilled": 2999,
      "Ġconditions": 3000,
      "Ġtraditional": 3001,
      "Ġconversation": 3002,
      "Ġdepend": 3003,
      "ror": 3004,
      "Ġsource": 3005,
      "Ġmist": 3006,
      "Ġconc": 3007,
      "istics": 3008,
      "Ġplants": 3009,
      "Ġanymore": 3010,
      "Ġended": 3011,
      "Ġsupposed": 3012,
      "Ġspecific": 3013,
      "Ġexcited": 3014,
      "Ġ90": 3015,
      "ĠDavid": 3016,
      "Ġnarr": 3017,
      "ologist": 3018,
      "Ġspeed": 3019,
      "Ġsyn": 3020,
      "licated": 3021,
      "Ġartist": 3022,
      "Ġsignific": 3023,
      "Ġproducts": 3024,
      "Ġextremely": 3025,
      "ining": 3026,
      "Ġsolutions": 3027,
      "erve": 3028,
      "eless": 3029,
      "Ġclin": 3030,
      "Ġeffort": 3031,
      "Ġpolitics": 3032,
      "Ġlabor": 3033,
      "cise": 3034,
      "enn": 3035,
      "Ġpack": 3036,
      "ulate": 3037,
      "Ġfinding": 3038,
      "ĠAny": 3039,
      "Ġprovide": 3040,
      "aid": 3041,
      "aur": 3042,
      "ĠX": 3043,
      "ĠAct": 3044,
      "igher": 3045,
      "sect": 3046,
      "Ġgoal": 3047,
      "Ġalive": 3048,
      "cip": 3049,
      "Ġdisapp": 3050,
      "Ġrole": 3051,
      "Ġaccept": 3052,
      "ossible": 3053,
      "Ġkept": 3054,
      "Ġpoints": 3055,
      "Ġsorts": 3056,
      "Ġskills": 3057,
      "Ġallows": 3058,
      "Ġexciting": 3059,
      "Ġsecret": 3060,
      "Ġcollege": 3061,
      "fr": 3062,
      "Ġcases": 3063,
      "ĠWhich": 3064,
      "Ġearl": 3065,
      "ĠAfrican": 3066,
      "ev": 3067,
      "for": 3068,
      "zz": 3069,
      "Ġoxy": 3070,
      "Ġrap": 3071,
      "useum": 3072,
      "Ġpublish": 3073,
      "Ġlistening": 3074,
      "Ġextraordinary": 3075,
      "Ġsocieties": 3076,
      "ĠToday": 3077,
      "Ġwild": 3078,
      "Ġhigher": 3079,
      "Ġlink": 3080,
      "ĠArab": 3081,
      "ĠWar": 3082,
      "Ġabove": 3083,
      "Ġenj": 3084,
      "Ġsurger": 3085,
      "ĠIsl": 3086,
      "Ġthousand": 3087,
      "Ġfreedom": 3088,
      "Ġmathem": 3089,
      "Ġservice": 3090,
      "ros": 3091,
      "Ġtrou": 3092,
      "Ġlate": 3093,
      "Ġweight": 3094,
      "ĠSte": 3095,
      "Ġdoctor": 3096,
      "Ġjud": 3097,
      "Ġ13": 3098,
      "Ġcook": 3099,
      "Ġemploy": 3100,
      "yl": 3101,
      "Ġsch": 3102,
      "Ġhop": 3103,
      "ĠBra": 3104,
      "Ġreading": 3105,
      "Ġmodels": 3106,
      "Ġafford": 3107,
      "Ġsuccessful": 3108,
      "Ġfamilies": 3109,
      "Ġpurp": 3110,
      "Ġstrugg": 3111,
      "Ġfascin": 3112,
      "50": 3113,
      "cape": 3114,
      "here": 3115,
      "ube": 3116,
      "Ġbunch": 3117,
      "Ġdoc": 3118,
      "iest": 3119,
      "Ġloved": 3120,
      "Ġsmell": 3121,
      "Ġengage": 3122,
      "Ġcorre": 3123,
      "Ġdeterm": 3124,
      "Ġcalcul": 3125,
      "Ġfundamental": 3126,
      "iation": 3127,
      "ring": 3128,
      "Ġi": 3129,
      "Ġpolicy": 3130,
      "Ġ70": 3131,
      "ĠImagine": 3132,
      "Ġlands": 3133,
      "ster": 3134,
      "Ġconcer": 3135,
      "Ġexpensive": 3136,
      "Ġanywhere": 3137,
      "Ġimpossible": 3138,
      "Ġslight": 3139,
      "Ġcapital": 3140,
      "Ġmachines": 3141,
      "Ġrobots": 3142,
      "Ġneurons": 3143,
      "ĠWestern": 3144,
      "ĠHar": 3145,
      "ĠYour": 3146,
      "ĠKen": 3147,
      "Ġfamiliar": 3148,
      "Ġ17": 3149,
      "iven": 3150,
      "ĠAmericans": 3151,
      "Ġeffic": 3152,
      "Ġcolleag": 3153,
      "Ġcritical": 3154,
      "Ġlower": 3155,
      "Ġstraight": 3156,
      "osphere": 3157,
      "Ġcry": 3158,
      "iti": 3159,
      "Ġlad": 3160,
      "Ġdoctors": 3161,
      "Ġsomewhere": 3162,
      "Ġgenetic": 3163,
      "Ġseries": 3164,
      "Ġlarger": 3165,
      "Ġfunny": 3166,
      "Ġswim": 3167,
      "cules": 3168,
      "Ġtypes": 3169,
      "oint": 3170,
      "Ġthr": 3171,
      "Ġsou": 3172,
      "aries": 3173,
      "Ġusually": 3174,
      "Ġupon": 3175,
      "Ġplastic": 3176,
      "Ġactual": 3177,
      "Ġcold": 3178,
      "Ġfamous": 3179,
      "Ġdemon": 3180,
      "Ġpieces": 3181,
      "Ġreflect": 3182,
      "Ġpatterns": 3183,
      "Ġrecognize": 3184,
      "cies": 3185,
      "fer": 3186,
      "lex": 3187,
      "Ġbecoming": 3188,
      "Ġtalks": 3189,
      "Ġrand": 3190,
      "Ġraise": 3191,
      "ĠUniversity": 3192,
      "Ġrespect": 3193,
      "Ġglass": 3194,
      "Ġtreatment": 3195,
      "Ġphilos": 3196,
      "Ġmir": 3197,
      "Ġhur": 3198,
      "ana": 3199,
      "ids": 3200,
      "rael": 3201,
      "Ġseconds": 3202,
      "ained": 3203,
      "ellow": 3204,
      "Ġgreater": 3205,
      "Ġexplore": 3206,
      "Ġearth": 3207,
      "Ġcheck": 3208,
      "Ġsquare": 3209,
      "Ġperspective": 3210,
      "ĠThose": 3211,
      "unk": 3212,
      "Ġroll": 3213,
      "ĠChar": 3214,
      "Ġlaunch": 3215,
      "ustrial": 3216,
      "Ġcitizens": 3217,
      "time": 3218,
      "Ġquot": 3219,
      "imb": 3220,
      "ĠMe": 3221,
      "Ġsomehow": 3222,
      "Ġsaving": 3223,
      "ĠPl": 3224,
      "Ġrights": 3225,
      "Ġstrange": 3226,
      "Ġteaching": 3227,
      "Ġmagn": 3228,
      "Ġtiss": 3229,
      "ises": 3230,
      "Ġfra": 3231,
      "ĠAg": 3232,
      "Ġshark": 3233,
      "Ġrise": 3234,
      "ĠLike": 3235,
      "Ġmanage": 3236,
      "Ġwilling": 3237,
      "Ġboard": 3238,
      "Ġscr": 3239,
      "Ġeffective": 3240,
      "Ġmolecules": 3241,
      "urban": 3242,
      "back": 3243,
      "ees": 3244,
      "egr": 3245,
      "vision": 3246,
      "Ġtur": 3247,
      "Ġsite": 3248,
      "amic": 3249,
      "Ġjump": 3250,
      "Ġcomplicated": 3251,
      "Ġlegs": 3252,
      "Ġsmaller": 3253,
      "Ġbeauty": 3254,
      "Ġspirit": 3255,
      "Ġfinancial": 3256,
      "Ġdemonstr": 3257,
      "Ġrandom": 3258,
      "uments": 3259,
      "Ġtrib": 3260,
      "Ġwritten": 3261,
      "Ġ198": 3262,
      "Ġshared": 3263,
      "Ġpainting": 3264,
      "Ġversion": 3265,
      "Ġfemale": 3266,
      "Ġsus": 3267,
      "apes": 3268,
      "Ġport": 3269,
      "ĠIran": 3270,
      "Ġgas": 3271,
      "iced": 3272,
      "Ġstore": 3273,
      "Ġprep": 3274,
      "Ġrespond": 3275,
      "ortunately": 3276,
      "Ġsecurity": 3277,
      "Ġincreasing": 3278,
      "fact": 3279,
      "Ġthrow": 3280,
      "Ġcat": 3281,
      "Ġmal": 3282,
      "Ġhous": 3283,
      "Ġpage": 3284,
      "ĠSomet": 3285,
      "Ġkil": 3286,
      "Ġheav": 3287,
      "Ġuses": 3288,
      "epend": 3289,
      "ounds": 3290,
      "Ġstanding": 3291,
      "Ġdiscover": 3292,
      "Ġinnov": 3293,
      "Ġoptim": 3294,
      "bb": 3295,
      "ently": 3296,
      "Ġassoci": 3297,
      "Ġgenes": 3298,
      "Ġdecades": 3299,
      "Ġhealthy": 3300,
      "Ġorganizations": 3301,
      "Ġcosts": 3302,
      "Ġincrease": 3303,
      "Ġbabies": 3304,
      "rest": 3305,
      "Ġdrop": 3306,
      "uss": 3307,
      "ĠTr": 3308,
      "Ġstar": 3309,
      "iring": 3310,
      "Ġang": 3311,
      "ĠBl": 3312,
      "ulf": 3313,
      "iling": 3314,
      "Ġtrick": 3315,
      "Ġexpress": 3316,
      "Ġhumanity": 3317,
      "Ġorganization": 3318,
      "ĠIsrael": 3319,
      "Ġconnection": 3320,
      "Ġlevels": 3321,
      "Ġachieve": 3322,
      "Ġbacteria": 3323,
      "Ġwebsite": 3324,
      "erman": 3325,
      "itation": 3326,
      "imp": 3327,
      "ĠSp": 3328,
      "Ġran": 3329,
      "aging": 3330,
      "Ġsym": 3331,
      "Ġcorru": 3332,
      "Ġdistribut": 3333,
      "Ġessentially": 3334,
      "ĠAfghanistan": 3335,
      "ha": 3336,
      "repre": 3337,
      "Ġbread": 3338,
      "Ġbeings": 3339,
      "Ġolder": 3340,
      "Ġplease": 3341,
      "Ġdangerous": 3342,
      "reprene": 3343,
      "ball": 3344,
      "lebr": 3345,
      "Ġforth": 3346,
      "Ġpros": 3347,
      "acity": 3348,
      "Ġspeech": 3349,
      "Ġelectr": 3350,
      "Ġpractice": 3351,
      "atically": 3352,
      "Ġeth": 3353,
      "Ġdesp": 3354,
      "Ġthroughout": 3355,
      "Ġremind": 3356,
      "Ġfinal": 3357,
      "Ġengineering": 3358,
      "ĠTwo": 3359,
      "Ġimmediately": 3360,
      "aff": 3361,
      "aign": 3362,
      "aly": 3363,
      "Ġcomfort": 3364,
      "ĠMus": 3365,
      "Ġalg": 3366,
      "thern": 3367,
      "Ġcreativity": 3368,
      "Ġelectricity": 3369,
      "Ġremarkable": 3370,
      "Ġsurgery": 3371,
      "ping": 3372,
      "ray": 3373,
      "ugh": 3374,
      "Ġcust": 3375,
      "Ġpen": 3376,
      "Ġfit": 3377,
      "ables": 3378,
      "Ġbelief": 3379,
      "Ġbiology": 3380,
      "Ġmobile": 3381,
      "Ġfantastic": 3382,
      "Ġcard": 3383,
      "Ġet": 3384,
      "Ġenvironmental": 3385,
      "Ġarchitecture": 3386,
      "Ġmention": 3387,
      "Ġhole": 3388,
      "Ġpark": 3389,
      "Ġdro": 3390,
      "Ġnation": 3391,
      "Ġevolved": 3392,
      "Ġcoff": 3393,
      "Ġpolice": 3394,
      "Ġstandard": 3395,
      "Ġtelevision": 3396,
      "nter": 3397,
      "Ġurban": 3398,
      "itude": 3399,
      "Ġmatch": 3400,
      "Ġdad": 3401,
      "ulner": 3402,
      "Ġchair": 3403,
      "ĠHis": 3404,
      "ĠFace": 3405,
      "Ġ21": 3406,
      "Ġhero": 3407,
      "Ġproduction": 3408,
      "Ġinterview": 3409,
      "ĠAnother": 3410,
      "ĠFrom": 3411,
      "Ġfollowing": 3412,
      "Ġdiagn": 3413,
      "Ġclearly": 3414,
      "Ġhonest": 3415,
      "Ġearlier": 3416,
      "pro": 3417,
      "orrow": 3418,
      "Ġcover": 3419,
      "ologists": 3420,
      "Ġphen": 3421,
      "Ġoffic": 3422,
      "Ġwalked": 3423,
      "Ġaddress": 3424,
      "Ġservices": 3425,
      "Ġinternational": 3426,
      "Ġchallenges": 3427,
      "word": 3428,
      "Ġsal": 3429,
      "ĠAb": 3430,
      "sequ": 3431,
      "ĠPar": 3432,
      "Ġprice": 3433,
      "Ġtrade": 3434,
      "Ġapply": 3435,
      "Ġwaiting": 3436,
      "Ġcelebr": 3437,
      "son": 3438,
      "itor": 3439,
      "Ġpan": 3440,
      "Ġsequ": 3441,
      "Ġvict": 3442,
      "ĠCol": 3443,
      "ĠDr": 3444,
      "Ġunique": 3445,
      "Ġuseful": 3446,
      "Ġunderstood": 3447,
      "Ġhelped": 3448,
      "ception": 3449,
      "Ġcareer": 3450,
      "Ġoppos": 3451,
      "Ġcondition": 3452,
      "Ġmilitary": 3453,
      "Ġveh": 3454,
      "Ġemotional": 3455,
      "Ġprivate": 3456,
      "eral": 3457,
      "oty": 3458,
      "Ġnut": 3459,
      "igr": 3460,
      "bert": 3461,
      "Ġrace": 3462,
      "Ġentreprene": 3463,
      "Ġpopular": 3464,
      "Ġmassive": 3465,
      "Ġperformance": 3466,
      "Ġenjoy": 3467,
      "Ġmix": 3468,
      "Ġweb": 3469,
      "Ġwhose": 3470,
      "iding": 3471,
      "imately": 3472,
      "Ġstars": 3473,
      "though": 3474,
      "Ġshock": 3475,
      "istry": 3476,
      "ĠCity": 3477,
      "ement": 3478,
      "resh": 3479,
      "Ġemail": 3480,
      "Ġsurround": 3481,
      "Ġhimself": 3482,
      "Ġautom": 3483,
      "Ġsexual": 3484,
      "attle": 3485,
      "Ġsummer": 3486,
      "Ġintelligence": 3487,
      "Ġcoffee": 3488,
      "yle": 3489,
      "Ġtask": 3490,
      "ĠIra": 3491,
      "Ġshift": 3492,
      "Ġtherefore": 3493,
      "Ġspect": 3494,
      "Ġspaces": 3495,
      "Ġprevent": 3496,
      "Ġsky": 3497,
      "Ġhistor": 3498,
      "Ġchoices": 3499,
      "Ġclassroom": 3500,
      "Ġexperiments": 3501,
      "Ġneighborhood": 3502,
      "Ġphenomen": 3503,
      "cut": 3504,
      "Ġspeaking": 3505,
      "board": 3506,
      "ashion": 3507,
      "Ġblock": 3508,
      "Ġmedicine": 3509,
      "Ġslightly": 3510,
      "af": 3511,
      "Ġir": 3512,
      "rees": 3513,
      "Ġlines": 3514,
      "arian": 3515,
      "rad": 3516,
      "cience": 3517,
      "Ġweren": 3518,
      "ĠPer": 3519,
      "ĠGerman": 3520,
      "Ġfold": 3521,
      "Ġdecide": 3522,
      "Ġcreates": 3523,
      "Ġvalues": 3524,
      "Ġmultip": 3525,
      "aul": 3526,
      "Ġmale": 3527,
      "Ġhus": 3528,
      "used": 3529,
      "Ġforget": 3530,
      "Ġworry": 3531,
      "Ġvulner": 3532,
      "anda": 3533,
      "udd": 3534,
      "Ġcentral": 3535,
      "Ġphysics": 3536,
      "Ġradio": 3537,
      "ĠMany": 3538,
      "iate": 3539,
      "uing": 3540,
      "Ġwood": 3541,
      "Ġinsect": 3542,
      "Ġyeah": 3543,
      "Ġwealth": 3544,
      "ĠAustr": 3545,
      "ĠEx": 3546,
      "rench": 3547,
      "Ġgradu": 3548,
      "Ġphoto": 3549,
      "Ġdirection": 3550,
      "Ġcomplexity": 3551,
      "Ġmeeting": 3552,
      "Ġdestro": 3553,
      "ĠFacebook": 3554,
      "ĠIraq": 3555,
      "ID": 3556,
      "Ġhall": 3557,
      "Ġdance": 3558,
      "owd": 3559,
      "ĠSc": 3560,
      "Ġdog": 3561,
      "Ġselect": 3562,
      "ipt": 3563,
      "Ġhighly": 3564,
      "Ġ197": 3565,
      "ission": 3566,
      "Ġlights": 3567,
      "Ġnetworks": 3568,
      "Ġmotiv": 3569,
      "Ġ$": 3570,
      "isms": 3571,
      "imin": 3572,
      "ĠLond": 3573,
      "Ġinstance": 3574,
      "Ġfocused": 3575,
      "Ġdaughter": 3576,
      "Ġnuclear": 3577,
      "Ġpurpose": 3578,
      "off": 3579,
      "aling": 3580,
      "icians": 3581,
      "Ġeating": 3582,
      "ceed": 3583,
      "Ġdrink": 3584,
      "Ġanswers": 3585,
      "Ġcultural": 3586,
      "Ġcampaign": 3587,
      "Ġinvented": 3588,
      "ĠLondon": 3589,
      "Ġahead": 3590,
      "oses": 3591,
      "Ġlog": 3592,
      "Ġenorm": 3593,
      "Ġ24": 3594,
      "Ġdifferences": 3595,
      "Ġtransport": 3596,
      "Ġprofound": 3597,
      "Ġspending": 3598,
      "exic": 3599,
      "Ġsurvive": 3600,
      "Ġtemperature": 3601,
      "la": 3602,
      "Ġtree": 3603,
      "ening": 3604,
      "Ġstates": 3605,
      "ams": 3606,
      "Ġann": 3607,
      "olve": 3608,
      "Ġintegr": 3609,
      "ĠCong": 3610,
      "Ġparty": 3611,
      "ibr": 3612,
      "Ġboys": 3613,
      "order": 3614,
      "Ġdecade": 3615,
      "Ġdriving": 3616,
      "Ġslide": 3617,
      "Ġlaws": 3618,
      "Ġstreets": 3619,
      "Ġtarget": 3620,
      "Ġbirds": 3621,
      "Ġtrouble": 3622,
      "ratic": 3623,
      "Ġoh": 3624,
      "Ġdying": 3625,
      "Ġinj": 3626,
      "ste": 3627,
      "Ġshop": 3628,
      "Ġworst": 3629,
      "ĠMc": 3630,
      "ĠMiddle": 3631,
      "Ġteen": 3632,
      "Ġgreatest": 3633,
      "lications": 3634,
      "Ġoccur": 3635,
      "Ġcustom": 3636,
      "iot": 3637,
      "ystem": 3638,
      "Ġsad": 3639,
      "atives": 3640,
      "Ġcand": 3641,
      "Ġcatch": 3642,
      "ened": 3643,
      "Ġgent": 3644,
      "ĠBill": 3645,
      "Ġrange": 3646,
      "Ġord": 3647,
      "ĠMexic": 3648,
      "apped": 3649,
      "Ġadapt": 3650,
      "Ġbrings": 3651,
      "Ġartists": 3652,
      "Ġterm": 3653,
      "Ġshares": 3654,
      "Ġvarious": 3655,
      "Ġanaly": 3656,
      "Ġinspired": 3657,
      "cope": 3658,
      "Ġtrem": 3659,
      "orge": 3660,
      "oper": 3661,
      "the": 3662,
      "raid": 3663,
      "Ġshot": 3664,
      "adem": 3665,
      "antic": 3666,
      "Ġinstr": 3667,
      "Ġbreast": 3668,
      "Ġdiseases": 3669,
      "Ġidentity": 3670,
      "Ġcauses": 3671,
      "Ġetc": 3672,
      "Ġhusb": 3673,
      "Ġtown": 3674,
      "ancy": 3675,
      "cell": 3676,
      "Ġsymb": 3677,
      "Ġ500": 3678,
      "Ġterrible": 3679,
      "Ġafraid": 3680,
      "mic": 3681,
      "uct": 3682,
      "Ġver": 3683,
      "Ġwis": 3684,
      "Ġbase": 3685,
      "Ġmut": 3686,
      "Ġdimens": 3687,
      "orith": 3688,
      "Ġnoticed": 3689,
      "iles": 3690,
      "ĠMich": 3691,
      "ĠCent": 3692,
      "ĠDan": 3693,
      "Ġresist": 3694,
      "Ġcommunicate": 3695,
      "Ġdocument": 3696,
      "gth": 3697,
      "ried": 3698,
      "ya": 3699,
      "Ġfat": 3700,
      "Ġweap": 3701,
      "ĠThink": 3702,
      "Ġstren": 3703,
      "ĠWas": 3704,
      "Ġframe": 3705,
      "Ġconsequ": 3706,
      "ĠMr": 3707,
      "Ġlaugh": 3708,
      "Ġscientist": 3709,
      "Ġdirectly": 3710,
      "Ġpublished": 3711,
      "ax": 3712,
      "hib": 3713,
      "wise": 3714,
      "Ġpaid": 3715,
      "Ġfing": 3716,
      "orry": 3717,
      "Ġloss": 3718,
      "ĠTake": 3719,
      "key": 3720,
      "iforn": 3721,
      "thetic": 3722,
      "Ġrule": 3723,
      "ĠHave": 3724,
      "Ġvast": 3725,
      "ĠCon": 3726,
      "Ġactive": 3727,
      "Ġdram": 3728,
      "Ġcapacity": 3729,
      "ĠIndian": 3730,
      "Ġvari": 3731,
      "Ġsustainable": 3732,
      "ĠInstead": 3733,
      "ĠCaliforn": 3734,
      "Ġmathemat": 3735,
      "Ġalgorith": 3736,
      "na": 3737,
      "Ġing": 3738,
      "Ġgala": 3739,
      "ett": 3740,
      "ĠSm": 3741,
      "Ġknowing": 3742,
      "Ġtwice": 3743,
      "Ġtraffic": 3744,
      "Ġblog": 3745,
      "Ġmissing": 3746,
      "Ġflying": 3747,
      "Ġfloor": 3748,
      "Ġexperiences": 3749,
      "Ġstrength": 3750,
      "ze": 3751,
      "alia": 3752,
      "ille": 3753,
      "load": 3754,
      "Ġcommer": 3755,
      "Ġrelative": 3756,
      "Ġjournal": 3757,
      "Ġleadership": 3758,
      "Ġut": 3759,
      "edd": 3760,
      "edia": 3761,
      "ĠAud": 3762,
      "Ġatm": 3763,
      "Ġcompon": 3764,
      "itted": 3765,
      "Ġmostly": 3766,
      "Ġindepend": 3767,
      "Ġpossibly": 3768,
      "Ġsupply": 3769,
      "Ġstopped": 3770,
      "engu": 3771,
      "Ġinstitutions": 3772,
      "Ġcloser": 3773,
      "ĠCalifornia": 3774,
      "zil": 3775,
      "Ġaid": 3776,
      "arm": 3777,
      "ĠNe": 3778,
      "Ġtax": 3779,
      "ĠRo": 3780,
      "Ġdispl": 3781,
      "Ġbelow": 3782,
      "Ġbasis": 3783,
      "ructure": 3784,
      "Ġmembers": 3785,
      "Ġdevices": 3786,
      "Ġjoin": 3787,
      "Ġemotion": 3788,
      "Ġdeliver": 3789,
      "Ġzero": 3790,
      "Ġdoub": 3791,
      "ĠiP": 3792,
      "Ġgentle": 3793,
      "ios": 3794,
      "Ġtens": 3795,
      "Ġrough": 3796,
      "phone": 3797,
      "Ġconference": 3798,
      "Ġcontroll": 3799,
      "Ġautism": 3800,
      "idden": 3801,
      "Ġforeign": 3802,
      "Ġbroad": 3803,
      "ĠBrazil": 3804,
      "Ġcolleagues": 3805,
      "ox": 3806,
      "Ġlack": 3807,
      "Ġreve": 3808,
      "Ġforces": 3809,
      "ĠWill": 3810,
      "empt": 3811,
      "izes": 3812,
      "Ġmoments": 3813,
      "Ġphotos": 3814,
      "Ġopportunities": 3815,
      "Ġreduce": 3816,
      "Ġmolecule": 3817,
      "Ġwheel": 3818,
      "Ġphilosoph": 3819,
      "IDS": 3820,
      "SA": 3821,
      "now": 3822,
      "rom": 3823,
      "Ġpig": 3824,
      "anced": 3825,
      "Ġdyn": 3826,
      "Ġbeat": 3827,
      "Ġnovel": 3828,
      "Ġproduced": 3829,
      "Ġcapture": 3830,
      "Ġelectron": 3831,
      "Ġairpl": 3832,
      "Ġcommunication": 3833,
      "Ġtissue": 3834,
      "Ġcorruption": 3835,
      "fl": 3836,
      "itter": 3837,
      "Ġban": 3838,
      "ĠWould": 3839,
      "Ġsharing": 3840,
      "Ġnote": 3841,
      "ĠHa": 3842,
      "Ġfeels": 3843,
      "Ġhelping": 3844,
      "Ġplayed": 3845,
      "Ġbringing": 3846,
      "Ġhearing": 3847,
      "ĠSecond": 3848,
      "Ġswitch": 3849,
      "Ġavoid": 3850,
      "ĠChris": 3851,
      "gy": 3852,
      "ufact": 3853,
      "Ġhang": 3854,
      "Ġpengu": 3855,
      "Ġfashion": 3856,
      "Ġfort": 3857,
      "ĠCam": 3858,
      "ĠOb": 3859,
      "Ġagree": 3860,
      "ĠRuss": 3861,
      "ĠJo": 3862,
      "athy": 3863,
      "Ġcrowd": 3864,
      "Ġpassed": 3865,
      "Ġinfrast": 3866,
      "Ġprograms": 3867,
      "Ġmission": 3868,
      "Ġoriginal": 3869,
      "Ġbrand": 3870,
      "iage": 3871,
      "atr": 3872,
      "ervation": 3873,
      "Ġfro": 3874,
      "Ġgun": 3875,
      "ĠTe": 3876,
      "ĠNor": 3877,
      "ĠEn": 3878,
      "ĠDid": 3879,
      "ĠGu": 3880,
      "iber": 3881,
      "Ġpoet": 3882,
      "ording": 3883,
      "ricult": 3884,
      "othes": 3885,
      "Ġattract": 3886,
      "Ġjoy": 3887,
      "Ġnearly": 3888,
      "Ġvolunt": 3889,
      "Ġopposite": 3890,
      "stein": 3891,
      "Ġfaces": 3892,
      "ĠAIDS": 3893,
      "Ġstem": 3894,
      "Ġseed": 3895,
      "Ġliber": 3896,
      "Ġunc": 3897,
      "Ġscan": 3898,
      "Ġstudying": 3899,
      "Ġrare": 3900,
      "Ġaccur": 3901,
      "Ġaddition": 3902,
      "Ġsignificant": 3903,
      "sc": 3904,
      "Ġorg": 3905,
      "ĠNational": 3906,
      "Ġamb": 3907,
      "Ġinsight": 3908,
      "Ġvisit": 3909,
      "Ġstructures": 3910,
      "Ġemotions": 3911,
      "Ġrelationships": 3912,
      "Ġreligion": 3913,
      "Ġdegrees": 3914,
      "Ġconsciousness": 3915,
      "Ġpuzz": 3916,
      "Ġoxygen": 3917,
      "ĠAgain": 3918,
      "Ġhusband": 3919,
      "vant": 3920,
      "osh": 3921,
      "Ġden": 3922,
      "Ġrecon": 3923,
      "ches": 3924,
      "Ġforg": 3925,
      "ada": 3926,
      "Ġmanufact": 3927,
      "Ġappl": 3928,
      "Ġimportantly": 3929,
      "Ġfuel": 3930,
      "Ġtherap": 3931,
      "tle": 3932,
      "Ġbought": 3933,
      "Ġtom": 3934,
      "icking": 3935,
      "Ġreb": 3936,
      "Ġhack": 3937,
      "ils": 3938,
      "ĠGreat": 3939,
      "Ġanyway": 3940,
      "Ġpassword": 3941,
      "Ġforever": 3942,
      "Ġnecessary": 3943,
      "Ġcorrect": 3944,
      "Ġcommercial": 3945,
      "osqu": 3946,
      "ander": 3947,
      "ĠFin": 3948,
      "Ġsurve": 3949,
      "Ġfully": 3950,
      "Ġadvant": 3951,
      "Ġbenefits": 3952,
      "Ġlucky": 3953,
      "ĠActually": 3954,
      "Ġtremend": 3955,
      "Ġatmosphere": 3956,
      "ky": 3957,
      "Ġcru": 3958,
      "Ġmouth": 3959,
      "ears": 3960,
      "artment": 3961,
      "Ġvote": 3962,
      "Ġalthough": 3963,
      "elling": 3964,
      "Ġdifferently": 3965,
      "ĠHey": 3966,
      "Ġconsid": 3967,
      "Ġeasily": 3968,
      "Ġentirely": 3969,
      "Ġfailure": 3970,
      "Ġbroken": 3971,
      "Ġrequire": 3972,
      "Ġtotal": 3973,
      "Ġwisdom": 3974,
      "hand": 3975,
      "lim": 3976,
      "wide": 3977,
      "Ġwide": 3978,
      "oun": 3979,
      "Ġcogn": 3980,
      "Ġmuseum": 3981,
      "Ġreco": 3982,
      "Ġhair": 3983,
      "Ġmeas": 3984,
      "ĠPaul": 3985,
      "ĠFrench": 3986,
      "Ġbackground": 3987,
      "aced": 3988,
      "aker": 3989,
      "Ġimagination": 3990,
      "Ġlesson": 3991,
      "Ġaccom": 3992,
      "Ġrestaur": 3993,
      "Ġmagaz": 3994,
      "Ġargument": 3995,
      "vest": 3996,
      "osystem": 3997,
      "Ġhom": 3998,
      "aria": 3999,
      "oting": 4000,
      "icles": 4001,
      "Ġancient": 4002,
      "Ġheat": 4003,
      "ĠMars": 4004,
      "Ġevents": 4005,
      "Ġbrill": 4006,
      "Ġindustrial": 4007,
      "Ġcolors": 4008,
      "Ġ196": 4009,
      "Ġcorner": 4010,
      "Ġparad": 4011,
      "Ġmajority": 4012,
      "ĠBritish": 4013,
      "Ġturning": 4014,
      "Ġenormous": 4015,
      "isible": 4016,
      "Ġbatter": 4017,
      "vere": 4018,
      "ifically": 4019,
      "ifying": 4020,
      "irt": 4021,
      "ĠBig": 4022,
      "Ġchick": 4023,
      "ĠOver": 4024,
      "ager": 4025,
      "Ġcla": 4026,
      "Ġcooper": 4027,
      "ĠHowever": 4028,
      "Ġmetaph": 4029,
      "Ġleading": 4030,
      "Ġmatters": 4031,
      "Ġequal": 4032,
      "Ġcheap": 4033,
      "Ġdeeply": 4034,
      "Ġwindow": 4035,
      "Ġstatistics": 4036,
      "Ġsymbol": 4037,
      "ĠAudience": 4038,
      "based": 4039,
      "zen": 4040,
      "reet": 4041,
      "Ġsick": 4042,
      "apers": 4043,
      "icon": 4044,
      "Ġstream": 4045,
      "Ġheld": 4046,
      "agers": 4047,
      "Ġunlike": 4048,
      "itely": 4049,
      "Ġgrown": 4050,
      "ysis": 4051,
      "Ġ300": 4052,
      "Ġdemand": 4053,
      "Ġnewsp": 4054,
      "Ġhyp": 4055,
      "Ġresponsible": 4056,
      "Ġdescribe": 4057,
      "Ġmountain": 4058,
      "Ġecosystem": 4059,
      "Ġrapid": 4060,
      "dro": 4061,
      "house": 4062,
      "Ġcore": 4063,
      "Ġble": 4064,
      "Ġburn": 4065,
      "Ġpet": 4066,
      "Ġdiversity": 4067,
      "edic": 4068,
      "roud": 4069,
      "aining": 4070,
      "Ġagricult": 4071,
      "Ġcrime": 4072,
      "Ġlandscape": 4073,
      "vity": 4074,
      "Ġbone": 4075,
      "Ġmamm": 4076,
      "Ġlunch": 4077,
      "roll": 4078,
      "ulous": 4079,
      "ulations": 4080,
      "ured": 4081,
      "Ġworkers": 4082,
      "ĠEd": 4083,
      "lock": 4084,
      "Ġgovernments": 4085,
      "pected": 4086,
      "Ġgrandm": 4087,
      "Ġsuffering": 4088,
      "Ġreceived": 4089,
      "Ġfascinating": 4090,
      "Ġinfrastructure": 4091,
      "gal": 4092,
      "iam": 4093,
      "win": 4094,
      "Ġbud": 4095,
      "Ġtor": 4096,
      "Ġfab": 4097,
      "Ġnone": 4098,
      "ĠMo": 4099,
      "Ġsport": 4100,
      "Ġexpand": 4101,
      "Ġcontact": 4102,
      "Ġamp": 4103,
      "Ġflight": 4104,
      "Ġaccident": 4105,
      "Ġdreams": 4106,
      "DP": 4107,
      "equ": 4108,
      "water": 4109,
      "Ġbul": 4110,
      "Ġmort": 4111,
      "Ġmosqu": 4112,
      "Ġbees": 4113,
      "Ġreward": 4114,
      "verse": 4115,
      "ĠSan": 4116,
      "Ġusers": 4117,
      "ĠOnce": 4118,
      "ĠPal": 4119,
      "Ġgotten": 4120,
      "Ġoffer": 4121,
      "Ġresearchers": 4122,
      "Ġphysic": 4123,
      "ography": 4124,
      "Ġinteraction": 4125,
      "Ġfighting": 4126,
      "Ġextreme": 4127,
      "Ġbenefit": 4128,
      "Ġbreath": 4129,
      "ĠJapanese": 4130,
      "ĠSometimes": 4131,
      "hy": 4132,
      "mon": 4133,
      "mark": 4134,
      "reg": 4135,
      "reci": 4136,
      "Ġbag": 4137,
      "Ġbound": 4138,
      "Ġmid": 4139,
      "Ġrepe": 4140,
      "Ġsector": 4141,
      "Ġaltern": 4142,
      "Ġjustice": 4143,
      "ĠGra": 4144,
      "Ġshouldn": 4145,
      "Ġregular": 4146,
      "Ġeffects": 4147,
      "Ġillness": 4148,
      "Ġembra": 4149,
      "Ġresponsibility": 4150,
      "Ġpressure": 4151,
      "Ġshoes": 4152,
      "Ġstrategy": 4153,
      "Ġdestroy": 4154,
      "ked": 4155,
      "Ġtough": 4156,
      "itable": 4157,
      "encies": 4158,
      "Ġpair": 4159,
      "Ġproud": 4160,
      "Ġgift": 4161,
      "Ġnor": 4162,
      "thes": 4163,
      "Ġship": 4164,
      "erson": 4165,
      "Ġspot": 4166,
      "Ġtrip": 4167,
      "Ġseemed": 4168,
      "Ġcompared": 4169,
      "orders": 4170,
      "Ġremote": 4171,
      "Ġcreatures": 4172,
      "ĠEverybody": 4173,
      "Ġillustr": 4174,
      "ipped": 4175,
      "Ġlegal": 4176,
      "Ġadults": 4177,
      "Ġbalance": 4178,
      "Ġdespite": 4179,
      "kn": 4180,
      "Ġgay": 4181,
      "ica": 4182,
      "Ġwear": 4183,
      "Ġegg": 4184,
      "ĠSu": 4185,
      "urch": 4186,
      "term": 4187,
      "Ġexer": 4188,
      "Ġrout": 4189,
      "ĠMin": 4190,
      "ĠEm": 4191,
      "ĠDes": 4192,
      "Ġclimb": 4193,
      "Ġchildhood": 4194,
      "Ġappe": 4195,
      "Ġattempt": 4196,
      "ĠEuropean": 4197,
      "cript": 4198,
      "Ġdefinition": 4199,
      "Ġprotein": 4200,
      "ford": 4201,
      "Ġhate": 4202,
      "Ġhost": 4203,
      "Ġhabit": 4204,
      "ellect": 4205,
      "Ġsug": 4206,
      "ĠGDP": 4207,
      "Ġquant": 4208,
      "Ġprior": 4209,
      "Ġ400": 4210,
      "Ġpresident": 4211,
      "Ġcollective": 4212,
      "Ġvoices": 4213,
      "Ġperfectly": 4214,
      "Ġepide": 4215,
      "Ġdinner": 4216,
      "ĠSwed": 4217,
      "Ġtum": 4218,
      "esome": 4219,
      "ĠEl": 4220,
      "ĠGood": 4221,
      "Ġmanaged": 4222,
      "iable": 4223,
      "Ġcontribut": 4224,
      "Ġraised": 4225,
      "Ġmeters": 4226,
      "ĠAsia": 4227,
      "Ġveget": 4228,
      "Ġelement": 4229,
      "Ġfaith": 4230,
      "Ġmarried": 4231,
      "Ġdomin": 4232,
      "Ġfarmers": 4233,
      "Ġvolunte": 4234,
      "Ġtal": 4235,
      "Ġtast": 4236,
      "Ġgiant": 4237,
      "Ġreplace": 4238,
      "ĠMore": 4239,
      "Ġalt": 4240,
      "Ġtruck": 4241,
      "Ġthinks": 4242,
      "ĠRes": 4243,
      "ĠJe": 4244,
      "Ġbrother": 4245,
      "ĠThanks": 4246,
      "Ġtransm": 4247,
      "Ġrelated": 4248,
      "Ġstuck": 4249,
      "Ġbiological": 4250,
      "Ġpaint": 4251,
      "Ġequip": 4252,
      "Ġtypical": 4253,
      "Ġdrawing": 4254,
      "Ġconvin": 4255,
      "Ġtremendous": 4256,
      "oo": 4257,
      "Ġyellow": 4258,
      "Ġgold": 4259,
      "Ġaspect": 4260,
      "Ġconcent": 4261,
      "Ġintellect": 4262,
      "Ġplat": 4263,
      "Ġcalls": 4264,
      "rupt": 4265,
      "Ġprevious": 4266,
      "connect": 4267,
      "Ġpossibility": 4268,
      "Ġdistance": 4269,
      "Ġeasier": 4270,
      "Ġfailed": 4271,
      "Ġcycle": 4272,
      "Ġnegative": 4273,
      "Ġinsects": 4274,
      "Ġcognitive": 4275,
      "my": 4276,
      "val": 4277,
      "Ġwond": 4278,
      "arter": 4279,
      "ctions": 4280,
      "uries": 4281,
      "Ġgenome": 4282,
      "Ġexperts": 4283,
      "Ġsimpl": 4284,
      "Ġinvisible": 4285,
      "Ġartific": 4286,
      "ification": 4287,
      "Ġcorpor": 4288,
      "ĠSee": 4289,
      "Ġdiscovery": 4290,
      "Ġfigured": 4291,
      "ĠArt": 4292,
      "Ġdiet": 4293,
      "Ġfrequ": 4294,
      "Ġlimited": 4295,
      "Ġversus": 4296,
      "Ġefficient": 4297,
      "Ġquote": 4298,
      "Ġadvantage": 4299,
      "Ġbrilliant": 4300,
      "hab": 4301,
      "uild": 4302,
      "Ġbillions": 4303,
      "Ġhidden": 4304,
      "Ġweird": 4305,
      "ĠSchool": 4306,
      "Ġund": 4307,
      "Ġnotion": 4308,
      "Ġround": 4309,
      "ĠHer": 4310,
      "Ġintu": 4311,
      "ĠGen": 4312,
      "pped": 4313,
      "Ġdesire": 4314,
      "Ġletter": 4315,
      "Ġhelps": 4316,
      "Ġinstall": 4317,
      "Ġenter": 4318,
      "Ġleads": 4319,
      "Ġlanguages": 4320,
      "Ġwatched": 4321,
      "Ġinvestment": 4322,
      "Ġantib": 4323,
      "Ġessential": 4324,
      "Ġdouble": 4325,
      "Ġfairly": 4326,
      "Ġequipment": 4327,
      "au": 4328,
      "ey": 4329,
      "rict": 4330,
      "Ġtun": 4331,
      "Ġcred": 4332,
      "aped": 4333,
      "Ġfol": 4334,
      "Ġfresh": 4335,
      "ancing": 4336,
      "Ġdue": 4337,
      "Ġnames": 4338,
      "Ġstim": 4339,
      "Ġshut": 4340,
      "Ġshel": 4341,
      "cket": 4342,
      "ĠCo": 4343,
      "ĠGreen": 4344,
      "Ġeveryday": 4345,
      "Ġunex": 4346,
      "Ġpartners": 4347,
      "Ġsubst": 4348,
      "ĠDoes": 4349,
      "Ġterror": 4350,
      "Ġfeedback": 4351,
      "imensional": 4352,
      "Ġnecessarily": 4353,
      "Ġbomb": 4354,
      "gypt": 4355,
      "Ġconcentr": 4356,
      "IT": 4357,
      "hold": 4358,
      "Ġtour": 4359,
      "inc": 4360,
      "Ġcateg": 4361,
      "ason": 4362,
      "Ġhell": 4363,
      "ulpt": 4364,
      "Ġchann": 4365,
      "Ġriver": 4366,
      "atell": 4367,
      "apping": 4368,
      "Ġempt": 4369,
      "Ġfacts": 4370,
      "Ġsculpt": 4371,
      "Ġbridge": 4372,
      "Ġexpert": 4373,
      "Ġstudied": 4374,
      "Ġcreation": 4375,
      "Ġopin": 4376,
      "Ġsucceed": 4377,
      "Ġholding": 4378,
      "Ġdaily": 4379,
      "Ġmotor": 4380,
      "ipping": 4381,
      "Ġinfluence": 4382,
      "ĠMexico": 4383,
      "ius": 4384,
      "Ġwire": 4385,
      "ato": 4386,
      "Ġmothers": 4387,
      "Ġhomes": 4388,
      "Ġincent": 4389,
      "otic": 4390,
      "owing": 4391,
      "Ġrat": 4392,
      "oking": 4393,
      "Ġmoves": 4394,
      "Ġdesigner": 4395,
      "Ġplanning": 4396,
      "Ġplanets": 4397,
      "Ġedge": 4398,
      "Ġleader": 4399,
      "Ġdollar": 4400,
      "Ġbusinesses": 4401,
      "Ġneuros": 4402,
      "Ġcircum": 4403,
      "Ġleaving": 4404,
      "Ġhouses": 4405,
      "cles": 4406,
      "dimensional": 4407,
      "gn": 4408,
      "throp": 4409,
      "ortex": 4410,
      "ĠEgypt": 4411,
      "Ġdisc": 4412,
      "Ġcommit": 4413,
      "ĠVery": 4414,
      "Ġopened": 4415,
      "Ġkeeping": 4416,
      "Ġdepression": 4417,
      "Ġinvestig": 4418,
      "Ġsurprise": 4419,
      "Ġargue": 4420,
      "Ġstruggle": 4421,
      "known": 4422,
      "cop": 4423,
      "Ġtick": 4424,
      "Ġsister": 4425,
      "Ġsatell": 4426,
      "itute": 4427,
      "Ġmill": 4428,
      "Ġmouse": 4429,
      "apse": 4430,
      "Ġwearing": 4431,
      "entally": 4432,
      "ĠSun": 4433,
      "Ġmeat": 4434,
      "ĠCould": 4435,
      "Ġcompare": 4436,
      "Ġclick": 4437,
      "Ġprecise": 4438,
      "Ġappreci": 4439,
      "Ġinvited": 4440,
      "Ġentertain": 4441,
      "Ġ150": 4442,
      "Ġfollowed": 4443,
      "Ġradical": 4444,
      "Ġdamage": 4445,
      "Ġincreasingly": 4446,
      "Ġelectrical": 4447,
      "ĠAustralia": 4448,
      "Ġplatform": 4449,
      "lin": 4450,
      "me": 4451,
      "mber": 4452,
      "Ġiron": 4453,
      "isco": 4454,
      "Ġlosing": 4455,
      "omy": 4456,
      "ĠBen": 4457,
      "Ġliked": 4458,
      "ĠEin": 4459,
      "Ġuniversity": 4460,
      "Ġsurge": 4461,
      "Ġhighest": 4462,
      "print": 4463,
      "Ġcapable": 4464,
      "Ġbegins": 4465,
      "Ġvaccine": 4466,
      "Ġmetaphor": 4467,
      "pid": 4468,
      "Ġur": 4469,
      "Ġodd": 4470,
      "Ġmaster": 4471,
      "ara": 4472,
      "Ġgar": 4473,
      "Ġglo": 4474,
      "anted": 4475,
      "essed": 4476,
      "Ġresource": 4477,
      "Ġprototy": 4478,
      "Ġmarkets": 4479,
      "Ġconstantly": 4480,
      "Ġsurprised": 4481,
      "Ġsurvival": 4482,
      "ĠTwitter": 4483,
      "Ġorigin": 4484,
      "Ġharm": 4485,
      "Ġexperienced": 4486,
      "Ġprincip": 4487,
      "Ġuniversal": 4488,
      "Ġseparate": 4489,
      "Ġcomfortable": 4490,
      "Ġnutr": 4491,
      "ĠWashing": 4492,
      "Ġmagazine": 4493,
      "ĠEinstein": 4494,
      "ij": 4495,
      "Ġsorry": 4496,
      "Ġrural": 4497,
      "ĠYet": 4498,
      "acters": 4499,
      "ĠFl": 4500,
      "ibilities": 4501,
      "Ġmoon": 4502,
      "Ġfinished": 4503,
      "Ġcharacters": 4504,
      "ĠPhil": 4505,
      "Ġcompetition": 4506,
      "vention": 4507,
      "Ġbattle": 4508,
      "anes": 4509,
      "Ġgather": 4510,
      "Ġbee": 4511,
      "idents": 4512,
      "ĠBang": 4513,
      "ads": 4514,
      "illed": 4515,
      "Ġworldwide": 4516,
      "ĠRich": 4517,
      "forest": 4518,
      "Ġbelieved": 4519,
      "ocol": 4520,
      "issions": 4521,
      "Ġgrad": 4522,
      "Ġcounter": 4523,
      "Ġkilling": 4524,
      "Ġhydro": 4525,
      "Ġsuggests": 4526,
      "Ġprofessional": 4527,
      "Ġdescribed": 4528,
      "Ġhorr": 4529,
      "Ġultimately": 4530,
      "ĠGeorge": 4531,
      "Ġassociated": 4532,
      "Ġphenomenon": 4533,
      "Ġdimensions": 4534,
      "Ġweapons": 4535,
      "Ġairplane": 4536,
      "Ġsugar": 4537,
      "ĠWashington": 4538,
      "Ġtit": 4539,
      "Ġton": 4540,
      "inist": 4541,
      "rel": 4542,
      "Ġpurs": 4543,
      "Ġdry": 4544,
      "Ġgap": 4545,
      "Ġgard": 4546,
      "ĠTom": 4547,
      "enty": 4548,
      "celer": 4549,
      "Ġking": 4550,
      "Ġshapes": 4551,
      "cked": 4552,
      "Ġintr": 4553,
      "ĠEach": 4554,
      "Ġexpression": 4555,
      "Ġnoise": 4556,
      "Ġadvert": 4557,
      "Ġbright": 4558,
      "Ġletters": 4559,
      "Ġvalu": 4560,
      "Ġcharge": 4561,
      "Ġelements": 4562,
      "Ġdegree": 4563,
      "Ġconcerned": 4564,
      "ĠKenya": 4565,
      "rum": 4566,
      "Ġdial": 4567,
      "ĠApp": 4568,
      "ĠBar": 4569,
      "odes": 4570,
      "uls": 4571,
      "ession": 4572,
      "Ġperce": 4573,
      "Ġperception": 4574,
      "Ġagre": 4575,
      "ĠRob": 4576,
      "Ġdisp": 4577,
      "Ġbelong": 4578,
      "ublic": 4579,
      "Ġharder": 4580,
      "Ġcourage": 4581,
      "ĠEngland": 4582,
      "Ġnormally": 4583,
      "Ġidentify": 4584,
      "Ġastron": 4585,
      "Ġvirtual": 4586,
      "Ġorgans": 4587,
      "ael": 4588,
      "bble": 4589,
      "Ġband": 4590,
      "Ġholes": 4591,
      "ami": 4592,
      "Ġmaint": 4593,
      "Ġfellow": 4594,
      "aked": 4595,
      "Ġputs": 4596,
      "Ġfactory": 4597,
      "Ġgene": 4598,
      "Ġfinish": 4599,
      "Ġeconomics": 4600,
      "ĠCanada": 4601,
      "ĠCharles": 4602,
      "Ġmultiple": 4603,
      "Ġartificial": 4604,
      "ushing": 4605,
      "iration": 4606,
      "olves": 4607,
      "Ġexhib": 4608,
      "Ġindic": 4609,
      "lication": 4610,
      "Ġtransp": 4611,
      "Ġtransformation": 4612,
      "Ġgenerations": 4613,
      "ribute": 4614,
      "Ġtrained": 4615,
      "Ġconstruction": 4616,
      "Ġoperating": 4617,
      "Ġpollut": 4618,
      "Ġslowly": 4619,
      "Ġsoldiers": 4620,
      "Ġleaves": 4621,
      "do": 4622,
      "uous": 4623,
      "rete": 4624,
      "atures": 4625,
      "Ġdots": 4626,
      "Ġdiction": 4627,
      "ulated": 4628,
      "Ġuser": 4629,
      "Ġhasn": 4630,
      "ĠRep": 4631,
      "Ġarms": 4632,
      "Ġcoast": 4633,
      "Ġacadem": 4634,
      "Ġadop": 4635,
      "Ġaccording": 4636,
      "Ġcurious": 4637,
      "ĠFranc": 4638,
      "Ġengineers": 4639,
      "Ġawesome": 4640,
      "Ġmarriage": 4641,
      "Ġdetails": 4642,
      "Ġcartoon": 4643,
      "Ġunexpected": 4644,
      "Ġvaluable": 4645,
      "iors": 4646,
      "ties": 4647,
      "Ġax": 4648,
      "Ġtheater": 4649,
      "Ġtow": 4650,
      "Ġpow": 4651,
      "Ġinform": 4652,
      "Ġwhom": 4653,
      "ĠTur": 4654,
      "ĠTalk": 4655,
      "Ġstation": 4656,
      "Ġrom": 4657,
      "ĠNiger": 4658,
      "ĠMIT": 4659,
      "cipl": 4660,
      "Ġtail": 4661,
      "ĠDar": 4662,
      "Ġfell": 4663,
      "Ġaging": 4664,
      "berg": 4665,
      "Ġdesert": 4666,
      "Ġorganic": 4667,
      "Ġheads": 4668,
      "iques": 4669,
      "Ġsafety": 4670,
      "Ġanalysis": 4671,
      "Ġcaused": 4672,
      "Ġfacing": 4673,
      "Ġcurrently": 4674,
      "Ġpassionate": 4675,
      "Ġkilomet": 4676,
      "Ġdistribution": 4677,
      "Ġordinary": 4678,
      "Ġconsidered": 4679,
      "fit": 4680,
      "gment": 4681,
      "oot": 4682,
      "wood": 4683,
      "itals": 4684,
      "Ġhun": 4685,
      "Ġtoile": 4686,
      "Ġdate": 4687,
      "Ġgrain": 4688,
      "cend": 4689,
      "ĠWomen": 4690,
      "Ġexch": 4691,
      "Ġquiet": 4692,
      "Ġroot": 4693,
      "Ġgrid": 4694,
      "Ġscene": 4695,
      "Ġinterp": 4696,
      "Ġextract": 4697,
      "Ġgrade": 4698,
      "ographic": 4699,
      "Ġwondering": 4700,
      "Ġtesting": 4701,
      "Ġpaying": 4702,
      "Ġchemistry": 4703,
      "Ġreligious": 4704,
      "Ġlifet": 4705,
      "Ġproperty": 4706,
      "Ġemployees": 4707,
      "Ġsympt": 4708,
      "Ġofficial": 4709,
      "zing": 4710,
      "Ġcow": 4711,
      "Ġweather": 4712,
      "Ġreform": 4713,
      "Ġrecy": 4714,
      "ĠThom": 4715,
      "ula": 4716,
      "ĠWhile": 4717,
      "ĠLad": 4718,
      "ildren": 4719,
      "Ġsmile": 4720,
      "Ġmusical": 4721,
      "Ġequival": 4722,
      "Ġcollection": 4723,
      "Ġlawy": 4724,
      "Ġsteps": 4725,
      "onym": 4726,
      "Ġseriously": 4727,
      "Ġunfortunately": 4728,
      "Ġconsequences": 4729,
      "mas": 4730,
      "ns": 4731,
      "right": 4732,
      "uh": 4733,
      "uits": 4734,
      "Ġsight": 4735,
      "itness": 4736,
      "osis": 4737,
      "Ġpal": 4738,
      "Ġlat": 4739,
      "asion": 4740,
      "ĠAc": 4741,
      "ĠSch": 4742,
      "ĠWik": 4743,
      "olf": 4744,
      "ĠBas": 4745,
      "Ġchart": 4746,
      "ume": 4747,
      "ĠMark": 4748,
      "Ġotherwise": 4749,
      "Ġclosed": 4750,
      "Ġimpl": 4751,
      "Ġpartner": 4752,
      "Ġacceler": 4753,
      "neath": 4754,
      "Ġasks": 4755,
      "Ġfeelings": 4756,
      "ĠStreet": 4757,
      "Ġarticle": 4758,
      "Ġinterface": 4759,
      "Ġattach": 4760,
      "Ġstupid": 4761,
      "Ġelection": 4762,
      "Ġcultures": 4763,
      "Ġrefuge": 4764,
      "Ġcutting": 4765,
      "Ġpleasure": 4766,
      "Ġsentence": 4767,
      "Ġawful": 4768,
      "Ġcivilization": 4769,
      "Ġwalls": 4770,
      "Ġhurt": 4771,
      "Ġmosquit": 4772,
      "Ġempty": 4773,
      "PS": 4774,
      "lation": 4775,
      "met": 4776,
      "Ġera": 4777,
      "Ġcos": 4778,
      "Ġpages": 4779,
      "Ġpounds": 4780,
      "ĠTimes": 4781,
      "ĠTheir": 4782,
      "Ġfrustr": 4783,
      "Ġhadn": 4784,
      "Ġunless": 4785,
      "ĠRem": 4786,
      "Ġbubble": 4787,
      "Ġphones": 4788,
      "Ġpolic": 4789,
      "Ġplane": 4790,
      "Ġsetting": 4791,
      "Ġ2008": 4792,
      "Ġvideos": 4793,
      "Ġtreated": 4794,
      "ĠEverything": 4795,
      "Ġcaught": 4796,
      "Ġlimit": 4797,
      "Ġphotographs": 4798,
      "Ġfilled": 4799,
      "Ġmalaria": 4800,
      "Ġpenguins": 4801,
      "bur": 4802,
      "mar": 4803,
      "making": 4804,
      "Ġrepl": 4805,
      "raft": 4806,
      "ĠBro": 4807,
      "Ġliqu": 4808,
      "Ġshad": 4809,
      "Ġsoil": 4810,
      "Ġpeak": 4811,
      "Ġves": 4812,
      "Ġvibr": 4813,
      "Ġwhenever": 4814,
      "agr": 4815,
      "ĠJul": 4816,
      "Ġhumor": 4817,
      "Ġspecifically": 4818,
      "Ġsignal": 4819,
      "Ġconstruct": 4820,
      "Ġappropr": 4821,
      "Ġhorse": 4822,
      "Ġsweet": 4823,
      "Ġclinical": 4824,
      "Ġsharks": 4825,
      "Ġvehicle": 4826,
      "ĠMichael": 4827,
      "Ġtomorrow": 4828,
      "Ġconvinced": 4829,
      "RI": 4830,
      "ps": 4831,
      "Ġtall": 4832,
      "Ġcrop": 4833,
      "Ġmigr": 4834,
      "Ġpil": 4835,
      "Ġfal": 4836,
      "Ġinner": 4837,
      "irm": 4838,
      "Ġchain": 4839,
      "Ġconcl": 4840,
      "ests": 4841,
      "ĠCO": 4842,
      "ension": 4843,
      "akistan": 4844,
      "Ġpregn": 4845,
      "ĠKing": 4846,
      "Ġfewer": 4847,
      "Ġ45": 4848,
      "Ġopening": 4849,
      "Ġempathy": 4850,
      "Ġexpected": 4851,
      "Ġsending": 4852,
      "Ġprofessor": 4853,
      "Ġnegot": 4854,
      "Ġentrepreneurs": 4855,
      "Ġingred": 4856,
      "care": 4857,
      "father": 4858,
      "life": 4859,
      "lands": 4860,
      "vard": 4861,
      "Ġpure": 4862,
      "Ġfle": 4863,
      "Ġnan": 4864,
      "Ġnerv": 4865,
      "ĠAh": 4866,
      "Ġrein": 4867,
      "ented": 4868,
      "ĠThree": 4869,
      "urally": 4870,
      "Ġmyth": 4871,
      "Ġteles": 4872,
      "ĠCome": 4873,
      "Ġspoke": 4874,
      "iend": 4875,
      "ĠPle": 4876,
      "ĠPol": 4877,
      "ĠLa": 4878,
      "ensity": 4879,
      "Ġunderneath": 4880,
      "Ġresc": 4881,
      "Ġfourth": 4882,
      "Ġsolid": 4883,
      "Ġwarm": 4884,
      "Ġpoliticians": 4885,
      "Ġdeeper": 4886,
      "Ġengineer": 4887,
      "Ġreview": 4888,
      "Ġdemocratic": 4889,
      "Ġpractical": 4890,
      "Ġreleased": 4891,
      "Ġaffected": 4892,
      "Ġpollen": 4893,
      "Ġarrived": 4894,
      "Ġreaction": 4895,
      "Ġencourage": 4896,
      "Ġdisplay": 4897,
      "Ġequivalent": 4898,
      "cil": 4899,
      "min": 4900,
      "set": 4901,
      "uary": 4902,
      "za": 4903,
      "Ã©": 4904,
      "Ġsan": 4905,
      "Ġsources": 4906,
      "Ġcup": 4907,
      "Ġfed": 4908,
      "Ġeld": 4909,
      "urance": 4910,
      "Ġstood": 4911,
      "illing": 4912,
      "Ġride": 4913,
      "Ġmyst": 4914,
      "ĠHum": 4915,
      "Ġsaved": 4916,
      "Ġenem": 4917,
      "ĠGPS": 4918,
      "ĠJan": 4919,
      "Ġprefer": 4920,
      "Ġscen": 4921,
      "Ġtechniques": 4922,
      "Ġimportance": 4923,
      "Ġthoughts": 4924,
      "Ġdriver": 4925,
      "ĠVal": 4926,
      "Ġhopefully": 4927,
      "ength": 4928,
      "Ġlocation": 4929,
      "ĠFrank": 4930,
      "Ġmicros": 4931,
      "Ġhonor": 4932,
      "Ġmolecular": 4933,
      "Ġlaunched": 4934,
      "Ġalgorithms": 4935,
      "Ġgrandmother": 4936,
      "Ġvessel": 4937,
      "30": 4938,
      "ls": 4939,
      "ux": 4940,
      "Ġcere": 4941,
      "oration": 4942,
      "Ġnur": 4943,
      "Ġweak": 4944,
      "ĠSim": 4945,
      "semb": 4946,
      "Ġdogs": 4947,
      "Ġabst": 4948,
      "add": 4949,
      "Ġju": 4950,
      "ateful": 4951,
      "ĠPakistan": 4952,
      "angers": 4953,
      "Ġbrief": 4954,
      "Ġremo": 4955,
      "Ġcolon": 4956,
      "Ġplayers": 4957,
      "Ġsinging": 4958,
      "Ġorganized": 4959,
      "Ġwarming": 4960,
      "Ġdefine": 4961,
      "Ġblocks": 4962,
      "Ġconduct": 4963,
      "Ġpsychology": 4964,
      "Ġabsolute": 4965,
      "Ġgender": 4966,
      "Ġpromise": 4967,
      "ĠAdam": 4968,
      "Ġdebate": 4969,
      "Ġrelatively": 4970,
      "Ġgentlemen": 4971,
      "Ġbattery": 4972,
      "Ġcircumst": 4973,
      "ĠThomas": 4974,
      "Ġliquid": 4975,
      "Ġsoph": 4976,
      "itarian": 4977,
      "ener": 4978,
      "urd": 4979,
      "Ġstaff": 4980,
      "Ġforced": 4981,
      "Ġlibr": 4982,
      "Ġworried": 4983,
      "Ġrational": 4984,
      "ĠWeb": 4985,
      "Ġspl": 4986,
      "ciple": 4987,
      "ĠDem": 4988,
      "Ġmanip": 4989,
      "Ġcovered": 4990,
      "Ġcontract": 4991,
      "Ġphr": 4992,
      "Ġemissions": 4993,
      "Ġgrass": 4994,
      "Ġinvention": 4995,
      "Ġmush": 4996,
      "Ġprocesses": 4997,
      "ograp": 4998,
      "Ġcircle": 4999,
      "Ġpicked": 5000,
      "Ġhospitals": 5001,
      "Ġbirthday": 5002,
      "Ġprinting": 5003,
      "ĠHarvard": 5004,
      "Ġnervous": 5005,
      "ĠPlease": 5006,
      "20": 5007,
      "down": 5008,
      "ham": 5009,
      "lines": 5010,
      "rs": 5011,
      "zed": 5012,
      "Ġlapt": 5013,
      "Ġgain": 5014,
      "lement": 5015,
      "Ġnations": 5016,
      "Ġnurs": 5017,
      "ĠAnt": 5018,
      "Ġstock": 5019,
      "Ġsevere": 5020,
      "Ġprove": 5021,
      "Ġqual": 5022,
      "Ġuncle": 5023,
      "Ġbuying": 5024,
      "Ġdish": 5025,
      "Ġgoods": 5026,
      "Ġ35": 5027,
      "Ġtransition": 5028,
      "Ġarts": 5029,
      "Ġmetal": 5030,
      "Ġconnections": 5031,
      "Ġrequires": 5032,
      "Ġanalog": 5033,
      "Ġconsumption": 5034,
      "Ġemerging": 5035,
      "Ġvictims": 5036,
      "Ġlifetime": 5037,
      "Ġfalse": 5038,
      "craft": 5039,
      "gra": 5040,
      "Ġsides": 5041,
      "Ġtoward": 5042,
      "organ": 5043,
      "Ġlect": 5044,
      "Ġbear": 5045,
      "Ġgod": 5046,
      "Ġshame": 5047,
      "Ġnotes": 5048,
      "ĠNA": 5049,
      "Ġvot": 5050,
      "ĠPM": 5051,
      "ĠYouT": 5052,
      "ĠLife": 5053,
      "Ġevil": 5054,
      "ĠFe": 5055,
      "Ġcalling": 5056,
      "Ġpoem": 5057,
      "Ġdesigners": 5058,
      "Ġorganisms": 5059,
      "ĠAnge": 5060,
      "Ġimprov": 5061,
      "Ġmarketing": 5062,
      "Ġstronger": 5063,
      "Ġstatus": 5064,
      "Ġprinciple": 5065,
      "Ġnarrative": 5066,
      "Ġvulnerable": 5067,
      "Ġindependent": 5068,
      "Ġdynamic": 5069,
      "Ġepidemic": 5070,
      "Ġfolks": 5071,
      "Ġath": 5072,
      "inations": 5073,
      "Ġbath": 5074,
      "Ġlic": 5075,
      "Ġisland": 5076,
      "irty": 5077,
      "Ġanx": 5078,
      "Ġlie": 5079,
      "terday": 5080,
      "Ġvan": 5081,
      "Ġuns": 5082,
      "anging": 5083,
      "acle": 5084,
      "Ġroof": 5085,
      "Ġacqu": 5086,
      "Ġideal": 5087,
      "ĠKore": 5088,
      "being": 5089,
      "Ġtechnical": 5090,
      "Ġfoundation": 5091,
      "olds": 5092,
      "azz": 5093,
      "Ġengaged": 5094,
      "Ġtopic": 5095,
      "Ġsignals": 5096,
      "Ġrisks": 5097,
      "Ġconvention": 5098,
      "Ġrelease": 5099,
      "Ġintelligent": 5100,
      "Ġinfected": 5101,
      "ĠQu": 5102,
      "Ġmistakes": 5103,
      "force": 5104,
      "Ġheavy": 5105,
      "ĠGermany": 5106,
      "Ġnewspaper": 5107,
      "Ġbudget": 5108,
      "Ġmortality": 5109,
      "Ġintellectual": 5110,
      "ĠYouTube": 5111,
      "aj": 5112,
      "oons": 5113,
      "ta": 5114,
      "ugg": 5115,
      "Ġille": 5116,
      "Ġsam": 5117,
      "atin": 5118,
      "Ġfiction": 5119,
      "Ġnorth": 5120,
      "Ġdolp": 5121,
      "Ġextend": 5122,
      "ĠMart": 5123,
      "aren": 5124,
      "ĠGr": 5125,
      "Ġunus": 5126,
      "Ġcontain": 5127,
      "athers": 5128,
      "Ġscar": 5129,
      "Ġgenet": 5130,
      "Ġbits": 5131,
      "Ġminim": 5132,
      "Ġlessons": 5133,
      "Ġmemories": 5134,
      "Ġeffectively": 5135,
      "Ġmotion": 5136,
      "Ġcopy": 5137,
      "Ġtrials": 5138,
      "Ġlady": 5139,
      "ĠCongress": 5140,
      "ĠCenter": 5141,
      "Ġrestaurant": 5142,
      "Ġclaim": 5143,
      "Ġdolph": 5144,
      "hi": 5145,
      "itz": 5146,
      "Ġtox": 5147,
      "Ġinit": 5148,
      "Ġnose": 5149,
      "Ġisol": 5150,
      "enture": 5151,
      "ĠSince": 5152,
      "amin": 5153,
      "olving": 5154,
      "Ġlies": 5155,
      "Ġheight": 5156,
      "Ġjail": 5157,
      "Ġexists": 5158,
      "Ġrig": 5159,
      "Ġrates": 5160,
      "umber": 5161,
      "abol": 5162,
      "ĠLast": 5163,
      "Ġcoal": 5164,
      "Ġremain": 5165,
      "Ġflat": 5166,
      "Ġpatent": 5167,
      "Ġserve": 5168,
      "Ġpossibilities": 5169,
      "Ġbottle": 5170,
      "Ġrelevant": 5171,
      "Ġsilence": 5172,
      "Ġdefinitely": 5173,
      "Ġsatis": 5174,
      "Ġmanagement": 5175,
      "Ġspectrum": 5176,
      "ĠiPh": 5177,
      "Ġroughly": 5178,
      "bl": 5179,
      "ov": 5180,
      "Ġsouth": 5181,
      "enced": 5182,
      "Ġhorm": 5183,
      "lly": 5184,
      "lying": 5185,
      "Ġreven": 5186,
      "Ġformer": 5187,
      "Ġactions": 5188,
      "Ġ2000": 5189,
      "ĠJames": 5190,
      "Ġpersonally": 5191,
      "Ġflower": 5192,
      "Ġtranspl": 5193,
      "Ġproducing": 5194,
      "Ġmedium": 5195,
      "Ġcarefully": 5196,
      "Ġeleph": 5197,
      "Ġfalling": 5198,
      "Ġgrandfather": 5199,
      "Ġprotection": 5200,
      "Ġerror": 5201,
      "Ġlayer": 5202,
      "Ġintroduced": 5203,
      "Ġ2010": 5204,
      "ĠIslam": 5205,
      "Ġcandid": 5206,
      "Ġdramatic": 5207,
      "ĠHaiti": 5208,
      "Ġpoetry": 5209,
      "Ġchicken": 5210,
      "Ġalternative": 5211,
      "Ġexercise": 5212,
      "Ġprinciples": 5213,
      "Ġkilometers": 5214,
      "Ġsophistic": 5215,
      "bre": 5216,
      "erves": 5217,
      "Ġcave": 5218,
      "Ġcortex": 5219,
      "Ġbow": 5220,
      "Ġbill": 5221,
      "alt": 5222,
      "aled": 5223,
      "ĠII": 5224,
      "Ġnav": 5225,
      "Ġseat": 5226,
      "Ġsees": 5227,
      "ulating": 5228,
      "estic": 5229,
      "ĠCE": 5230,
      "ĠPark": 5231,
      "acles": 5232,
      "Ġexplains": 5233,
      "Ġamounts": 5234,
      "Ġoccup": 5235,
      "Ġmeaningful": 5236,
      "Ġprofession": 5237,
      "Ġlifest": 5238,
      "Ġdepends": 5239,
      "ĠRobert": 5240,
      "Ġfortun": 5241,
      "Ġforgot": 5242,
      "Ġcredit": 5243,
      "ĠRichard": 5244,
      "cast": 5245,
      "gets": 5246,
      "point": 5247,
      "uel": 5248,
      "ym": 5249,
      "Ġten": 5250,
      "Ġwars": 5251,
      "Ġske": 5252,
      "Ġpip": 5253,
      "alu": 5254,
      "Ġinev": 5255,
      "icip": 5256,
      "amb": 5257,
      "ĠBer": 5258,
      "ĠBank": 5259,
      "Ġshr": 5260,
      "ĠMon": 5261,
      "Ġplans": 5262,
      "emp": 5263,
      "Ġens": 5264,
      "ĠGree": 5265,
      "Ġscared": 5266,
      "Ġstudio": 5267,
      "cont": 5268,
      "Ġdesigning": 5269,
      "Ġinterests": 5270,
      "Ġparticles": 5271,
      "Ġgenerate": 5272,
      "Ġadded": 5273,
      "lessly": 5274,
      "Ġzo": 5275,
      "Ġanti": 5276,
      "Ġexisting": 5277,
      "Ġestab": 5278,
      "Ġproteins": 5279,
      "Ġdisappear": 5280,
      "Ġmentioned": 5281,
      "Ġframework": 5282,
      "Ġcomponents": 5283,
      "ĠSweden": 5284,
      "Ġinterpret": 5285,
      "Ġcircumstances": 5286,
      "Ġmushroom": 5287,
      "ait": 5288,
      "cest": 5289,
      "ih": 5290,
      "oly": 5291,
      "Ġwine": 5292,
      "Ġinequ": 5293,
      "Ġitem": 5294,
      "sters": 5295,
      "Ġshall": 5296,
      "Ġfright": 5297,
      "Ġcha": 5298,
      "Ġchose": 5299,
      "Ġrow": 5300,
      "Ġmak": 5301,
      "iel": 5302,
      "ĠPres": 5303,
      "Ġpoore": 5304,
      "Ġgrateful": 5305,
      "Ġreprodu": 5306,
      "Ġbike": 5307,
      "Ġdefined": 5308,
      "Ġenvironments": 5309,
      "Ġsites": 5310,
      "Ġadvice": 5311,
      "Ġdealing": 5312,
      "Ġtypically": 5313,
      "Ġfields": 5314,
      "Ġmulti": 5315,
      "Ġshoot": 5316,
      "Ġinternal": 5317,
      "porary": 5318,
      "Ġsubjects": 5319,
      "Ġtracking": 5320,
      "Ġparticipate": 5321,
      "Ġintroduce": 5322,
      "Ġignor": 5323,
      "Ġsequence": 5324,
      "Ġmathematics": 5325,
      "Ġdoubt": 5326,
      "Ġrapidly": 5327,
      "Ġopinion": 5328,
      "itual": 5329,
      "ĠInt": 5330,
      "Ġends": 5331,
      "entic": 5332,
      "imer": 5333,
      "ĠWow": 5334,
      "Ġgoals": 5335,
      "Ġhem": 5336,
      "Ġmel": 5337,
      "ĠMal": 5338,
      "Ġworlds": 5339,
      "ago": 5340,
      "ĠFour": 5341,
      "Ġunit": 5342,
      "ĠJew": 5343,
      "Ġboat": 5344,
      "tech": 5345,
      "Ġpercentage": 5346,
      "Ġpolio": 5347,
      "Ġgravity": 5348,
      "Ġrepair": 5349,
      "whel": 5350,
      "Ġsolving": 5351,
      "Ġ75": 5352,
      "Ġconstant": 5353,
      "Ġsenses": 5354,
      "Ġaston": 5355,
      "Ġfundamentally": 5356,
      "Ġawareness": 5357,
      "ĠBritain": 5358,
      "Ġinnovative": 5359,
      "Ġinstrument": 5360,
      "Ġvariety": 5361,
      "Ġaccurate": 5362,
      "hyth": 5363,
      "Ġhydrogen": 5364,
      "Ġunusual": 5365,
      "nam": 5366,
      "ront": 5367,
      "volution": 5368,
      "Ġtons": 5369,
      "Ġwitness": 5370,
      "nded": 5371,
      "Ġlength": 5372,
      "Ġreverse": 5373,
      "ĠSam": 5374,
      "Ġancest": 5375,
      "ĠBab": 5376,
      "Ġring": 5377,
      "oken": 5378,
      "ĠMa": 5379,
      "Ġintense": 5380,
      "eline": 5381,
      "abled": 5382,
      "ĠDay": 5383,
      "ĠLos": 5384,
      "Ġoverwhel": 5385,
      "Ġdisaster": 5386,
      "Ġfactor": 5387,
      "ternal": 5388,
      "Ġplayer": 5389,
      "Ġconsist": 5390,
      "Ġeconomies": 5391,
      "Ġruns": 5392,
      "Ġlabel": 5393,
      "Ġrefr": 5394,
      "retch": 5395,
      "iency": 5396,
      "Ġmessages": 5397,
      "Ġoperate": 5398,
      "Ġprivile": 5399,
      "Ġmovies": 5400,
      "Ġestim": 5401,
      "Ġprimary": 5402,
      "Ġridic": 5403,
      "Ġmountains": 5404,
      "Ġauthority": 5405,
      "Ġforests": 5406,
      "Ġswimming": 5407,
      "Ġearthqu": 5408,
      "profit": 5409,
      "Ġgalaxy": 5410,
      "Ġapplied": 5411,
      "Ġwondered": 5412,
      "Ġchannel": 5413,
      "Ġexchange": 5414,
      "Ġabstract": 5415,
      "Ġsample": 5416,
      "cal": 5417,
      "rets": 5418,
      "Ġoption": 5419,
      "aters": 5420,
      "nding": 5421,
      "ita": 5422,
      "Ġbarr": 5423,
      "Ġhide": 5424,
      "Ġpun": 5425,
      "Ġpump": 5426,
      "Ġlung": 5427,
      "Ġstro": 5428,
      "Ġatoms": 5429,
      "Ġrot": 5430,
      "Ġspin": 5431,
      "Ġsuit": 5432,
      "ĠDere": 5433,
      "Ġclock": 5434,
      "Ġeconomists": 5435,
      "Ġexplan": 5436,
      "Ġregions": 5437,
      "Ġconfidence": 5438,
      "Ġconfront": 5439,
      "Ġauton": 5440,
      "Ġmember": 5441,
      "Ġfilms": 5442,
      "Ġteams": 5443,
      "Ġjoined": 5444,
      "Ġfunding": 5445,
      "Ġcombine": 5446,
      "Ġcritic": 5447,
      "Ġselling": 5448,
      "Ġencoura": 5449,
      "Ġcarrying": 5450,
      "Ġconcrete": 5451,
      "Ġhoping": 5452,
      "Ġgraduate": 5453,
      "Ġphilosophy": 5454,
      "Ġmanufacturing": 5455,
      "Ġpasswords": 5456,
      "Ġtumor": 5457,
      "Ġnavig": 5458,
      "bel": 5459,
      "dr": 5460,
      "gin": 5461,
      "hol": 5462,
      "lom": 5463,
      "source": 5464,
      "uce": 5465,
      "uff": 5466,
      "err": 5467,
      "iture": 5468,
      "osition": 5469,
      "Ġfake": 5470,
      "ĠAlex": 5471,
      "iled": 5472,
      "Ġritual": 5473,
      "ums": 5474,
      "Ġteeth": 5475,
      "alled": 5476,
      "ĠCop": 5477,
      "Ġhowever": 5478,
      "Ġcompar": 5479,
      "Ġpray": 5480,
      "ĠUs": 5481,
      "akers": 5482,
      "Ġfactors": 5483,
      "Ġstring": 5484,
      "Ġcenturies": 5485,
      "Ġregard": 5486,
      "Ġanimation": 5487,
      "Ġ99": 5488,
      "Ġincreased": 5489,
      "Ġsunlight": 5490,
      "Ġcamer": 5491,
      "Ġtraveling": 5492,
      "Ġoceans": 5493,
      "Ġcollaboration": 5494,
      "Ġchemicals": 5495,
      "Ġdiscussion": 5496,
      "friend": 5497,
      "Ġsoul": 5498,
      "ĠParis": 5499,
      "Ġaccompl": 5500,
      "Ġsports": 5501,
      "ĠDarwin": 5502,
      "pet": 5503,
      "ri": 5504,
      "Ġtap": 5505,
      "Ġwake": 5506,
      "osa": 5507,
      "Ġmere": 5508,
      "Ġdot": 5509,
      "edy": 5510,
      "ifting": 5511,
      "ola": 5512,
      "Ġchocol": 5513,
      "Ġvoc": 5514,
      "Ġsacr": 5515,
      "Ġcompl": 5516,
      "abet": 5517,
      "ĠGirl": 5518,
      "Ġcontrast": 5519,
      "ĠKh": 5520,
      "Ġ194": 5521,
      "Ġmovements": 5522,
      "Ġsolved": 5523,
      "Ġproductive": 5524,
      "Ġbehavioral": 5525,
      "ĠOnly": 5526,
      "Ġoperation": 5527,
      "Ġwinter": 5528,
      "Ġobser": 5529,
      "Ġcombination": 5530,
      "Ġyesterday": 5531,
      "Ġharvest": 5532,
      "Ġconversations": 5533,
      "Ġfacial": 5534,
      "ĠAmaz": 5535,
      "Ġvaccines": 5536,
      "Ġcooking": 5537,
      "Ġtransportation": 5538,
      "Ġresistance": 5539,
      "ĠSmith": 5540,
      "Ġantibiot": 5541,
      "bors": 5542,
      "mers": 5543,
      "pic": 5544,
      "ye": 5545,
      "Ġthick": 5546,
      "Ġack": 5547,
      "Ġwave": 5548,
      "Ġhung": 5549,
      "Ġlas": 5550,
      "Ġlift": 5551,
      "que": 5552,
      "igm": 5553,
      "opher": 5554,
      "ĠEve": 5555,
      "ĠFre": 5556,
      "ĠJack": 5557,
      "Ġresil": 5558,
      "Ġadj": 5559,
      "Ġbold": 5560,
      "Ġapplications": 5561,
      "Ġcomputing": 5562,
      "Ġskill": 5563,
      "Ġassign": 5564,
      "Ġmilk": 5565,
      "Ġbehaviors": 5566,
      "Ġcollapse": 5567,
      "Ġinclude": 5568,
      "itchen": 5569,
      "Ġcyber": 5570,
      "Ġconsumer": 5571,
      "Ġdestruction": 5572,
      "Ġsteel": 5573,
      "Ġchallenging": 5574,
      "Ġclouds": 5575,
      "Ġprepared": 5576,
      "ĠObama": 5577,
      "ĠRussia": 5578,
      "ographer": 5579,
      "ĠNASA": 5580,
      "ĠiPhone": 5581,
      "Talk": 5582,
      "och": 5583,
      "Ġtank": 5584,
      "Ġought": 5585,
      "nda": 5586,
      "erge": 5587,
      "Ġhunt": 5588,
      "Ġpin": 5589,
      "Ġflex": 5590,
      "Ġdip": 5591,
      "Ġinput": 5592,
      "asters": 5593,
      "ĠSat": 5594,
      "roph": 5595,
      "Ġcomment": 5596,
      "Ġfrank": 5597,
      "Ġproced": 5598,
      "Ġacting": 5599,
      "ĠOther": 5600,
      "abilities": 5601,
      "ĠGab": 5602,
      "ĠGulf": 5603,
      "Ġ23": 5604,
      "Ġoffers": 5605,
      "Ġwriter": 5606,
      "Ġflash": 5607,
      "Ġinstinct": 5608,
      "Ġcenters": 5609,
      "Ġgenerally": 5610,
      "Ġbusy": 5611,
      "arrass": 5612,
      "ĠTEDTalk": 5613,
      "Ġ2007": 5614,
      "Ġelev": 5615,
      "Ġrepresents": 5616,
      "Ġconvince": 5617,
      "Ġhoriz": 5618,
      "Ġmechanism": 5619,
      "Ġbombs": 5620,
      "Ġmirror": 5621,
      "ĠMuslim": 5622,
      "ĠPerhaps": 5623,
      "Ġagriculture": 5624,
      "Ġeggs": 5625,
      "Ġlifestyle": 5626,
      "ĠPresident": 5627,
      "bes": 5628,
      "foot": 5629,
      "Ġ0": 5630,
      "Ġsamples": 5631,
      "Ġcure": 5632,
      "Ġcents": 5633,
      "Ġbare": 5634,
      "Ġmaps": 5635,
      "Ġhip": 5636,
      "Ġloud": 5637,
      "astern": 5638,
      "icing": 5639,
      "iminal": 5640,
      "imeter": 5641,
      "Ġstands": 5642,
      "Ġorch": 5643,
      "Ġplus": 5644,
      "aret": 5645,
      "ĠFound": 5646,
      "Ġdesk": 5647,
      "chnology": 5648,
      "Ġowners": 5649,
      "ĠStan": 5650,
      "Ġdriven": 5651,
      "Ġmetabol": 5652,
      "what": 5653,
      "Ġclever": 5654,
      "ĠNobody": 5655,
      "ĠAlso": 5656,
      "Ġparking": 5657,
      "Ġconstrain": 5658,
      "Ġdepartment": 5659,
      "Ġradiation": 5660,
      "Ġliterature": 5661,
      "Ġfears": 5662,
      "Ġstayed": 5663,
      "Ġinspiration": 5664,
      "Ġsituations": 5665,
      "Ġcircuit": 5666,
      "Ġsustainability": 5667,
      "Ġtransformed": 5668,
      "Ġsnow": 5669,
      "ĠInstitute": 5670,
      "Ġmistake": 5671,
      "ĠIslamic": 5672,
      "ĠSteve": 5673,
      "Ġentrepreneur": 5674,
      "Ġtherapy": 5675,
      "Ġhypothes": 5676,
      "ĠFrancisco": 5677,
      "ĠWikip": 5678,
      "ĠDemoc": 5679,
      "Ġillegal": 5680,
      "ĠMartin": 5681,
      "Ġsophisticated": 5682,
      "Ġcameras": 5683,
      "aving": 5684,
      "ef": 5685,
      "oice": 5686,
      "Ġbes": 5687,
      "Ġborders": 5688,
      "Ġhits": 5689,
      "Ġpian": 5690,
      "ald": 5691,
      "Ġreject": 5692,
      "chair": 5693,
      "cel": 5694,
      "ifth": 5695,
      "Ġanonym": 5696,
      "stand": 5697,
      "oli": 5698,
      "adic": 5699,
      "Ġtea": 5700,
      "ĠCount": 5701,
      "Ġsomewhat": 5702,
      "ĠPole": 5703,
      "ĠDep": 5704,
      "ĠGh": 5705,
      "ĠGive": 5706,
      "pping": 5707,
      "ĠLatin": 5708,
      "Ġthanks": 5709,
      "elly": 5710,
      "ĠUS": 5711,
      "Ġprem": 5712,
      "Ġapparent": 5713,
      "Ġtechnique": 5714,
      "Ġflag": 5715,
      "Ġobst": 5716,
      "Ġstoryt": 5717,
      "Ġwalks": 5718,
      "Ġsigns": 5719,
      "Ġdevast": 5720,
      "Ġpotentially": 5721,
      "Ġidentical": 5722,
      "Ġembarrass": 5723,
      "Ġboxes": 5724,
      "Ġoptions": 5725,
      "Ġfootprint": 5726,
      "Ġpulled": 5727,
      "Ġneighbors": 5728,
      "Ġlaboratory": 5729,
      "Ġdetermine": 5730,
      "Ġladies": 5731,
      "Ġcontrolled": 5732,
      "Ġfabric": 5733,
      "Ġsatellite": 5734,
      "Ġhunger": 5735,
      "Ġearthquake": 5736,
      "ĠWikipedia": 5737,
      "PA": 5738,
      "xide": 5739,
      "Ġsen": 5740,
      "Ġsets": 5741,
      "Ġmad": 5742,
      "esity": 5743,
      "Ġdict": 5744,
      "Ġdedic": 5745,
      "Ġdancing": 5746,
      "Ġwhist": 5747,
      "Ġstere": 5748,
      "stream": 5749,
      "Ġhel": 5750,
      "earch": 5751,
      "ĠMuseum": 5752,
      "Ġsuic": 5753,
      "resp": 5754,
      "Ġunknown": 5755,
      "Ġ22": 5756,
      "Ġarrest": 5757,
      "Ġshell": 5758,
      "Ġinstruct": 5759,
      "Ġplays": 5760,
      "Ġprocessing": 5761,
      "Ġallowing": 5762,
      "Ġphysically": 5763,
      "box": 5764,
      "Ġmemor": 5765,
      "Ġequally": 5766,
      "Ġtests": 5767,
      "Ġadvanced": 5768,
      "Ġcollected": 5769,
      "ĠEveryone": 5770,
      "Ġclosely": 5771,
      "Ġexistence": 5772,
      "Ġbroke": 5773,
      "Ġimmune": 5774,
      "Ġproperties": 5775,
      "Ġburning": 5776,
      "Ġultimate": 5777,
      "Ġflowers": 5778,
      "Ġ1990": 5779,
      "Ġspiritual": 5780,
      "Ġvehicles": 5781,
      "Ġpuzzle": 5782,
      "Ġsurvey": 5783,
      "Ġembrace": 5784,
      "connected": 5785,
      "Ġglobe": 5786,
      "Ġhorrible": 5787,
      "Ġtonight": 5788,
      "Ġgarden": 5789,
      "ĠDerek": 5790,
      "iat": 5791,
      "nic": 5792,
      "over": 5793,
      "ua": 5794,
      "xies": 5795,
      "Ġthin": 5796,
      "Ġmales": 5797,
      "Ġpitch": 5798,
      "Ġfurn": 5799,
      "Ġdense": 5800,
      "asks": 5801,
      "Ġwel": 5802,
      "Ġbeach": 5803,
      "ctic": 5804,
      "keep": 5805,
      "Ġwash": 5806,
      "ĠNob": 5807,
      "Ġloop": 5808,
      "Ġoutc": 5809,
      "Ġacts": 5810,
      "ĠEs": 5811,
      "ĠPo": 5812,
      "ĠPart": 5813,
      "ĠGl": 5814,
      "Ġimplications": 5815,
      "Ġimplement": 5816,
      "Ġoverall": 5817,
      "Ġdiss": 5818,
      "ĠJer": 5819,
      "Ġphase": 5820,
      "Ġdesper": 5821,
      "onscious": 5822,
      "ĠKe": 5823,
      "Ġguide": 5824,
      "ubes": 5825,
      "ocin": 5826,
      "Ġformed": 5827,
      "Ġelectro": 5828,
      "Ġkeeps": 5829,
      "Ġdistinct": 5830,
      "Ġpainful": 5831,
      "Ġparal": 5832,
      "Ġcollecting": 5833,
      "Ġjoke": 5834,
      "attan": 5835,
      "Ġinteractive": 5836,
      "Ġarguments": 5837,
      "Ġspreading": 5838,
      "Ġmainly": 5839,
      "ĠComm": 5840,
      "Ġactivities": 5841,
      "Ġadmit": 5842,
      "Ġ1970": 5843,
      "Ġromantic": 5844,
      "ĠNigeria": 5845,
      "Ġsymptoms": 5846,
      "Ġappropriate": 5847,
      "ĠJanuary": 5848,
      "Ġtransplant": 5849,
      "Ġchocolate": 5850,
      "Ġacknow": 5851,
      "ae": 5852,
      "hour": 5853,
      "tocin": 5854,
      "viol": 5855,
      "Ġtape": 5856,
      "Ġbicy": 5857,
      "oned": 5858,
      "Ġfoss": 5859,
      "Ġfert": 5860,
      "arant": 5861,
      "lete": 5862,
      "ĠSing": 5863,
      "ĠScience": 5864,
      "Ġkitchen": 5865,
      "Ġexe": 5866,
      "Ġru": 5867,
      "Ġconvert": 5868,
      "Ġknock": 5869,
      "appy": 5870,
      "Ġuncom": 5871,
      "ĠRed": 5872,
      "ptember": 5873,
      "Ġdiscipl": 5874,
      "ĠJon": 5875,
      "Ġpool": 5876,
      "Ġpocket": 5877,
      "Ġunderwater": 5878,
      "ĠHealth": 5879,
      "ĠBefore": 5880,
      "ĠState": 5881,
      "ĠStep": 5882,
      "Ġhealthcare": 5883,
      "Ġhandle": 5884,
      "Ġcontrovers": 5885,
      "Ġ2009": 5886,
      "ended": 5887,
      "ĠSeptember": 5888,
      "Ġwaves": 5889,
      "Ġcontinent": 5890,
      "Ġadvance": 5891,
      "Ġempower": 5892,
      "Ġillusion": 5893,
      "Ġsensitive": 5894,
      "Ġroads": 5895,
      "Ġconflicts": 5896,
      "Ġattacks": 5897,
      "Ġdivide": 5898,
      "Ġviruses": 5899,
      "ĠChristmas": 5900,
      "Ġwheelchair": 5901,
      "Ġmeasuring": 5902,
      "ĠDesign": 5903,
      "Ġentertainment": 5904,
      "Ġconclusion": 5905,
      "Ġpregnant": 5906,
      "Ġestablish": 5907,
      "ĠNobel": 5908,
      "hattan": 5909,
      "rat": 5910,
      "spe": 5911,
      "ino": 5912,
      "Ġborder": 5913,
      "Ġment": 5914,
      "Ġpill": 5915,
      "orter": 5916,
      "Ġgolf": 5917,
      "uses": 5918,
      "usive": 5919,
      "Ġbeet": 5920,
      "ĠTal": 5921,
      "rog": 5922,
      "Ġsem": 5923,
      "oding": 5924,
      "oded": 5925,
      "anta": 5926,
      "Ġrush": 5927,
      "ĠMont": 5928,
      "Ġtrig": 5929,
      "Ġupper": 5930,
      "Ġperman": 5931,
      "Ġfeature": 5932,
      "Ġcontem": 5933,
      "Ġcommand": 5934,
      "Ġbrib": 5935,
      "Ġbrothers": 5936,
      "heimer": 5937,
      "Ġobesity": 5938,
      "Ġdesigns": 5939,
      "Ġregener": 5940,
      "Ġclasses": 5941,
      "def": 5942,
      "Ġlargely": 5943,
      "Ġproviding": 5944,
      "Ġexplained": 5945,
      "ĠRevolution": 5946,
      "Ġrecords": 5947,
      "Ġreached": 5948,
      "Ġrequired": 5949,
      "ĠManhattan": 5950,
      "Ġsuffer": 5951,
      "going": 5952,
      "Ġdropped": 5953,
      "ĠAbout": 5954,
      "Ġsurrounded": 5955,
      "Ġgalaxies": 5956,
      "scale": 5957,
      "ĠPalest": 5958,
      "Ġincentives": 5959,
      "Ġprototype": 5960,
      "Ġadvertising": 5961,
      "Ġpollution": 5962,
      "Ġastonishing": 5963,
      "den": 5964,
      "iety": 5965,
      "nel": 5966,
      "van": 5967,
      "vas": 5968,
      "vable": 5969,
      "wr": 5970,
      "isters": 5971,
      "Ġboring": 5972,
      "Ġmim": 5973,
      "Ġpushing": 5974,
      "Ġgest": 5975,
      "ĠSil": 5976,
      "Ġstorm": 5977,
      "Ġliver": 5978,
      "Ġsphere": 5979,
      "ĠPat": 5980,
      "Ġremem": 5981,
      "Ġinsurance": 5982,
      "ĠStar": 5983,
      "Ġtransfer": 5984,
      "Ġregret": 5985,
      "Ġpresence": 5986,
      "Ġyounger": 5987,
      "Ġgreenhouse": 5988,
      "Ġdigit": 5989,
      "Ġauthentic": 5990,
      "Ġcausing": 5991,
      "olly": 5992,
      "Ġmechanical": 5993,
      "ĠCarol": 5994,
      "Ġassume": 5995,
      "ĠAnyway": 5996,
      "Ġjudge": 5997,
      "Ġangry": 5998,
      "Ġheroes": 5999,
      "Ġmathematical": 6000,
      "Ġuncertain": 6001,
      "Ġtoilet": 6002,
      "ĠBasically": 6003,
      "Ġphrase": 6004,
      "Ġconventional": 6005,
      "Ġfrankly": 6006,
      "aves": 6007,
      "cers": 6008,
      "oft": 6009,
      "tw": 6010,
      "zheimer": 6011,
      "inate": 6012,
      "Ġcous": 6013,
      "Ġcord": 6014,
      "iters": 6015,
      "Ġpapers": 6016,
      "Ġfan": 6017,
      "Ġdress": 6018,
      "Ġlying": 6019,
      "Ġears": 6020,
      "ĠTor": 6021,
      "aming": 6022,
      "Ġseason": 6023,
      "Ġkick": 6024,
      "ĠBo": 6025,
      "Ġasp": 6026,
      "Ġrating": 6027,
      "Ġrub": 6028,
      "Ġoutcome": 6029,
      "ĠCr": 6030,
      "ela": 6031,
      "ĠGet": 6032,
      "ĠLes": 6033,
      "Ġagencies": 6034,
      "Ġsheep": 6035,
      "aks": 6036,
      "Ġdownload": 6037,
      "Ġdecl": 6038,
      "Ġlets": 6039,
      "Ġremove": 6040,
      "ĠStud": 6041,
      "Ġstrangers": 6042,
      "Ġfinance": 6043,
      "Ġcareful": 6044,
      "Ġnaturally": 6045,
      "Ġbias": 6046,
      "Ġvisible": 6047,
      "Ġeducational": 6048,
      "Ġrefer": 6049,
      "ĠAlzheimer": 6050,
      "Ġcontinued": 6051,
      "ĠAtl": 6052,
      "Ġcollaps": 6053,
      "Ġdeaths": 6054,
      "Ġfaced": 6055,
      "Ġsongs": 6056,
      "Ġreligions": 6057,
      "Ġbreathe": 6058,
      "Ġapartment": 6059,
      "Ġaftern": 6060,
      "Ġmethods": 6061,
      "ĠProject": 6062,
      "Ġtribe": 6063,
      "Ġhousing": 6064,
      "Ġdiagnosed": 6065,
      "Ġfingers": 6066,
      "Ġlatest": 6067,
      "Ġelder": 6068,
      "Ġmystery": 6069,
      "Ġnurses": 6070,
      "Ġathlet": 6071,
      "Ġantibiotics": 6072,
      "cred": 6073,
      "gent": 6074,
      "mit": 6075,
      "rary": 6076,
      "xim": 6077,
      "Ġtack": 6078,
      "Ġwise": 6079,
      "Ġcast": 6080,
      "ingu": 6081,
      "enger": 6082,
      "Ġped": 6083,
      "Ġinject": 6084,
      "eding": 6085,
      "Ġwhales": 6086,
      "think": 6087,
      "Ġlikes": 6088,
      "Ġattend": 6089,
      "tery": 6090,
      "Ġspoken": 6091,
      "Ġplate": 6092,
      "ogue": 6093,
      "ĠEastern": 6094,
      "ĠDis": 6095,
      "ĠFive": 6096,
      "Ġwherever": 6097,
      "Ġclothes": 6098,
      "Ġadoles": 6099,
      "icted": 6100,
      "Ġoffered": 6101,
      "Ġraw": 6102,
      "Ġblank": 6103,
      "Ġ36": 6104,
      "Ġgrab": 6105,
      "pring": 6106,
      "gged": 6107,
      "Ġcapt": 6108,
      "Ġhearts": 6109,
      "Ġclassic": 6110,
      "Ġinteractions": 6111,
      "Ġsensors": 6112,
      "Ġviolent": 6113,
      "Ġstruck": 6114,
      "Ġoxytocin": 6115,
      "Ġfascinated": 6116,
      "Ġengagement": 6117,
      "Ġefficiency": 6118,
      "Ġirr": 6119,
      "Ġcustomers": 6120,
      "iosity": 6121,
      "Ġrebuild": 6122,
      "Ġtaste": 6123,
      "Ġmaintain": 6124,
      "Ġacademic": 6125,
      "Ġoutcomes": 6126,
      "case": 6127,
      "rors": 6128,
      "Ġcards": 6129,
      "ota": 6130,
      "ician": 6131,
      "owered": 6132,
      "usions": 6133,
      "lym": 6134,
      "lyn": 6135,
      "ione": 6136,
      "Ġsection": 6137,
      "Ġshake": 6138,
      "illy": 6139,
      "ĠHaw": 6140,
      "ĠMor": 6141,
      "ĠMand": 6142,
      "ĠMRI": 6143,
      "Ġbutton": 6144,
      "rous": 6145,
      "Ġspring": 6146,
      "Ġtheme": 6147,
      "ĠEric": 6148,
      "ĠLove": 6149,
      "Ġwhereas": 6150,
      "Ġprost": 6151,
      "ĠRw": 6152,
      "Ġcontribute": 6153,
      "Ġpharm": 6154,
      "Ġgray": 6155,
      "Ġcriminal": 6156,
      "Ġdrives": 6157,
      "Ġdatab": 6158,
      "Ġelimin": 6159,
      "while": 6160,
      "Ġfunctions": 6161,
      "Ġcoral": 6162,
      "Ġdefend": 6163,
      "Ġsigned": 6164,
      "Ġfigures": 6165,
      "ĠSec": 6166,
      "Ġretire": 6167,
      "Ġembedd": 6168,
      "Ġrecorded": 6169,
      "Ġreaching": 6170,
      "Ġobsessed": 6171,
      "Ġconcepts": 6172,
      "Ġportra": 6173,
      "Ġvulnerability": 6174,
      "Ġselection": 6175,
      "Ġteenagers": 6176,
      "Ġcomponent": 6177,
      "ĠFinally": 6178,
      "Ġdictionary": 6179,
      "ĠRepublic": 6180,
      "Ġshadow": 6181,
      "ĠCEO": 6182,
      "hythm": 6183,
      "Ġrefriger": 6184,
      "ĠAmazon": 6185,
      "Ġdiplom": 6186,
      "Ġfurniture": 6187,
      "fish": 6188,
      "gl": 6189,
      "ka": 6190,
      "mates": 6191,
      "yard": 6192,
      "Ġtight": 6193,
      "oster": 6194,
      "Ġben": 6195,
      "Ġgut": 6196,
      "iggs": 6197,
      "opath": 6198,
      "stage": 6199,
      "olar": 6200,
      "Ġchip": 6201,
      "Ġchrom": 6202,
      "Ġchurch": 6203,
      "ĠNext": 6204,
      "ĠHiggs": 6205,
      "ĠMom": 6206,
      "Ġknee": 6207,
      "emen": 6208,
      "oston": 6209,
      "ĠPeter": 6210,
      "Ġhappier": 6211,
      "Ġtwe": 6212,
      "Ġ27": 6213,
      "Ġsurf": 6214,
      "Ġapplication": 6215,
      "Ġtechnological": 6216,
      "Ġguarant": 6217,
      "Ġrelate": 6218,
      "Ġconserv": 6219,
      "Ġbehave": 6220,
      "Ġexplos": 6221,
      "Ġ2005": 6222,
      "Ġequation": 6223,
      "Ġ600": 6224,
      "Ġdeploy": 6225,
      "Ġwindows": 6226,
      "Ġexisted": 6227,
      "Ġlimits": 6228,
      "Ġtrend": 6229,
      "Ġtraveled": 6230,
      "Ġhotel": 6231,
      "Ġevolutionary": 6232,
      "Ġtranslate": 6233,
      "forward": 6234,
      "iveness": 6235,
      "Ġscratch": 6236,
      "Ġdistributed": 6237,
      "Ġhistorical": 6238,
      "ĠJoe": 6239,
      "Ġfrozen": 6240,
      "Ġvolunteers": 6241,
      "Ġintuitive": 6242,
      "Ġcommitment": 6243,
      "Ġprecisely": 6244,
      "Ġingredients": 6245,
      "Ġlibrary": 6246,
      "ĠAngeles": 6247,
      "arency": 6248,
      "Ġpoorest": 6249,
      "Ġignorance": 6250,
      "ĠFoundation": 6251,
      "Ġafternoon": 6252,
      "car": 6253,
      "pes": 6254,
      "uity": 6255,
      "under": 6256,
      "Ġtube": 6257,
      "Ġwings": 6258,
      "eration": 6259,
      "isher": 6260,
      "itors": 6261,
      "Ġpour": 6262,
      "ano": 6263,
      "Ġiniti": 6264,
      "Ġyield": 6265,
      "icago": 6266,
      "Ġstretch": 6267,
      "ĠWall": 6268,
      "ĠBoston": 6269,
      "Ġneut": 6270,
      "ĠHans": 6271,
      "inder": 6272,
      "Ġplenty": 6273,
      "Ġleap": 6274,
      "ĠGates": 6275,
      "Ġevalu": 6276,
      "Ġnowhere": 6277,
      "Ġclus": 6278,
      "Ġclub": 6279,
      "ĠRos": 6280,
      "acing": 6281,
      "ologically": 6282,
      "Ġevening": 6283,
      "Ġpretend": 6284,
      "ĠChicago": 6285,
      "Ġbran": 6286,
      "Ġcrash": 6287,
      "Ġpolar": 6288,
      "Ġinterf": 6289,
      "Ġrecom": 6290,
      "ĠUnf": 6291,
      "Ġinfin": 6292,
      "Ġpopulations": 6293,
      "Ġdisturb": 6294,
      "Ġdistrict": 6295,
      "Ġcurve": 6296,
      "Ġairport": 6297,
      "Ġcheaper": 6298,
      "ĠFrance": 6299,
      "Ġstatement": 6300,
      "aneously": 6301,
      "Ġdepth": 6302,
      "Ġpractices": 6303,
      "Ġrobotic": 6304,
      "Ġcombined": 6305,
      "Ġvolume": 6306,
      "Ġtouched": 6307,
      "Ġachieved": 6308,
      "Ġreceive": 6309,
      "Ġarmy": 6310,
      "Ġfixed": 6311,
      "Ġtribes": 6312,
      "Ġdramatically": 6313,
      "Ġjournalist": 6314,
      "Ġcaptured": 6315,
      "Ġseeds": 6316,
      "Ġappreciate": 6317,
      "Ġrecyc": 6318,
      "Ġcosm": 6319,
      "Ġsplit": 6320,
      "ĠAntar": 6321,
      "Ġlicense": 6322,
      "Ġinequality": 6323,
      "Ġembedded": 6324,
      "Ġchromos": 6325,
      "GO": 6326,
      "ban": 6327,
      "bal": 6328,
      "city": 6329,
      "ias": 6330,
      "mble": 6331,
      "night": 6332,
      "wich": 6333,
      "Ġvert": 6334,
      "Ġaim": 6335,
      "inction": 6336,
      "orus": 6337,
      "oman": 6338,
      "Ġwhale": 6339,
      "iday": 6340,
      "Ġstack": 6341,
      "erences": 6342,
      "Ġdozen": 6343,
      "ĠBur": 6344,
      "Ġate": 6345,
      "Ġproport": 6346,
      "Ġload": 6347,
      "ĠMic": 6348,
      "Ġtrillion": 6349,
      "Ġworker": 6350,
      "Ġwanting": 6351,
      "ĠPre": 6352,
      "Ġneedle": 6353,
      "Ġcock": 6354,
      "Ġdisorder": 6355,
      "Ġherself": 6356,
      "athan": 6357,
      "Ġsmoke": 6358,
      "Ġcolum": 6359,
      "phere": 6360,
      "Ġextent": 6361,
      "ahar": 6362,
      "ĠUnion": 6363,
      "hips": 6364,
      "Ġelections": 6365,
      "Ġrooms": 6366,
      "Ġtested": 6367,
      "Ġsurely": 6368,
      "Ġparas": 6369,
      "Ġsuccessfully": 6370,
      "Ġincreases": 6371,
      "Ġspeaker": 6372,
      "Ġabsor": 6373,
      "ĠReally": 6374,
      "Ġaccessible": 6375,
      "Ġphotography": 6376,
      "yright": 6377,
      "ĠArabic": 6378,
      "Ġfrag": 6379,
      "Ġoptimistic": 6380,
      "ĠTrans": 6381,
      "Ġangle": 6382,
      "Ġoccurred": 6383,
      "Ġdestroyed": 6384,
      "cription": 6385,
      "ĠApple": 6386,
      "ĠHuman": 6387,
      "Ġenemy": 6388,
      "Ġhungry": 6389,
      "Ġfossil": 6390,
      "ĠUnfortunately": 6391,
      "ata": 6392,
      "ndr": 6393,
      "Ġtoler": 6394,
      "orking": 6395,
      "level": 6396,
      "vey": 6397,
      "ĠTony": 6398,
      "ida": 6399,
      "Ġstations": 6400,
      "opard": 6401,
      "Ġaband": 6402,
      "Ġchap": 6403,
      "ivered": 6404,
      "ĠHigh": 6405,
      "Ġintention": 6406,
      "ĠOp": 6407,
      "ĠPort": 6408,
      "ĠPac": 6409,
      "ĠList": 6410,
      "Ġages": 6411,
      "ĠJim": 6412,
      "Ġspell": 6413,
      "new": 6414,
      "Ġraising": 6415,
      "Ġinvite": 6416,
      "Ġremains": 6417,
      "Ġflies": 6418,
      "Ġconservation": 6419,
      "Ġimaging": 6420,
      "Ġimagined": 6421,
      "Ġextinct": 6422,
      "Ġoldest": 6423,
      "Ġengaging": 6424,
      "Ġstandards": 6425,
      "Ġcharity": 6426,
      "Ġreference": 6427,
      "Ġassist": 6428,
      "Ġadvoc": 6429,
      "Ġhousehold": 6430,
      "Ġmeetings": 6431,
      "Ġexpectations": 6432,
      "Ġprotected": 6433,
      "Ġanticip": 6434,
      "anny": 6435,
      "Ġoccasion": 6436,
      "Ġ250": 6437,
      "ĠPrize": 6438,
      "Ġvillages": 6439,
      "ietnam": 6440,
      "Ġeradic": 6441,
      "Ġappears": 6442,
      "herent": 6443,
      "Ġ1960": 6444,
      "Ġaspects": 6445,
      "Ġsurgeon": 6446,
      "Ġremoved": 6447,
      "Ġlaptop": 6448,
      "Ġexecut": 6449,
      "bed": 6450,
      "cence": 6451,
      "maker": 6452,
      "Ġicon": 6453,
      "ingly": 6454,
      "Ġmer": 6455,
      "Ġmarch": 6456,
      "eness": 6457,
      "Ġgon": 6458,
      "Ġweigh": 6459,
      "etr": 6460,
      "ĠSpe": 6461,
      "Ġabund": 6462,
      "Ġchamp": 6463,
      "Ġproof": 6464,
      "ĠHi": 6465,
      "Ġspinal": 6466,
      "Ġtries": 6467,
      "ogen": 6468,
      "ĠOlym": 6469,
      "ĠGand": 6470,
      "ĠLaw": 6471,
      "Ġquarter": 6472,
      "Ġevolve": 6473,
      "Ġbull": 6474,
      "Ġphosph": 6475,
      "Ġscore": 6476,
      "Ġdecline": 6477,
      "Ġinstant": 6478,
      "ĠVietnam": 6479,
      "Ġexploration": 6480,
      "airs": 6481,
      "gging": 6482,
      "Ġsubs": 6483,
      "Ġproto": 6484,
      "Ġbreaking": 6485,
      "Ġprofit": 6486,
      "Ġdirector": 6487,
      "Ġfeeding": 6488,
      "Ġconsume": 6489,
      "Ġsilent": 6490,
      "Ġbanks": 6491,
      "ĠCharl": 6492,
      "Ġ1980": 6493,
      "Ġprosper": 6494,
      "Ġcelebrate": 6495,
      "Ġinstruments": 6496,
      "ounced": 6497,
      "Ġunlikely": 6498,
      "Ġmosquito": 6499,
      "Ġzoom": 6500,
      "osaurs": 6501,
      "Ġpiano": 6502,
      "Ġbicycle": 6503,
      "Americ": 6504,
      "eal": 6505,
      "gly": 6506,
      "iance": 6507,
      "lims": 6508,
      "war": 6509,
      "atto": 6510,
      "itan": 6511,
      "osen": 6512,
      "Ġpace": 6513,
      "Ġfifth": 6514,
      "org": 6515,
      "ĠIce": 6516,
      "Ġgall": 6517,
      "Ġrely": 6518,
      "Ġants": 6519,
      "Ġub": 6520,
      "Ġkiss": 6521,
      "ĠBible": 6522,
      "ĠBudd": 6523,
      "Ġchosen": 6524,
      "Ġrising": 6525,
      "ĠNGO": 6526,
      "ĠHen": 6527,
      "ĠHell": 6528,
      "ĠMad": 6529,
      "ĠCons": 6530,
      "aint": 6531,
      "Ġclip": 6532,
      "Ġimper": 6533,
      "Ġimpress": 6534,
      "Ġ26": 6535,
      "Ġscary": 6536,
      "Ġgenius": 6537,
      "Ġdecre": 6538,
      "Ġblow": 6539,
      "Ġcourt": 6540,
      "Ġstri": 6541,
      "Ġlovely": 6542,
      "Ġbiom": 6543,
      "Ġmorality": 6544,
      "Ġagenda": 6545,
      "Ġclassical": 6546,
      "Ġspeakers": 6547,
      "Ġprovided": 6548,
      "Ġmissed": 6549,
      "Ġdelivered": 6550,
      "Ġpresented": 6551,
      "class": 6552,
      "Ġdescribes": 6553,
      "Ġbreathing": 6554,
      "Ġdivided": 6555,
      "Ġconclud": 6556,
      "Ġefforts": 6557,
      "Ġcrying": 6558,
      "Ġsavings": 6559,
      "Ġdemonstrate": 6560,
      "Ġpaintings": 6561,
      "ĠCongo": 6562,
      "Ġreveal": 6563,
      "Ġappeared": 6564,
      "ĠResearch": 6565,
      "Ġtelescope": 6566,
      "Ġlaser": 6567,
      "ĠGabby": 6568,
      "Ġsuicide": 6569,
      "called": 6570,
      "east": 6571,
      "onds": 6572,
      "parent": 6573,
      "worth": 6574,
      "ounce": 6575,
      "Ġbones": 6576,
      "oran": 6577,
      "alian": 6578,
      "otion": 6579,
      "ĠAir": 6580,
      "ĠTurn": 6581,
      "ĠSix": 6582,
      "Ġchest": 6583,
      "Ġmyster": 6584,
      "Ġorbit": 6585,
      "Ġintent": 6586,
      "unning": 6587,
      "Ġplaced": 6588,
      "Ġcomprom": 6589,
      "ĠLong": 6590,
      "Ġsheet": 6591,
      "ĠJes": 6592,
      "Ġfinds": 6593,
      "Ġflour": 6594,
      "Ġinstantly": 6595,
      "Ġcarr": 6596,
      "Ġexploring": 6597,
      "Ġaccum": 6598,
      "Ġconnecting": 6599,
      "Ġ95": 6600,
      "ĠPeace": 6601,
      "Ġhyper": 6602,
      "Ġperforming": 6603,
      "ĠNothing": 6604,
      "Ġmeasured": 6605,
      "Ġorigami": 6606,
      "Ġprivacy": 6607,
      "Ġfemales": 6608,
      "Ġproperly": 6609,
      "Ġamongst": 6610,
      "Ġfluid": 6611,
      "Ġparticipants": 6612,
      "Ġcartoons": 6613,
      "Ġrainforest": 6614,
      "Ġadminist": 6615,
      "Ġsandwich": 6616,
      "Ġignore": 6617,
      "Ġdebt": 6618,
      "Ġconcert": 6619,
      "Ġthrown": 6620,
      "Ġbeliefs": 6621,
      "Ġinjury": 6622,
      "Ġfinger": 6623,
      "Ġutter": 6624,
      "Ġrecovery": 6625,
      "Ġneuroscience": 6626,
      "Ġintrig": 6627,
      "Ġagreed": 6628,
      "Ġscenar": 6629,
      "ĠValley": 6630,
      "Ġsatisf": 6631,
      "Ġhemis": 6632,
      "Ġorchest": 6633,
      "ĠRwanda": 6634,
      "ooth": 6635,
      "ras": 6636,
      "well": 6637,
      "Ġid": 6638,
      "Ġsed": 6639,
      "Ġcens": 6640,
      "Ġcake": 6641,
      "Ġlens": 6642,
      "lets": 6643,
      "Ġyouth": 6644,
      "using": 6645,
      "Ġbeer": 6646,
      "ĠTes": 6647,
      "ĠTra": 6648,
      "quare": 6649,
      "ifts": 6650,
      "Ġanger": 6651,
      "through": 6652,
      "Ġneither": 6653,
      "ulse": 6654,
      "Ġexternal": 6655,
      "Ġmail": 6656,
      "ĠMother": 6657,
      "ĠCur": 6658,
      "ĠOx": 6659,
      "ĠDel": 6660,
      "Ġunits": 6661,
      "Ġcoach": 6662,
      "Ġfool": 6663,
      "Ġreson": 6664,
      "cohol": 6665,
      "Ġgranted": 6666,
      "licate": 6667,
      "Ġdrone": 6668,
      "Ġdrones": 6669,
      "Ġimagery": 6670,
      "Ġgrows": 6671,
      "Ġgenerated": 6672,
      "Ġsuppl": 6673,
      "Ġmusicians": 6674,
      "Ġcuriosity": 6675,
      "Ġrobust": 6676,
      "ĠBrown": 6677,
      "Ġcrack": 6678,
      "Ġfailing": 6679,
      "Ġsensory": 6680,
      "Ġpresentation": 6681,
      "Ġzone": 6682,
      "Ġpleas": 6683,
      "Ġessence": 6684,
      "Ġinspiring": 6685,
      "Ġconsumers": 6686,
      "Ġcombat": 6687,
      "Ġrepresented": 6688,
      "Ġfunctional": 6689,
      "Ġinstitution": 6690,
      "Ġpupp": 6691,
      "Ġsurprisingly": 6692,
      "Ġdepending": 6693,
      "Ġsuspe": 6694,
      "Ġhalluc": 6695,
      "iminals": 6696,
      "Ġreconst": 6697,
      "Ġcooperation": 6698,
      "Ġboundaries": 6699,
      "Ġnorthern": 6700,
      "Ġtalent": 6701,
      "Ġcorporate": 6702,
      "Ġsculpture": 6703,
      "Ġtitle": 6704,
      "ĠRemember": 6705,
      "Ġrescue": 6706,
      "Ġmicroscope": 6707,
      "Ġunclear": 6708,
      "Ġanxiety": 6709,
      "Ġexplanation": 6710,
      "aci": 6711,
      "agh": 6712,
      "bits": 6713,
      "ec": 6714,
      "eared": 6715,
      "ga": 6716,
      "gers": 6717,
      "power": 6718,
      "wl": 6719,
      "rect": 6720,
      "Ġcats": 6721,
      "Ġhat": 6722,
      "Ġpione": 6723,
      "Ġdung": 6724,
      "Ġglob": 6725,
      "icher": 6726,
      "utch": 6727,
      "ĠTen": 6728,
      "ĠTime": 6729,
      "Ġrecip": 6730,
      "ĠThrough": 6731,
      "ulum": 6732,
      "ckets": 6733,
      "umin": 6734,
      "oked": 6735,
      "ĠMT": 6736,
      "ĠMah": 6737,
      "Ġvital": 6738,
      "ĠCA": 6739,
      "Ġspark": 6740,
      "ĠDet": 6741,
      "ĠGal": 6742,
      "Ġquad": 6743,
      "iac": 6744,
      "Ġcoord": 6745,
      "angible": 6746,
      "Ġpoly": 6747,
      "Ġcommitted": 6748,
      "Ġapple": 6749,
      "Ġletting": 6750,
      "Ġinvolves": 6751,
      "licit": 6752,
      "Ġdrill": 6753,
      "Ġslides": 6754,
      "Ġ1950": 6755,
      "Ġminor": 6756,
      "Ġminister": 6757,
      "phones": 6758,
      "inson": 6759,
      "Ġrestore": 6760,
      "ups": 6761,
      "ĠShould": 6762,
      "Ġrecognition": 6763,
      "Ġfloating": 6764,
      "Ġcopyright": 6765,
      "Ġmiser": 6766,
      "Ġdinosaurs": 6767,
      "Ġsticks": 6768,
      "Ġreturned": 6769,
      "Ġrocket": 6770,
      "Ġaffordable": 6771,
      "Ġstruggling": 6772,
      "ĠSomething": 6773,
      "Ġneighborhoods": 6774,
      "Ġmotivation": 6775,
      "flies": 6776,
      "Ġhackers": 6777,
      "Ġparadigm": 6778,
      "Ġadopt": 6779,
      "Ġaxis": 6780,
      "Ġpolicies": 6781,
      "Ġflew": 6782,
      "Ġvessels": 6783,
      "Ġelephant": 6784,
      "Ġchaos": 6785,
      "500": 6786,
      "Sahar": 6787,
      "des": 6788,
      "hear": 6789,
      "nes": 6790,
      "wart": 6791,
      "yan": 6792,
      "Ġtent": 6793,
      "Ġtill": 6794,
      "Ġtasks": 6795,
      "Ġtatto": 6796,
      "Ġsales": 6797,
      "atar": 6798,
      "isons": 6799,
      "itory": 6800,
      "Ġbon": 6801,
      "Ġboss": 6802,
      "Ġfirm": 6803,
      "Ġdign": 6804,
      "asy": 6805,
      "Ġbears": 6806,
      "uration": 6807,
      "Ġstable": 6808,
      "Ġstages": 6809,
      "Ġanthrop": 6810,
      "Ġugly": 6811,
      "ĠBon": 6812,
      "ĠBel": 6813,
      "Ġricher": 6814,
      "ĠNature": 6815,
      "Ġlocked": 6816,
      "ĠMed": 6817,
      "ĠMove": 6818,
      "Ġalcohol": 6819,
      "Ġseek": 6820,
      "Ġactor": 6821,
      "izoph": 6822,
      "ague": 6823,
      "Ġfeatures": 6824,
      "ĠRio": 6825,
      "ptions": 6826,
      "Ġcontains": 6827,
      "Ġunderground": 6828,
      "Ġtraum": 6829,
      "conf": 6830,
      "Ġpersonality": 6831,
      "Ġflip": 6832,
      "Ġcarried": 6833,
      "aze": 6834,
      "Ġfoods": 6835,
      "Ġcoun": 6836,
      "Ġcorresp": 6837,
      "ĠIndeed": 6838,
      "Ġresearcher": 6839,
      "Ġ2004": 6840,
      "Ġdepressed": 6841,
      "Ġexpectancy": 6842,
      "Ġfalls": 6843,
      "Ġprotecting": 6844,
      "Ġtrends": 6845,
      "Ġrecognized": 6846,
      "Ġballoon": 6847,
      "yrus": 6848,
      "Ġreported": 6849,
      "Ġcharacteristics": 6850,
      "Ġseparated": 6851,
      "Ġsynthes": 6852,
      "front": 6853,
      "Ġprepare": 6854,
      "ĠMuslims": 6855,
      "Ġautomatically": 6856,
      "Ġlogic": 6857,
      "Ġbaseball": 6858,
      "Ġcrucial": 6859,
      "Ġcrops": 6860,
      "Ġlecture": 6861,
      "Ġtoxic": 6862,
      "Ġridiculous": 6863,
      "Ġstroke": 6864,
      "belie": 6865,
      "Ġadjust": 6866,
      "Ġapparently": 6867,
      "Ġuncomfort": 6868,
      "Saharan": 6869,
      "bles": 6870,
      "bered": 6871,
      "gic": 6872,
      "liam": 6873,
      "mm": 6874,
      "uk": 6875,
      "Ġtied": 6876,
      "Ġtears": 6877,
      "Ġwip": 6878,
      "Ġsle": 6879,
      "Ġhoney": 6880,
      "Ġhook": 6881,
      "Ġpra": 6882,
      "Ġfathers": 6883,
      "Ġdiverse": 6884,
      "Ġdensity": 6885,
      "arp": 6886,
      "Ġnets": 6887,
      "ĠTy": 6888,
      "quar": 6889,
      "ĠSa": 6890,
      "ifice": 6891,
      "iform": 6892,
      "state": 6893,
      "ĠBoy": 6894,
      "adays": 6895,
      "Ġusual": 6896,
      "Ġorange": 6897,
      "ĠCont": 6898,
      "Ġspr": 6899,
      "Ġtrash": 6900,
      "Ġplain": 6901,
      "Ġyours": 6902,
      "agger": 6903,
      "ache": 6904,
      "Ġunbelie": 6905,
      "Ġovercome": 6906,
      "Ġbubb": 6907,
      "Ġdisrupt": 6908,
      "ĠJune": 6909,
      "Ġcolony": 6910,
      "licity": 6911,
      "ĠBeij": 6912,
      "Ġafterwards": 6913,
      "Ġproduces": 6914,
      "Ġmuscles": 6915,
      "ĠVoice": 6916,
      "Ġorganize": 6917,
      "ĠIsland": 6918,
      "ĠTEDx": 6919,
      "Ġdistant": 6920,
      "ioxide": 6921,
      "Ġdefense": 6922,
      "Ġ2003": 6923,
      "Ġ2006": 6924,
      "Ġcheese": 6925,
      "Ġparaly": 6926,
      "Ġcontinues": 6927,
      "Ġ65": 6928,
      "bridge": 6929,
      "Ġholds": 6930,
      "Ġinteracting": 6931,
      "Ġimproved": 6932,
      "Ġimpacts": 6933,
      "Ġarchitects": 6934,
      "Ġdirections": 6935,
      "Ġsleeping": 6936,
      "Ġfootball": 6937,
      "Ġtextbook": 6938,
      "yram": 6939,
      "Ġstrategies": 6940,
      "Ġlinked": 6941,
      "Ġschizoph": 6942,
      "Ġcryst": 6943,
      "Ġshopping": 6944,
      "Ġagricultural": 6945,
      "ĠGrand": 6946,
      "Ġdominant": 6947,
      "Ġtransparency": 6948,
      "Ġdolphins": 6949,
      "Ġensure": 6950,
      "abetes": 6951,
      "Ġbarely": 6952,
      "ĠDepartment": 6953,
      "Ġparalle": 6954,
      "Ġpermanent": 6955,
      "Ġuncomfortable": 6956,
      "bru": 6957,
      "capes": 6958,
      "fast": 6959,
      "hop": 6960,
      "kin": 6961,
      "Ġtro": 6962,
      "Ġmile": 6963,
      "aping": 6964,
      "Ġfishing": 6965,
      "Ġder": 6966,
      "Ġdump": 6967,
      "Ġdioxide": 6968,
      "ora": 6969,
      "Ġlamp": 6970,
      "Ġgro": 6971,
      "ĠTas": 6972,
      "Ġstone": 6973,
      "Ġabuse": 6974,
      "Ġaside": 6975,
      "Ġchim": 6976,
      "ĠMil": 6977,
      "ĠCor": 6978,
      "ĠYemen": 6979,
      "astics": 6980,
      "Ġenable": 6981,
      "ĠGold": 6982,
      "Ġperm": 6983,
      "Ġagency": 6984,
      "Ġbug": 6985,
      "century": 6986,
      "Ġcreature": 6987,
      "ĠHoward": 6988,
      "Ġentered": 6989,
      "archy": 6990,
      "Ġ195": 6991,
      "Ġlighting": 6992,
      "irds": 6993,
      "Ġvisited": 6994,
      "Ġsuppose": 6995,
      "Ġsubtle": 6996,
      "Ġcorn": 6997,
      "Ġcapita": 6998,
      "Ġmusician": 6999,
      "Ġcurric": 7000,
      "Ġprotest": 7001,
      "Ġequality": 7002,
      "Ġcontrols": 7003,
      "Ġfilter": 7004,
      "ĠInternational": 7005,
      "Ġsecure": 7006,
      "Ġprovides": 7007,
      "Ġcraft": 7008,
      "Ġexplaining": 7009,
      "Ġdelight": 7010,
      "ĠYorker": 7011,
      "Ġescape": 7012,
      "Ġpsychological": 7013,
      "Ġpredictions": 7014,
      "Ġestimate": 7015,
      "Ġsearching": 7016,
      "Ġimprovement": 7017,
      "Ġemergency": 7018,
      "Ġprinted": 7019,
      "Ġnarrow": 7020,
      "Ġdisappoint": 7021,
      "Ġcalculate": 7022,
      "ĠPlay": 7023,
      "Ġmixed": 7024,
      "Ġcontrolling": 7025,
      "Ġelectronic": 7026,
      "Ġhomeless": 7027,
      "Ġrepeat": 7028,
      "Ġwireless": 7029,
      "Ġastronom": 7030,
      "Ġlawyers": 7031,
      "Ġattached": 7032,
      "sembly": 7033,
      "ĠStanford": 7034,
      "Ġstereoty": 7035,
      "Ġgonna": 7036,
      "Ġprotocell": 7037,
      "ĠHenry": 7038,
      "Ġadministr": 7039,
      "ding": 7040,
      "Ġtired": 7041,
      "Ġaes": 7042,
      "Ġcig": 7043,
      "Ġmice": 7044,
      "Ġtoy": 7045,
      "orous": 7046,
      "Ġink": 7047,
      "Ġgam": 7048,
      "Ġna": 7049,
      "Ġeast": 7050,
      "Ġrehab": 7051,
      "Ġrenew": 7052,
      "ĠThird": 7053,
      "ĠSund": 7054,
      "Ġstyle": 7055,
      "che": 7056,
      "semble": 7057,
      "ĠBi": 7058,
      "ĠBal": 7059,
      "Ġhelic": 7060,
      "Ġneural": 7061,
      "Ġjazz": 7062,
      "ĠNever": 7063,
      "ĠHel": 7064,
      "ĠHouse": 7065,
      "ĠMoon": 7066,
      "Ġoutput": 7067,
      "allow": 7068,
      "unction": 7069,
      "andem": 7070,
      "Ġplot": 7071,
      "Ġexplo": 7072,
      "Ġprec": 7073,
      "Ġbrown": 7074,
      "Ġmining": 7075,
      "Ġserved": 7076,
      "Ġopens": 7077,
      "Ġdefe": 7078,
      "Ġstops": 7079,
      "Ġpainted": 7080,
      "Ġproductivity": 7081,
      "Ġtreating": 7082,
      "Ġviews": 7083,
      "Ġdiam": 7084,
      "Ġveter": 7085,
      "Ġidentified": 7086,
      "Ġsensor": 7087,
      "Ġtempt": 7088,
      "Ġlegis": 7089,
      "Ġpurch": 7090,
      "Ġburst": 7091,
      "Ġencounter": 7092,
      "Ġassumptions": 7093,
      "Ġvirtually": 7094,
      "Ġcolleague": 7095,
      "Ġdemonstration": 7096,
      "Ġtricks": 7097,
      "Ġchairs": 7098,
      "Ġdynam": 7099,
      "Ġelectronics": 7100,
      "Ġfrog": 7101,
      "Ġrecover": 7102,
      "Ġrepeated": 7103,
      "agram": 7104,
      "Ġpilot": 7105,
      "ĠKorea": 7106,
      "ihad": 7107,
      "Ġuncertainty": 7108,
      "Ġelderly": 7109,
      "ĠMicros": 7110,
      "ĠPacific": 7111,
      "Ġglobally": 7112,
      "liament": 7113,
      "bage": 7114,
      "iang": 7115,
      "iated": 7116,
      "lings": 7117,
      "part": 7118,
      "ses": 7119,
      "Ġthumb": 7120,
      "itous": 7121,
      "Ġmatr": 7122,
      "enh": 7123,
      "enly": 7124,
      "Ġhol": 7125,
      "Ġpiz": 7126,
      "Ġfet": 7127,
      "anthrop": 7128,
      "Ġdive": 7129,
      "omic": 7130,
      "omous": 7131,
      "Ġgre": 7132,
      "lear": 7133,
      "ette": 7134,
      "ctica": 7135,
      "Ġham": 7136,
      "ĠSir": 7137,
      "Ġstores": 7138,
      "sey": 7139,
      "section": 7140,
      "ĠBush": 7141,
      "Ġmeal": 7142,
      "gend": 7143,
      "Ġexcell": 7144,
      "ĠNumber": 7145,
      "Ġloves": 7146,
      "ĠMod": 7147,
      "ogether": 7148,
      "abin": 7149,
      "ĠDen": 7150,
      "ĠLar": 7151,
      "ĠFellow": 7152,
      "Ġclosing": 7153,
      "Ġprime": 7154,
      "Ġ28": 7155,
      "Ġdism": 7156,
      "iban": 7157,
      "Ġboom": 7158,
      "Ġemph": 7159,
      "ĠChildren": 7160,
      "Ġpersu": 7161,
      "Ġtraged": 7162,
      "Ġdrivers": 7163,
      "Ġenth": 7164,
      "Ġhighlight": 7165,
      "Ġlaid": 7166,
      "ĠVen": 7167,
      "Ġfarmer": 7168,
      "Ġaccidents": 7169,
      "ending": 7170,
      "Ġassets": 7171,
      "ĠArctic": 7172,
      "Ġdrag": 7173,
      "ĠBrian": 7174,
      "Ġdiabetes": 7175,
      "attered": 7176,
      "Ġstaying": 7177,
      "Ġrecording": 7178,
      "Ġstrongly": 7179,
      "Ġsuggesting": 7180,
      "Ġdarkness": 7181,
      "Ġreduced": 7182,
      "puter": 7183,
      "Ġtranslation": 7184,
      "Ġtherm": 7185,
      "Ġcollaborative": 7186,
      "Ġdisappeared": 7187,
      "Ġsoup": 7188,
      "ĠSpace": 7189,
      "Ġprosthetic": 7190,
      "Ġvictim": 7191,
      "Ġshocking": 7192,
      "ĠScott": 7193,
      "Ġdrinking": 7194,
      "ĠCambridge": 7195,
      "Ġrarely": 7196,
      "Ġmanufacture": 7197,
      "Ġtorture": 7198,
      "ĠMinister": 7199,
      "Ġquantum": 7200,
      "Ġvegetables": 7201,
      "Ġtrucks": 7202,
      "Ġnutrition": 7203,
      "Ġinevitable": 7204,
      "Ġresilience": 7205,
      "Ġinstructions": 7206,
      "Ġrecomm": 7207,
      "ĠAntarctica": 7208,
      "Ġphosphorus": 7209,
      "Ġhemisphere": 7210,
      "Ġschizophren": 7211,
      "ĠTasman": 7212,
      "Ġhelicop": 7213,
      "ixt": 7214,
      "kward": 7215,
      "li": 7216,
      "pass": 7217,
      "tes": 7218,
      "uum": 7219,
      "xual": 7220,
      "Ġtong": 7221,
      "Ġwarr": 7222,
      "Ġsits": 7223,
      "Ġsession": 7224,
      "erd": 7225,
      "itud": 7226,
      "osal": 7227,
      "osure": 7228,
      "Ġborrow": 7229,
      "ena": 7230,
      "Ġhitting": 7231,
      "oning": 7232,
      "onia": 7233,
      "Ġpicking": 7234,
      "Ġfusion": 7235,
      "Ġfulf": 7236,
      "Ġlions": 7237,
      "omo": 7238,
      "ĠAug": 7239,
      "Ġredef": 7240,
      "ĠSyr": 7241,
      "ĠSpan": 7242,
      "Ġdoors": 7243,
      "raction": 7244,
      "Ġshaped": 7245,
      "Ġmelt": 7246,
      "Ġneat": 7247,
      "Ġpeer": 7248,
      "ĠNone": 7249,
      "Ġouter": 7250,
      "ares": 7251,
      "Ġcompelling": 7252,
      "ĠDad": 7253,
      "Ġexposed": 7254,
      "Ġque": 7255,
      "ĠFord": 7256,
      "Ġunp": 7257,
      "Ġunpre": 7258,
      "Ġclar": 7259,
      "Ġprices": 7260,
      "Ġparties": 7261,
      "Ġroots": 7262,
      "ĠUg": 7263,
      "ĠUnt": 7264,
      "Ġpref": 7265,
      "Ġscores": 7266,
      "Ġshoulder": 7267,
      "Ġending": 7268,
      "Ġ32": 7269,
      "Ġobl": 7270,
      "Ġentrop": 7271,
      "Ġmonitor": 7272,
      "Ġpassenger": 7273,
      "Ġbegun": 7274,
      "Ġmagical": 7275,
      "Ġadventure": 7276,
      "Ġ120": 7277,
      "Ġsentences": 7278,
      "Ġaffects": 7279,
      "Ġawkward": 7280,
      "Ġreduction": 7281,
      "Ġlifes": 7282,
      "Ġdetailed": 7283,
      "Ġactivist": 7284,
      "panz": 7285,
      "Ġpushed": 7286,
      "Ġinfluenced": 7287,
      "ĠChristian": 7288,
      "Ġ2011": 7289,
      "Ġlinks": 7290,
      "Ġschem": 7291,
      "Ġethnic": 7292,
      "Ġdrove": 7293,
      "ĠCentral": 7294,
      "Ġlaughing": 7295,
      "Ġliberal": 7296,
      "Ġscanner": 7297,
      "Ġinsights": 7298,
      "Ġphysicist": 7299,
      "ĠGeneral": 7300,
      "Ġcategory": 7301,
      "ĠFebru": 7302,
      "Ġinitial": 7303,
      "ĠGhana": 7304,
      "Ġsenior": 7305,
      "Ġdedicated": 7306,
      "Ġfertil": 7307,
      "parents": 7308,
      "Ġparallel": 7309,
      "ĠFebruary": 7310,
      "ault": 7311,
      "ivery": 7312,
      "kins": 7313,
      "ris": 7314,
      "top": 7315,
      "inated": 7316,
      "Ġwing": 7317,
      "Ġwound": 7318,
      "Ġhill": 7319,
      "Ġhier": 7320,
      "Ġpyram": 7321,
      "Ġdust": 7322,
      "Ġdirty": 7323,
      "arre": 7324,
      "owers": 7325,
      "eters": 7326,
      "ĠTan": 7327,
      "ĠTell": 7328,
      "ĠSW": 7329,
      "ĠSl": 7330,
      "children": 7331,
      "Ġanes": 7332,
      "ĠBack": 7333,
      "ĠBob": 7334,
      "illa": 7335,
      "Ġchief": 7336,
      "Ġconver": 7337,
      "ĠHy": 7338,
      "Ġsauce": 7339,
      "Ġenh": 7340,
      "Ġleather": 7341,
      "Ġprize": 7342,
      "ĠJose": 7343,
      "Ġunderlying": 7344,
      "Ġpersist": 7345,
      "rency": 7346,
      "Ġrelax": 7347,
      "Ġmuscle": 7348,
      "Ġrecru": 7349,
      "Ġhealthier": 7350,
      "Ġskull": 7351,
      "Ġopenness": 7352,
      "Ġconfident": 7353,
      "Ġprobability": 7354,
      "Ġgovernance": 7355,
      "Ġdistract": 7356,
      "Ġelsewhere": 7357,
      "Ġcaf": 7358,
      "Ġdrawn": 7359,
      "Ġfunded": 7360,
      "Ġimproving": 7361,
      "anned": 7362,
      "Ġlegit": 7363,
      "Ġphotographed": 7364,
      "Ġrequest": 7365,
      "Ġspreads": 7366,
      "Ġsuggested": 7367,
      "ĠWithin": 7368,
      "Ġfacility": 7369,
      "Ġsteal": 7370,
      "Ġfootage": 7371,
      "Ġtelephone": 7372,
      "Ġimmun": 7373,
      "Ġultra": 7374,
      "Ġcrossing": 7375,
      "Ġceiling": 7376,
      "Ġdependent": 7377,
      "Ġdetermined": 7378,
      "Ġphilosopher": 7379,
      "Ġodds": 7380,
      "Ġdialogue": 7381,
      "Ġpowers": 7382,
      "Ġrevenue": 7383,
      "Ġprofessionals": 7384,
      "Ġprivilege": 7385,
      "Ġanonymous": 7386,
      "Ġwelcome": 7387,
      "Ġubiqu": 7388,
      "ĠOxford": 7389,
      "Ġdignity": 7390,
      "Ġcurriculum": 7391,
      "ĠSunday": 7392,
      "Ġentropy": 7393,
      "clock": 7394,
      "fall": 7395,
      "field": 7396,
      "long": 7397,
      "makers": 7398,
      "Ġwider": 7399,
      "Ġsilly": 7400,
      "onge": 7401,
      "Ġpink": 7402,
      "esh": 7403,
      "Ġinherent": 7404,
      "Ġlux": 7405,
      "arah": 7406,
      "Ġrecept": 7407,
      "Ġreef": 7408,
      "Ġongoing": 7409,
      "ĠSer": 7410,
      "rol": 7411,
      "ĠWalk": 7412,
      "see": 7413,
      "thet": 7414,
      "ĠSov": 7415,
      "Ġjihad": 7416,
      "Ġchances": 7417,
      "Ġrats": 7418,
      "Ġconven": 7419,
      "cking": 7420,
      "ĠMac": 7421,
      "Ġvent": 7422,
      "ĠWhite": 7423,
      "ĠWhether": 7424,
      "ournal": 7425,
      "Ġsav": 7426,
      "ĠOct": 7427,
      "ĠLED": 7428,
      "Ġunh": 7429,
      "Ġclients": 7430,
      "Ġbackwards": 7431,
      "igned": 7432,
      "acular": 7433,
      "eller": 7434,
      "icks": 7435,
      "Ġgrat": 7436,
      "Ġscream": 7437,
      "Ġbrut": 7438,
      "ĠKoran": 7439,
      "Ġrail": 7440,
      "iously": 7441,
      "ĠStage": 7442,
      "Ġdrum": 7443,
      "Ġmonkey": 7444,
      "Ġhardly": 7445,
      "Ġsket": 7446,
      "Ġpassing": 7447,
      "ĠIsn": 7448,
      "Ġadding": 7449,
      "Ġlabs": 7450,
      "engine": 7451,
      "Ġposter": 7452,
      "ĠArist": 7453,
      "Ġfocusing": 7454,
      "Ġsimplicity": 7455,
      "Ġnonviol": 7456,
      "Ġsupported": 7457,
      "Ġsupermark": 7458,
      "Ġlimb": 7459,
      "ventions": 7460,
      "Ġbreakthrough": 7461,
      "Ġkeyboard": 7462,
      "Ġpulling": 7463,
      "Ġarrive": 7464,
      "Ġmicrobes": 7465,
      "Ġlayers": 7466,
      "Ġtranslated": 7467,
      "Ġcitizen": 7468,
      "Ġgraphic": 7469,
      "Ġwheat": 7470,
      "Ġjudgment": 7471,
      "Ġoptimism": 7472,
      "ĠBlue": 7473,
      "Ġexpressions": 7474,
      "Ġirre": 7475,
      "ĠObvious": 7476,
      "ĠRussian": 7477,
      "Ġadditional": 7478,
      "Ġparadox": 7479,
      "copes": 7480,
      "Ġgathering": 7481,
      "related": 7482,
      "Ġperceive": 7483,
      "Ġlawyer": 7484,
      "minute": 7485,
      "Ġcolonies": 7486,
      "employ": 7487,
      "Ġancestors": 7488,
      "Ġsacrifice": 7489,
      "Ġhypothesis": 7490,
      "ĠTaliban": 7491,
      "two": 7492,
      "ĠMicrosoft": 7493,
      "Ġpizza": 7494,
      "AR": 7495,
      "bod": 7496,
      "gu": 7497,
      "hal": 7498,
      "list": 7499,
      "zan": 7500,
      "Ġtrop": 7501,
      "Ġwedd": 7502,
      "Ġcath": 7503,
      "Ġbat": 7504,
      "Ġmall": 7505,
      "Ġtoys": 7506,
      "Ġdies": 7507,
      "Ġdough": 7508,
      "Ġduck": 7509,
      "Ġlun": 7510,
      "Ġwee": 7511,
      "iders": 7512,
      "iment": 7513,
      "ĠSquare": 7514,
      "Ġstab": 7515,
      "cember": 7516,
      "ĠWatch": 7517,
      "thal": 7518,
      "ĠBol": 7519,
      "Ġcomedy": 7520,
      "okes": 7521,
      "ĠNic": 7522,
      "ĠNord": 7523,
      "ĠMake": 7524,
      "Ġspots": 7525,
      "ĠOut": 7526,
      "Ġenables": 7527,
      "Ġdisag": 7528,
      "Ġdisorders": 7529,
      "ĠJosh": 7530,
      "ĠUp": 7531,
      "Ġprecious": 7532,
      "Ġsmarter": 7533,
      "Ġsmooth": 7534,
      "Ġtraits": 7535,
      "Ġremained": 7536,
      "Ġhelpful": 7537,
      "Ġserving": 7538,
      "ĠVir": 7539,
      "Ġearn": 7540,
      "Ġorganism": 7541,
      "Ġanswered": 7542,
      "Ġsettle": 7543,
      "Ġchoosing": 7544,
      "Ġglad": 7545,
      "Ġassess": 7546,
      "ĠArmy": 7547,
      "Ġinnocent": 7548,
      "Ġneuron": 7549,
      "Ġdelivery": 7550,
      "Ġeaten": 7551,
      "Ġpsychopath": 7552,
      "gency": 7553,
      "Ġincludes": 7554,
      "Ġspecialized": 7555,
      "Ġwinning": 7556,
      "Ġobserv": 7557,
      "Ġfastest": 7558,
      "Ġindustries": 7559,
      "Ġcircuits": 7560,
      "Ġstatist": 7561,
      "Ġtexting": 7562,
      "Ġshooting": 7563,
      "ĠDecember": 7564,
      "Ġsilver": 7565,
      "Ġrepresentation": 7566,
      "Ġsoldier": 7567,
      "Ġfuels": 7568,
      "Ġtargets": 7569,
      "Ġphilanthrop": 7570,
      "Ġsynthetic": 7571,
      "Ġaccepted": 7572,
      "Ġdocuments": 7573,
      "Ġconcern": 7574,
      "Ġcatast": 7575,
      "ĠIsraeli": 7576,
      "Ġethical": 7577,
      "Ġreminded": 7578,
      "ĠAbra": 7579,
      "Ġintegrated": 7580,
      "Ġalgorithm": 7581,
      "Ġattractive": 7582,
      "Ġrestaurants": 7583,
      "ĠSuper": 7584,
      "Ġfrequency": 7585,
      "Ġcategories": 7586,
      "Ġoriginally": 7587,
      "Ġimplant": 7588,
      "Ġrefugees": 7589,
      "Ġnurse": 7590,
      "Ġgenetically": 7591,
      "Ġforgotten": 7592,
      "Ġitems": 7593,
      "Ġownership": 7594,
      "ĠSteph": 7595,
      "ĠListen": 7596,
      "Ġsuspended": 7597,
      "Ġmiserable": 7598,
      "ĠBeijing": 7599,
      "Ġchimpanz": 7600,
      "Ġcigaret": 7601,
      "itudes": 7602,
      "ĠSpanish": 7603,
      "ĠAristot": 7604,
      "200": 7605,
      "auc": 7606,
      "bi": 7607,
      "dig": 7608,
      "doll": 7609,
      "fin": 7610,
      "fly": 7611,
      "ket": 7612,
      "mony": 7613,
      "oor": 7614,
      "ober": 7615,
      "ship": 7616,
      "walk": 7617,
      "Ġx": 7618,
      "Ġtubes": 7619,
      "Ġain": 7620,
      "Ġwid": 7621,
      "Ġsink": 7622,
      "Ġcash": 7623,
      "itate": 7624,
      "Ġbiz": 7625,
      "Ġbars": 7626,
      "Ġmur": 7627,
      "Ġho": 7628,
      "Ġhire": 7629,
      "Ġpause": 7630,
      "Ġpandem": 7631,
      "Ġfires": 7632,
      "Ġfought": 7633,
      "orida": 7634,
      "Ġgear": 7635,
      "Ġnit": 7636,
      "utical": 7637,
      "Ġanno": 7638,
      "olic": 7639,
      "ĠBre": 7640,
      "ods": 7641,
      "Ġfruit": 7642,
      "Ġchips": 7643,
      "umes": 7644,
      "ĠHolly": 7645,
      "Ġmaxim": 7646,
      "Ġbutt": 7647,
      "Ġupload": 7648,
      "Ġplastics": 7649,
      "Ġexped": 7650,
      "agen": 7651,
      "ĠFG": 7652,
      "ffect": 7653,
      "Ġemerge": 7654,
      "Ġoffices": 7655,
      "Ġincident": 7656,
      "ords": 7657,
      "Ġinvolve": 7658,
      "Ġinsist": 7659,
      "Ġconsult": 7660,
      "Ġfounded": 7661,
      "Ġsla": 7662,
      "Ġextension": 7663,
      "Ġattitude": 7664,
      "Ġedges": 7665,
      "Ġengines": 7666,
      "Ġconfused": 7667,
      "Ġpubl": 7668,
      "Ġwarning": 7669,
      "Ġ2001": 7670,
      "Ġphotographer": 7671,
      "Ġwoke": 7672,
      "Ġopposed": 7673,
      "Ġglobalization": 7674,
      "Ġkiller": 7675,
      "Ġglaci": 7676,
      "Ġexperimental": 7677,
      "Ġprogramming": 7678,
      "Ġviewer": 7679,
      "Ġjoint": 7680,
      "Ġobjective": 7681,
      "mingly": 7682,
      "Ġdifficulty": 7683,
      "Ġeleg": 7684,
      "Ġoperations": 7685,
      "Ġnonprofit": 7686,
      "Ġbreakfast": 7687,
      "ĠWithout": 7688,
      "Ġfacilities": 7689,
      "ĠPhot": 7690,
      "Ġreducing": 7691,
      "Ġharness": 7692,
      "Ġproposed": 7693,
      "Ġpromote": 7694,
      "Ġpeaceful": 7695,
      "Ġsuffered": 7696,
      "Ġbedroom": 7697,
      "Ġburden": 7698,
      "ĠAmy": 7699,
      "Ġprimarily": 7700,
      "Ġimmediate": 7701,
      "Ġdomestic": 7702,
      "Ġinfection": 7703,
      "Ġuniversities": 7704,
      "Ġclinic": 7705,
      "Ġtissues": 7706,
      "Ġsuspect": 7707,
      "Ġdiagnosis": 7708,
      "ĠColle": 7709,
      "Ġanalyze": 7710,
      "Ġpige": 7711,
      "Ġfortune": 7712,
      "Ġroutine": 7713,
      "Ġhabitat": 7714,
      "ĠJeff": 7715,
      "Ġsubstance": 7716,
      "ĠFlorida": 7717,
      "Ġkingdom": 7718,
      "Ġtransparent": 7719,
      "Ġrefugee": 7720,
      "Ġfrustrated": 7721,
      "Ġfederal": 7722,
      "Ġmakers": 7723,
      "Ġmerely": 7724,
      "Ġprocedure": 7725,
      "keepers": 7726,
      "ĠJesus": 7727,
      "ĠUganda": 7728,
      "ĠObviously": 7729,
      "Ġweeke": 7730,
      "Ġbizarre": 7731,
      "free": 7732,
      "greg": 7733,
      "mod": 7734,
      "mill": 7735,
      "rich": 7736,
      "tical": 7737,
      "vis": 7738,
      "zens": 7739,
      "Ġwired": 7740,
      "Ġsin": 7741,
      "Ġsisters": 7742,
      "atural": 7743,
      "Ġcute": 7744,
      "itating": 7745,
      "Ġmate": 7746,
      "eda": 7747,
      "ari": 7748,
      "Ġnodes": 7749,
      "Ġnaked": 7750,
      "ĠAp": 7751,
      "Ġbell": 7752,
      "ĠTim": 7753,
      "ĠTex": 7754,
      "Ġrethink": 7755,
      "ĠSom": 7756,
      "ĠSur": 7757,
      "ĠWait": 7758,
      "Ġdozens": 7759,
      "stone": 7760,
      "olars": 7761,
      "ĠBu": 7762,
      "Ġshine": 7763,
      "Ġshifting": 7764,
      "Ġwhatso": 7765,
      "ĠMount": 7766,
      "ĠMiss": 7767,
      "Ġours": 7768,
      "Ġtech": 7769,
      "Ġactors": 7770,
      "mental": 7771,
      "ardo": 7772,
      "ĠEconom": 7773,
      "ĠPower": 7774,
      "ĠDa": 7775,
      "Ġmanager": 7776,
      "Ġmanagers": 7777,
      "Ġquit": 7778,
      "aceutical": 7779,
      "Ġunemploy": 7780,
      "ĠRock": 7781,
      "eps": 7782,
      "Ġpoison": 7783,
      "irect": 7784,
      "Ġsmiling": 7785,
      "Ġincor": 7786,
      "Ġfactories": 7787,
      "Ġ33": 7788,
      "Ġartwork": 7789,
      "Ġpointing": 7790,
      "oca": 7791,
      "Ġcompleted": 7792,
      "Ġcrew": 7793,
      "Ġmonit": 7794,
      "cedented": 7795,
      "Ġgenerous": 7796,
      "Ġregime": 7797,
      "Ġfung": 7798,
      "Ġheadlines": 7799,
      "Ġpreserve": 7800,
      "ughters": 7801,
      "otted": 7802,
      "Ġretina": 7803,
      "Ġtrains": 7804,
      "iences": 7805,
      "aws": 7806,
      "Ġinvestors": 7807,
      "Ġlanded": 7808,
      "ĠSomebody": 7809,
      "Ġgrandparents": 7810,
      "Ġlegacy": 7811,
      "Ġdrawings": 7812,
      "Ġinspire": 7813,
      "itution": 7814,
      "airo": 7815,
      "Ġarray": 7816,
      "Ġmarath": 7817,
      "ĠComp": 7818,
      "Ġfunds": 7819,
      "Ġmobility": 7820,
      "ĠProf": 7821,
      "ĠIslands": 7822,
      "Ġsouthern": 7823,
      "Ġmagnetic": 7824,
      "Ġpreparing": 7825,
      "ĠBlack": 7826,
      "Ġspectacular": 7827,
      "ĠDaniel": 7828,
      "Ġweapon": 7829,
      "Ġhanging": 7830,
      "Ġpenguin": 7831,
      "Ġtunnel": 7832,
      "Ġgarage": 7833,
      "Ġpursuit": 7834,
      "ĠLadies": 7835,
      "ĠBrook": 7836,
      "Ġisolated": 7837,
      "Ġaccomplish": 7838,
      "Ġremembered": 7839,
      "Ġpharmaceutical": 7840,
      "Ġretirement": 7841,
      "Ġproportion": 7842,
      "Ġprosperity": 7843,
      "Ġconclude": 7844,
      "Ġparalyzed": 7845,
      "Ġemphas": 7846,
      "ĠAugust": 7847,
      "Ġunprecedented": 7848,
      "Ġwhatsoever": 7849,
      "DA": 7850,
      "jo": 7851,
      "oe": 7852,
      "tail": 7853,
      "yal": 7854,
      "Ġtear": 7855,
      "Ġtip": 7856,
      "Ġthrew": 7857,
      "ini": 7858,
      "Ġwaters": 7859,
      "Ġcas": 7860,
      "isy": 7861,
      "onic": 7862,
      "Ġfib": 7863,
      "Ġdiver": 7864,
      "Ġdressed": 7865,
      "oral": 7866,
      "Ġlone": 7867,
      "omb": 7868,
      "Ġgig": 7869,
      "Ġgang": 7870,
      "asm": 7871,
      "Ġnom": 7872,
      "Ġnative": 7873,
      "Ġnerve": 7874,
      "Ġwhis": 7875,
      "ownt": 7876,
      "ĠAcc": 7877,
      "Ġrecess": 7878,
      "Ġonstage": 7879,
      "ĠScient": 7880,
      "ĠSudd": 7881,
      "Ġstrain": 7882,
      "keys": 7883,
      "ĠWo": 7884,
      "thur": 7885,
      "ĠBet": 7886,
      "Ġsharp": 7887,
      "Ġhealing": 7888,
      "Ġmeals": 7889,
      "ulin": 7890,
      "usted": 7891,
      "Ġdece": 7892,
      "ĠMat": 7893,
      "ĠMill": 7894,
      "ĠMedic": 7895,
      "Ġvoting": 7896,
      "ĠColl": 7897,
      "Ġupset": 7898,
      "Ġcompos": 7899,
      "ĠED": 7900,
      "ĠPan": 7901,
      "abul": 7902,
      "ĠDV": 7903,
      "Ġexpans": 7904,
      "ĠGlobal": 7905,
      "ĠLib": 7906,
      "Ġclay": 7907,
      "ĠRay": 7908,
      "Ġarmed": 7909,
      "ĠJud": 7910,
      "Ġdescription": 7911,
      "Ġgras": 7912,
      "Ġcommod": 7913,
      "Ġwriters": 7914,
      "Ġblame": 7915,
      "Ġremaining": 7916,
      "Ġarticles": 7917,
      "Ġinterrupt": 7918,
      "Ġintervention": 7919,
      "Ġattribut": 7920,
      "Ġeconomist": 7921,
      "Ġhomework": 7922,
      "Ġbiote": 7923,
      "Ġvalid": 7924,
      "Ġeducated": 7925,
      "Ġaircraft": 7926,
      "Ġfiguring": 7927,
      "Ġglimp": 7928,
      "ĠOrgan": 7929,
      "ĠFriday": 7930,
      "ĠShow": 7931,
      "Ġfreely": 7932,
      "Ġsecrets": 7933,
      "Ġdelay": 7934,
      "venth": 7935,
      "Ġcalories": 7936,
      "Ġgeek": 7937,
      "Ġobserve": 7938,
      "Ġobservation": 7939,
      "Ġresponses": 7940,
      "ascular": 7941,
      "Ġfavel": 7942,
      "Ġprinter": 7943,
      "Ġleaf": 7944,
      "Ġaccounts": 7945,
      "Ġmindset": 7946,
      "ĠQue": 7947,
      "Ġcapitalism": 7948,
      "Ġstraightforward": 7949,
      "ĠIranian": 7950,
      "Ġpanels": 7951,
      "ĠNeander": 7952,
      "ĠWilliam": 7953,
      "ĠNorway": 7954,
      "Ġwidely": 7955,
      "Ġmammals": 7956,
      "Ġfabulous": 7957,
      "Ġphysician": 7958,
      "Ġroute": 7959,
      "Ġpreviously": 7960,
      "Ġintuition": 7961,
      "Ġenterpr": 7962,
      "ĠAcadem": 7963,
      "Ġbriefly": 7964,
      "Ġskept": 7965,
      "ĠPalestin": 7966,
      "Ġconservative": 7967,
      "Ġinfinite": 7968,
      "Ġbubbles": 7969,
      "Ġmatrix": 7970,
      "Ġtongue": 7971,
      "Ġubiquitous": 7972,
      "ĠSoviet": 7973,
      "ĠOctober": 7974,
      "ĠTexas": 7975,
      "MA": 7976,
      "half": 7977,
      "wind": 7978,
      "Ġaward": 7979,
      "inarily": 7980,
      "erved": 7981,
      "osaur": 7982,
      "Ġhiding": 7983,
      "Ġpile": 7984,
      "Ġpunch": 7985,
      "Ġpanc": 7986,
      "Ġfiring": 7987,
      "Ġinches": 7988,
      "icial": 7989,
      "Ġnerd": 7990,
      "Ġwet": 7991,
      "Ġbeating": 7992,
      "igation": 7993,
      "Ġstability": 7994,
      "ĠWol": 7995,
      "amas": 7996,
      "Ġchron": 7997,
      "ĠNet": 7998,
      "ĠHad": 7999
    },
    "merges": [
      [
        "Ġ",
        "t"
      ],
      [
        "Ġt",
        "h"
      ],
      [
        "Ġ",
        "a"
      ],
      [
        "i",
        "n"
      ],
      [
        "Ġ",
        ","
      ],
      [
        "Ġ",
        "w"
      ],
      [
        "Ġth",
        "e"
      ],
      [
        "r",
        "e"
      ],
      [
        "Ġ",
        "."
      ],
      [
        "Ġ",
        "o"
      ],
      [
        "Ġ",
        "s"
      ],
      [
        "a",
        "t"
      ],
      [
        "n",
        "d"
      ],
      [
        "e",
        "r"
      ],
      [
        "o",
        "u"
      ],
      [
        "Ġ",
        "c"
      ],
      [
        "i",
        "s"
      ],
      [
        "Ġ",
        "&"
      ],
      [
        "i",
        "t"
      ],
      [
        "o",
        "s"
      ],
      [
        "Ġ",
        "b"
      ],
      [
        "in",
        "g"
      ],
      [
        "Ġ",
        "m"
      ],
      [
        "e",
        "n"
      ],
      [
        "a",
        "p"
      ],
      [
        "Ġ",
        "h"
      ],
      [
        "o",
        "n"
      ],
      [
        "Ġt",
        "o"
      ],
      [
        "Ġ",
        "p"
      ],
      [
        "Ġ",
        "f"
      ],
      [
        "e",
        "s"
      ],
      [
        "a",
        "n"
      ],
      [
        "ap",
        "os"
      ],
      [
        "Ġ",
        "d"
      ],
      [
        "o",
        "r"
      ],
      [
        "Ġo",
        "f"
      ],
      [
        "a",
        "l"
      ],
      [
        "Ġ",
        "I"
      ],
      [
        "Ġ",
        "in"
      ],
      [
        "Ġa",
        "nd"
      ],
      [
        "e",
        "d"
      ],
      [
        "Ġ",
        "l"
      ],
      [
        "a",
        "r"
      ],
      [
        "o",
        "t"
      ],
      [
        "Ġ",
        "y"
      ],
      [
        "Ġth",
        "at"
      ],
      [
        "o",
        "m"
      ],
      [
        "Ġ",
        "g"
      ],
      [
        "a",
        "s"
      ],
      [
        "i",
        "c"
      ],
      [
        "l",
        "e"
      ],
      [
        "v",
        "e"
      ],
      [
        "Ġy",
        "ou"
      ],
      [
        "l",
        "l"
      ],
      [
        "Ġ",
        "n"
      ],
      [
        "Ġw",
        "e"
      ],
      [
        "Ġw",
        "h"
      ],
      [
        "o",
        "w"
      ],
      [
        "Ġ",
        "e"
      ],
      [
        "Ġ",
        "A"
      ],
      [
        "u",
        "s"
      ],
      [
        "Ġ",
        "is"
      ],
      [
        "l",
        "y"
      ],
      [
        "Ġb",
        "e"
      ],
      [
        "u",
        "t"
      ],
      [
        "i",
        "on"
      ],
      [
        "Ġ",
        "it"
      ],
      [
        "e",
        "t"
      ],
      [
        "Ġ",
        "T"
      ],
      [
        "Ġ",
        "re"
      ],
      [
        "en",
        "t"
      ],
      [
        "q",
        "u"
      ],
      [
        "c",
        "t"
      ],
      [
        "Ġo",
        "n"
      ],
      [
        "l",
        "d"
      ],
      [
        "v",
        "er"
      ],
      [
        "a",
        "y"
      ],
      [
        "i",
        "d"
      ],
      [
        "ĠT",
        "h"
      ],
      [
        "ĠA",
        "nd"
      ],
      [
        "Ġh",
        "a"
      ],
      [
        "i",
        "m"
      ],
      [
        "Ġ",
        "S"
      ],
      [
        "Ġth",
        "is"
      ],
      [
        "u",
        "r"
      ],
      [
        "i",
        "g"
      ],
      [
        "Ġs",
        "t"
      ],
      [
        "c",
        "h"
      ],
      [
        "e",
        "re"
      ],
      [
        "qu",
        "ot"
      ],
      [
        "r",
        "o"
      ],
      [
        "k",
        "e"
      ],
      [
        "Ġf",
        "or"
      ],
      [
        "c",
        "e"
      ],
      [
        "Ġ",
        "W"
      ],
      [
        "i",
        "f"
      ],
      [
        "s",
        "e"
      ],
      [
        "Ġw",
        "as"
      ],
      [
        "i",
        "r"
      ],
      [
        "a",
        "m"
      ],
      [
        "o",
        "p"
      ],
      [
        "it",
        "h"
      ],
      [
        "Ġa",
        "n"
      ],
      [
        "Ġd",
        "o"
      ],
      [
        "s",
        "t"
      ],
      [
        "Ġa",
        "re"
      ],
      [
        "o",
        "l"
      ],
      [
        "al",
        "ly"
      ],
      [
        "Ġw",
        "ith"
      ],
      [
        "t",
        "h"
      ],
      [
        "Ġha",
        "ve"
      ],
      [
        "r",
        "a"
      ],
      [
        "Ġa",
        "b"
      ],
      [
        "Ġg",
        "o"
      ],
      [
        "Ġ",
        "u"
      ],
      [
        "Ġthe",
        "y"
      ],
      [
        "Ġs",
        "e"
      ],
      [
        "Ġc",
        "an"
      ],
      [
        "Ġ",
        "k"
      ],
      [
        "Ġ",
        "B"
      ],
      [
        "at",
        "ion"
      ],
      [
        "Ġa",
        "s"
      ],
      [
        "Ġ",
        "-"
      ],
      [
        "Ġ-",
        "-"
      ],
      [
        "ou",
        "t"
      ],
      [
        "h",
        "t"
      ],
      [
        "Ġl",
        "i"
      ],
      [
        "Ġs",
        "h"
      ],
      [
        "Ġw",
        "or"
      ],
      [
        "a",
        "d"
      ],
      [
        "ĠS",
        "o"
      ],
      [
        "Ġ",
        "?"
      ],
      [
        "Ġwh",
        "at"
      ],
      [
        "Ġh",
        "e"
      ],
      [
        "o",
        "d"
      ],
      [
        "Ġm",
        "e"
      ],
      [
        "ou",
        "ld"
      ],
      [
        "Ġc",
        "om"
      ],
      [
        "i",
        "ll"
      ],
      [
        "ver",
        "y"
      ],
      [
        "Ġn",
        "e"
      ],
      [
        "Ġa",
        "t"
      ],
      [
        "Ġab",
        "out"
      ],
      [
        "g",
        "e"
      ],
      [
        "t",
        "er"
      ],
      [
        "an",
        "t"
      ],
      [
        "Ġn",
        "ot"
      ],
      [
        "u",
        "l"
      ],
      [
        "i",
        "l"
      ],
      [
        "Ġs",
        "o"
      ],
      [
        "o",
        "re"
      ],
      [
        "ĠTh",
        "e"
      ],
      [
        "Ġf",
        "r"
      ],
      [
        "Ġa",
        "ll"
      ],
      [
        "us",
        "t"
      ],
      [
        "er",
        "s"
      ],
      [
        "Ġ",
        "j"
      ],
      [
        "Ġe",
        "x"
      ],
      [
        "Ġc",
        "h"
      ],
      [
        "Ġd",
        "e"
      ],
      [
        "Ġ",
        "r"
      ],
      [
        "Ġ",
        "us"
      ],
      [
        "Ġm",
        "y"
      ],
      [
        "ig",
        "ht"
      ],
      [
        "Ġs",
        "om"
      ],
      [
        "Ġp",
        "ro"
      ],
      [
        "Ġp",
        "e"
      ],
      [
        "e",
        "ar"
      ],
      [
        "Ġo",
        "r"
      ],
      [
        "ar",
        "t"
      ],
      [
        "es",
        "s"
      ],
      [
        "op",
        "le"
      ],
      [
        "ĠW",
        "e"
      ],
      [
        "Ġthe",
        "re"
      ],
      [
        "Ġc",
        "on"
      ],
      [
        "c",
        "k"
      ],
      [
        "at",
        "e"
      ],
      [
        "Ġpe",
        "ople"
      ],
      [
        "ĠI",
        "t"
      ],
      [
        "Ġli",
        "ke"
      ],
      [
        "u",
        "m"
      ],
      [
        "u",
        "re"
      ],
      [
        "i",
        "es"
      ],
      [
        "o",
        "k"
      ],
      [
        "Ġ",
        "N"
      ],
      [
        "i",
        "ve"
      ],
      [
        "Ġon",
        "e"
      ],
      [
        "Ġfr",
        "om"
      ],
      [
        "es",
        "t"
      ],
      [
        "is",
        "t"
      ],
      [
        "it",
        "y"
      ],
      [
        "n",
        "t"
      ],
      [
        "Ġl",
        "o"
      ],
      [
        "b",
        "le"
      ],
      [
        "Ġ",
        "H"
      ],
      [
        "Ġm",
        "a"
      ],
      [
        "Ġ",
        "M"
      ],
      [
        "Ġk",
        "n"
      ],
      [
        "Ġo",
        "ur"
      ],
      [
        "us",
        "e"
      ],
      [
        "Ġbe",
        "c"
      ],
      [
        "Ġ",
        "v"
      ],
      [
        "in",
        "d"
      ],
      [
        "Ġb",
        "ut"
      ],
      [
        "Ġt",
        "e"
      ],
      [
        "e",
        "ct"
      ],
      [
        "r",
        "ou"
      ],
      [
        "Ġo",
        "ut"
      ],
      [
        "Ġa",
        "l"
      ],
      [
        "in",
        "k"
      ],
      [
        "Ġ",
        ":"
      ],
      [
        "al",
        "l"
      ],
      [
        "Ġin",
        "t"
      ],
      [
        "u",
        "n"
      ],
      [
        "Ġ",
        "C"
      ],
      [
        "a",
        "use"
      ],
      [
        "Ġj",
        "ust"
      ],
      [
        "id",
        "e"
      ],
      [
        "Ġkn",
        "ow"
      ],
      [
        "Ġs",
        "p"
      ],
      [
        "a",
        "nd"
      ],
      [
        "Ġthe",
        "m"
      ],
      [
        "Ġth",
        "ing"
      ],
      [
        "i",
        "e"
      ],
      [
        "Ġt",
        "r"
      ],
      [
        "ĠB",
        "ut"
      ],
      [
        "Ġse",
        "e"
      ],
      [
        "Ġthe",
        "se"
      ],
      [
        "h",
        "er"
      ],
      [
        "Ġ",
        "if"
      ],
      [
        "or",
        "t"
      ],
      [
        "c",
        "i"
      ],
      [
        "Ġwh",
        "o"
      ],
      [
        "Ġu",
        "p"
      ],
      [
        "Ġ",
        "Y"
      ],
      [
        "Ġth",
        "ink"
      ],
      [
        "Ġ",
        "very"
      ],
      [
        "Ġg",
        "et"
      ],
      [
        "e",
        "l"
      ],
      [
        "ic",
        "h"
      ],
      [
        "Ġb",
        "y"
      ],
      [
        "on",
        "e"
      ],
      [
        "Ġwh",
        "en"
      ],
      [
        "a",
        "in"
      ],
      [
        "Ġp",
        "l"
      ],
      [
        "Ġa",
        "ct"
      ],
      [
        "Ġyou",
        "r"
      ],
      [
        "Ġm",
        "ore"
      ],
      [
        "Ġ",
        "1"
      ],
      [
        "i",
        "v"
      ],
      [
        "ĠW",
        "h"
      ],
      [
        "Ġsom",
        "e"
      ],
      [
        "Ġgo",
        "ing"
      ],
      [
        "Ġ",
        "im"
      ],
      [
        "Ġy",
        "ear"
      ],
      [
        "Ġbec",
        "ause"
      ],
      [
        "e",
        "m"
      ],
      [
        "Ġha",
        "d"
      ],
      [
        "ou",
        "r"
      ],
      [
        "Ġs",
        "a"
      ],
      [
        "Ġw",
        "ould"
      ],
      [
        "os",
        "t"
      ],
      [
        "Ġwe",
        "re"
      ],
      [
        "o",
        "g"
      ],
      [
        "Ġh",
        "ow"
      ],
      [
        "am",
        "e"
      ],
      [
        "Ġthe",
        "ir"
      ],
      [
        "in",
        "e"
      ],
      [
        "Ġ",
        "O"
      ],
      [
        "Ġt",
        "im"
      ],
      [
        "os",
        "e"
      ],
      [
        "as",
        "t"
      ],
      [
        "Ġwh",
        "ich"
      ],
      [
        "m",
        "ent"
      ],
      [
        "Ġwor",
        "k"
      ],
      [
        "Ġs",
        "u"
      ],
      [
        "Ġw",
        "ant"
      ],
      [
        "Ġre",
        "ally"
      ],
      [
        "Ġlo",
        "ok"
      ],
      [
        "i",
        "z"
      ],
      [
        "u",
        "ally"
      ],
      [
        "a",
        "re"
      ],
      [
        "Ġcom",
        "p"
      ],
      [
        "g",
        "h"
      ],
      [
        "0",
        "0"
      ],
      [
        "a",
        "ct"
      ],
      [
        "re",
        "at"
      ],
      [
        "ou",
        "s"
      ],
      [
        "ar",
        "d"
      ],
      [
        "Ġw",
        "ay"
      ],
      [
        "Ġ",
        "E"
      ],
      [
        "a",
        "ck"
      ],
      [
        "Ġ",
        "en"
      ],
      [
        "Ġt",
        "a"
      ],
      [
        "Ġwor",
        "ld"
      ],
      [
        "Ġ",
        "P"
      ],
      [
        "a",
        "b"
      ],
      [
        "h",
        "ing"
      ],
      [
        "Ġl",
        "e"
      ],
      [
        "Ġ",
        "D"
      ],
      [
        "ĠY",
        "ou"
      ],
      [
        "an",
        "s"
      ],
      [
        "Ġex",
        "p"
      ],
      [
        "a",
        "g"
      ],
      [
        "th",
        "er"
      ],
      [
        "Ġh",
        "ere"
      ],
      [
        "on",
        "g"
      ],
      [
        "Ġthe",
        "n"
      ],
      [
        "Ġtim",
        "e"
      ],
      [
        "Ġh",
        "as"
      ],
      [
        "ĠTh",
        "is"
      ],
      [
        "Ġ",
        "G"
      ],
      [
        "p",
        "p"
      ],
      [
        "Ġ",
        "L"
      ],
      [
        "ion",
        "s"
      ],
      [
        "Ġe",
        "very"
      ],
      [
        "Ġp",
        "er"
      ],
      [
        "Ġs",
        "ay"
      ],
      [
        "ap",
        "p"
      ],
      [
        "al",
        "k"
      ],
      [
        "a",
        "ge"
      ],
      [
        "Ġd",
        "on"
      ],
      [
        "Ġact",
        "ually"
      ],
      [
        "Ġm",
        "an"
      ],
      [
        "Ġ",
        "qu"
      ],
      [
        "Ġint",
        "o"
      ],
      [
        "Ġe",
        "v"
      ],
      [
        "a",
        "ce"
      ],
      [
        "Ġc",
        "ould"
      ],
      [
        "u",
        "d"
      ],
      [
        "en",
        "ce"
      ],
      [
        "re",
        "s"
      ],
      [
        "Ġw",
        "ill"
      ],
      [
        "i",
        "ld"
      ],
      [
        "Ġ",
        "F"
      ],
      [
        "Ġf",
        "e"
      ],
      [
        "Ġyear",
        "s"
      ],
      [
        "Ġd",
        "id"
      ],
      [
        "Ġn",
        "ow"
      ],
      [
        "Ġo",
        "ther"
      ],
      [
        "ĠN",
        "ow"
      ],
      [
        "ĠI",
        "n"
      ],
      [
        "a",
        "ch"
      ],
      [
        "Ġthing",
        "s"
      ],
      [
        "Ġa",
        "g"
      ],
      [
        "it",
        "t"
      ],
      [
        "Ġwh",
        "ere"
      ],
      [
        "if",
        "f"
      ],
      [
        "nd",
        "er"
      ],
      [
        "Ġn",
        "o"
      ],
      [
        "f",
        "f"
      ],
      [
        "ĠThe",
        "y"
      ],
      [
        "ic",
        "al"
      ],
      [
        "Ġsom",
        "et"
      ],
      [
        "ic",
        "e"
      ],
      [
        "Ġd",
        "iff"
      ],
      [
        "Ġh",
        "app"
      ],
      [
        "Ġma",
        "ke"
      ],
      [
        "Ġne",
        "ed"
      ],
      [
        "Ġu",
        "n"
      ],
      [
        "Ġan",
        "y"
      ],
      [
        "Ġth",
        "an"
      ],
      [
        "Ġt",
        "w"
      ],
      [
        "Ġc",
        "l"
      ],
      [
        "Ġp",
        "r"
      ],
      [
        "Ġbe",
        "en"
      ],
      [
        "Ġ",
        "R"
      ],
      [
        "i",
        "p"
      ],
      [
        "s",
        "o"
      ],
      [
        "Ġim",
        "p"
      ],
      [
        "ir",
        "st"
      ],
      [
        "om",
        "e"
      ],
      [
        "Ġsa",
        "id"
      ],
      [
        "Ġst",
        "art"
      ],
      [
        "Ġ",
        "2"
      ],
      [
        "i",
        "a"
      ],
      [
        "Ġa",
        "r"
      ],
      [
        "if",
        "e"
      ],
      [
        "re",
        "d"
      ],
      [
        "Ġp",
        "art"
      ],
      [
        "or",
        "y"
      ],
      [
        "re",
        "e"
      ],
      [
        "r",
        "y"
      ],
      [
        "p",
        "t"
      ],
      [
        "Ġc",
        "o"
      ],
      [
        "Ġo",
        "ver"
      ],
      [
        "Ġb",
        "u"
      ],
      [
        "Ġsomet",
        "hing"
      ],
      [
        "Ġtw",
        "o"
      ],
      [
        "ow",
        "n"
      ],
      [
        "u",
        "ch"
      ],
      [
        "it",
        "e"
      ],
      [
        "or",
        "m"
      ],
      [
        "Ġr",
        "ight"
      ],
      [
        "Ġd",
        "is"
      ],
      [
        "ou",
        "nt"
      ],
      [
        "as",
        "s"
      ],
      [
        "an",
        "g"
      ],
      [
        "rou",
        "nd"
      ],
      [
        "Ġb",
        "ack"
      ],
      [
        "ig",
        "n"
      ],
      [
        "Ġm",
        "uch"
      ],
      [
        "e",
        "p"
      ],
      [
        "i",
        "b"
      ],
      [
        "Ġdiff",
        "ere"
      ],
      [
        "ou",
        "nd"
      ],
      [
        "Ġf",
        "irst"
      ],
      [
        "Ġne",
        "w"
      ],
      [
        "se",
        "l"
      ],
      [
        "a",
        "c"
      ],
      [
        "Ġc",
        "all"
      ],
      [
        "en",
        "s"
      ],
      [
        "Ġsh",
        "e"
      ],
      [
        "Ġt",
        "alk"
      ],
      [
        "u",
        "e"
      ],
      [
        "Ġth",
        "ose"
      ],
      [
        "Ġ",
        "J"
      ],
      [
        "ra",
        "in"
      ],
      [
        "Ġp",
        "o"
      ],
      [
        "Ġm",
        "o"
      ],
      [
        "Ġal",
        "so"
      ],
      [
        "ol",
        "og"
      ],
      [
        "Ġsp",
        "e"
      ],
      [
        "at",
        "er"
      ],
      [
        "v",
        "es"
      ],
      [
        "Ġg",
        "ot"
      ],
      [
        "c",
        "ent"
      ],
      [
        "l",
        "o"
      ],
      [
        "Ġ",
        "ro"
      ],
      [
        "Ġl",
        "ife"
      ],
      [
        "g",
        "ht"
      ],
      [
        "Ġcon",
        "t"
      ],
      [
        "k",
        "ing"
      ],
      [
        "ul",
        "t"
      ],
      [
        "Ġl",
        "ot"
      ],
      [
        "Ġk",
        "ind"
      ],
      [
        "p",
        "le"
      ],
      [
        "itt",
        "le"
      ],
      [
        "Ġa",
        "c"
      ],
      [
        "Ġl",
        "ittle"
      ],
      [
        "ve",
        "l"
      ],
      [
        "w",
        "ay"
      ],
      [
        "Ġu",
        "nder"
      ],
      [
        "Ġbe",
        "t"
      ],
      [
        "od",
        "y"
      ],
      [
        "Ġh",
        "is"
      ],
      [
        "ĠTh",
        "at"
      ],
      [
        "b",
        "er"
      ],
      [
        "Ġm",
        "ost"
      ],
      [
        "os",
        "s"
      ],
      [
        "r",
        "u"
      ],
      [
        "v",
        "ing"
      ],
      [
        "Ġp",
        "h"
      ],
      [
        "Ġa",
        "m"
      ],
      [
        "Ġf",
        "o"
      ],
      [
        "Ġre",
        "s"
      ],
      [
        "e",
        "ll"
      ],
      [
        "Ġd",
        "ay"
      ],
      [
        "Ġon",
        "ly"
      ],
      [
        "at",
        "ed"
      ],
      [
        "a",
        "ble"
      ],
      [
        "Ġev",
        "en"
      ],
      [
        "ation",
        "s"
      ],
      [
        "ĠWh",
        "at"
      ],
      [
        "Ġh",
        "er"
      ],
      [
        "i",
        "al"
      ],
      [
        "Ġd",
        "es"
      ],
      [
        "c",
        "o"
      ],
      [
        "Ġa",
        "d"
      ],
      [
        "ic",
        "t"
      ],
      [
        "Ġb",
        "o"
      ],
      [
        "Ġman",
        "y"
      ],
      [
        "Ġta",
        "ke"
      ],
      [
        "Ġdiffere",
        "nt"
      ],
      [
        "Ġ",
        ";"
      ],
      [
        "rou",
        "gh"
      ],
      [
        "Ġgo",
        "od"
      ],
      [
        "an",
        "k"
      ],
      [
        "Ġs",
        "y"
      ],
      [
        "i",
        "re"
      ],
      [
        "Ġsh",
        "ow"
      ],
      [
        "d",
        "u"
      ],
      [
        "Ġh",
        "um"
      ],
      [
        "ic",
        "k"
      ],
      [
        "Ġe",
        "m"
      ],
      [
        "Ġre",
        "al"
      ],
      [
        "an",
        "ce"
      ],
      [
        "Ġ",
        "ide"
      ],
      [
        "Ġ",
        "U"
      ],
      [
        "as",
        "e"
      ],
      [
        "Ġg",
        "r"
      ],
      [
        "Ġth",
        "rough"
      ],
      [
        "Ġa",
        "round"
      ],
      [
        "in",
        "t"
      ],
      [
        "Ġdo",
        "es"
      ],
      [
        "c",
        "ess"
      ],
      [
        "ĠH",
        "e"
      ],
      [
        "ot",
        "her"
      ],
      [
        "ĠTh",
        "ere"
      ],
      [
        "a",
        "k"
      ],
      [
        "n",
        "ing"
      ],
      [
        "Ġp",
        "re"
      ],
      [
        "Ġcom",
        "m"
      ],
      [
        "is",
        "h"
      ],
      [
        "ent",
        "s"
      ],
      [
        "f",
        "orm"
      ],
      [
        "Ġte",
        "ll"
      ],
      [
        "Ġof",
        "f"
      ],
      [
        "Ġd",
        "own"
      ],
      [
        "m",
        "s"
      ],
      [
        "an",
        "ge"
      ],
      [
        "Ġbe",
        "ing"
      ],
      [
        "at",
        "h"
      ],
      [
        "Ġp",
        "ut"
      ],
      [
        "res",
        "s"
      ],
      [
        "Ġus",
        "e"
      ],
      [
        "Ġw",
        "r"
      ],
      [
        "i",
        "ble"
      ],
      [
        "Ġth",
        "ou"
      ],
      [
        "Ġpro",
        "ble"
      ],
      [
        "f",
        "ul"
      ],
      [
        "ad",
        "e"
      ],
      [
        "w",
        "n"
      ],
      [
        "Ġhapp",
        "en"
      ],
      [
        "Ġs",
        "m"
      ],
      [
        "or",
        "s"
      ],
      [
        "l",
        "es"
      ],
      [
        "ar",
        "k"
      ],
      [
        "ar",
        "y"
      ],
      [
        "Ġin",
        "c"
      ],
      [
        "x",
        "t"
      ],
      [
        "et",
        "her"
      ],
      [
        "j",
        "ect"
      ],
      [
        "Ġf",
        "act"
      ],
      [
        "u",
        "al"
      ],
      [
        "ĠC",
        "h"
      ],
      [
        "d",
        "ay"
      ],
      [
        "Ġs",
        "ame"
      ],
      [
        "Ġc",
        "ount"
      ],
      [
        "ĠWe",
        "ll"
      ],
      [
        "le",
        "ct"
      ],
      [
        "i",
        "ver"
      ],
      [
        "or",
        "d"
      ],
      [
        "Ġs",
        "c"
      ],
      [
        "n",
        "e"
      ],
      [
        "Ġb",
        "r"
      ],
      [
        "Ġm",
        "ay"
      ],
      [
        "ow",
        "er"
      ],
      [
        "Ġtr",
        "y"
      ],
      [
        "Ġcom",
        "e"
      ],
      [
        "c",
        "es"
      ],
      [
        "Ġb",
        "ig"
      ],
      [
        "st",
        "em"
      ],
      [
        "y",
        "s"
      ],
      [
        "ĠI",
        "f"
      ],
      [
        "t",
        "ing"
      ],
      [
        "i",
        "le"
      ],
      [
        "Ġg",
        "en"
      ],
      [
        "Ġp",
        "ers"
      ],
      [
        "p",
        "er"
      ],
      [
        "ur",
        "n"
      ],
      [
        "ar",
        "s"
      ],
      [
        "ter",
        "n"
      ],
      [
        "Ġth",
        "ree"
      ],
      [
        "Ġdo",
        "ing"
      ],
      [
        "Ġde",
        "c"
      ],
      [
        "v",
        "ed"
      ],
      [
        "Ġf",
        "ind"
      ],
      [
        "Ġg",
        "reat"
      ],
      [
        "on",
        "s"
      ],
      [
        "Ġs",
        "ur"
      ],
      [
        "Ġexp",
        "er"
      ],
      [
        "ch",
        "n"
      ],
      [
        "ic",
        "ally"
      ],
      [
        "sel",
        "f"
      ],
      [
        "t",
        "e"
      ],
      [
        "Ġhum",
        "an"
      ],
      [
        "Ġ",
        "K"
      ],
      [
        "Ġper",
        "cent"
      ],
      [
        "ci",
        "al"
      ],
      [
        "Ġqu",
        "est"
      ],
      [
        "f",
        "ter"
      ],
      [
        "Ġt",
        "ra"
      ],
      [
        "Ġwe",
        "ll"
      ],
      [
        "Ġb",
[...]
