{
  "version": "1.0",
  "truncation": null,
  "padding": null,
  "added_tokens": [
    {
      "id": 0,
      "content": "<pad>",
      "single_word": false,
      "lstrip": false,
      "rstrip": false,
      "normalized": false,
      "special": true
    },
    {
      "id": 1,
      "content": "<sos>",
      "single_word": false,
      "lstrip": false,
      "rstrip": false,
      "normalized": false,
      "special": true
    },
    {
      "id": 2,
      "content": "<eos>",
      "single_word": false,
      "lstrip": false,
      "rstrip": false,
      "normalized": false,
      "special": true
    },
    {
      "id": 3,
      "content": "<unk>",
      "single_word": false,
      "lstrip": false,
      "rstrip": false,
      "normalized": false,
      "special": true
    }
  ],
  "normalizer": null,
  "pre_tokenizer": {
    "type": "Whitespace"
  },
  "post_processor": null,
  "decoder": null,
  "model": {
    "type": "BPE",
    "dropout": null,
    "unk_token": "<unk>",
    "continuing_subword_prefix": null,
    "end_of_word_suffix": null,
    "fuse_unk": false,
    "byte_fallback": false,
    "ignore_merges": false,
    "vocab": {
      "<pad>": 0,
      "<sos>": 1,
      "<eos>": 2,
      "<unk>": 3,
      "\u0002": 4,
      "!": 5,
      "\"": 6,
      "#": 7,
      "$": 8,
      "%": 9,
      "&": 10,
      "'": 11,
      "(": 12,
      ")": 13,
      "*": 14,
      "+": 15,
      ",": 16,
      "-": 17,
      ".": 18,
      "/": 19,
      "0": 20,
      "1": 21,
      "2": 22,
      "3": 23,
      "4": 24,
      "5": 25,
      "6": 26,
      "7": 27,
      "8": 28,
      "9": 29,
      ":": 30,
      ";": 31,
      "<": 32,
      "=": 33,
      ">": 34,
      "?": 35,
      "@": 36,
      "A": 37,
      "B": 38,
      "C": 39,
      "D": 40,
      "E": 41,
      "F": 42,
      "G": 43,
      "H": 44,
      "I": 45,
      "J": 46,
      "K": 47,
      "L": 48,
      "M": 49,
      "N": 50,
      "O": 51,
      "P": 52,
      "Q": 53,
      "R": 54,
      "S": 55,
      "T": 56,
      "U": 57,
      "V": 58,
      "W": 59,
      "X": 60,
      "Y": 61,
      "Z": 62,
      "[": 63,
      "\\": 64,
      "]": 65,
      "^": 66,
      "_": 67,
      "`": 68,
      "a": 69,
      "b": 70,
      "c": 71,
      "d": 72,
      "e": 73,
      "f": 74,
      "g": 75,
      "h": 76,
      "i": 77,
      "j": 78,
      "k": 79,
      "l": 80,
      "m": 81,
      "n": 82,
      "o": 83,
      "p": 84,
      "q": 85,
      "r": 86,
      "s": 87,
      "t": 88,
      "u": 89,
      "v": 90,
      "w": 91,
      "x": 92,
      "y": 93,
      "z": 94,
      "{": 95,
      "|": 96,
      "}": 97,
      "~": 98,
      "¢": 99,
      "£": 100,
      "¥": 101,
      "§": 102,
      "©": 103,
      "ª": 104,
      "«": 105,
      "¬": 106,
      "­": 107,
      "®": 108,
      "°": 109,
      "±": 110,
      "²": 111,
      "³": 112,
      "´": 113,
      "µ": 114,
      "·": 115,
      "¹": 116,
      "º": 117,
      "»": 118,
      "¼": 119,
      "½": 120,
      "¾": 121,
      "À": 122,
      "Á": 123,
      "Â": 124,
      "Ã": 125,
      "Å": 126,
      "È": 127,
      "É": 128,
      "Ê": 129,
      "Ì": 130,
      "Í": 131,
      "Ï": 132,
      "Ð": 133,
      "Ñ": 134,
      "Ò": 135,
      "Ó": 136,
      "Ô": 137,
      "Õ": 138,
      "×": 139,
      "Ù": 140,
      "Ú": 141,
      "Ý": 142,
      "ß": 143,
      "à": 144,
      "á": 145,
      "â": 146,
      "ã": 147,
      "ä": 148,
      "æ": 149,
      "ç": 150,
      "è": 151,
      "é": 152,
      "ê": 153,
      "ë": 154,
      "ì": 155,
      "í": 156,
      "ï": 157,
      "ð": 158,
      "ñ": 159,
      "ò": 160,
      "ó": 161,
      "ô": 162,
      "õ": 163,
      "ö": 164,
      "÷": 165,
      "ø": 166,
      "ù": 167,
      "ú": 168,
      "û": 169,
      "ü": 170,
      "ý": 171,
      "Ă": 172,
      "ă": 173,
      "Đ": 174,
      "đ": 175,
      "ė": 176,
      "Ĩ": 177,
      "ĩ": 178,
      "ł": 179,
      "ŋ": 180,
      "œ": 181,
      "Ũ": 182,
      "ũ": 183,
      "ŷ": 184,
      "Ơ": 185,
      "ơ": 186,
      "ƣ": 187,
      "Ư": 188,
      "ư": 189,
      "ȃ": 190,
      "ɣ": 191,
      "ʹ": 192,
      "ʼ": 193,
      "˂": 194,
      "˃": 195,
      "˚": 196,
      "̀": 197,
      "́": 198,
      "̃": 199,
      "̈": 200,
      "̉": 201,
      "̣": 202,
      "̴": 203,
      "Α": 204,
      "Β": 205,
      "Δ": 206,
      "Ω": 207,
      "α": 208,
      "β": 209,
      "γ": 210,
      "δ": 211,
      "ε": 212,
      "ζ": 213,
      "θ": 214,
      "κ": 215,
      "λ": 216,
      "μ": 217,
      "ο": 218,
      "π": 219,
      "ρ": 220,
      "υ": 221,
      "χ": 222,
      "ω": 223,
      "І": 224,
      "а": 225,
      "б": 226,
      "і": 227,
      "қ": 228,
      "ᵒ": 229,
      "ᵡ": 230,
      "ᵧ": 231,
      "Ẋ": 232,
      "Ạ": 233,
      "ạ": 234,
      "Ả": 235,
      "ả": 236,
      "Ấ": 237,
      "ấ": 238,
      "Ầ": 239,
      "ầ": 240,
      "Ẩ": 241,
      "ẩ": 242,
      "Ẫ": 243,
      "ẫ": 244,
      "Ậ": 245,
      "ậ": 246,
      "Ắ": 247,
      "ắ": 248,
      "Ằ": 249,
      "ằ": 250,
      "Ẳ": 251,
      "ẳ": 252,
      "Ẵ": 253,
      "ẵ": 254,
      "Ặ": 255,
      "ặ": 256,
      "Ẹ": 257,
      "ẹ": 258,
      "Ẻ": 259,
      "ẻ": 260,
      "Ẽ": 261,
      "ẽ": 262,
      "Ế": 263,
      "ế": 264,
      "Ề": 265,
      "ề": 266,
      "Ể": 267,
      "ể": 268,
      "Ễ": 269,
      "ễ": 270,
      "Ệ": 271,
      "ệ": 272,
      "Ỉ": 273,
      "ỉ": 274,
      "Ị": 275,
      "ị": 276,
      "Ọ": 277,
      "ọ": 278,
      "Ỏ": 279,
      "ỏ": 280,
      "Ố": 281,
      "ố": 282,
      "Ồ": 283,
      "ồ": 284,
      "Ổ": 285,
      "ổ": 286,
      "Ỗ": 287,
      "ỗ": 288,
      "Ộ": 289,
      "ộ": 290,
      "Ớ": 291,
      "ớ": 292,
      "Ờ": 293,
      "ờ": 294,
      "Ở": 295,
      "ở": 296,
      "Ỡ": 297,
      "ỡ": 298,
      "Ợ": 299,
      "ợ": 300,
      "Ụ": 301,
      "ụ": 302,
      "Ủ": 303,
      "ủ": 304,
      "Ứ": 305,
      "ứ": 306,
      "Ừ": 307,
      "ừ": 308,
      "Ử": 309,
      "ử": 310,
      "Ữ": 311,
      "ữ": 312,
      "Ự": 313,
      "ự": 314,
      "Ỳ": 315,
      "ỳ": 316,
      "Ỵ": 317,
      "ỵ": 318,
      "Ỷ": 319,
      "ỷ": 320,
      "Ỹ": 321,
      "ỹ": 322,
      "ᾨ": 323,
      "​": 324,
      "‎": 325,
      "‐": 326,
      "‑": 327,
      "‒": 328,
      "–": 329,
      "—": 330,
      "―": 331,
      "‘": 332,
      "’": 333,
      "‚": 334,
      "‛": 335,
      "“": 336,
      "”": 337,
      "‟": 338,
      "†": 339,
      "‡": 340,
      "•": 341,
      "…": 342,
      "‬": 343,
      "‭": 344,
      "‰": 345,
      "′": 346,
      "⁄": 347,
      "⁰": 348,
      "⁺": 349,
      "₡": 350,
      "℃": 351,
      "™": 352,
      "⅓": 353,
      "Ⅱ": 354,
      "Ⅲ": 355,
      "←": 356,
      "↑": 357,
      "→": 358,
      "↓": 359,
      "↔": 360,
      "∆": 361,
      "−": 362,
      "∗": 363,
      "∛": 364,
      "≈": 365,
      "≡": 366,
      "≤": 367,
      "≥": 368,
      "─": 369,
      "●": 370,
      "◦": 371,
      "♦": 372,
      "✓": 373,
      "": 374,
      "": 375,
      "": 376,
      "": 377,
      "": 378,
      "": 379,
      "": 380,
      "": 381,
      "": 382,
      "": 383,
      "": 384,
      "": 385,
      "": 386,
      "": 387,
      "": 388,
      "": 389,
      "": 390,
      "": 391,
      "": 392,
      "": 393,
      "": 394,
      "": 395,
      "ﬀ": 396,
      "ﬁ": 397,
      "ﬂ": 398,
      "﻿": 399,
      "：": 400,
      "�": 401,
      "ng": 402,
      "th": 403,
      "nh": 404,
      "ti": 405,
      "tr": 406,
      "an": 407,
      "er": 408,
      "ch": 409,
      "on": 410,
      "in": 411,
      "en": 412,
      "al": 413,
      "re": 414,
      "or": 415,
      "es": 416,
      "ph": 417,
      "is": 418,
      "of": 419,
      "ed": 420,
      "the": 421,
      "as": 422,
      "at": 423,
      "ati": 424,
      "ar": 425,
      "kh": 426,
      "and": 427,
      "ic": 428,
      "và": 429,
      "to": 430,
      "ro": 431,
      "ent": 432,
      "iệ": 433,
      "ên": 434,
      "gi": 435,
      "ác": 436,
      "si": 437,
      "qu": 438,
      "ho": 439,
      "lo": 440,
      "ec": 441,
      "ac": 442,
      "ệnh": 443,
      "có": 444,
      "co": 445,
      "ul": 446,
      "it": 447,
      "ân": 448,
      "ve": 449,
      "ượ": 450,
      "us": 451,
      "di": 452,
      "bệnh": 453,
      "le": 454,
      "tu": 455,
      "ation": 456,
      "hi": 457,
      "ly": 458,
      "ườ": 459,
      "os": 460,
      "uy": 461,
      "ết": 462,
      "là": 463,
      "he": 464,
      "ter": 465,
      "wi": 466,
      "ur": 467,
      "tro": 468,
      "tion": 469,
      "ến": 470,
      "with": 471,
      "li": 472,
      "ới": 473,
      "de": 474,
      "me": 475,
      "vi": 476,
      "ều": 477,
      "res": 478,
      "ược": 479,
      "các": 480,
      "ươ": 481,
      "ương": 482,
      "ường": 483,
      "am": 484,
      "ông": 485,
      "củ": 486,
      "20": 487,
      "của": 488,
      "đi": 489,
      "nhân": 490,
      "ất": 491,
      "lu": 492,
      "được": 493,
      "độ": 494,
      "ag": 495,
      "ents": 496,
      "ại": 497,
      "ay": 498,
      "be": 499,
      "iện": 500,
      "ing": 501,
      "un": 502,
      "thu": 503,
      "pati": 504,
      "trong": 505,
      "ai": 506,
      "ce": 507,
      "for": 508,
      "au": 509,
      "ần": 510,
      "ình": 511,
      "em": 512,
      "bi": 513,
      ").": 514,
      "ặc": 515,
      "ver": 516,
      "ca": 517,
      "pro": 518,
      "so": 519,
      "ối": 520,
      "ung": 521,
      "ts": 522,
      "với": 523,
      "thể": 524,
      "ra": 525,
      "ol": 526,
      "ứng": 527,
      "od": 528,
      "per": 529,
      "id": 530,
      "The": 531,
      "patients": 532,
      "trị": 533,
      "ột": 534,
      "ut": 535,
      "mp": 536,
      "se": 537,
      "st": 538,
      "con": 539,
      "quả": 540,
      "iệu": 541,
      "ăng": 542,
      "phá": 543,
      "ate": 544,
      "ận": 545,
      "tic": 546,
      "số": 547,
      "nhi": 548,
      "ức": 549,
      "ật": 550,
      "ang": 551,
      "ment": 552,
      "su": 553,
      "ere": 554,
      "ical": 555,
      "ổi": 556,
      "không": 557,
      "are": 558,
      "cứ": 559,
      "do": 560,
      "cứu": 561,
      "điều": 562,
      "ab": 563,
      "mạ": 564,
      "dụ": 565,
      "ad": 566,
      "),": 567,
      "gh": 568,
      "Th": 569,
      "was": 570,
      "ực": 571,
      "àng": 572,
      "âm": 573,
      "ia": 574,
      "ne": 575,
      "sp": 576,
      "ll": 577,
      "dis": 578,
      "cho": 579,
      "áng": 580,
      "10": 581,
      "hoặc": 582,
      "ap": 583,
      "hiên": 584,
      "ity": 585,
      "no": 586,
      "một": 587,
      "ff": 588,
      "ếu": 589,
      "đến": 590,
      "ày": 591,
      "ướ": 592,
      "chứng": 593,
      "ine": 594,
      "um": 595,
      "chi": 596,
      "ầu": 597,
      "êm": 598,
      "ma": 599,
      "ated": 600,
      "can": 601,
      "tí": 602,
      "tive": 603,
      "ri": 604,
      "mm": 605,
      "má": 606,
      "we": 607,
      "ẩn": 608,
      "tre": 609,
      "đo": 610,
      "mo": 611,
      "hợ": 612,
      "ess": 613,
      "der": 614,
      "sion": 615,
      "ây": 616,
      "cơ": 617,
      "ex": 618,
      "thường": 619,
      "rom": 620,
      "ẫu": 621,
      "up": 622,
      "ase": 623,
      "hợp": 624,
      "ống": 625,
      "ốc": 626,
      "giả": 627,
      "ểm": 628,
      "sinh": 629,
      "tại": 630,
      "giá": 631,
      "sau": 632,
      "lệ": 633,
      "ạn": 634,
      "khi": 635,
      "ấp": 636,
      "uc": 637,
      "ki": 638,
      "trên": 639,
      "te": 640,
      "age": 641,
      "máu": 642,
      "ánh": 643,
      "thuật": 644,
      "dụng": 645,
      "po": 646,
      "ty": 647,
      "ary": 648,
      "kho": 649,
      "ượng": 650,
      "ngh": 651,
      "inc": 652,
      "sy": 653,
      "ther": 654,
      "by": 655,
      "từ": 656,
      "were": 657,
      "ội": 658,
      "Kết": 659,
      "quan": 660,
      "ằng": 661,
      "dy": 662,
      "ắt": 663,
      "hiện": 664,
      "ơn": 665,
      "gn": 666,
      "êu": 667,
      "ước": 668,
      "ùng": 669,
      "pháp": 670,
      "ted": 671,
      "án": 672,
      "val": 673,
      "mạch": 674,
      "tri": 675,
      "%,": 676,
      "ear": 677,
      "ững": 678,
      "ir": 679,
      "gen": 680,
      "stu": 681,
      "pre": 682,
      "tim": 683,
      "ành": 684,
      "đị": 685,
      "ant": 686,
      "ital": 687,
      "201": 688,
      "ười": 689,
      "op": 690,
      "nghiên": 691,
      "cao": 692,
      "one": 693,
      "inf": 694,
      "cả": 695,
      "ọc": 696,
      "àn": 697,
      "mal": 698,
      "nguy": 699,
      "%.": 700,
      "dr": 701,
      "định": 702,
      "như": 703,
      "động": 704,
      "huy": 705,
      "atment": 706,
      "người": 707,
      "mi": 708,
      "ven": 709,
      "bằng": 710,
      "tính": 711,
      "Ng": 712,
      "viện": 713,
      "tăng": 714,
      "if": 715,
      "from": 716,
      "iệt": 717,
      "phẫu": 718,
      "cy": 719,
      "ái": 720,
      "ection": 721,
      "óm": 722,
      "ten": 723,
      "comp": 724,
      "thuốc": 725,
      "Ch": 726,
      "ain": 727,
      "cl": 728,
      "In": 729,
      "ục": 730,
      "ults": 731,
      "ồng": 732,
      "gro": 733,
      "ểu": 734,
      "hy": 735,
      "điểm": 736,
      "về": 737,
      "tố": 738,
      "ha": 739,
      "tes": 740,
      "use": 741,
      "ời": 742,
      "mô": 743,
      "ễm": 744,
      "tuổi": 745,
      "tom": 746,
      "sử": 747,
      "huyết": 748,
      "par": 749,
      "giảm": 750,
      "tor": 751,
      "Ph": 752,
      "pl": 753,
      "sur": 754,
      "hơn": 755,
      "để": 756,
      "00": 757,
      "af": 758,
      "những": 759,
      "tis": 760,
      "ài": 761,
      "that": 762,
      "car": 763,
      "ăm": 764,
      "phát": 765,
      "ations": 766,
      "nhóm": 767,
      "ạng": 768,
      "đường": 769,
      "kết": 770,
      "biến": 771,
      "trung": 772,
      "sho": 773,
      "ular": 774,
      "nhiễm": 775,
      "ally": 776,
      "sự": 777,
      "đoán": 778,
      "thực": 779,
      "osis": 780,
      "ào": 781,
      "ền": 782,
      "ao": 783,
      "hiệu": 784,
      "trường": 785,
      "ắc": 786,
      "tiêu": 787,
      "cor": 788,
      "Các": 789,
      "thi": 790,
      "treatment": 791,
      "out": 792,
      "study": 793,
      "ence": 794,
      "mon": 795,
      "liên": 796,
      "may": 797,
      "dị": 798,
      "thương": 799,
      "ting": 800,
      "low": 801,
      "pe": 802,
      "log": 803,
      "theo": 804,
      "ous": 805,
      "gây": 806,
      "sàng": 807,
      "et": 808,
      "ective": 809,
      "ển": 810,
      "ases": 811,
      "12": 812,
      "viêm": 813,
      "ấy": 814,
      "bị": 815,
      "bình": 816,
      "duc": 817,
      "ci": 818,
      "tế": 819,
      "đầu": 820,
      "min": 821,
      "lượng": 822,
      "tháng": 823,
      "trẻ": 824,
      "cer": 825,
      "dư": 826,
      "ong": 827,
      "%)": 828,
      "high": 829,
      "yếu": 830,
      "Bệnh": 831,
      "ding": 832,
      "ạt": 833,
      "chỉ": 834,
      "pres": 835,
      "ost": 836,
      "áp": 837,
      "anh": 838,
      "fo": 839,
      "med": 840,
      "lâm": 841,
      "ặt": 842,
      "đặc": 843,
      "này": 844,
      "fac": 845,
      "phương": 846,
      "sis": 847,
      "thời": 848,
      "học": 849,
      "ni": 850,
      "om": 851,
      "khác": 852,
      "thod": 853,
      "agn": 854,
      "mor": 855,
      "ích": 856,
      "ấn": 857,
      "comm": 858,
      "ải": 859,
      "group": 860,
      "òng": 861,
      "Res": 862,
      "eff": 863,
      "dise": 864,
      "hoá": 865,
      "have": 866,
      "%),": 867,
      "tổ": 868,
      "not": 869,
      "Tr": 870,
      "hình": 871,
      "năng": 872,
      "ure": 873,
      "đó": 874,
      "valu": 875,
      "nội": 876,
      "nhất": 877,
      "after": 878,
      "ăn": 879,
      "ữa": 880,
      "át": 881,
      "phân": 882,
      "ập": 883,
      "tin": 884,
      "cc": 885,
      "sing": 886,
      "surg": 887,
      "dịch": 888,
      "nghiệ": 889,
      "ôi": 890,
      "phy": 891,
      "Con": 892,
      "tal": 893,
      "inical": 894,
      "gan": 895,
      "ep": 896,
      "ản": 897,
      "tử": 898,
      "ative": 899,
      "kháng": 900,
      "gian": 901,
      "làm": 902,
      "ét": 903,
      "und": 904,
      "rel": 905,
      "el": 906,
      "ếm": 907,
      "thành": 908,
      "wor": 909,
      "năm": 910,
      "uẩn": 911,
      "tỷ": 912,
      "cắt": 913,
      "chất": 914,
      "reas": 915,
      "xu": 916,
      "ath": 917,
      "anti": 918,
      "vào": 919,
      "cấp": 920,
      "est": 921,
      "áo": 922,
      "nhiều": 923,
      "man": 924,
      "tric": 925,
      "15": 926,
      "nghiệm": 927,
      "hosp": 928,
      "ta": 929,
      "im": 930,
      "hospital": 931,
      "chẩn": 932,
      "ves": 933,
      "iệc": 934,
      "cầu": 935,
      "%).": 936,
      "cần": 937,
      "thư": 938,
      "kinh": 939,
      "ngày": 940,
      "clu": 941,
      "loạn": 942,
      "bj": 943,
      "acter": 944,
      "ery": 945,
      "fe": 946,
      "year": 947,
      "rate": 948,
      "bào": 949,
      "Nh": 950,
      "ẫn": 951,
      "ific": 952,
      "lic": 953,
      "thận": 954,
      "ồi": 955,
      "ách": 956,
      "luận": 957,
      "đã": 958,
      "CT": 959,
      "ug": 960,
      "ồm": 961,
      "inclu": 962,
      "lý": 963,
      "05": 964,
      "por": 965,
      "disease": 966,
      "gồm": 967,
      "mptom": 968,
      "than": 969,
      "phổi": 970,
      "dren": 971,
      "blo": 972,
      "str": 973,
      "19": 974,
      "olog": 975,
      "ảo": 976,
      "loại": 977,
      "ser": 978,
      "ảy": 979,
      "ldren": 980,
      "amin": 981,
      "toàn": 982,
      "bo": 983,
      "trước": 984,
      "able": 985,
      "fi": 986,
      "all": 987,
      "ds": 988,
      "ris": 989,
      "Nghiên": 990,
      "uld": 991,
      "Vi": 992,
      "gra": 993,
      "triệu": 994,
      "ial": 995,
      "nguyên": 996,
      "rec": 997,
      "II": 998,
      "des": 999,
      "biệt": 1000,
      "ạo": 1001,
      "used": 1002,
      "nam": 1003,
      "ght": 1004,
      "ey": 1005,
      "mức": 1006,
      "đau": 1007,
      "ion": 1008,
      "ob": 1009,
      "other": 1010,
      "clusion": 1011,
      "21": 1012,
      "cases": 1013,
      "ảnh": 1014,
      "resp": 1015,
      "pos": 1016,
      "trạng": 1017,
      "whi": 1018,
      "iz": 1019,
      "ấu": 1020,
      "sign": 1021,
      "diagn": 1022,
      "đối": 1023,
      "clinical": 1024,
      "du": 1025,
      "thấy": 1026,
      "bao": 1027,
      "qua": 1028,
      "út": 1029,
      "inter": 1030,
      "ặp": 1031,
      "30": 1032,
      "việc": 1033,
      "ảng": 1034,
      "ass": 1035,
      "đánh": 1036,
      "ge": 1037,
      "phải": 1038,
      "mg": 1039,
      "tổn": 1040,
      "factor": 1041,
      "ke": 1042,
      "thần": 1043,
      "ance": 1044,
      "lớ": 1045,
      "lần": 1046,
      "da": 1047,
      "ão": 1048,
      "xương": 1049,
      "vel": 1050,
      "chủ": 1051,
      "ạch": 1052,
      "ber": 1053,
      "ính": 1054,
      "tình": 1055,
      "200": 1056,
      "ator": 1057,
      "ngo": 1058,
      "Conclusion": 1059,
      "mổ": 1060,
      "11": 1061,
      "xác": 1062,
      "50": 1063,
      "but": 1064,
      "thông": 1065,
      "tương": 1066,
      "most": 1067,
      "ron": 1068,
      "úng": 1069,
      "giữa": 1070,
      "bet": 1071,
      "ọng": 1072,
      "cal": 1073,
      "osp": 1074,
      "eg": 1075,
      "chế": 1076,
      "Me": 1077,
      "sống": 1078,
      "ici": 1079,
      "22": 1080,
      "rối": 1081,
      "infection": 1082,
      "common": 1083,
      "thai": 1084,
      "ans": 1085,
      "ater": 1086,
      "risk": 1087,
      "Results": 1088,
      "Kh": 1089,
      "ect": 1090,
      "tác": 1091,
      "order": 1092,
      "ss": 1093,
      "children": 1094,
      "ble": 1095,
      "should": 1096,
      "tỉ": 1097,
      "day": 1098,
      "mptoms": 1099,
      "suy": 1100,
      "oid": 1101,
      "Ho": 1102,
      "tiế": 1103,
      "tuy": 1104,
      "results": 1105,
      "dưới": 1106,
      "level": 1107,
      "khoa": 1108,
      "ặng": 1109,
      "tra": 1110,
      "surgery": 1111,
      "ưở": 1112,
      "ưởng": 1113,
      "blood": 1114,
      "chiếm": 1115,
      "had": 1116,
      "gặp": 1117,
      "who": 1118,
      "dro": 1119,
      "nặng": 1120,
      "which": 1121,
      "alth": 1122,
      "xuất": 1123,
      "đoạn": 1124,
      "tự": 1125,
      "diff": 1126,
      "não": 1127,
      "dic": 1128,
      "years": 1129,
      "tâm": 1130,
      "unc": 1131,
      "tượng": 1132,
      "phần": 1133,
      "ũng": 1134,
      "14": 1135,
      "thức": 1136,
      "úc": 1137,
      "ects": 1138,
      "end": 1139,
      "18": 1140,
      "quản": 1141,
      "occ": 1142,
      "cell": 1143,
      "ox": 1144,
      "il": 1145,
      "ult": 1146,
      "tích": 1147,
      "phụ": 1148,
      "hành": 1149,
      "ected": 1150,
      "dự": 1151,
      "enti": 1152,
      "13": 1153,
      "inh": 1154,
      "Đánh": 1155,
      "has": 1156,
      "Mục": 1157,
      "ween": 1158,
      "chuy": 1159,
      "xét": 1160,
      "sever": 1161,
      "đề": 1162,
      "cin": 1163,
      "patient": 1164,
      "cardi": 1165,
      "khuẩn": 1166,
      "ose": 1167,
      "ẩm": 1168,
      "cop": 1169,
      "24": 1170,
      "ví": 1171,
      "tics": 1172,
      "time": 1173,
      "cũng": 1174,
      "between": 1175,
      "method": 1176,
      "com": 1177,
      "uyền": 1178,
      "cancer": 1179,
      "trùng": 1180,
      "nhưng": 1181,
      "trình": 1182,
      "nữ": 1183,
      "rac": 1184,
      "factors": 1185,
      "hen": 1186,
      "red": 1187,
      "IV": 1188,
      "100": 1189,
      "ers": 1190,
      "tả": 1191,
      "hyper": 1192,
      "vị": 1193,
      "Key": 1194,
      "ỏi": 1195,
      "Hosp": 1196,
      "25": 1197,
      "60": 1198,
      "month": 1199,
      "Hospital": 1200,
      "some": 1201,
      "âu": 1202,
      "tiến": 1203,
      "drug": 1204,
      "Từ": 1205,
      "more": 1206,
      "men": 1207,
      "cri": 1208,
      "trac": 1209,
      "To": 1210,
      "nước": 1211,
      "ute": 1212,
      "nên": 1213,
      "thấp": 1214,
      "ru": 1215,
      "bin": 1216,
      "apy": 1217,
      "char": 1218,
      "Đối": 1219,
      "ew": 1220,
      "nor": 1221,
      "tiếp": 1222,
      "dẫn": 1223,
      "gia": 1224,
      "ỡng": 1225,
      "Đi": 1226,
      "công": 1227,
      "lớn": 1228,
      "lại": 1229,
      "16": 1230,
      "soi": 1231,
      "truyền": 1232,
      "les": 1233,
      "kin": 1234,
      "requ": 1235,
      "evalu": 1236,
      "sát": 1237,
      "non": 1238,
      "tiểu": 1239,
      "cu": 1240,
      "urs": 1241,
      "vir": 1242,
      "hai": 1243,
      "dur": 1244,
      "vas": 1245,
      "imp": 1246,
      "ễn": 1247,
      "form": 1248,
      "nhận": 1249,
      "ies": 1250,
      "fol": 1251,
      "mặt": 1252,
      "óc": 1253,
      "òn": 1254,
      "disorder": 1255,
      "dia": 1256,
      "ám": 1257,
      "coun": 1258,
      "ple": 1259,
      "over": 1260,
      "spec": 1261,
      "ide": 1262,
      "chức": 1263,
      "peri": 1264,
      "thống": 1265,
      "ach": 1266,
      "liệu": 1267,
      "tuyến": 1268,
      "this": 1269,
      "triển": 1270,
      "thes": 1271,
      "vấn": 1272,
      "go": 1273,
      "thay": 1274,
      "atory": 1275,
      "signific": 1276,
      "khối": 1277,
      "normal": 1278,
      "ating": 1279,
      "ít": 1280,
      "biểu": 1281,
      "ưa": 1282,
      "hồi": 1283,
      "Obj": 1284,
      "đa": 1285,
      "Co": 1286,
      "đổi": 1287,
      "ộc": 1288,
      "ép": 1289,
      "tho": 1290,
      "soci": 1291,
      "đồng": 1292,
      "pri": 1293,
      "vention": 1294,
      "cre": 1295,
      "ớp": 1296,
      "mạc": 1297,
      "Tro": 1298,
      "40": 1299,
      "ĩnh": 1300,
      "also": 1301,
      "95": 1302,
      "ved": 1303,
      "ằm": 1304,
      "ces": 1305,
      "khoá": 1306,
      "ừa": 1307,
      "las": 1308,
      "reased": 1309,
      "bil": 1310,
      "under": 1311,
      "hội": 1312,
      "17": 1313,
      "syn": 1314,
      "%;": 1315,
      "An": 1316,
      "trọng": 1317,
      "Method": 1318,
      "nhiên": 1319,
      "CO": 1320,
      "ld": 1321,
      "symptoms": 1322,
      "There": 1323,
      "thiếu": 1324,
      "def": 1325,
      "ồn": 1326,
      "significant": 1327,
      "khớp": 1328,
      "tốt": 1329,
      "dùng": 1330,
      "cảm": 1331,
      "aly": 1332,
      "Pati": 1333,
      "ecti": 1334,
      "ist": 1335,
      "ởi": 1336,
      "thiết": 1337,
      "éo": 1338,
      "Điều": 1339,
      "hệ": 1340,
      "entr": 1341,
      "thanh": 1342,
      "tomy": 1343,
      "ign": 1344,
      "..": 1345,
      "Re": 1346,
      "unction": 1347,
      "lực": 1348,
      "bộ": 1349,
      "fore": 1350,
      "ugh": 1351,
      "sức": 1352,
      "lư": 1353,
      "ộng": 1354,
      "ology": 1355,
      "ack": 1356,
      "hoạt": 1357,
      "dạng": 1358,
      "Tỷ": 1359,
      "dec": 1360,
      "giới": 1361,
      "bất": 1362,
      "giai": 1363,
      "Trong": 1364,
      "tạo": 1365,
      "health": 1366,
      "dưỡng": 1367,
      "oscop": 1368,
      "chuyển": 1369,
      "Di": 1370,
      "vong": 1371,
      "lop": 1372,
      "pain": 1373,
      "ins": 1374,
      "Phương": 1375,
      "emia": 1376,
      "br": 1377,
      "mu": 1378,
      "nu": 1379,
      "hưởng": 1380,
      "inj": 1381,
      "now": 1382,
      "tumor": 1383,
      "trí": 1384,
      "type": 1385,
      "chính": 1386,
      "months": 1387,
      "ties": 1388,
      "differ": 1389,
      "cause": 1390,
      "dài": 1391,
      "vùng": 1392,
      "cách": 1393,
      "complic": 1394,
      "tiv": 1395,
      "show": 1396,
      "phòng": 1397,
      "eral": 1398,
      "ving": 1399,
      "iệp": 1400,
      "còn": 1401,
      "màng": 1402,
      "care": 1403,
      "ture": 1404,
      "using": 1405,
      "sity": 1406,
      "words": 1407,
      "khí": 1408,
      "01": 1409,
      "function": 1410,
      "yl": 1411,
      "23": 1412,
      "lym": 1413,
      "acute": 1414,
      "ari": 1415,
      "sive": 1416,
      "fir": 1417,
      "óng": 1418,
      "stem": 1419,
      "ane": 1420,
      "vis": 1421,
      "ren": 1422,
      "mic": 1423,
      "ĩa": 1424,
      "Có": 1425,
      "cr": 1426,
      "Med": 1427,
      "pul": 1428,
      "ID": 1429,
      "ast": 1430,
      "mắc": 1431,
      "tiên": 1432,
      "ster": 1433,
      "imm": 1434,
      "very": 1435,
      "ause": 1436,
      "tĩnh": 1437,
      "sản": 1438,
      "usu": 1439,
      "arter": 1440,
      "ầm": 1441,
      "term": 1442,
      "bec": 1443,
      "ãn": 1444,
      "wo": 1445,
      "tái": 1446,
      "atic": 1447,
      "cung": 1448,
      "cular": 1449,
      "ắn": 1450,
      "character": 1451,
      "ợi": 1452,
      "severe": 1453,
      "fer": 1454,
      "lên": 1455,
      "viên": 1456,
      "contro": 1457,
      "posi": 1458,
      "need": 1459,
      "quá": 1460,
      "khả": 1461,
      "BN": 1462,
      "uyên": 1463,
      "quang": 1464,
      "ates": 1465,
      "app": 1466,
      "kiểm": 1467,
      "yo": 1468,
      "tay": 1469,
      "ronic": 1470,
      "tiền": 1471,
      "xảy": 1472,
      "Gi": 1473,
      "ướng": 1474,
      "diagnosis": 1475,
      "ome": 1476,
      "omen": 1477,
      "av": 1478,
      "giải": 1479,
      "ck": 1480,
      "oper": 1481,
      "thế": 1482,
      "rất": 1483,
      "tain": 1484,
      "drome": 1485,
      "lar": 1486,
      "tions": 1487,
      "when": 1488,
      "sub": 1489,
      "during": 1490,
      "therapy": 1491,
      "trans": 1492,
      "ded": 1493,
      "thiệp": 1494,
      "usually": 1495,
      "related": 1496,
      "sen": 1497,
      "MD": 1498,
      "oma": 1499,
      "tuần": 1500,
      "about": 1501,
      "nghĩa": 1502,
      "been": 1503,
      "times": 1504,
      "ures": 1505,
      "ced": 1506,
      "velop": 1507,
      "nồng": 1508,
      "struc": 1509,
      "chúng": 1510,
      "uses": 1511,
      "nếu": 1512,
      "mạn": 1513,
      "ax": 1514,
      "Keywords": 1515,
      "lymph": 1516,
      "Tre": 1517,
      "art": 1518,
      "ngoài": 1519,
      "thất": 1520,
      "This": 1521,
      "De": 1522,
      "vo": 1523,
      "ful": 1524,
      "bu": 1525,
      "ism": 1526,
      "úp": 1527,
      "ụng": 1528,
      "ency": 1529,
      "long": 1530,
      "section": 1531,
      "độc": 1532,
      "treated": 1533,
      "typ": 1534,
      "kg": 1535,
      "khám": 1536,
      "part": 1537,
      "tràng": 1538,
      "thở": 1539,
      "ốt": 1540,
      "đại": 1541,
      "develop": 1542,
      "Nam": 1543,
      "2021": 1544,
      "giúp": 1545,
      "giờ": 1546,
      "uống": 1547,
      "cổ": 1548,
      "women": 1549,
      "ication": 1550,
      "dấu": 1551,
      "TH": 1552,
      "sure": 1553,
      "prote": 1554,
      "led": 1555,
      "associ": 1556,
      "CR": 1557,
      "phổ": 1558,
      "higher": 1559,
      "know": 1560,
      "liều": 1561,
      "syndrome": 1562,
      "ight": 1563,
      "inal": 1564,
      "90": 1565,
      "đơn": 1566,
      "hor": 1567,
      "ness": 1568,
      "Chi": 1569,
      "tôi": 1570,
      "Ti": 1571,
      "centr": 1572,
      "80": 1573,
      "ement": 1574,
      "king": 1575,
      "ậu": 1576,
      "ill": 1577,
      "nec": 1578,
      "there": 1579,
      "33": 1580,
      "ngang": 1581,
      "bility": 1582,
      "chống": 1583,
      "hướng": 1584,
      "characteris": 1585,
      "aff": 1586,
      "ross": 1587,
      "thro": 1588,
      "diabe": 1589,
      "urr": 1590,
      "Viet": 1591,
      "kích": 1592,
      "main": 1593,
      "such": 1594,
      "chronic": 1595,
      "bio": 1596,
      "SA": 1597,
      "kỹ": 1598,
      "35": 1599,
      "versity": 1600,
      "descri": 1601,
      "sup": 1602,
      "ue": 1603,
      "ST": 1604,
      "pen": 1605,
      "kỳ": 1606,
      "mus": 1607,
      "khoảng": 1608,
      "RI": 1609,
      "õi": 1610,
      "flu": 1611,
      "mat": 1612,
      "path": 1613,
      "cm": 1614,
      "hoàn": 1615,
      "phẩm": 1616,
      "ban": 1617,
      "include": 1618,
      "Những": 1619,
      "days": 1620,
      "thích": 1621,
      "ml": 1622,
      "his": 1623,
      "met": 1624,
      "niệu": 1625,
      "ôn": 1626,
      "gr": 1627,
      "nghi": 1628,
      "view": 1629,
      "hấp": 1630,
      "ớm": 1631,
      "uro": 1632,
      "sớm": 1633,
      "old": 1634,
      "NA": 1635,
      "28": 1636,
      "Methods": 1637,
      "Qu": 1638,
      "tiết": 1639,
      "sóc": 1640,
      "often": 1641,
      "dõi": 1642,
      "mean": 1643,
      "verage": 1644,
      "ople": 1645,
      "Một": 1646,
      "vì": 1647,
      "bên": 1648,
      "bụng": 1649,
      "fai": 1650,
      "bas": 1651,
      "70": 1652,
      "mất": 1653,
      "36": 1654,
      "oph": 1655,
      "gas": 1656,
      "system": 1657,
      "ks": 1658,
      "kê": 1659,
      "đều": 1660,
      "earch": 1661,
      "cân": 1662,
      "graphy": 1663,
      "wever": 1664,
      "tivity": 1665,
      "45": 1666,
      "tiêm": 1667,
      "tắc": 1668,
      "vac": 1669,
      "cent": 1670,
      "răng": 1671,
      "til": 1672,
      "ụp": 1673,
      "impro": 1674,
      "vật": 1675,
      "tuỷ": 1676,
      "Treatment": 1677,
      "HC": 1678,
      "ọn": 1679,
      "CI": 1680,
      "75": 1681,
      "quy": 1682,
      "Chẩn": 1683,
      "đột": 1684,
      "ngoại": 1685,
      "atis": 1686,
      "its": 1687,
      "ps": 1688,
      "sel": 1689,
      "protein": 1690,
      "sơ": 1691,
      "sti": 1692,
      "mật": 1693,
      "miễn": 1694,
      "control": 1695,
      "test": 1696,
      "less": 1697,
      "due": 1698,
      "thân": 1699,
      "Patients": 1700,
      "ree": 1701,
      "48": 1702,
      "increased": 1703,
      "mà": 1704,
      "dày": 1705,
      "trực": 1706,
      "ants": 1707,
      "diagnos": 1708,
      "cải": 1709,
      "mối": 1710,
      "glu": 1711,
      "itis": 1712,
      "thủ": 1713,
      "Việt": 1714,
      "ft": 1715,
      "cle": 1716,
      "ulin": 1717,
      "immun": 1718,
      "ectively": 1719,
      "including": 1720,
      "Uni": 1721,
      "air": 1722,
      "lap": 1723,
      "Sy": 1724,
      "pid": 1725,
      "ũi": 1726,
      "Pro": 1727,
      "ling": 1728,
      "bacter": 1729,
      "nhỏ": 1730,
      "nhau": 1731,
      "oscopic": 1732,
      "hạn": 1733,
      "Nhi": 1734,
      "cul": 1735,
      "ner": 1736,
      "mắt": 1737,
      "ỗi": 1738,
      "ized": 1739,
      "31": 1740,
      "hel": 1741,
      "ody": 1742,
      "27": 1743,
      "khó": 1744,
      "chem": 1745,
      "xi": 1746,
      "respon": 1747,
      "ational": 1748,
      "OR": 1749,
      "ruột": 1750,
      "sec": 1751,
      "complications": 1752,
      "chảy": 1753,
      "injur": 1754,
      "nó": 1755,
      "act": 1756,
      "chuẩn": 1757,
      "drugs": 1758,
      "neum": 1759,
      "26": 1760,
      "2022": 1761,
      "characteristics": 1762,
      "nhập": 1763,
      "lesion": 1764,
      "tai": 1765,
      "ges": 1766,
      "tial": 1767,
      "khoẻ": 1768,
      "đạt": 1769,
      "bởi": 1770,
      "sco": 1771,
      "thứ": 1772,
      "wee": 1773,
      "vascular": 1774,
      "lam": 1775,
      "cận": 1776,
      "people": 1777,
      "TT": 1778,
      "ện": 1779,
      "tech": 1780,
      "virus": 1781,
      "tension": 1782,
      "chang": 1783,
      "siêu": 1784,
      "first": 1785,
      "hypo": 1786,
      "tháo": 1787,
      "before": 1788,
      "van": 1789,
      "levels": 1790,
      "hay": 1791,
      "chăm": 1792,
      "ging": 1793,
      "001": 1794,
      "yro": 1795,
      "lower": 1796,
      "chưa": 1797,
      "dạ": 1798,
      "cess": 1799,
      "mẫu": 1800,
      "University": 1801,
      "requi": 1802,
      "wing": 1803,
      "ẹp": 1804,
      "fem": 1805,
      "thiện": 1806,
      "ard": 1807,
      "indic": 1808,
      "glo": 1809,
      ");": 1810,
      "accoun": 1811,
      "renal": 1812,
      "ior": 1813,
      "dies": 1814,
      "bỏ": 1815,
      "dinh": 1816,
      "incre": 1817,
      "giác": 1818,
      "mũi": 1819,
      "associated": 1820,
      "Tuy": 1821,
      "lure": 1822,
      "chol": 1823,
      "mis": 1824,
      "chọn": 1825,
      "alysis": 1826,
      "fied": 1827,
      "disorders": 1828,
      "Trung": 1829,
      "ality": 1830,
      "our": 1831,
      "2020": 1832,
      "ngực": 1833,
      "mit": 1834,
      "Cl": 1835,
      "oxy": 1836,
      "son": 1837,
      "their": 1838,
      "arm": 1839,
      "thì": 1840,
      "monary": 1841,
      "pregn": 1842,
      "àm": 1843,
      "dương": 1844,
      "IC": 1845,
      "ically": 1846,
      "sectional": 1847,
      "ety": 1848,
      "sus": 1849,
      "Diagn": 1850,
      "eding": 1851,
      "đồ": 1852,
      "chu": 1853,
      "tinh": 1854,
      "because": 1855,
      "bảo": 1856,
      "dition": 1857,
      "sa": 1858,
      "among": 1859,
      "follow": 1860,
      "average": 1861,
      "examin": 1862,
      "chân": 1863,
      "ish": 1864,
      "heart": 1865,
      "partic": 1866,
      "bạch": 1867,
      "present": 1868,
      "assess": 1869,
      "plac": 1870,
      "65": 1871,
      "rõ": 1872,
      "thêm": 1873,
      "steroid": 1874,
      "xem": 1875,
      "đặt": 1876,
      "failure": 1877,
      "ice": 1878,
      "nào": 1879,
      "intervention": 1880,
      "32": 1881,
      "ori": 1882,
      "weight": 1883,
      "az": 1884,
      "mang": 1885,
      "giáp": 1886,
      "ledge": 1887,
      "soát": 1888,
      "meas": 1889,
      "tico": 1890,
      "reduc": 1891,
      "clo": 1892,
      "usion": 1893,
      "kéo": 1894,
      "saf": 1895,
      "only": 1896,
      "cross": 1897,
      "đái": 1898,
      "medical": 1899,
      "trition": 1900,
      "produc": 1901,
      "diabetes": 1902,
      "Vietnam": 1903,
      "mẹ": 1904,
      "acy": 1905,
      "oin": 1906,
      "ềm": 1907,
      "AP": 1908,
      "mar": 1909,
      "trợ": 1910,
      "comple": 1911,
      "pneum": 1912,
      "these": 1913,
      "29": 1914,
      "ấm": 1915,
      "perfor": 1916,
      "sto": 1917,
      "kiến": 1918,
      "mul": 1919,
      "pressure": 1920,
      "khuy": 1921,
      "dục": 1922,
      "ẳng": 1923,
      "cep": 1924,
      "ak": 1925,
      "nhanh": 1926,
      "oral": 1927,
      "hết": 1928,
      "det": 1929,
      "ectomy": 1930,
      "causes": 1931,
      "specific": 1932,
      "xạ": 1933,
      "chấn": 1934,
      "occur": 1935,
      "result": 1936,
      "phản": 1937,
      "ectives": 1938,
      "34": 1939,
      "icine": 1940,
      "fin": 1941,
      "sẽ": 1942,
      "thị": 1943,
      "ơi": 1944,
      "appro": 1945,
      "phục": 1946,
      "dựa": 1947,
      "ạy": 1948,
      "skin": 1949,
      "hỗ": 1950,
      "itamin": 1951,
      "tern": 1952,
      "37": 1953,
      "phù": 1954,
      "hours": 1955,
      "her": 1956,
      "38": 1957,
      "đáp": 1958,
      "evaluate": 1959,
      "enz": 1960,
      "pr": 1961,
      "case": 1962,
      "acid": 1963,
      "HIV": 1964,
      "ịp": 1965,
      "combin": 1966,
      "ors": 1967,
      "ậy": 1968,
      "domin": 1969,
      "gly": 1970,
      "respectively": 1971,
      "two": 1972,
      "plas": 1973,
      "num": 1974,
      "ound": 1975,
      "chụp": 1976,
      "nhẹ": 1977,
      "throm": 1978,
      "reg": 1979,
      "However": 1980,
      "ghép": 1981,
      "tỉnh": 1982,
      "atus": 1983,
      "liver": 1984,
      "effects": 1985,
      "tran": 1986,
      "AS": 1987,
      "phút": 1988,
      "ground": 1989,
      "lọc": 1990,
      "ửa": 1991,
      "que": 1992,
      "surgical": 1993,
      "iciency": 1994,
      "hô": 1995,
      "thái": 1996,
      "ments": 1997,
      "ưng": 1998,
      "positive": 1999,
      "Diagnosis": 2000,
      "into": 2001,
      "vận": 2002,
      "ese": 2003,
      "valence": 2004,
      "without": 2005,
      "gene": 2006,
      "mia": 2007,
      "partment": 2008,
      "radi": 2009,
      "AC": 2010,
      "AR": 2011,
      "Objective": 2012,
      "prac": 2013,
      "any": 2014,
      "ini": 2015,
      "frac": 2016,
      "xơ": 2017,
      "poly": 2018,
      "2019": 2019,
      "Su": 2020,
      "identi": 2021,
      "nhằm": 2022,
      "ared": 2023,
      "căn": 2024,
      "ze": 2025,
      "ale": 2026,
      "Nếu": 2027,
      "ượt": 2028,
      "carcin": 2029,
      "good": 2030,
      "Objectives": 2031,
      "lưu": 2032,
      "asis": 2033,
      "ond": 2034,
      "vari": 2035,
      "67": 2036,
      "early": 2037,
      "body": 2038,
      "based": 2039,
      "tập": 2040,
      "antibio": 2041,
      "enter": 2042,
      "ackground": 2043,
      "khu": 2044,
      "tality": 2045,
      "MI": 2046,
      "xo": 2047,
      "cụ": 2048,
      "ise": 2049,
      "CD": 2050,
      "báo": 2051,
      "cáo": 2052,
      "ắng": 2053,
      "done": 2054,
      "techni": 2055,
      "điện": 2056,
      "vol": 2057,
      "aneous": 2058,
      "gluco": 2059,
      "terior": 2060,
      "Al": 2061,
      "onia": 2062,
      "trở": 2063,
      "effective": 2064,
      "methods": 2065,
      "pec": 2066,
      "dose": 2067,
      "concentr": 2068,
      "ages": 2069,
      "rain": 2070,
      "sin": 2071,
      "yroid": 2072,
      "prim": 2073,
      "thuộc": 2074,
      "ene": 2075,
      "If": 2076,
      "ứa": 2077,
      "NT": 2078,
      "III": 2079,
      "For": 2080,
      "Background": 2081,
      "resist": 2082,
      "42": 2083,
      "tory": 2084,
      "groups": 2085,
      "urrent": 2086,
      "55": 2087,
      "ìm": 2088,
      "they": 2089,
      "col": 2090,
      "serum": 2091,
      "ability": 2092,
      "39": 2093,
      "cyto": 2094,
      "72": 2095,
      "We": 2096,
      "ite": 2097,
      "knowledge": 2098,
      "many": 2099,
      "help": 2100,
      "ãy": 2101,
      "port": 2102,
      "pulmonary": 2103,
      "sốt": 2104,
      "máy": 2105,
      "ney": 2106,
      "cùng": 2107,
      "tinal": 2108,
      "nhạy": 2109,
      "tras": 2110,
      "sỏi": 2111,
      "ort": 2112,
      "đang": 2113,
      "PE": 2114,
      "cortico": 2115,
      "dây": 2116,
      "lan": 2117,
      "Pre": 2118,
      "đủ": 2119,
      "ms": 2120,
      "BV": 2121,
      "iratory": 2122,
      "proced": 2123,
      "nằm": 2124,
      "mortality": 2125,
      "artery": 2126,
      "well": 2127,
      "research": 2128,
      "AL": 2129,
      "tổng": 2130,
      "ography": 2131,
      "conduc": 2132,
      "line": 2133,
      "ami": 2134,
      "44": 2135,
      "53": 2136,
      "Thu": 2137,
      "Không": 2138,
      "Khảo": 2139,
      "lesions": 2140,
      "dex": 2141,
      "chung": 2142,
      "cộng": 2143,
      "trái": 2144,
      "score": 2145,
      "chool": 2146,
      "ệt": 2147,
      "status": 2148,
      "hàng": 2149,
      "lá": 2150,
      "46": 2151,
      "ot": 2152,
      "ancy": 2153,
      "43": 2154,
      "VID": 2155,
      "showed": 2156,
      "sider": 2157,
      "sĩ": 2158,
      "Minh": 2159,
      "AT": 2160,
      "vitamin": 2161,
      "mer": 2162,
      "Bi": 2163,
      "cells": 2164,
      "lấy": 2165,
      "rh": 2166,
      "number": 2167,
      "ngừa": 2168,
      "Theo": 2169,
      "hàm": 2170,
      "ốn": 2171,
      "diseases": 2172,
      "my": 2173,
      "lập": 2174,
      "nutrition": 2175,
      "đạo": 2176,
      "tư": 2177,
      "tissu": 2178,
      "hạ": 2179,
      "Ac": 2180,
      "rect": 2181,
      "way": 2182,
      "those": 2183,
      "...": 2184,
      "85": 2185,
      "cut": 2186,
      "idney": 2187,
      "Tổ": 2188,
      "loss": 2189,
      "sug": 2190,
      "hip": 2191,
      "Đặt": 2192,
      "total": 2193,
      "del": 2194,
      "47": 2195,
      "vết": 2196,
      "iệng": 2197,
      "both": 2198,
      "mall": 2199,
      "SS": 2200,
      "lin": 2201,
      "qui": 2202,
      "tox": 2203,
      "mL": 2204,
      "ization": 2205,
      "MRI": 2206,
      "atin": 2207,
      "lev": 2208,
      "Viêm": 2209,
      "miệng": 2210,
      "dys": 2211,
      "prevalence": 2212,
      "41": 2213,
      "invol": 2214,
      "lowing": 2215,
      "Thời": 2216,
      "stage": 2217,
      "Conclusions": 2218,
      "He": 2219,
      "mới": 2220,
      "ano": 2221,
      "iter": 2222,
      "bắt": 2223,
      "nang": 2224,
      "abnormal": 2225,
      "life": 2226,
      "pat": 2227,
      "vẫn": 2228,
      "ail": 2229,
      "nhịp": 2230,
      "perative": 2231,
      "vòng": 2232,
      "đây": 2233,
      "sam": 2234,
      "dân": 2235,
      "2018": 2236,
      "bili": 2237,
      "weeks": 2238,
      "Tu": 2239,
      "abs": 2240,
      "multi": 2241,
      "osph": 2242,
      "nge": 2243,
      "quality": 2244,
      "lung": 2245,
      "bjects": 2246,
      "sensi": 2247,
      "56": 2248,
      "lợi": 2249,
      "uồn": 2250,
      "period": 2251,
      "58": 2252,
      "abor": 2253,
      "cording": 2254,
      "glucose": 2255,
      "ựa": 2256,
      "AD": 2257,
      "organ": 2258,
      "injury": 2259,
      "96": 2260,
      "medi": 2261,
      "Sự": 2262,
      "food": 2263,
      "rộng": 2264,
      "lamm": 2265,
      "arr": 2266,
      "pneumonia": 2267,
      "tur": 2268,
      "úi": 2269,
      "NG": 2270,
      "ening": 2271,
      "examination": 2272,
      "No": 2273,
      "Tỉ": 2274,
      "phys": 2275,
      "side": 2276,
      "manag": 2277,
      "It": 2278,
      "mở": 2279,
      "tục": 2280,
      "descrip": 2281,
      "èm": 2282,
      "PD": 2283,
      "hạch": 2284,
      "tumors": 2285,
      "post": 2286,
      "caused": 2287,
      "ata": 2288,
      "bàn": 2289,
      "bro": 2290,
      "kể": 2291,
      "phosph": 2292,
      "2017": 2293,
      "termine": 2294,
      "66": 2295,
      "tent": 2296,
      "like": 2297,
      "gram": 2298,
      "diagnosed": 2299,
      "hypertension": 2300,
      "57": 2301,
      "sed": 2302,
      "đáng": 2303,
      "tract": 2304,
      "tures": 2305,
      "tem": 2306,
      "hepati": 2307,
      "ventric": 2308,
      "Xác": 2309,
      "small": 2310,
      "Mo": 2311,
      "gần": 2312,
      "Li": 2313,
      "regi": 2314,
      "rút": 2315,
      "neuro": 2316,
      "64": 2317,
      "ural": 2318,
      "stand": 2319,
      "bác": 2320,
      "sep": 2321,
      "62": 2322,
      "erg": 2323,
      "COVID": 2324,
      "right": 2325,
      "value": 2326,
      "prov": 2327,
      "ậm": 2328,
      "meth": 2329,
      "khảo": 2330,
      "đôi": 2331,
      "infections": 2332,
      "52": 2333,
      "kèm": 2334,
      "tìm": 2335,
      "CH": 2336,
      "trú": 2337,
      "tất": 2338,
      "000": 2339,
      "dents": 2340,
      "tới": 2341,
      "phí": 2342,
      "commun": 2343,
      "lượt": 2344,
      "den": 2345,
      "loc": 2346,
      "Evalu": 2347,
      "inflamm": 2348,
      "work": 2349,
      "ques": 2350,
      "ole": 2351,
      "cur": 2352,
      "CL": 2353,
      "bit": 2354,
      "thyroid": 2355,
      "kidney": 2356,
      "ạm": 2357,
      "dù": 2358,
      "fy": 2359,
      "71": 2360,
      "Symptoms": 2361,
      "tối": 2362,
      "73": 2363,
      "frequ": 2364,
      "tice": 2365,
      "dominal": 2366,
      "Some": 2367,
      "bone": 2368,
      "formation": 2369,
      "try": 2370,
      "new": 2371,
      "thor": 2372,
      "54": 2373,
      "ầy": 2374,
      "họ": 2375,
      "ick": 2376,
      "increase": 2377,
      "micro": 2378,
      "76": 2379,
      "primary": 2380,
      "conducted": 2381,
      "left": 2382,
      "liệt": 2383,
      "consider": 2384,
      "set": 2385,
      "vent": 2386,
      "improve": 2387,
      "86": 2388,
      "trừ": 2389,
      "vệ": 2390,
      "2015": 2391,
      "lant": 2392,
      "ning": 2393,
      "ially": 2394,
      "TP": 2395,
      "endo": 2396,
      "ological": 2397,
      "lao": 2398,
      "mỗi": 2399,
      "respiratory": 2400,
      "carcinoma": 2401,
      "gu": 2402,
      "compared": 2403,
      "particular": 2404,
      "xuyên": 2405,
      "see": 2406,
      "đình": 2407,
      "49": 2408,
      "vai": 2409,
      "ultras": 2410,
      "Mô": 2411,
      "ghi": 2412,
      "61": 2413,
      "dung": 2414,
      "nhu": 2415,
      "pression": 2416,
      "pan": 2417,
      "trau": 2418,
      "hemo": 2419,
      "bleeding": 2420,
      "Thi": 2421,
      "ince": 2422,
      "So": 2423,
      "2012": 2424,
      "sal": 2425,
      "predic": 2426,
      "theter": 2427,
      "Do": 2428,
      "atri": 2429,
      "TC": 2430,
      "biết": 2431,
      "tig": 2432,
      "xã": 2433,
      "51": 2434,
      "hẹp": 2435,
      "xâm": 2436,
      "intes": 2437,
      "2010": 2438,
      "fication": 2439,
      "ạp": 2440,
      "anes": 2441,
      "lớp": 2442,
      "wh": 2443,
      "nal": 2444,
      "):": 2445,
      "phế": 2446,
      "88": 2447,
      "chỉnh": 2448,
      "import": 2449,
      "IL": 2450,
      "sắc": 2451,
      "male": 2452,
      "Phẫu": 2453,
      "68": 2454,
      "reast": 2455,
      "found": 2456,
      "Sau": 2457,
      "significantly": 2458,
      "finding": 2459,
      "hậu": 2460,
      "sở": 2461,
      "97": 2462,
      "termin": 2463,
      "vic": 2464,
      "feat": 2465,
      "ateral": 2466,
      "jor": 2467,
      "63": 2468,
      "studies": 2469,
      "thước": 2470,
      "through": 2471,
      "aterial": 2472,
      "cir": 2473,
      "statis": 2474,
      "ste": 2475,
      "history": 2476,
      "corticosteroid": 2477,
      "testing": 2478,
      "measure": 2479,
      "trầm": 2480,
      "atal": 2481,
      "hỏi": 2482,
      "hiếm": 2483,
      "phố": 2484,
      "gres": 2485,
      "head": 2486,
      "bl": 2487,
      "cấy": 2488,
      "espec": 2489,
      "transp": 2490,
      "càng": 2491,
      "vành": 2492,
      "ưu": 2493,
      "female": 2494,
      "59": 2495,
      "Stu": 2496,
      "coll": 2497,
      "tissue": 2498,
      "especially": 2499,
      "83": 2500,
      "assi": 2501,
      "determine": 2502,
      "vid": 2503,
      "rằng": 2504,
      "ulation": 2505,
      "Comp": 2506,
      "ER": 2507,
      "Ki": 2508,
      "following": 2509,
      "mental": 2510,
      "tests": 2511,
      "toperative": 2512,
      "Nội": 2513,
      "stro": 2514,
      "effect": 2515,
      "chỗ": 2516,
      "2016": 2517,
      "verse": 2518,
      "sâu": 2519,
      "thang": 2520,
      "insulin": 2521,
      "TB": 2522,
      "volu": 2523,
      "92": 2524,
      "diện": 2525,
      "SD": 2526,
      "contin": 2527,
      "hydro": 2528,
      "portion": 2529,
      "obstruc": 2530,
      "mod": 2531,
      "thừa": 2532,
      "túi": 2533,
      "2013": 2534,
      "chan": 2535,
      "abdominal": 2536,
      "87": 2537,
      "mục": 2538,
      "rati": 2539,
      "general": 2540,
      "descriptive": 2541,
      "Đặc": 2542,
      "duce": 2543,
      "ton": 2544,
      "second": 2545,
      "mut": 2546,
      "operative": 2547,
      "ngủ": 2548,
      "ray": 2549,
      "fluid": 2550,
      "response": 2551,
      "HP": 2552,
      "catheter": 2553,
      "activity": 2554,
      "Lo": 2555,
      "management": 2556,
      "coron": 2557,
      "69": 2558,
      "Medicine": 2559,
      "ba": 2560,
      "students": 2561,
      "bổ": 2562,
      "93": 2563,
      "CS": 2564,
      "suất": 2565,
      "ogen": 2566,
      "concentration": 2567,
      "technique": 2568,
      "cong": 2569,
      "pi": 2570,
      "viewed": 2571,
      "tical": 2572,
      "2011": 2573,
      "hầu": 2574,
      "maging": 2575,
      "Medical": 2576,
      "cứng": 2577,
      "ventricular": 2578,
      "sible": 2579,
      "nhà": 2580,
      "death": 2581,
      "phối": 2582,
      "neg": 2583,
      "82": 2584,
      "As": 2585,
      "bản": 2586,
      "thụ": 2587,
      "important": 2588,
      "succ": 2589,
      "Clinical": 2590,
      "PCR": 2591,
      "rare": 2592,
      "98": 2593,
      "pregnancy": 2594,
      "78": 2595,
      "che": 2596,
      "cực": 2597,
      "ities": 2598,
      "Patient": 2599,
      "Hy": 2600,
      "vú": 2601,
      "thắt": 2602,
      "Ex": 2603,
      "Ne": 2604,
      "sánh": 2605,
      "Nguy": 2606,
      "Ig": 2607,
      "come": 2608,
      "poin": 2609,
      "Af": 2610,
      "relation": 2611,
      "91": 2612,
      "tically": 2613,
      "Sur": 2614,
      "relations": 2615,
      "ỏng": 2616,
      "provi": 2617,
      "óp": 2618,
      "features": 2619,
      "ive": 2620,
      "accounted": 2621,
      "lapar": 2622,
      "ones": 2623,
      "phì": 2624,
      "TN": 2625,
      "according": 2626,
      "major": 2627,
      "recomm": 2628,
      "ngay": 2629,
      "percent": 2630,
      "angi": 2631,
      "breast": 2632,
      "sọ": 2633,
      "block": 2634,
      "pal": 2635,
      "nhĩ": 2636,
      "tham": 2637,
      "practice": 2638,
      "kế": 2639,
      "survi": 2640,
      "đưa": 2641,
      "94": 2642,
      "ón": 2643,
      "lipid": 2644,
      "minh": 2645,
      "tật": 2646,
      "fever": 2647,
      "hút": 2648,
      "ens": 2649,
      "dòng": 2650,
      "vestig": 2651,
      "xúc": 2652,
      "remo": 2653,
      "84": 2654,
      "inhi": 2655,
      "utes": 2656,
      "intestinal": 2657,
      "En": 2658,
      "given": 2659,
      "ratio": 2660,
      "performed": 2661,
      "trưởng": 2662,
      "AB": 2663,
      "lúc": 2664,
      "mol": 2665,
      "iatric": 2666,
      "81": 2667,
      "đông": 2668,
      "signs": 2669,
      "negative": 2670,
      "béo": 2671,
      "ạnh": 2672,
      "within": 2673,
      "ritis": 2674,
      "Se": 2675,
      "analysis": 2676,
      "2014": 2677,
      "train": 2678,
      "province": 2679,
      "ences": 2680,
      "mb": 2681,
      "đúng": 2682,
      "cardiac": 2683,
      "chủng": 2684,
      "môi": 2685,
      "cố": 2686,
      "venous": 2687,
      "decreased": 2688,
      "psy": 2689,
      "minutes": 2690,
      "lựa": 2691,
      "tồn": 2692,
      "%);": 2693,
      "reco": 2694,
      "Triệu": 2695,
      "ES": 2696,
      "success": 2697,
      "pha": 2698,
      "fusion": 2699,
      "trứng": 2700,
      "phen": 2701,
      "mạnh": 2702,
      "74": 2703,
      "IN": 2704,
      "dược": 2705,
      "duy": 2706,
      "ped": 2707,
      "thử": 2708,
      "ual": 2709,
      "proportion": 2710,
      "then": 2711,
      "ester": 2712,
      "phal": 2713,
      "MC": 2714,
      "ké": 2715,
      "procedure": 2716,
      "gest": 2717,
      "chí": 2718,
      "By": 2719,
      "meter": 2720,
      "ile": 2721,
      "difference": 2722,
      "table": 2723,
      "city": 2724,
      "otherapy": 2725,
      "vậy": 2726,
      "77": 2727,
      "amine": 2728,
      "ently": 2729,
      "recommend": 2730,
      "Kho": 2731,
      "mone": 2732,
      "tránh": 2733,
      "DL": 2734,
      "lòng": 2735,
      "Ad": 2736,
      "beta": 2737,
      "nghiêm": 2738,
      "grade": 2739,
      "don": 2740,
      "All": 2741,
      "khuyến": 2742,
      "complete": 2743,
      "ae": 2744,
      "sh": 2745,
      "urin": 2746,
      "tuỵ": 2747,
      "spective": 2748,
      "Chúng": 2749,
      "postoperative": 2750,
      "giãn": 2751,
      "coronary": 2752,
      "ừng": 2753,
      "myo": 2754,
      "treat": 2755,
      "itary": 2756,
      "kim": 2757,
      "gãy": 2758,
      "mềm": 2759,
      "ycin": 2760,
      "deficiency": 2761,
      "oscopy": 2762,
      "als": 2763,
      "manif": 2764,
      "occurs": 2765,
      "findings": 2766,
      "ảm": 2767,
      "99": 2768,
      "erate": 2769,
      "umin": 2770,
      "particularly": 2771,
      "imaging": 2772,
      "hemor": 2773,
      "cuộc": 2774,
      "lla": 2775,
      "ngờ": 2776,
      "zed": 2777,
      "ace": 2778,
      "trict": 2779,
      "dep": 2780,
      "nấm": 2781,
      "abol": 2782,
      "different": 2783,
      "89": 2784,
      "sometimes": 2785,
      "kém": 2786,
      "lành": 2787,
      "oints": 2788,
      "gin": 2789,
      "vised": 2790,
      "RS": 2791,
      "ys": 2792,
      "ẽn": 2793,
      "nuôi": 2794,
      "mission": 2795,
      "resistance": 2796,
      "pected": 2797,
      "veness": 2798,
      "Sep": 2799,
      "nghẽn": 2800,
      "necess": 2801,
      "aden": 2802,
      "Study": 2803,
      "size": 2804,
      "hand": 2805,
      "Cho": 2806,
      "wel": 2807,
      "Most": 2808,
      "fl": 2809,
      "labor": 2810,
      "After": 2811,
      "cutaneous": 2812,
      "alb": 2813,
      "cocc": 2814,
      "tê": 2815,
      "lympho": 2816,
      "bed": 2817,
      "anu": 2818,
      "trò": 2819,
      "rth": 2820,
      "progres": 2821,
      "changes": 2822,
      "reac": 2823,
      "typically": 2824,
      "sung": 2825,
      "hum": 2826,
      "fami": 2827,
      "cột": 2828,
      "appear": 2829,
      "Tuổi": 2830,
      "large": 2831,
      "cá": 2832,
      "them": 2833,
      "tensive": 2834,
      "aged": 2835,
      "trì": 2836,
      "vô": 2837,
      "bal": 2838,
      "suff": 2839,
      "Department": 2840,
      "Thuốc": 2841,
      "sequ": 2842,
      "Đại": 2843,
      "Dis": 2844,
      "Children": 2845,
      "chiều": 2846,
      "bral": 2847,
      "nối": 2848,
      "nerve": 2849,
      "ust": 2850,
      "dam": 2851,
      "expos": 2852,
      "nôn": 2853,
      "necessary": 2854,
      "Thg": 2855,
      "Educ": 2856,
      "Par": 2857,
      "brain": 2858,
      "scre": 2859,
      "pu": 2860,
      "index": 2861,
      "wn": 2862,
      "BMI": 2863,
      "cau": 2864,
      "Can": 2865,
      "gốc": 2866,
      "eth": 2867,
      "top": 2868,
      "ema": 2869,
      "nhiệt": 2870,
      "xin": 2871,
      "sensitivity": 2872,
      "require": 2873,
      "2009": 2874,
      "Phân": 2875,
      "stroke": 2876,
      "ngăn": 2877,
      "hu": 2878,
      "Cần": 2879,
      "Education": 2880,
      "criter": 2881,
      "cường": 2882,
      "Sign": 2883,
      "ologic": 2884,
      "ngắn": 2885,
      "intra": 2886,
      "79": 2887,
      "chuyên": 2888,
      "Nguyên": 2889,
      "rece": 2890,
      "shor": 2891,
      "ples": 2892,
      "mid": 2893,
      "ướu": 2894,
      "types": 2895,
      "bước": 2896,
      "lled": 2897,
      "ardi": 2898,
      "survival": 2899,
      "elec": 2900,
      "titu": 2901,
      "highest": 2902,
      "ẫy": 2903,
      "cere": 2904,
      "physical": 2905,
      "enzy": 2906,
      "TM": 2907,
      "ọi": 2908,
      "histo": 2909,
      "opath": 2910,
      "Nhóm": 2911,
      "AN": 2912,
      "considered": 2913,
      "EC": 2914,
      "kính": 2915,
      "having": 2916,
      "môn": 2917,
      "ữu": 2918,
      "nghị": 2919,
      "logy": 2920,
      "ectiveness": 2921,
      "cont": 2922,
      "toxic": 2923,
      "ventil": 2924,
      "decre": 2925,
      "bàng": 2926,
      "itor": 2927,
      "bẩm": 2928,
      "evaluation": 2929,
      "reasing": 2930,
      "View": 2931,
      "safe": 2932,
      "lip": 2933,
      "older": 2934,
      "get": 2935,
      "mê": 2936,
      "biện": 2937,
      "cục": 2938,
      "gl": 2939,
      "stress": 2940,
      "06": 2941,
      "water": 2942,
      "CP": 2943,
      "safety": 2944,
      "điển": 2945,
      "milar": 2946,
      "dos": 2947,
      "solu": 2948,
      "take": 2949,
      "Hội": 2950,
      "ẩy": 2951,
      "nhồi": 2952,
      "Ngo": 2953,
      "gre": 2954,
      "comes": 2955,
      "inhibit": 2956,
      "hồng": 2957,
      "cơn": 2958,
      "gener": 2959,
      "Gen": 2960,
      "khởi": 2961,
      "ĐT": 2962,
      "diffic": 2963,
      "appropri": 2964,
      "Việc": 2965,
      "cấu": 2966,
      "idence": 2967,
      "ùi": 2968,
      "hemat": 2969,
      "aring": 2970,
      "cảnh": 2971,
      "Revised": 2972,
      "llin": 2973,
      "nod": 2974,
      "Đa": 2975,
      "relationship": 2976,
      "educ": 2977,
      "limit": 2978,
      "ụt": 2979,
      "gastro": 2980,
      "reli": 2981,
      "US": 2982,
      "direct": 2983,
      "These": 2984,
      "Reviewed": 2985,
      "asp": 2986,
      "Khi": 2987,
      "ip": 2988,
      "arc": 2989,
      "bur": 2990,
      "mong": 2991,
      "Hb": 2992,
      "tine": 2993,
      "lex": 2994,
      "nguồn": 2995,
      "chest": 2996,
      "ngth": 2997,
      "xoang": 2998,
      "percentage": 2999,
      "ngue": 3000,
      "adults": 3001,
      "lor": 3002,
      "DNA": 3003,
      "determin": 3004,
      "loét": 3005,
      "classi": 3006,
      "ision": 3007,
      "Result": 3008,
      "rup": 3009,
      "03": 3010,
      "tan": 3011,
      "chậm": 3012,
      "criteria": 3013,
      "HO": 3014,
      "experi": 3015,
      "mmol": 3016,
      "xử": 3017,
      "identify": 3018,
      "bre": 3019,
      "vực": 3020,
      "oste": 3021,
      "Signs": 3022,
      "antibiotics": 3023,
      "ade": 3024,
      "kiện": 3025,
      "đích": 3026,
      "avail": 3027,
      "metast": 3028,
      "bảng": 3029,
      "local": 3030,
      "hemorrh": 3031,
      "ately": 3032,
      "phác": 3033,
      "mas": 3034,
      "multiple": 3035,
      "biop": 3036,
      ".)": 3037,
      "open": 3038,
      "manifest": 3039,
      "coli": 3040,
      "chia": 3041,
      "Le": 3042,
      "elev": 3043,
      "vụ": 3044,
      "shock": 3045,
      "child": 3046,
      "invas": 3047,
      "neon": 3048,
      "statistically": 3049,
      "thal": 3050,
      "Ab": 3051,
      "needed": 3052,
      "omy": 3053,
      "Nhiễm": 3054,
      "anal": 3055,
      "hol": 3056,
      "derly": 3057,
      "quanh": 3058,
      "tors": 3059,
      "morph": 3060,
      "kiểu": 3061,
      "birth": 3062,
      "correlation": 3063,
      "kal": 3064,
      "muscle": 3065,
      "laparoscopic": 3066,
      "ature": 3067,
      "progn": 3068,
      "investig": 3069,
      "mild": 3070,
      "still": 3071,
      "sugges": 3072,
      "vag": 3073,
      "02": 3074,
      "lây": 3075,
      "chứa": 3076,
      "Per": 3077,
      "dễ": 3078,
      "metabol": 3079,
      "clin": 3080,
      "spinal": 3081,
      "mem": 3082,
      "tivi": 3083,
      "upper": 3084,
      "prevent": 3085,
      "cuối": 3086,
      "Hg": 3087,
      "xe": 3088,
      "vey": 3089,
      "cus": 3090,
      "trauma": 3091,
      "hormone": 3092,
      "MS": 3093,
      "ngón": 3094,
      "Po": 3095,
      "duration": 3096,
      "data": 3097,
      "Hà": 3098,
      "ral": 3099,
      "nay": 3100,
      "stre": 3101,
      "vài": 3102,
      "school": 3103,
      "thesia": 3104,
      "VT": 3105,
      "poor": 3106,
      "mes": 3107,
      "leep": 3108,
      "Center": 3109,
      "plasma": 3110,
      "arth": 3111,
      "volume": 3112,
      "mark": 3113,
      "role": 3114,
      "Số": 3115,
      "bài": 3116,
      "ĐM": 3117,
      "mechan": 3118,
      "tuân": 3119,
      "neph": 3120,
      "similar": 3121,
      "cardio": 3122,
      "ough": 3123,
      "tration": 3124,
      "pho": 3125,
      "area": 3126,
      "pyl": 3127,
      "cap": 3128,
      "Chỉ": 3129,
      "hiểu": 3130,
      "On": 3131,
      "lưng": 3132,
      "ran": 3133,
      "lac": 3134,
      "ngược": 3135,
      "analy": 3136,
      "ison": 3137,
      "person": 3138,
      "reduce": 3139,
      "chy": 3140,
      "repor": 3141,
      "khá": 3142,
      "đầy": 3143,
      "smo": 3144,
      "phi": 3145,
      "lấn": 3146,
      "outcomes": 3147,
      "scal": 3148,
      "icacy": 3149,
      "BC": 3150,
      "ộn": 3151,
      "bri": 3152,
      "chậu": 3153,
      "sốc": 3154,
      "Nồng": 3155,
      "effectiveness": 3156,
      "gợi": 3157,
      "moderate": 3158,
      "trúc": 3159,
      "hea": 3160,
      "itation": 3161,
      "lead": 3162,
      "process": 3163,
      "ses": 3164,
      "đốt": 3165,
      "elderly": 3166,
      "cine": 3167,
      "MR": 3168,
      "nas": 3169,
      "off": 3170,
      "pur": 3171,
      "each": 3172,
      "transplant": 3173,
      "Tho": 3174,
      "Hoa": 3175,
      "followed": 3176,
      "ultrasound": 3177,
      "Inf": 3178,
      "vical": 3179,
      "mother": 3180,
      "đỏ": 3181,
      "rectal": 3182,
      "bacteria": 3183,
      "outcome": 3184,
      "infants": 3185,
      "Health": 3186,
      "ulcer": 3187,
      "màu": 3188,
      "tiếng": 3189,
      "ditional": 3190,
      "confir": 3191,
      "site": 3192,
      "included": 3193,
      "aterials": 3194,
      "ecting": 3195,
      "suspected": 3196,
      "isol": 3197,
      "tum": 3198,
      "position": 3199,
      "HA": 3200,
      "dified": 3201,
      "operation": 3202,
      "âng": 3203,
      "oth": 3204,
      "nói": 3205,
      "rates": 3206,
      "range": 3207,
      "trosp": 3208,
      "gấp": 3209,
      "urinary": 3210,
      "phóng": 3211,
      "dysfunction": 3212,
      "scan": 3213,
      "var": 3214,
      "thiểu": 3215,
      "report": 3216,
      "change": 3217,
      "Cor": 3218,
      "ef": 3219,
      "antibiotic": 3220,
      "ger": 3221,
      "prevention": 3222,
      "thuận": 3223,
      "Tổng": 3224,
      "òi": 3225,
      "combination": 3226,
      "appropriate": 3227,
      "04": 3228,
      "will": 3229,
      "continu": 3230,
      "ụn": 3231,
      "TS": 3232,
      "lear": 3233,
      "enital": 3234,
      "amp": 3235,
      "immune": 3236,
      "oint": 3237,
      "central": 3238,
      "affected": 3239,
      "St": 3240,
      "108": 3241,
      "samples": 3242,
      "asi": 3243,
      "dần": 3244,
      "Des": 3245,
      "từng": 3246,
      "bacterial": 3247,
      "oft": 3248,
      "face": 3249,
      "icillin": 3250,
      "ons": 3251,
      "esoph": 3252,
      "huyện": 3253,
      "mc": 3254,
      "commonly": 3255,
      "available": 3256,
      "biopsy": 3257,
      "vious": 3258,
      "max": 3259,
      "ergic": 3260,
      "while": 3261,
      "inflammatory": 3262,
      "pa": 3263,
      "grow": 3264,
      "2008": 3265,
      "onset": 3266,
      "sten": 3267,
      "logic": 3268,
      "đóng": 3269,
      "leu": 3270,
      "ổn": 3271,
      "Points": 3272,
      "ental": 3273,
      "mass": 3274,
      "havi": 3275,
      "xa": 3276,
      "ression": 3277,
      "xy": 3278,
      "proble": 3279,
      "lỗ": 3280,
      "gency": 3281,
      "ẹn": 3282,
      "depend": 3283,
      "district": 3284,
      "possible": 3285,
      "induc": 3286,
      "Ung": 3287,
      "combined": 3288,
      "flap": 3289,
      "infarc": 3290,
      "culo": 3291,
      "department": 3292,
      "hoà": 3293,
      "albumin": 3294,
      "itu": 3295,
      "PR": 3296,
      "anterior": 3297,
      "HB": 3298,
      "GF": 3299,
      "vạt": 3300,
      "eu": 3301,
      "hữu": 3302,
      "ium": 3303,
      "gastric": 3304,
      "giật": 3305,
      "Col": 3306,
      "Si": 3307,
      "Mar": 3308,
      "họng": 3309,
      "CA": 3310,
      "lea": 3311,
      "poten": 3312,
      "Bình": 3313,
      "NS": 3314,
      "anemia": 3315,
      "recei": 3316,
      "pancre": 3317,
      "oti": 3318,
      "myocardi": 3319,
      "fet": 3320,
      "evaluated": 3321,
      "family": 3322,
      "PT": 3323,
      "obstruction": 3324,
      "hepatitis": 3325,
      "ượu": 3326,
      "contain": 3327,
      "MT": 3328,
      "phía": 3329,
      "Tất": 3330,
      "nâng": 3331,
      "auto": 3332,
      "diagnostic": 3333,
      "vaccin": 3334,
      "indicated": 3335,
      "Evaluation": 3336,
      "lying": 3337,
      "rapid": 3338,
      "prospective": 3339,
      "active": 3340,
      "increasing": 3341,
      "adder": 3342,
      "being": 3343,
      "vỡ": 3344,
      "OF": 3345,
      "êng": 3346,
      "ules": 3347,
      "hạt": 3348,
      "incidence": 3349,
      "placement": 3350,
      "bán": 3351,
      "tần": 3352,
      "IO": 3353,
      "bướu": 3354,
      "ợt": 3355,
      "lied": 3356,
      "Research": 3357,
      "must": 3358,
      "Un": 3359,
      "tài": 3360,
      "Tăng": 3361,
      "attitu": 3362,
      "influ": 3363,
      "monitor": 3364,
      "satis": 3365,
      "vắc": 3366,
      "ler": 3367,
      "hoại": 3368,
      "National": 3369,
      "mitted": 3370,
      "current": 3371,
      "causing": 3372,
      "Thông": 3373,
      "sleep": 3374,
      "known": 3375,
      "reduced": 3376,
      "mptomatic": 3377,
      "ious": 3378,
      "bố": 3379,
      "mil": 3380,
      "pheral": 3381,
      "rượu": 3382,
      "niêm": 3383,
      "plate": 3384,
      "zation": 3385,
      "cản": 3386,
      "abnormalities": 3387,
      "efficacy": 3388,
      "areas": 3389,
      "anesthesia": 3390,
      "niên": 3391,
      "nea": 3392,
      "dai": 3393,
      "Tình": 3394,
      "soft": 3395,
      "obser": 3396,
      "systemic": 3397,
      "behavi": 3398,
      "let": 3399,
      "injection": 3400,
      "divi": 3401,
      "extrac": 3402,
      "initial": 3403,
      "lish": 3404,
      "câu": 3405,
      "Surg": 3406,
      "Hồ": 3407,
      "oli": 3408,
      "severity": 3409,
      "aw": 3410,
      "Hem": 3411,
      "PP": 3412,
      "pto": 3413,
      "edema": 3414,
      "quỵ": 3415,
      "ót": 3416,
      "khỏi": 3417,
      "flow": 3418,
      "subjects": 3419,
      "self": 3420,
      "even": 3421,
      "Dec": 3422,
      "Bảng": 3423,
      "successful": 3424,
      "arthritis": 3425,
      "sang": 3426,
      "cervical": 3427,
      "xuống": 3428,
      "Rối": 3429,
      "eye": 3430,
      "pregnant": 3431,
      "ani": 3432,
      "bạn": 3433,
      "perit": 3434,
      "ditions": 3435,
      "mặc": 3436,
      "exposure": 3437,
      "thập": 3438,
      "dựng": 3439,
      "ry": 3440,
      "góp": 3441,
      "globin": 3442,
      "ạc": 3443,
      "calci": 3444,
      "ãng": 3445,
      "ventilation": 3446,
      "every": 3447,
      "tub": 3448,
      "Other": 3449,
      "phic": 3450,
      "buồng": 3451,
      "free": 3452,
      "Khoa": 3453,
      "stim": 3454,
      "does": 3455,
      "bor": 3456,
      "trospective": 3457,
      "ắp": 3458,
      "prof": 3459,
      "went": 3460,
      "rep": 3461,
      "Chí": 3462,
      "row": 3463,
      "muốn": 3464,
      "carb": 3465,
      "cum": 3466,
      "ràng": 3467,
      "likely": 3468,
      "O2": 3469,
      "atitis": 3470,
      "adj": 3471,
      "decrease": 3472,
      "aor": 3473,
      "ịch": 3474,
      "nhãn": 3475,
      "anuary": 3476,
      "CRP": 3477,
      "complication": 3478,
      "nghiệp": 3479,
      "cord": 3480,
      "unt": 3481,
      "Thực": 3482,
      "lâu": 3483,
      "ie": 3484,
      "COPD": 3485,
      "idi": 3486,
      "rho": 3487,
      "tention": 3488,
      "BP": 3489,
      "injuries": 3490,
      "entral": 3491,
      "growth": 3492,
      "esity": 3493,
      "pon": 3494,
      "khuyết": 3495,
      "pylori": 3496,
      "gam": 3497,
      "increases": 3498,
      "thorac": 3499,
      "ili": 3500,
      "better": 3501,
      "dL": 3502,
      "electro": 3503,
      "ếp": 3504,
      "recommended": 3505,
      "HBV": 3506,
      "ib": 3507,
      "conditions": 3508,
      "coccus": 3509,
      "invasive": 3510,
      "Central": 3511,
      "ried": 3512,
      "cholester": 3513,
      "DS": 3514,
      "phức": 3515,
      "pose": 3516,
      "ben": 3517,
      "information": 3518,
      "hing": 3519,
      "ìn": 3520,
      "School": 3521,
      "hepat": 3522,
      "recurrent": 3523,
      "ith": 3524,
      "resection": 3525,
      "Table": 3526,
      "tained": 3527,
      "short": 3528,
      "ption": 3529,
      "ule": 3530,
      "mini": 3531,
      "tar": 3532,
      "January": 3533,
      "bodies": 3534,
      "tral": 3535,
      "fic": 3536,
      "asy": 3537,
      "required": 3538,
      "diet": 3539,
      "illary": 3540,
      "hài": 3541,
      "TR": 3542,
      "tivities": 3543,
      "bene": 3544,
      "mainly": 3545,
      "mening": 3546,
      "une": 3547,
      "tuber": 3548,
      "vement": 3549,
      "again": 3550,
      "exer": 3551,
      "gree": 3552,
      "adverse": 3553,
      "coag": 3554,
      "emer": 3555,
      "cys": 3556,
      "trưng": 3557,
      "phúc": 3558,
      "Mean": 3559,
      "describe": 3560,
      "infarction": 3561,
      "infected": 3562,
      "GI": 3563,
      "bladder": 3564,
      "giống": 3565,
      "para": 3566,
      "regimen": 3567,
      "LA": 3568,
      "ký": 3569,
      "đợt": 3570,
      "state": 3571,
      "ential": 3572,
      "thetic": 3573,
      "A1": 3574,
      "nhánh": 3575,
      "cler": 3576,
      "situ": 3577,
      "light": 3578,
      "tiện": 3579,
      "Over": 3580,
      "Xét": 3581,
      "MA": 3582,
      "ory": 3583,
      "địa": 3584,
      "omas": 3585,
      "therap": 3586,
      "ME": 3587,
      "single": 3588,
      "fat": 3589,
      "Sử": 3590,
      "lact": 3591,
      "thma": 3592,
      "malign": 3593,
      "08": 3594,
      "ources": 3595,
      "alco": 3596,
      "gối": 3597,
      "ula": 3598,
      "chiết": 3599,
      "model": 3600,
      "approach": 3601,
      "urine": 3602,
      "uter": 3603,
      "itus": 3604,
      "2007": 3605,
      "glob": 3606,
      "standard": 3607,
      "degree": 3608,
      "Ag": 3609,
      "bject": 3610,
      "tràn": 3611,
      "creatin": 3612,
      "rin": 3613,
      "With": 3614,
      "sol": 3615,
      "sáng": 3616,
      "Anti": 3617,
      "posterior": 3618,
      "TI": 3619,
      "depression": 3620,
      "Mai": 3621,
      "Rec": 3622,
      "week": 3623,
      "peripheral": 3624,
      "Hầu": 3625,
      "medic": 3626,
      "Độ": 3627,
      "chie": 3628,
      "few": 3629,
      "support": 3630,
      "vidence": 3631,
      "Binh": 3632,
      "Ca": 3633,
      "áy": 3634,
      "died": 3635,
      "wide": 3636,
      "glyce": 3637,
      "At": 3638,
      "Subjects": 3639,
      "giao": 3640,
      "cour": 3641,
      "though": 3642,
      "same": 3643,
      "congenital": 3644,
      "acet": 3645,
      "education": 3646,
      "canxi": 3647,
      "edi": 3648,
      "cons": 3649,
      "ker": 3650,
      "three": 3651,
      "Trẻ": 3652,
      "MP": 3653,
      "did": 3654,
      "Dấu": 3655,
      "omic": 3656,
      "stenosis": 3657,
      "AF": 3658,
      "assessment": 3659,
      "applied": 3660,
      "hộ": 3661,
      "chữa": 3662,
      "diễn": 3663,
      "young": 3664,
      "gastrointestinal": 3665,
      "tụ": 3666,
      "vs": 3667,
      "muco": 3668,
      "azole": 3669,
      "cardiovascular": 3670,
      "chemotherapy": 3671,
      "07": 3672,
      "endoscopic": 3673,
      "ẵn": 3674,
      "neu": 3675,
      "damage": 3676,
      "vaccine": 3677,
      "workers": 3678,
      "cholesterol": 3679,
      "several": 3680,
      "anoi": 3681,
      "where": 3682,
      "human": 3683,
      "phép": 3684,
      "activities": 3685,
      "ói": 3686,
      "Dược": 3687,
      "joint": 3688,
      "pathy": 3689,
      "Ar": 3690,
      "achie": 3691,
      "medicine": 3692,
      "General": 3693,
      "myocardial": 3694,
      "length": 3695,
      "IDS": 3696,
      "arterial": 3697,
      "ring": 3698,
      "ặn": 3699,
      "adi": 3700,
      "mỡ": 3701,
      "vừa": 3702,
      "hụt": 3703,
      "glycer": 3704,
      "deli": 3705,
      "ram": 3706,
      "Sinh": 3707,
      "reported": 3708,
      "uria": 3709,
      "Comm": 3710,
      "prot": 3711,
      "opic": 3712,
      "NK": 3713,
      "ãi": 3714,
      "tiology": 3715,
      "Đồng": 3716,
      "dium": 3717,
      "hydr": 3718,
      "development": 3719,
      "09": 3720,
      "Chợ": 3721,
      "Ray": 3722,
      "ĐTĐ": 3723,
      "arly": 3724,
      "vices": 3725,
      "obesity": 3726,
      "pel": 3727,
      "axit": 3728,
      "bà": 3729,
      "could": 3730,
      "screening": 3731,
      "rest": 3732,
      "specificity": 3733,
      "NH": 3734,
      "secondary": 3735,
      "avoid": 3736,
      "immuno": 3737,
      "hepatic": 3738,
      "Materials": 3739,
      "quyết": 3740,
      "laboratory": 3741,
      "location": 3742,
      "Tác": 3743,
      "dữ": 3744,
      "sữa": 3745,
      "accur": 3746,
      "amo": 3747,
      "condition": 3748,
      "When": 3749,
      "laser": 3750,
      "resistant": 3751,
      "muộn": 3752,
      "stitu": 3753,
      "guide": 3754,
      "wound": 3755,
      "onal": 3756,
      "Giang": 3757,
      "uth": 3758,
      "Dise": 3759,
      "wa": 3760,
      "needle": 3761,
      "least": 3762,
      "OS": 3763,
      "Tri": 3764,
      "mãn": 3765,
      "khăn": 3766,
      "CE": 3767,
      "thượng": 3768,
      "IS": 3769,
      "recor": 3770,
      "physi": 3771,
      "viral": 3772,
      "radiation": 3773,
      "Mil": 3774,
      "aspir": 3775,
      "hemorrhage": 3776,
      "(+": 3777,
      "bron": 3778,
      "uni": 3779,
      "underwent": 3780,
      "thrombo": 3781,
      "tá": 3782,
      "cerebral": 3783,
      "chemical": 3784,
      "aer": 3785,
      "sai": 3786,
      "orally": 3787,
      "tak": 3788,
      "manifestations": 3789,
      "loài": 3790,
      "HCM": 3791,
      "matic": 3792,
      "acin": 3793,
      "sẵn": 3794,
      "trial": 3795,
      "Hanoi": 3796,
      "èn": 3797,
      "reduction": 3798,
      "nic": 3799,
      "consis": 3800,
      "đùi": 3801,
      "Fe": 3802,
      "ited": 3803,
      "late": 3804,
      "stay": 3805,
      "popul": 3806,
      "Rẫy": 3807,
      "miting": 3808,
      "Mở": 3809,
      "coma": 3810,
      "hyth": 3811,
      "pharm": 3812,
      "tation": 3813,
      "City": 3814,
      "ok": 3815,
      "against": 3816,
      "yêu": 3817,
      "gọi": 3818,
      "transplantation": 3819,
      "dò": 3820,
      "urrence": 3821,
      "opathy": 3822,
      "chị": 3823,
      "fibro": 3824,
      "Phòng": 3825,
      "logical": 3826,
      "minis": 3827,
      "fracture": 3828,
      "colon": 3829,
      "pus": 3830,
      "whe": 3831,
      "May": 3832,
      "HPV": 3833,
      "Ngoài": 3834,
      "Hiệu": 3835,
      "chương": 3836,
      "ẹo": 3837,
      "Ser": 3838,
      "wal": 3839,
      "nền": 3840,
      "fur": 3841,
      "Hi": 3842,
      "asthma": 3843,
      "giáo": 3844,
      "oplas": 3845,
      "py": 3846,
      "chuột": 3847,
      "natri": 3848,
      "rung": 3849,
      "mmHg": 3850,
      "strain": 3851,
      "Nguyen": 3852,
      "AIDS": 3853,
      "illness": 3854,
      "tạng": 3855,
      "upi": 3856,
      "Tổn": 3857,
      "oxygen": 3858,
      "previous": 3859,
      "until": 3860,
      "difficult": 3861,
      "nơi": 3862,
      "inflammation": 3863,
      "genetic": 3864,
      "once": 3865,
      "urses": 3866,
      "tức": 3867,
      "contri": 3868,
      "simp": 3869,
      "hal": 3870,
      "thẩm": 3871,
      "LC": 3872,
      "mutations": 3873,
      "lines": 3874,
      "serious": 3875,
      "alle": 3876,
      "vàng": 3877,
      "rubin": 3878,
      "toxicity": 3879,
      "mcg": 3880,
      "dischar": 3881,
      "ureter": 3882,
      "bol": 3883,
      "leuk": 3884,
      "improved": 3885,
      "dual": 3886,
      "Dr": 3887,
      "sắt": 3888,
      "500": 3889,
      "cây": 3890,
      "Đị": 3891,
      "neck": 3892,
      "ls": 3893,
      "Hu": 3894,
      "mentation": 3895,
      "culture": 3896,
      "flex": 3897,
      "hồ": 3898,
      "reus": 3899,
      "esis": 3900,
      "measured": 3901,
      "exerc": 3902,
      "zing": 3903,
      "detected": 3904,
      "ways": 3905,
      "vaginal": 3906,
      "pes": 3907,
      "anat": 3908,
      "diarr": 3909,
      "valve": 3910,
      "emergency": 3911,
      "points": 3912,
      "chlor": 3913,
      "count": 3914,
      "intr": 3915,
      "seiz": 3916,
      "ageal": 3917,
      "Ass": 3918,
      "tạp": 3919,
      "dil": 3920,
      "thesis": 3921,
      "nia": 3922,
      "identified": 3923,
      "scale": 3924,
      "hở": 3925,
      "transfer": 3926,
      "ôm": 3927,
      "controlled": 3928,
      "evidence": 3929,
      "wall": 3930,
      "Thái": 3931,
      "thoát": 3932,
      "Modified": 3933,
      "chrom": 3934,
      "chóng": 3935,
      "Sp": 3936,
      "sul": 3937,
      "survey": 3938,
      "lid": 3939,
      "biên": 3940,
      "metabolic": 3941,
      "căng": 3942,
      "aureus": 3943,
      "vision": 3944,
      "gân": 3945,
      "bề": 3946,
      "tially": 3947,
      "adequ": 3948,
      "góc": 3949,
      "la": 3950,
      "thir": 3951,
      "Kỳ": 3952,
      "world": 3953,
      "Hyper": 3954,
      "question": 3955,
      "gy": 3956,
      "ward": 3957,
      "dysp": 3958,
      "tuberculo": 3959,
      "Ly": 3960,
      "Ap": 3961,
      "fractures": 3962,
      "design": 3963,
      "detect": 3964,
      "prognosis": 3965,
      "depen": 3966,
      "cạnh": 3967,
      "war": 3968,
      "RE": 3969,
      "TK": 3970,
      "loạt": 3971,
      "feeding": 3972,
      "trương": 3973,
      "alcohol": 3974,
      "uyết": 3975,
      "bì": 3976,
      "elevated": 3977,
      "Descri": 3978,
      "morbi": 3979,
      "point": 3980,
      "chịu": 3981,
      "lary": 3982,
      "Eff": 3983,
      "Thai": 3984,
      "pler": 3985,
      "certain": 3986,
      "calcium": 3987,
      "mand": 3988,
      "Mặc": 3989,
      "thick": 3990,
      "2005": 3991,
      "RNA": 3992,
      "thuỷ": 3993,
      "lệch": 3994,
      "analges": 3995,
      "globulin": 3996,
      "(>": 3997,
      "program": 3998,
      "SP": 3999,
      "Acute": 4000,
      "prolong": 4001,
      "nephro": 4002,
      "collected": 4003,
      "induced": 4004,
      "sens": 4005,
      "Vì": 4006,
      "oles": 4007,
      "lit": 4008,
      "ns": 4009,
      "peritone": 4010,
      "stones": 4011,
      "diabetic": 4012,
      "axis": 4013,
      "tán": 4014,
      "Mức": 4015,
      "recep": 4016,
      "ACE": 4017,
      "eck": 4018,
      "RO": 4019,
      "nhìn": 4020,
      "Đau": 4021,
      "kẽ": 4022,
      "potential": 4023,
      "na": 4024,
      "sch": 4025,
      "relative": 4026,
      "xung": 4027,
      "tube": 4028,
      "contrac": 4029,
      "nasal": 4030,
      "back": 4031,
      "eo": 4032,
      "rửa": 4033,
      "benef": 4034,
      "enzyme": 4035,
      "nai": 4036,
      "Với": 4037,
      "phình": 4038,
      "PET": 4039,
      "aging": 4040,
      "vant": 4041,
      "trache": 4042,
      "ngeal": 4043,
      "2006": 4044,
      "shows": 4045,
      "doses": 4046,
      "persis": 4047,
      "cánh": 4048,
      "class": 4049,
      "useful": 4050,
      "thoái": 4051,
      "thromb": 4052,
      "enal": 4053,
      "contr": 4054,
      "opi": 4055,
      "umab": 4056,
      "iron": 4057,
      "Fo": 4058,
      "Ty": 4059,
      "lateral": 4060,
      "pneumoniae": 4061,
      "June": 4062,
      "rine": 4063,
      "icians": 4064,
      "bowel": 4065,
      "Nu": 4066,
      "ove": 4067,
      "].": 4068,
      "attitude": 4069,
      "ngừng": 4070,
      "overall": 4071,
      "Vietnamese": 4072,
      "bóng": 4073,
      "sợi": 4074,
      "nee": 4075,
      "classification": 4076,
      "lox": 4077,
      "mothers": 4078,
      "They": 4079,
      "thuần": 4080,
      "ators": 4081,
      "however": 4082,
      "EP": 4083,
      "scop": 4084,
      "FS": 4085,
      "andid": 4086,
      "Gia": 4087,
      "ơm": 4088,
      "techniques": 4089,
      "Định": 4090,
      "BL": 4091,
      "dọc": 4092,
      "thải": 4093,
      "admission": 4094,
      "complex": 4095,
      "Pharm": 4096,
      "icient": 4097,
      "rosis": 4098,
      "benign": 4099,
      "CV": 4100,
      "From": 4101,
      "construc": 4102,
      "ternal": 4103,
      "median": 4104,
      "series": 4105,
      "limited": 4106,
      "Hồi": 4107,
      "uong": 4108,
      "immedi": 4109,
      "become": 4110,
      "viron": 4111,
      "presence": 4112,
      "CC": 4113,
      "bul": 4114,
      "alpha": 4115,
      "thẳng": 4116,
      "nutritional": 4117,
      "Người": 4118,
      "sex": 4119,
      "diarrhea": 4120,
      "particip": 4121,
      "Be": 4122,
      "malignant": 4123,
      "echo": 4124,
      "nur": 4125,
      "Tiền": 4126,
      "khoang": 4127,
      "Nguồn": 4128,
      "trem": 4129,
      "refer": 4130,
      "Hai": 4131,
      "rand": 4132,
      "ệm": 4133,
      "fetal": 4134,
      "monitoring": 4135,
      "otype": 4136,
      "ists": 4137,
      "resul": 4138,
      "rò": 4139,
      "sepsis": 4140,
      "chọc": 4141,
      "psycho": 4142,
      "tốc": 4143,
      "pattern": 4144,
      "plication": 4145,
      "dle": 4146,
      "ergy": 4147,
      "Inter": 4148,
      "aortic": 4149,
      "tiềm": 4150,
      "exp": 4151,
      "cies": 4152,
      "supple": 4153,
      "fil": 4154,
      "bilirubin": 4155,
      "nghề": 4156,
      "Để": 4157,
      "uring": 4158,
      "enh": 4159,
      "ales": 4160,
      "ucle": 4161,
      "olar": 4162,
      "ẩu": 4163,
      "trogen": 4164,
      "differenti": 4165,
      "fas": 4166,
      "phylo": 4167,
      "chemic": 4168,
      "intrac": 4169,
      "LDL": 4170,
      "population": 4171,
      "Ob": 4172,
      "spon": 4173,
      "GFR": 4174,
      "seu": 4175,
      "opioid": 4176,
      "isms": 4177,
      "pass": 4178,
      "tomo": 4179,
      "sửa": 4180,
      "bran": 4181,
      "bar": 4182,
      "toan": 4183,
      "Nhận": 4184,
      "uric": 4185,
      "Giá": 4186,
      "Although": 4187,
      "undergo": 4188,
      "WHO": 4189,
      "meters": 4190,
      "Drug": 4191,
      "đào": 4192,
      "cyst": 4193,
      "LI": 4194,
      "chết": 4195,
      "dialysis": 4196,
      "lạnh": 4197,
      "delay": 4198,
      "inser": 4199,
      "mell": 4200,
      "trop": 4201,
      "delivery": 4202,
      "frequency": 4203,
      "motor": 4204,
      "icro": 4205,
      "Car": 4206,
      "onography": 4207,
      "AV": 4208,
      "quanti": 4209,
      "ọt": 4210,
      "values": 4211,
      "Therefore": 4212,
      "place": 4213,
      "(<": 4214,
      "bại": 4215,
      "cửa": 4216,
      "meric": 4217,
      "dra": 4218,
      "sót": 4219,
      "stent": 4220,
      "rele": 4221,
      "vary": 4222,
      "includes": 4223,
      "vessel": 4224,
      "Bec": 4225,
      "AU": 4226,
      "va": 4227,
      "đảm": 4228,
      "contrast": 4229,
      "duction": 4230,
      "120": 4231,
      "ache": 4232,
      "regular": 4233,
      "cost": 4234,
      "epi": 4235,
      "đệm": 4236,
      "esophageal": 4237,
      "repair": 4238,
      "pH": 4239,
      "phase": 4240,
      "lắng": 4241,
      "Cy": 4242,
      "Fi": 4243,
      "tách": 4244,
      "Điểm": 4245,
      "affect": 4246,
      "vents": 4247,
      "urys": 4248,
      "rang": 4249,
      "Long": 4250,
      "ocy": 4251,
      "provide": 4252,
      "ably": 4253,
      "Biến": 4254,
      "abscess": 4255,
      "graphic": 4256,
      "bra": 4257,
      "anxi": 4258,
      "loid": 4259,
      "pediatric": 4260,
      "inos": 4261,
      "BNP": 4262,
      "HF": 4263,
      "LE": 4264,
      "mac": 4265,
      "xây": 4266,
      "ấc": 4267,
      "mutation": 4268,
      "equi": 4269,
      "õng": 4270,
      "leg": 4271,
      "obacter": 4272,
      "vomiting": 4273,
      "vảy": 4274,
      "estim": 4275,
      "species": 4276,
      "upivac": 4277,
      "aim": 4278,
      "Ro": 4279,
      "CK": 4280,
      "mủ": 4281,
      "onin": 4282,
      "Thanh": 4283,
      "ECG": 4284,
      "daily": 4285,
      "pathogen": 4286,
      "traindic": 4287,
      "via": 4288,
      "pep": 4289,
      "functional": 4290,
      "theli": 4291,
      "ostic": 4292,
      "hospitals": 4293,
      "recovery": 4294,
      "lồng": 4295,
      "trang": 4296,
      "advan": 4297,
      "suggest": 4298,
      "ML": 4299,
      "võng": 4300,
      "hour": 4301,
      "production": 4302,
      "polyp": 4303,
      "Hình": 4304,
      "VAS": 4305,
      "trắng": 4306,
      "above": 4307,
      "taken": 4308,
      "Blo": 4309,
      "gon": 4310,
      "nurses": 4311,
      "retrospective": 4312,
      "eli": 4313,
      "majority": 4314,
      "although": 4315,
      "atrial": 4316,
      "seudo": 4317,
      "environ": 4318,
      "phyl": 4319,
      "reaction": 4320,
      "Resources": 4321,
      "transfusion": 4322,
      "aria": 4323,
      "thus": 4324,
      "insuff": 4325,
      "drain": 4326,
      "duct": 4327,
      "buồn": 4328,
      "fung": 4329,
      "Topic": 4330,
      "ectious": 4331,
      "situation": 4332,
      "THA": 4333,
      "clear": 4334,
      "Subject": 4335,
      "methyl": 4336,
      "Sta": 4337,
      "giữ": 4338,
      "antigen": 4339,
      "base": 4340,
      "assis": 4341,
      "lege": 4342,
      "corticosteroids": 4343,
      "HbA1": 4344,
      "solution": 4345,
      "sem": 4346,
      "DM": 4347,
      "admitted": 4348,
      "ics": 4349,
      "EF": 4350,
      "lặp": 4351,
      "nạp": 4352,
      "shown": 4353,
      "ỉnh": 4354,
      "adminis": 4355,
      "Because": 4356,
      "HS": 4357,
      "lumb": 4358,
      "Dop": 4359,
      "sexu": 4360,
      "accounting": 4361,
      "smoking": 4362,
      "xim": 4363,
      "asion": 4364,
      "adher": 4365,
      "prescri": 4366,
      "vice": 4367,
      "optim": 4368,
      "received": 4369,
      "read": 4370,
      "phim": 4371,
      "vein": 4372,
      "inger": 4373,
      "airway": 4374,
      "cephal": 4375,
      "Disease": 4376,
      "weak": 4377,
      "gni": 4378,
      "Sci": 4379,
      "Mi": 4380,
      "measures": 4381,
      "membr": 4382,
      "150": 4383,
      "procedures": 4384,
      "Americ": 4385,
      "Fac": 4386,
      "node": 4387,
      "antibodies": 4388,
      "(+)": 4389,
      "seen": 4390,
      "recurrence": 4391,
      "overweight": 4392,
      "chặt": 4393,
      "amino": 4394,
      "Thiết": 4395,
      "Nhân": 4396,
      "penia": 4397,
      "ICU": 4398,
      "adequate": 4399,
      "KTC": 4400,
      "phỏng": 4401,
      "dependent": 4402,
      "Ha": 4403,
      "ắm": 4404,
      "VA": 4405,
      "trophy": 4406,
      "males": 4407,
      "Đôi": 4408,
      "fluor": 4409,
      "bơm": 4410,
      "knee": 4411,
      "tino": 4412,
      "2004": 4413,
      "detection": 4414,
      "sạch": 4415,
      "Đây": 4416,
      "ischemic": 4417,
      "addition": 4418,
      "absor": 4419,
      "strong": 4420,
      "onic": 4421,
      "khô": 4422,
      "carried": 4423,
      "plan": 4424,
      "visual": 4425,
      "sample": 4426,
      "breath": 4427,
      "investigate": 4428,
      "ênh": 4429,
      "bile": 4430,
      "frequently": 4431,
      "third": 4432,
      "tuberculosis": 4433,
      "Pa": 4434,
      "YT": 4435,
      "utine": 4436,
      "resi": 4437,
      "determined": 4438,
      "peritoneal": 4439,
      "aired": 4440,
      "dity": 4441,
      "lách": 4442,
      "nông": 4443,
      "cha": 4444,
      "ưỡng": 4445,
      "tress": 4446,
      "ngẫu": 4447,
      "healthy": 4448,
      "septic": 4449,
      "Char": 4450,
      "Assess": 4451,
      "HD": 4452,
      "hs": 4453,
      "tễ": 4454,
      "quốc": 4455,
      "hơi": 4456,
      "stable": 4457,
      "hospitalized": 4458,
      "creatinine": 4459,
      "extract": 4460,
      "cid": 4461,
      "NM": 4462,
      "bot": 4463,
      "quired": 4464,
      "mechanical": 4465,
      "Imm": 4466,
      "living": 4467,
      "studied": 4468,
      "faction": 4469,
      "khâu": 4470,
      "improvement": 4471,
      "ỡi": 4472,
      "tend": 4473,
      "eyes": 4474,
      "aneurys": 4475,
      "requires": 4476,
      "Siêu": 4477,
      "made": 4478,
      "Nhiều": 4479,
      "His": 4480,
      "tuỳ": 4481,
      "thuỳ": 4482,
      "chiếu": 4483,
      "internal": 4484,
      "discharge": 4485,
      "ember": 4486,
      "mach": 4487,
      "PS": 4488,
      "hít": 4489,
      "reconstruc": 4490,
      "inhibitors": 4491,
      "replacement": 4492,
      "bial": 4493,
      "center": 4494,
      "eutic": 4495,
      "Cardi": 4496,
      "further": 4497,
      "xấu": 4498,
      "reach": 4499,
      "longer": 4500,
      "vul": 4501,
      "real": 4502,
      "Nor": 4503,
      "temper": 4504,
      "Xem": 4505,
      "much": 4506,
      "Pe": 4507,
      "limb": 4508,
      "repe": 4509,
      "assemia": 4510,
      "LD": 4511,
      "cắn": 4512,
      "correct": 4513,
      "rarely": 4514,
      "training": 4515,
      "conj": 4516,
      "defects": 4517,
      "idemia": 4518,
      "đương": 4519,
      "Da": 4520,
      "LV": 4521,
      "ching": 4522,
      "cardia": 4523,
      "gắng": 4524,
      "triglycer": 4525,
      "cles": 4526,
      "Bạch": 4527,
      "lls": 4528,
      "nhắc": 4529,
      "opa": 4530,
      "EN": 4531,
      "community": 4532,
      "aternal": 4533,
      "ina": 4534,
      "confirmed": 4535,
      "sóng": 4536,
      "ablish": 4537,
      "assessed": 4538,
      "PA": 4539,
      "],": 4540,
      "Doppler": 4541,
      "loãng": 4542,
      "kali": 4543,
      "Oc": 4544,
      "cellular": 4545,
      "kinson": 4546,
      "HCV": 4547,
      "infer": 4548,
      "DD": 4549,
      "bic": 4550,
      "ứt": 4551,
      "vers": 4552,
      "staff": 4553,
      "social": 4554,
      "diameter": 4555,
      "Sever": 4556,
      "secre": 4557,
      "Huế": 4558,
      "2023": 4559,
      "malnutrition": 4560,
      "fall": 4561,
      "seg": 4562,
      "oxid": 4563,
      "last": 4564,
      "EV": 4565,
      "lumbar": 4566,
      "Suy": 4567,
      "ize": 4568,
      "impair": 4569,
      "stimul": 4570,
      "cing": 4571,
      "mellitus": 4572,
      "GA": 4573,
      "Giảm": 4574,
      "exercise": 4575,
      "bac": 4576,
      "apen": 4577,
      "Thiếu": 4578,
      "lications": 4579,
      "neonatal": 4580,
      "Hue": 4581,
      "Non": 4582,
      "nến": 4583,
      "defin": 4584,
      "UT": 4585,
      "whether": 4586,
      "distal": 4587,
      "close": 4588,
      "More": 4589,
      "College": 4590,
      "Chụp": 4591,
      "hemoglobin": 4592,
      "nửa": 4593,
      "sar": 4594,
      "tachy": 4595,
      "Nó": 4596,
      "hiểm": 4597,
      "lusion": 4598,
      "móng": 4599,
      "agents": 4600,
      "females": 4601,
      "land": 4602,
      "giấc": 4603,
      "yên": 4604,
      "(%)": 4605,
      "tle": 4606,
      "retro": 4607,
      "problems": 4608,
      "Dinh": 4609,
      "Mỹ": 4610,
      "T3": 4611,
      "glycemia": 4612,
      "Military": 4613,
      "gland": 4614,
      "cat": 4615,
      "vỏ": 4616,
      "December": 4617,
      "hygi": 4618,
      "RT": 4619,
      "1000": 4620,
      "anxiety": 4621,
      "calcul": 4622,
      "cit": 4623,
      "ei": 4624,
      "mảnh": 4625,
      "intake": 4626,
      "subst": 4627,
      "antibody": 4628,
      "defect": 4629,
      "Jul": 4630,
      "leading": 4631,
      "HI": 4632,
      "deep": 4633,
      "HDL": 4634,
      "nha": 4635,
      "agon": 4636,
      "đẩy": 4637,
      "đòi": 4638,
      "isolated": 4639,
      "slow": 4640,
      "suppor": 4641,
      "ked": 4642,
      "quay": 4643,
      "sụn": 4644,
      "consu": 4645,
      "epid": 4646,
      "DI": 4647,
      "Etiology": 4648,
      "course": 4649,
      "NI": 4650,
      "questionnai": 4651,
      "Quân": 4652,
      "thủng": 4653,
      "circul": 4654,
      "cirrho": 4655,
      "Chronic": 4656,
      "review": 4657,
      "stone": 4658,
      "products": 4659,
      "pg": 4660,
      "association": 4661,
      "hại": 4662,
      "2000": 4663,
      "thanol": 4664,
      "rim": 4665,
      "thyroidism": 4666,
      "ximal": 4667,
      "parameters": 4668,
      "best": 4669,
      "remain": 4670,
      "satisfaction": 4671,
      "aine": 4672,
      "len": 4673,
      "gender": 4674,
      "tered": 4675,
      "concer": 4676,
      "Tại": 4677,
      "acer": 4678,
      "riêng": 4679,
      "Tiêu": 4680,
      "Tes": 4681,
      "fist": 4682,
      "ays": 4683,
      "cept": 4684,
      "Thành": 4685,
      "colo": 4686,
      "tuệ": 4687,
      "lưỡi": 4688,
      "lymphoma": 4689,
      "arrhyth": 4690,
      "resulting": 4691,
      "call": 4692,
      "ultrasonography": 4693,
      "advanced": 4694,
      "treating": 4695,
      "exam": 4696,
      "clerosis": 4697,
      "Kiến": 4698,
      "300": 4699,
      "ides": 4700,
      "star": 4701,
      "dính": 4702,
      "nốt": 4703,
      "distri": 4704,
      "FD": 4705,
      "MO": 4706,
      "cardiography": 4707,
      "pathology": 4708,
      "sinus": 4709,
      "epis": 4710,
      "branch": 4711,
      "gar": 4712,
      "io": 4713,
      "compon": 4714,
      "cái": 4715,
      "eld": 4716,
      "angio": 4717,
      "pelvic": 4718,
      "Path": 4719,
      "taking": 4720,
      "middle": 4721,
      "sition": 4722,
      "adoles": 4723,
      "prolonged": 4724,
      "thrombosis": 4725,
      "Cross": 4726,
      "rệt": 4727,
      "adherence": 4728,
      "khẩu": 4729,
      "toả": 4730,
      "platelet": 4731,
      "ngộ": 4732,
      "chèn": 4733,
      "emp": 4734,
      "adrenal": 4735,
      "sour": 4736,
      "Trường": 4737,
      "special": 4738,
      "đội": 4739,
      "mouth": 4740,
      "biliary": 4741,
      "CSF": 4742,
      "removal": 4743,
      "Viện": 4744,
      "phơi": 4745,
      "Prevention": 4746,
      "nursing": 4747,
      "giun": 4748,
      "hood": 4749,
      "Trans": 4750,
      "phylaxis": 4751,
      "mỏi": 4752,
      "arily": 4753,
      "ulmonary": 4754,
      "prefer": 4755,
      "ngành": 4756,
      "iness": 4757,
      "involved": 4758,
      "ather": 4759,
      "blic": 4760,
      "benz": 4761,
      "mù": 4762,
      "taneous": 4763,
      "zole": 4764,
      "working": 4765,
      "Khám": 4766,
      "Gy": 4767,
      "omi": 4768,
      "vation": 4769,
      "chú": 4770,
      "contribut": 4771,
      "T2": 4772,
      "vitro": 4773,
      "sodium": 4774,
      "Căn": 4775,
      "expression": 4776,
      "prob": 4777,
      "imum": 4778,
      "ficial": 4779,
      "Cal": 4780,
      "proper": 4781,
      "Phy": 4782,
      "epide": 4783,
      "ind": 4784,
      "uncture": 4785,
      "embol": 4786,
      "thromycin": 4787,
      "Blood": 4788,
      "apar": 4789,
      "103": 4790,
      "bution": 4791,
      "routine": 4792,
      "kí": 4793,
      "acquired": 4794,
      "cyclo": 4795,
      "establish": 4796,
      "adult": 4797,
      "experience": 4798,
      "continuous": 4799,
      "Về": 4800,
      "welling": 4801,
      "highly": 4802,
      "andida": 4803,
      "Staphylo": 4804,
      "ances": 4805,
      "Among": 4806,
      "ulder": 4807,
      "teeth": 4808,
      "needs": 4809,
      "huỷ": 4810,
      "thăm": 4811,
      "others": 4812,
      "hygiene": 4813,
      "thuyên": 4814,
      "implant": 4815,
      "Man": 4816,
      "lupus": 4817,
      "isk": 4818,
      "make": 4819,
      "])": 4820,
      "ầng": 4821,
      "temperature": 4822,
      "symptom": 4823,
      "predictive": 4824,
      "canal": 4825,
      "ausea": 4826,
      "guid": 4827,
      "osin": 4828,
      "fal": 4829,
      "cancers": 4830,
      "otid": 4831,
      "strains": 4832,
      "Cơ": 4833,
      "ye": 4834,
      "tries": 4835,
      "white": 4836,
      "tomography": 4837,
      "fr": 4838,
      "lack": 4839,
      "Phụ": 4840,
      "2003": 4841,
      "radio": 4842,
      "ospor": 4843,
      "you": 4844,
      "troduction": 4845,
      "obtained": 4846,
      "AK": 4847,
      "observed": 4848,
      "istic": 4849,
      "activ": 4850,
      "molec": 4851,
      "cci": 4852,
      "pap": 4853,
      "varian": 4854,
      "Aug": 4855,
      "hoạch": 4856,
      "Pho": 4857,
      "amide": 4858,
      "compar": 4859,
      "surface": 4860,
      "ticular": 4861,
      "HCC": 4862,
      "plus": 4863,
      "iod": 4864,
      "nghe": 4865,
      "allow": 4866,
      "oso": 4867,
      "Institu": 4868,
      "foot": 4869,
      "entan": 4870,
      "muối": 4871,
      "m2": 4872,
      "stetric": 4873,
      "Mul": 4874,
      "ished": 4875,
      "Nutrition": 4876,
      "LS": 4877,
      "ngưng": 4878,
      "chằng": 4879,
      "undergoing": 4880,
      "nề": 4881,
      "sterone": 4882,
      "load": 4883,
      "press": 4884,
      "underlying": 4885,
      "rốn": 4886,
      "version": 4887,
      "heal": 4888,
      "emo": 4889,
      "headache": 4890,
      "suggests": 4891,
      "Common": 4892,
      "Mor": 4893,
      "lat": 4894,
      "ato": 4895,
      "chấp": 4896,
      "issu": 4897,
      "loxacin": 4898,
      "ud": 4899,
      "Syn": 4900,
      "partial": 4901,
      "clinically": 4902,
      "mye": 4903,
      "tracheal": 4904,
      "sia": 4905,
      "Kiểm": 4906,
      "therapeutic": 4907,
      "HE": 4908,
      "graft": 4909,
      "Ce": 4910,
      "băng": 4911,
      "bers": 4912,
      "occup": 4913,
      "sensitive": 4914,
      "PH": 4915,
      "Đức": 4916,
      "quin": 4917,
      "mệt": 4918,
      "ski": 4919,
      "glyco": 4920,
      "meningitis": 4921,
      "àu": 4922,
      "atives": 4923,
      "cậy": 4924,
      "events": 4925,
      "hem": 4926,
      "aryngeal": 4927,
      "Many": 4928,
      "hepato": 4929,
      "metastasis": 4930,
      "New": 4931,
      "atr": 4932,
      "NSA": 4933,
      "sút": 4934,
      "sưng": 4935,
      "tầm": 4936,
      "ana": 4937,
      "nel": 4938,
      "Infection": 4939,
      "receptor": 4940,
      "mented": 4941,
      "ranial": 4942,
      "gue": 4943,
      "arteries": 4944,
      "stop": 4945,
      "econ": 4946,
      "CM": 4947,
      "trig": 4948,
      "various": 4949,
      "tubation": 4950,
      "seizures": 4951,
      "wer": 4952,
      "another": 4953,
      "µg": 4954,
      "phil": 4955,
      "BS": 4956,
      "ito": 4957,
      "lỏng": 4958,
      "pleural": 4959,
      "neurologic": 4960,
      "giản": 4961,
      "effusion": 4962,
      "apenem": 4963,
      "xed": 4964,
      "tured": 4965,
      "VI": 4966,
      "HR": 4967,
      "occurred": 4968,
      "phosphate": 4969,
      "Complications": 4970,
      "asymptomatic": 4971,
      "NSAID": 4972,
      "cover": 4973,
      "teo": 4974,
      "IgG": 4975,
      "caps": 4976,
      "2002": 4977,
      "asionally": 4978,
      "heum": 4979,
      "facial": 4980,
      "imple": 4981,
      "Dân": 4982,
      "inten": 4983,
      "lysis": 4984,
      "tility": 4985,
      "treatments": 4986,
      "target": 4987,
      "ED": 4988,
      "Gram": 4989,
      "developed": 4990,
      "Clin": 4991,
      "scores": 4992,
      "ga": 4993,
      "nerv": 4994,
      "containing": 4995,
      "morbidity": 4996,
      "400": 4997,
      "essential": 4998,
      "expl": 4999,
      "pril": 5000,
      "nạn": 5001,
      "NP": 5002,
      "dental": 5003,
      "khai": 5004,
      "iệm": 5005,
      "bỏng": 5006,
      "angle": 5007,
      "around": 5008,
      "home": 5009,
      "preoperative": 5010,
      "chial": 5011,
      "suscep": 5012,
      "Evaluate": 5013,
      "Ninh": 5014,
      "CoV": 5015,
      "greater": 5016,
      "SARS": 5017,
      "T4": 5018,
      "spp": 5019,
      "examined": 5020,
      "minimal": 5021,
      "bia": 5022,
      "placed": 5023,
      "amount": 5024,
      "yst": 5025,
      "ếng": 5026,
      "allergic": 5027,
      "encephal": 5028,
      "ộm": 5029,
      "cline": 5030,
      "arean": 5031,
      "ella": 5032,
      "sẹo": 5033,
      "countries": 5034,
      "spontaneous": 5035,
      "gai": 5036,
      "operated": 5037,
      "Tim": 5038,
      "gắn": 5039,
      "PhD": 5040,
      "concentrations": 5041,
      "frequent": 5042,
      "Her": 5043,
      "strate": 5044,
      "tộc": 5045,
      "Sometimes": 5046,
      "forms": 5047,
      "influenz": 5048,
      "Hải": 5049,
      "NC": 5050,
      "chênh": 5051,
      "rupture": 5052,
      "Risk": 5053,
      "cuống": 5054,
      "sexual": 5055,
      "Huyết": 5056,
      "habil": 5057,
      "coagulation": 5058,
      "hôi": 5059,
      "úm": 5060,
      "đời": 5061,
      "uyện": 5062,
      "Neuro": 5063,
      "progression": 5064,
      "dao": 5065,
      "Cắt": 5066,
      "infectious": 5067,
      "maintain": 5068,
      "recorded": 5069,
      "American": 5070,
      "%:": 5071,
      "nar": 5072,
      "super": 5073,
      "Surgical": 5074,
      "mảng": 5075,
      "sitis": 5076,
      "oriasis": 5077,
      "Gas": 5078,
      "Pos": 5079,
      "đẻ": 5080,
      "relatively": 5081,
      "tosterone": 5082,
      "roup": 5083,
      "obstructive": 5084,
      "nausea": 5085,
      "check": 5086,
      "application": 5087,
      "helps": 5088,
      "Surgery": 5089,
      "ian": 5090,
      "Ste": 5091,
      "uted": 5092,
      "hold": 5093,
      "nodes": 5094,
      "cầm": 5095,
      "characterized": 5096,
      "dengue": 5097,
      "contamin": 5098,
      "Kỹ": 5099,
      "thin": 5100,
      "lization": 5101,
      "advant": 5102,
      "típ": 5103,
      "brill": 5104,
      "obj": 5105,
      "exclu": 5106,
      "correc": 5107,
      "neutro": 5108,
      "phong": 5109,
      "practic": 5110,
      "Parkinson": 5111,
      "coi": 5112,
      "tưới": 5113,
      "cannot": 5114,
      "bú": 5115,
      "progressive": 5116,
      "insufficiency": 5117,
      "maternal": 5118,
      "difficul": 5119,
      "achieved": 5120,
      "chẳng": 5121,
      "ased": 5122,
      "extrem": 5123,
      "Introduction": 5124,
      "brin": 5125,
      "compare": 5126,
      "dominant": 5127,
      "Cancer": 5128,
      "put": 5129,
      "direc": 5130,
      "TG": 5131,
      "acerb": 5132,
      "tendon": 5133,
      "Hear": 5134,
      "indivi": 5135,
      "pot": 5136,
      "nuốt": 5137,
      "called": 5138,
      "ars": 5139,
      "preven": 5140,
      "Trên": 5141,
      "affecting": 5142,
      "ables": 5143,
      "versus": 5144,
      "hn": 5145,
      "accomp": 5146,
      "Pur": 5147,
      "full": 5148,
      "contact": 5149,
      "pancreatic": 5150,
      "Wil": 5151,
      "liance": 5152,
      "possi": 5153,
      "See": 5154,
      "promis": 5155,
      "HbA1c": 5156,
      "differences": 5157,
      "Character": 5158,
      "CG": 5159,
      "confirm": 5160,
      "reconstruction": 5161,
      "ovirus": 5162,
      "physiology": 5163,
      "ACT": 5164,
      "Na": 5165,
      "duod": 5166,
      "Dengue": 5167,
      "tw": 5168,
      "dry": 5169,
      "IU": 5170,
      "tool": 5171,
      "four": 5172,
      "services": 5173,
      "ngưỡng": 5174,
      "gnitive": 5175,
      "dầu": 5176,
      "percutaneous": 5177,
      "tempor": 5178,
      "estrogen": 5179,
      "drainage": 5180,
      "root": 5181,
      "habilitation": 5182,
      "later": 5183,
      "unit": 5184,
      "CO2": 5185,
      "typical": 5186,
      "fibrosis": 5187,
      "tooth": 5188,
      "proto": 5189,
      "poison": 5190,
      "AUC": 5191,
      "Duc": 5192,
      "AST": 5193,
      "foreign": 5194,
      "university": 5195,
      "tingu": 5196,
      "kín": 5197,
      "down": 5198,
      "Khoảng": 5199,
      "mọi": 5200,
      "trục": 5201,
      "comycin": 5202,
      "subclinical": 5203,
      "begin": 5204,
      "epine": 5205,
      "release": 5206,
      "rapidly": 5207,
      "Ul": 5208,
      "isch": 5209,
      "generation": 5210,
      "tional": 5211,
      "thúc": 5212,
      "proBNP": 5213,
      "nucle": 5214,
      "sci": 5215,
      "almost": 5216,
      "genes": 5217,
      "traditional": 5218,
      "đứng": 5219,
      "uginos": 5220,
      "qual": 5221,
      "Our": 5222,
      "ovarian": 5223,
      "tam": 5224,
      "generally": 5225,
      "height": 5226,
      "images": 5227,
      "fully": 5228,
      "exacerb": 5229,
      "mice": 5230,
      "reducing": 5231,
      "stool": 5232,
      "acity": 5233,
      "Bach": 5234,
      "bột": 5235,
      "lis": 5236,
      "entia": 5237,
      "Group": 5238,
      "simple": 5239,
      "ii": 5240,
      "behavior": 5241,
      "Dia": 5242,
      "phủ": 5243,
      "250": 5244,
      "coccal": 5245,
      "defined": 5246,
      "thảo": 5247,
      "idine": 5248,
      "necrosis": 5249,
      "problem": 5250,
      "medications": 5251,
      "agne": 5252,
      "neonates": 5253,
      "lược": 5254,
      "specim": 5255,
      "CB": 5256,
      "Công": 5257,
      "asto": 5258,
      "selected": 5259,
      "membrane": 5260,
      "loma": 5261,
      "region": 5262,
      "gestational": 5263,
      "thoracic": 5264,
      "Is": 5265,
      "ech": 5266,
      "sac": 5267,
      "nhớ": 5268,
      "fibrill": 5269,
      "lipidemia": 5270,
      "T1": 5271,
      "luyện": 5272,
      "mỹ": 5273,
      "rãi": 5274,
      "toán": 5275,
      "phosphat": 5276,
      "phrine": 5277,
      "external": 5278,
      "Assessment": 5279,
      "Stre": 5280,
      "ines": 5281,
      "altern": 5282,
      "contraindic": 5283,
      "topical": 5284,
      "gel": 5285,
      "ẮT": 5286,
      "verte": 5287,
      "cyte": 5288,
      "òm": 5289,
      "hiến": 5290,
      "compound": 5291,
      "tầng": 5292,
      "Institute": 5293,
      "caine": 5294,
      "irr": 5295,
      "Tiên": 5296,
      "benefit": 5297,
      "Gra": 5298,
      "Biểu": 5299,
      "thelial": 5300,
      "Early": 5301,
      "mầm": 5302,
      "Disorder": 5303,
      "pathological": 5304,
      "ibular": 5305,
      "NB": 5306,
      "otomy": 5307,
      "ameth": 5308,
      "tắt": 5309,
      "ash": 5310,
      "below": 5311,
      "chiến": 5312,
      "marrow": 5313,
      "aeruginos": 5314,
      "Using": 5315,
      "Dan": 5316,
      "choice": 5317,
      "hearing": 5318,
      "shoulder": 5319,
      "atigue": 5320,
      "rau": 5321,
      "hospitalization": 5322,
      "defic": 5323,
      "initis": 5324,
      "nổi": 5325,
      "gies": 5326,
      "oxide": 5327,
      "occlusion": 5328,
      "July": 5329,
      "pred": 5330,
      "ALT": 5331,
      "sao": 5332,
      "stolic": 5333,
      "bờ": 5334,
      "lông": 5335,
      "ric": 5336,
      "ters": 5337,
      "lum": 5338,
      "genic": 5339,
      "opor": 5340,
      "ngã": 5341,
      "tron": 5342,
      "content": 5343,
      "erythe": 5344,
      "Know": 5345,
      "Covid": 5346,
      "parent": 5347,
      "cents": 5348,
      "prost": 5349,
      "omes": 5350,
      "gradu": 5351,
      "lytic": 5352,
      "guidelines": 5353,
      "thral": 5354,
      "directly": 5355,
      "sulf": 5356,
      "Staphylococcus": 5357,
      "accid": 5358,
      "alone": 5359,
      "Ped": 5360,
      "văn": 5361,
      "vữa": 5362,
      "spine": 5363,
      "nghiện": 5364,
      "topic": 5365,
      "stain": 5366,
      "step": 5367,
      "cirrhosis": 5368,
      "great": 5369,
      "lation": 5370,
      "nắn": 5371,
      "infusion": 5372,
      "characteristic": 5373,
      "Of": 5374,
      "Phi": 5375,
      "mụn": 5376,
      "trật": 5377,
      "symptomatic": 5378,
      "involves": 5379,
      "angiography": 5380,
      "ged": 5381,
      "lactam": 5382,
      "pepti": 5383,
      "Or": 5384,
      "lot": 5385,
      "namic": 5386,
      "predn": 5387,
      "tant": 5388,
      "circum": 5389,
      "One": 5390,
      "distingu": 5391,
      "IT": 5392,
      "istics": 5393,
      "dop": 5394,
      "nervous": 5395,
      "impaired": 5396,
      "Nguyễn": 5397,
      "Pharmacy": 5398,
      "Bộ": 5399,
      "chẽ": 5400,
      "intensive": 5401,
      "energy": 5402,
      "incision": 5403,
      "parac": 5404,
      "persistent": 5405,
      "April": 5406,
      "toler": 5407,
      "hypertensive": 5408,
      "involvement": 5409,
      "bon": 5410,
      "action": 5411,
      "Progn": 5412,
      "CDC": 5413,
      "March": 5414,
      "Rel": 5415,
      "word": 5416,
      "OT": 5417,
      "dden": 5418,
      "rách": 5419,
      "scar": 5420,
      "always": 5421,
      "ischemia": 5422,
      "Liệu": 5423,
      "ýp": 5424,
      "aeruginosa": 5425,
      "sme": 5426,
      "prostate": 5427,
      "doc": 5428,
      "reactions": 5429,
      "bly": 5430,
      "otic": 5431,
      "rễ": 5432,
      "either": 5433,
      "During": 5434,
      "xia": 5435,
      "reve": 5436,
      "My": 5437,
      "your": 5438,
      "ÓM": 5439,
      "public": 5440,
      "vity": 5441,
      "access": 5442,
      "mature": 5443,
      "bital": 5444,
      "arding": 5445,
      "dem": 5446,
      "aims": 5447,
      "CN": 5448,
      "blas": 5449,
      "cholin": 5450,
      "valent": 5451,
      "interventions": 5452,
      "tober": 5453,
      "nghỉ": 5454,
      "traumatic": 5455,
      "TẮT": 5456,
      "Candida": 5457,
      "TÓM": 5458,
      "tissues": 5459,
      "đáy": 5460,
      "Eng": 5461,
      "HT": 5462,
      "swelling": 5463,
      "summ": 5464,
      "recent": 5465,
      "pharmac": 5466,
      "ards": 5467,
      "spor": 5468,
      "Overview": 5469,
      "August": 5470,
      "ught": 5471,
      "aled": 5472,
      "Heart": 5473,
      "Spec": 5474,
      "bù": 5475,
      "hỗn": 5476,
      "Factors": 5477,
      "metry": 5478,
      "cen": 5479,
      "demon": 5480,
      "density": 5481,
      "opathic": 5482,
      "osinoph": 5483,
      "Gu": 5484,
      "cis": 5485,
      "sph": 5486,
      "arthro": 5487,
      "how": 5488,
      "agic": 5489,
      "siella": 5490,
      "medication": 5491,
      "Liều": 5492,
      "divided": 5493,
      "questionnaire": 5494,
      "encing": 5495,
      "leb": 5496,
      "preterm": 5497,
      "cessive": 5498,
      "parents": 5499,
      "HBs": 5500,
      "anas": 5501,
      "lứa": 5502,
      "tender": 5503,
      "cholec": 5504,
      "assium": 5505,
      "born": 5506,
      "compression": 5507,
      "femoral": 5508,
      "nt": 5509,
      "weakness": 5510,
      "photo": 5511,
      "gal": 5512,
      "corticoid": 5513,
      "usc": 5514,
      "kine": 5515,
      "xanh": 5516,
      "Endo": 5517,
      "Ngh": 5518,
      "luôn": 5519,
      "vaccination": 5520,
      "triệt": 5521,
      "fistula": 5522,
      "vách": 5523,
      "đỉnh": 5524,
      "embolism": 5525,
      "ej": 5526,
      "CLVT": 5527,
      "tải": 5528,
      "entanyl": 5529,
      "istry": 5530,
      "neal": 5531,
      "testosterone": 5532,
      "Knowledge": 5533,
      "ply": 5534,
      "ION": 5535,
      "High": 5536,
      "turn": 5537,
      "cai": 5538,
      "relie": 5539,
      "ware": 5540,
      "monas": 5541,
      "half": 5542,
      "alve": 5543,
      "trol": 5544,
      "prepar": 5545,
      "Chất": 5546,
      "tested": 5547,
      "prognostic": 5548,
      "distribution": 5549,
      "nữa": 5550,
      "ank": 5551,
      "Jo": 5552,
      "gkin": 5553,
      "aimed": 5554,
      "ulo": 5555,
      "compliance": 5556,
      "rays": 5557,
      "Associ": 5558,
      "recogn": 5559,
      "absorption": 5560,
      "BR": 5561,
      "đêm": 5562,
      "rad": 5563,
      "fungal": 5564,
      "drom": 5565,
      "Thus": 5566,
      "Chống": 5567,
      "interval": 5568,
      "endoscopy": 5569,
      "October": 5570,
      "echocardiography": 5571,
      "ophysiology": 5572,
      "én": 5573,
      "tember": 5574,
      "accuracy": 5575,
      "tero": 5576,
      "resol": 5577,
      "developing": 5578,
      "terone": 5579,
      "ngữ": 5580,
      "chuỗi": 5581,
      "phospho": 5582,
      "thorax": 5583,
      "pancreatitis": 5584,
      "cro": 5585,
      "itable": 5586,
      "image": 5587,
      "Immun": 5588,
      "upivacaine": 5589,
      "att": 5590,
      "proximal": 5591,
      "genotype": 5592,
      "UR": 5593,
      "would": 5594,
      "sions": 5595,
      "ventional": 5596,
      "cystic": 5597,
      "nib": 5598,
      "append": 5599,
      "milk": 5600,
      "example": 5601,
      "Vir": 5602,
      "suscepti": 5603,
      "mains": 5604,
      "preser": 5605,
      "LT": 5606,
      "ched": 5607,
      "mias": 5608,
      "HLA": 5609,
      "toma": 5610,
      "room": 5611,
      "plant": 5612,
      "vessels": 5613,
      "nhuộm": 5614,
      "removed": 5615,
      "Tra": 5616,
      "reason": 5617,
      "nd": 5618,
      "run": 5619,
      "tưởng": 5620,
      "icardi": 5621,
      "cognitive": 5622,
      "systolic": 5623,
      "lebsiella": 5624,
      "ngột": 5625,
      "cough": 5626,
      "surge": 5627,
      "bilateral": 5628,
      "ESBL": 5629,
      "cytosis": 5630,
      "organs": 5631,
      "Hypo": 5632,
      "mạng": 5633,
      "distress": 5634,
      "125": 5635,
      "involve": 5636,
      "Đường": 5637,
      "oporosis": 5638,
      "suffer": 5639,
      "intracranial": 5640,
      "thickness": 5641,
      "bọt": 5642,
      "fatigue": 5643,
      "giang": 5644,
      "focal": 5645,
      "nạo": 5646,
      "tol": 5647,
      "suốt": 5648,
      "Vị": 5649,
      "inte": 5650,
      "pical": 5651,
      "ỏm": 5652,
      "pneumo": 5653,
      "nẹp": 5654,
      "lies": 5655,
      "Survey": 5656,
      "chẹn": 5657,
      "fibrin": 5658,
      "denti": 5659,
      "icin": 5660,
      "conjunc": 5661,
      "tia": 5662,
      "giường": 5663,
      "complicated": 5664,
      "dyspnea": 5665,
      "Hiện": 5666,
      "Met": 5667,
      "ct": 5668,
      "far": 5669,
      "attention": 5670,
      "sites": 5671,
      "TSH": 5672,
      "colorectal": 5673,
      "Phần": 5674,
      "tural": 5675,
      "drin": 5676,
      "lastic": 5677,
      "palp": 5678,
      "sta": 5679,
      "immediately": 5680,
      "bau": 5681,
      "cision": 5682,
      "manni": 5683,
      "tachycardia": 5684,
      "IG": 5685,
      "classified": 5686,
      "cysts": 5687,
      "hư": 5688,
      "delayed": 5689,
      "nguyệt": 5690,
      "nail": 5691,
      "thyro": 5692,
      "glomer": 5693,
      "perforation": 5694,
      "September": 5695,
      "find": 5696,
      "fraction": 5697,
      "appearance": 5698,
      "Kích": 5699,
      "uration": 5700,
      "accounts": 5701,
      "prop": 5702,
      "solid": 5703,
      "herpes": 5704,
      "dementia": 5705,
      "dou": 5706,
      "crine": 5707,
      "assisted": 5708,
      "Quang": 5709,
      "toxin": 5710,
      "Hel": 5711,
      "Pres": 5712,
      "pic": 5713,
      "proli": 5714,
      "Giải": 5715,
      "plasty": 5716,
      "Phys": 5717,
      "mình": 5718,
      "rehabilitation": 5719,
      "Average": 5720,
      "Use": 5721,
      "andro": 5722,
      "fibrillation": 5723,
      "gitation": 5724,
      "capacity": 5725,
      "aspiration": 5726,
      "Vitamin": 5727,
      "material": 5728,
      "poisoning": 5729,
      "intubation": 5730,
      "tensin": 5731,
      "environment": 5732,
      "Go": 5733,
      "linical": 5734,
      "Serum": 5735,
      "RA": 5736,
      "hydroxy": 5737,
      "medias": 5738,
      "Lapar": 5739,
      "nút": 5740,
      "pol": 5741,
      "quận": 5742,
      "hormon": 5743,
      "anesthetic": 5744,
      "analyzed": 5745,
      "depends": 5746,
      "Purpose": 5747,
      "mồ": 5748,
      "stages": 5749,
      "lay": 5750,
      "mã": 5751,
      "ligam": 5752,
      "erythro": 5753,
      "Qua": 5754,
      "intrao": 5755,
      "sor": 5756,
      "ếch": 5757,
      "Food": 5758,
      "Prognosis": 5759,
      "Mal": 5760,
      "polym": 5761,
      "develops": 5762,
      "Diabe": 5763,
      "ping": 5764,
      "Ini": 5765,
      "Prospective": 5766,
      "osteo": 5767,
      "IP": 5768,
      "exten": 5769,
      "partum": 5770,
      "successfully": 5771,
      "rắn": 5772,
      "psoriasis": 5773,
      "completely": 5774,
      "Klebsiella": 5775,
      "cocci": 5776,
      "trex": 5777,
      "2001": 5778,
      "TNF": 5779,
      "115": 5780,
      "hiển": 5781,
      "anger": 5782,
      "scopic": 5783,
      "Com": 5784,
      "abdo": 5785,
      "potassium": 5786,
      "rather": 5787,
      "measurement": 5788,
      "Data": 5789,
      "tual": 5790,
      "fort": 5791,
      "Characteristics": 5792,
      "ethanol": 5793,
      "atology": 5794,
      "nghĩ": 5795,
      "concern": 5796,
      "squ": 5797,
      "Total": 5798,
      "nat": 5799,
      "leukemia": 5800,
      "Ep": 5801,
      "rheum": 5802,
      "đĩa": 5803,
      "discus": 5804,
      "mono": 5805,
      "How": 5806,
      "movement": 5807,
      "trum": 5808,
      "estion": 5809,
      "depending": 5810,
      "lẫn": 5811,
      "rét": 5812,
      "ats": 5813,
      "Keyword": 5814,
      "According": 5815,
      "fu": 5816,
      "gall": 5817,
      "computed": 5818,
      "prior": 5819,
      "learning": 5820,
      "impairment": 5821,
      "national": 5822,
      "iso": 5823,
      "shap": 5824,
      "Case": 5825,
      "tím": 5826,
      "diagnose": 5827,
      "regression": 5828,
      "communication": 5829,
      "epidemi": 5830,
      "practices": 5831,
      "prophylaxis": 5832,
      "infant": 5833,
      "lowest": 5834,
      "HBsAg": 5835,
      "đảo": 5836,
      "cef": 5837,
      "phạm": 5838,
      "primarily": 5839,
      "Min": 5840,
      "vượt": 5841,
      "flo": 5842,
      "motion": 5843,
      "foods": 5844,
      "provinc": 5845,
      "lai": 5846,
      "essing": 5847,
      "giám": 5848,
      "organisms": 5849,
      "ilities": 5850,
      "Multi": 5851,
      "Bắc": 5852,
      "VP": 5853,
      "conf": 5854,
      "affects": 5855,
      "háng": 5856,
      "she": 5857,
      "quen": 5858,
      "Chăm": 5859,
      "xoắn": 5860,
      "Im": 5861,
      "vòm": 5862,
      "chain": 5863,
      "Thay": 5864,
      "bing": 5865,
      "gián": 5866,
      "muscles": 5867,
      "standing": 5868,
      "minute": 5869,
      "members": 5870,
      "oil": 5871,
      "trai": 5872,
      "eating": 5873,
      "vẩy": 5874,
      "house": 5875,
      "intravenous": 5876,
      "event": 5877,
      "deri": 5878,
      "occasionally": 5879,
      "helpful": 5880,
      "administration": 5881,
      "nhược": 5882,
      "described": 5883,
      "hypotension": 5884,
      "stein": 5885,
      "widely": 5886,
      "agnetic": 5887,
      "dri": 5888,
      "correlated": 5889,
      "IM": 5890,
      "lồi": 5891,
      "châm": 5892,
      "paraclinical": 5893,
      "PSA": 5894,
      "thâm": 5895,
      "perfusion": 5896,
      "sudden": 5897,
      "cial": 5898,
      "field": 5899,
      "transmission": 5900,
      "Poly": 5901,
      "tative": 5902,
      "Mon": 5903,
      "Prim": 5904,
      "mitral": 5905,
      "SDD": 5906,
      "Pain": 5907,
      "Xu": 5908,
      "treo": 5909,
      "protocol": 5910,
      "spread": 5911,
      "systems": 5912,
      "hemato": 5913,
      "cure": 5914,
      "gent": 5915,
      "ened": 5916,
      "doi": 5917,
      "nong": 5918,
      "facilities": 5919,
      "cious": 5920,
      "risks": 5921,
      "1st": 5922,
      "AA": 5923,
      "lạc": 5924,
      "fish": 5925,
      "phôi": 5926,
      "SV": 5927,
      "UV": 5928,
      "oc": 5929,
      "ườn": 5930,
      "cytopenia": 5931,
      "dietary": 5932,
      "macro": 5933,
      "hốc": 5934,
      "osup": 5935,
      "software": 5936,
      "EGFR": 5937,
      "ible": 5938,
      "180": 5939,
      "along": 5940,
      "perform": 5941,
      "infil": 5942,
      "xoay": 5943,
      "optimal": 5944,
      "Pediatric": 5945,
      "Post": 5946,
      "Wor": 5947,
      "rever": 5948,
      "Hod": 5949,
      "cập": 5950,
      "extraction": 5951,
      "penicillin": 5952,
      "ngứa": 5953,
      "lution": 5954,
      "pite": 5955,
      "Investig": 5956,
      "Care": 5957,
      "ENT": 5958,
      "poie": 5959,
      "Prevalence": 5960,
      "appears": 5961,
      "molecular": 5962,
      "spe": 5963,
      "Control": 5964,
      "Sub": 5965,
      "prolifer": 5966,
      "gins": 5967,
      "compromis": 5968,
      "TO": 5969,
      "space": 5970,
      "Chấn": 5971,
      "metastatic": 5972,
      "Lym": 5973,
      "zy": 5974,
      "opres": 5975,
      "impact": 5976,
      "commune": 5977,
      "excessive": 5978,
      "antim": 5979,
      "bypass": 5980,
      "0001": 5981,
      "demonstr": 5982,
      "liter": 5983,
      "ician": 5984,
      "pment": 5985,
      "rof": 5986,
      "distur": 5987,
      "ritin": 5988,
      "minor": 5989,
      "ureteral": 5990,
      "dậy": 5991,
      "thre": 5992,
      "valid": 5993,
      "structure": 5994,
      "dent": 5995,
      "ends": 5996,
      "units": 5997,
      "additional": 5998,
      "residual": 5999,
      "Radi": 6000,
      "Causes": 6001,
      "ROC": 6002,
      "insertion": 6003,
      "Van": 6004,
      "analgesia": 6005,
      "advantages": 6006,
      "thậm": 6007,
      "feasi": 6008,
      "System": 6009,
      "ulcers": 6010,
      "skills": 6011,
      "radical": 6012,
      "Au": 6013,
      "rd": 6014,
      "absence": 6015,
      "osteoporosis": 6016,
      "xation": 6017,
      "evaluating": 6018,
      "tóc": 6019,
      "týp": 6020,
      "separ": 6021,
      "nodules": 6022,
      "Hodgkin": 6023,
      "(-": 6024,
      "cẳng": 6025,
      "hôn": 6026,
      "ession": 6027,
      "Bo": 6028,
      "matitis": 6029,
      "metric": 6030,
      "Diff": 6031,
      "thalassemia": 6032,
      "Primary": 6033,
      "About": 6034,
      "thính": 6035,
      "emic": 6036,
      "improving": 6037,
      "uterine": 6038,
      "kịp": 6039,
      "enough": 6040,
      "encies": 6041,
      "splen": 6042,
      "receiving": 6043,
      "gamma": 6044,
      "hes": 6045,
      "estimated": 6046,
      "English": 6047,
      "Du": 6048,
      "Out": 6049,
      "QU": 6050,
      "quần": 6051,
      "Tiến": 6052,
      "Type": 6053,
      "EM": 6054,
      "Pseudo": 6055,
      "initially": 6056,
      "core": 6057,
      "End": 6058,
      "falls": 6059,
      "Cách": 6060,
      "LP": 6061,
      "VN": 6062,
      "dl": 6063,
      "thấu": 6064,
      "trữ": 6065,
      "corneal": 6066,
      "thịt": 6067,
      "uscitation": 6068,
      "din": 6069,
      "pitu": 6070,
      "thí": 6071,
      "homo": 6072,
      "gir": 6073,
      "song": 6074,
      "dres": 6075,
      "product": 6076,
      "provides": 6077,
      "bes": 6078,
      "leak": 6079,
      "thotrex": 6080,
      "polyps": 6081,
      "located": 6082,
      "cán": 6083,
      "mur": 6084,
      "silic": 6085,
      "Bac": 6086,
      "tisol": 6087,
      "ĐMV": 6088,
      "usal": 6089,
      "extra": 6090,
      "Cortico": 6091,
      "stomach": 6092,
      "Pathophysiology": 6093,
      "Phong": 6094,
      "tạm": 6095,
      "phenol": 6096,
      "pac": 6097,
      "sw": 6098,
      "odes": 6099,
      "pressive": 6100,
      "arrhythmias": 6101,
      "CY": 6102,
      "Tum": 6103,
      "Tóm": 6104,
      "eosinoph": 6105,
      "lion": 6106,
      "auth": 6107,
      "enhance": 6108,
      "genital": 6109,
      "sợ": 6110,
      "Áp": 6111,
      "dromes": 6112,
      "restric": 6113,
      "carotid": 6114,
      "Quốc": 6115,
      "ied": 6116,
      "tobacter": 6117,
      "Thị": 6118,
      "ained": 6119,
      "mai": 6120,
      "enlar": 6121,
      "stability": 6122,
      "anomal": 6123,
      "ptococcus": 6124,
      "Age": 6125,
      "sán": 6126,
      "unknown": 6127,
      "records": 6128,
      "Báo": 6129,
      "color": 6130,
      "inhibitor": 6131,
      "autoimmune": 6132,
      "carbon": 6133,
      "cúm": 6134,
      "cel": 6135,
      "acidosis": 6136,
      "kes": 6137,
      "remains": 6138,
      "khử": 6139,
      "viễn": 6140,
      "adolescents": 6141,
      "N1": 6142,
      "Ví": 6143,
      "Imp": 6144,
      "Yếu": 6145,
      "ias": 6146,
      "trao": 6147,
      "chắc": 6148,
      "tance": 6149,
      "Trước": 6150,
      "AFP": 6151,
      "contribute": 6152,
      "El": 6153,
      "cate": 6154,
      "tun": 6155,
      "coagul": 6156,
      "unless": 6157,
      "compo": 6158,
      "play": 6159,
      "recover": 6160,
      "ethnic": 6161,
      "Sal": 6162,
      "XH": 6163,
      "gure": 6164,
      "diver": 6165,
      "carbapenem": 6166,
      "comparison": 6167,
      "stetrics": 6168,
      "Micro": 6169,
      "adeno": 6170,
      "clinicians": 6171,
      "LH": 6172,
      "decreases": 6173,
      "omized": 6174,
      "relief": 6175,
      "Ngoại": 6176,
      "Disorders": 6177,
      "omp": 6178,
      "carbo": 6179,
      "onitis": 6180,
      "Thơ": 6181,
      "Tìm": 6182,
      "icle": 6183,
      "resis": 6184,
      "Information": 6185,
      "Der": 6186,
      "trào": 6187,
      "lia": 6188,
      "athyroid": 6189,
      "porphy": 6190,
      "metabolism": 6191,
      "maximum": 6192,
      "bó": 6193,
      "nex": 6194,
      "azol": 6195,
      "mandibular": 6196,
      "Ma": 6197,
      "inetobacter": 6198,
      "bẹn": 6199,
      "Thal": 6200,
      "hort": 6201,
      "Ba": 6202,
      "rig": 6203,
      "media": 6204,
      "diffuse": 6205,
      "mption": 6206,
      "danh": 6207,
      "liền": 6208,
      "periodon": 6209,
      "elevation": 6210,
      "participants": 6211,
      "gradually": 6212,
      "acup": 6213,
      "hair": 6214,
      "lactic": 6215,
      "summary": 6216,
      "ame": 6217,
      "thotrexate": 6218,
      "consequ": 6219,
      "diaz": 6220,
      "AND": 6221,
      "thy": 6222,
      "nhũ": 6223,
      "diasto": 6224,
      "gow": 6225,
      "lamy": 6226,
      "productive": 6227,
      "2nd": 6228,
      "Aim": 6229,
      "quite": 6230,
      "modified": 6231,
      "parin": 6232,
      "vancomycin": 6233,
      "itored": 6234,
      "Bet": 6235,
      "stri": 6236,
      "monitored": 6237,
      "perior": 6238,
      "Mối": 6239,
      "indicate": 6240,
      "transi": 6241,
      "aund": 6242,
      "origin": 6243,
      "bru": 6244,
      "sườn": 6245,
      "respond": 6246,
      "AKI": 6247,
      "healing": 6248,
      "enced": 6249,
      "ostomy": 6250,
      "efficiency": 6251,
      "Cer": 6252,
      "slight": 6253,
      "myco": 6254,
      "SPSS": 6255,
      "lộ": 6256,
      "chéo": 6257,
      "conclusion": 6258,
      "kinase": 6259,
      "endome": 6260,
      "compounds": 6261,
      "RL": 6262,
      "SGA": 6263,
      "IgA": 6264,
      "esophag": 6265,
      "galy": 6266,
      "nóng": 6267,
      "pros": 6268,
      "paralysis": 6269,
      "assay": 6270,
      "Sup": 6271,
      "Đo": 6272,
      "ABP": 6273,
      "truc": 6274,
      "Severe": 6275,
      "suitable": 6276,
      "except": 6277,
      "omical": 6278,
      "Vinh": 6279,
      "hang": 6280,
      "lời": 6281,
      "err": 6282,
      "independent": 6283,
      "110": 6284,
      "magn": 6285,
      "giây": 6286,
      "cope": 6287,
      "kele": 6288,
      "Wh": 6289,
      "flux": 6290,
      "ull": 6291,
      "oster": 6292,
      "mannii": 6293,
      "net": 6294,
      "pla": 6295,
      "setting": 6296,
      "Oral": 6297,
      "CD4": 6298,
      "trate": 6299,
      "neur": 6300,
      "dissection": 6301,
      "aundice": 6302,
      "cư": 6303,
      "joints": 6304,
      "contracep": 6305,
      "inferior": 6306,
      "VM": 6307,
      "presented": 6308,
      "ARV": 6309,
      "Inc": 6310,
      "medium": 6311,
      "predict": 6312,
      "little": 6313,
      "attack": 6314,
      "xứng": 6315,
      "khuếch": 6316,
      "Flu": 6317,
      "enro": 6318,
      "produce": 6319,
      "spir": 6320,
      "epile": 6321,
      "larger": 6322,
      "Evaluating": 6323,
      "epidural": 6324,
      "source": 6325,
      "mostly": 6326,
      "icitis": 6327,
      "Truyền": 6328,
      "angiotensin": 6329,
      "threat": 6330,
      "bong": 6331,
      "easi": 6332,
      "shunt": 6333,
      "ễu": 6334,
      "bão": 6335,
      "ổng": 6336,
      "cesarean": 6337,
      "lasgow": 6338,
      "nghiêng": 6339,
      "immunosup": 6340,
      "aspirin": 6341,
      "NO": 6342,
      "blu": 6343,
      "sách": 6344,
      "Val": 6345,
      "wave": 6346,
      "embo": 6347,
      "near": 6348,
      "relap": 6349,
      "THE": 6350,
      "statistical": 6351,
      "ethyl": 6352,
      "Dịch": 6353,
      "accep": 6354,
      "litho": 6355,
      "pericardi": 6356,
      "mance": 6357,
      "counse": 6358,
      "People": 6359,
      "Dong": 6360,
      "RF": 6361,
      "lịch": 6362,
      "challe": 6363,
      "osus": 6364,
      "lasia": 6365,
      "RBC": 6366,
      "reflex": 6367,
      "khiếm": 6368,
      "Laparoscopic": 6369,
      "(≥": 6370,
      "gs": 6371,
      "đậu": 6372,
      "doạ": 6373,
      "noted": 6374,
      "HCMC": 6375,
      "breathing": 6376,
      "har": 6377,
      "oneph": 6378,
      "structures": 6379,
      "sensory": 6380,
      "segment": 6381,
      "quinol": 6382,
      "Pneum": 6383,
      "lô": 6384,
      "conventional": 6385,
      "baumannii": 6386,
      "TA": 6387,
      "bôi": 6388,
      "making": 6389,
      "cortisol": 6390,
      "caregi": 6391,
      "cran": 6392,
      "Loại": 6393,
      "proges": 6394,
      "purpose": 6395,
      "economic": 6396,
      "onance": 6397,
      "Prote": 6398,
      "immediate": 6399,
      "cephalospor": 6400,
      "components": 6401,
      "Jan": 6402,
      "tria": 6403,
      "hemody": 6404,
      "CF": 6405,
      "Sec": 6406,
      "herni": 6407,
      "randomized": 6408,
      "Ultras": 6409,
      "MB": 6410,
      "cas": 6411,
      "dẳng": 6412,
      "miền": 6413,
      "absent": 6414,
      "band": 6415,
      "bám": 6416,
      "Kháng": 6417,
      "còi": 6418,
      "ico": 6419,
      "llar": 6420,
      "ophen": 6421,
      "aneurysm": 6422,
      "benzo": 6423,
      "H2": 6424,
      "eness": 6425,
      "vững": 6426,
      "đòn": 6427,
      "sig": 6428,
      "whole": 6429,
      "marked": 6430,
      "OP": 6431,
      "hoãn": 6432,
      "electroly": 6433,
      "Physical": 6434,
      "gì": 6435,
      "hist": 6436,
      "Syndrome": 6437,
      "promo": 6438,
      "malaria": 6439,
      "fentanyl": 6440,
      "diag": 6441,
      "portal": 6442,
      "viruses": 6443,
      "Châu": 6444,
      "oplasty": 6445,
      "NMCT": 6446,
      "nose": 6447,
      "strength": 6448,
      "markers": 6449,
      "mos": 6450,
      "chợ": 6451,
      "amous": 6452,
      "Indic": 6453,
      "alternative": 6454,
      "Diabetes": 6455,
      "xếp": 6456,
      "parathyroid": 6457,
      "Pl": 6458,
      "withdra": 6459,
      "viet": 6460,
      "curve": 6461,
      "circulation": 6462,
      "OL": 6463,
      "SLE": 6464,
      "rhea": 6465,
      "esia": 6466,
      "consumption": 6467,
      "GT": 6468,
      "tận": 6469,
      "ulitis": 6470,
      "subcutaneous": 6471,
      "ASI": 6472,
      "lactate": 6473,
      "cultures": 6474,
      "eri": 6475,
      "surance": 6476,
      "mechanism": 6477,
      "asone": 6478,
      "Corticosteroid": 6479,
      "RD": 6480,
      "khách": 6481,
      "decomp": 6482,
      "remove": 6483,
      "kit": 6484,
      "chen": 6485,
      "too": 6486,
      "closure": 6487,
      "produced": 6488,
      "hemorrhagic": 6489,
      "izing": 6490,
      "hemodialysis": 6491,
      "iodine": 6492,
      "BI": 6493,
      "đục": 6494,
      "int": 6495,
      "break": 6496,
      "leads": 6497,
      "Gastro": 6498,
      "SI": 6499,
      "plasia": 6500,
      "Acinetobacter": 6501,
      "accurate": 6502,
      "Sốt": 6503,
      "106": 6504,
      "Giai": 6505,
      "quantitative": 6506,
      "CKD": 6507,
      "repeated": 6508,
      "3D": 6509,
      "ỷu": 6510,
      "childhood": 6511,
      "idiopathic": 6512,
      "specimens": 6513,
      "Glu": 6514,
      "pituitary": 6515,
      "WI": 6516,
      "embr": 6517,
      "tenance": 6518,
      "Retrospective": 6519,
      "animal": 6520,
      "diastolic": 6521,
      "bể": 6522,
      "transmitted": 6523,
      "provided": 6524,
      "ores": 6525,
      "agent": 6526,
      "force": 6527,
      "thoáng": 6528,
      "atheros": 6529,
      "hepatocellular": 6530,
      "gánh": 6531,
      "vertebral": 6532,
      "Helic": 6533,
      "trả": 6534,
      "morphology": 6535,
      "chặn": 6536,
      "ươi": 6537,
      "granu": 6538,
      "dyslipidemia": 6539,
      "donor": 6540,
      "Ang": 6541,
      "OH": 6542,
      "carri": 6543,
      "ophthal": 6544,
      "clinic": 6545,
      "atremia": 6546,
      "ky": 6547,
      "ptive": 6548,
      "rash": 6549,
      "titis": 6550,
      "ushing": 6551,
      "syndromes": 6552,
      "temp": 6553,
      "ham": 6554,
      "ÊN": 6555,
      "khuỷu": 6556,
      "LISA": 6557,
      "objective": 6558,
      "èo": 6559,
      "erase": 6560,
      "dermatitis": 6561,
      "surfac": 6562,
      "pulse": 6563,
      "mucosa": 6564,
      "Anh": 6565,
      "hãy": 6566,
      "lim": 6567,
      "pop": 6568,
      "suggested": 6569,
      "HER": 6570,
      "pup": 6571,
      "pseudo": 6572,
      "enchy": 6573,
      "tongue": 6574,
      "Neon": 6575,
      "vaccines": 6576,
      "EO": 6577,
      "soon": 6578,
      "psych": 6579,
      "ponatremia": 6580,
      "deo": 6581,
      "biological": 6582,
      "tín": 6583,
      "HPLC": 6584,
      "IgM": 6585,
      "mucosal": 6586,
      "influenza": 6587,
      "possibly": 6588,
      "Năm": 6589,
      "skele": 6590,
      "exper": 6591,
      "performance": 6592,
      "stimulation": 6593,
      "cranial": 6594,
      "rs": 6595,
      "ỳnh": 6596,
      "producing": 6597,
      "nghịch": 6598,
      "LR": 6599,
      "đen": 6600,
      "resonance": 6601,
      "prep": 6602,
      "metastases": 6603,
      "Glasgow": 6604,
      "gau": 6605,
      "yloid": 6606,
      "atoid": 6607,
      "Helicobacter": 6608,
      "Sch": 6609,
      "cặp": 6610,
      "kers": 6611,
      "quid": 6612,
      "Inj": 6613,
      "outpatient": 6614,
      "facil": 6615,
      "san": 6616,
      "sound": 6617,
      "Ngọc": 6618,
      "ilateral": 6619,
      "protective": 6620,
      "double": 6621,
      "resuscitation": 6622,
      "minimi": 6623,
      "just": 6624,
      "trải": 6625,
      "cking": 6626,
      "hernia": 6627,
      "PTH": 6628,
      "rag": 6629,
      "hoa": 6630,
      "hex": 6631,
      "ification": 6632,
      "pene": 6633,
      "cytokine": 6634,
      "deaths": 6635,
      "enzym": 6636,
      "Bus": 6637,
      "magnetic": 6638,
      "Thường": 6639,
      "pressed": 6640,
      "graf": 6641,
      "dành": 6642,
      "shi": 6643,
      "rea": 6644,
      "exposed": 6645,
      "deficits": 6646,
      "lĩnh": 6647,
      "reduces": 6648,
      "regimens": 6649,
      "twice": 6650,
      "Tox": 6651,
      "ofol": 6652,
      "what": 6653,
      "ligament": 6654,
      "UN": 6655,
      "kỷ": 6656,
      "teach": 6657,
      "indications": 6658,
      "QT": 6659,
      "bánh": 6660,
      "jaundice": 6661,
      "ậc": 6662,
      "glycemic": 6663,
      "Pulmonary": 6664,
      "fron": 6665,
      "Thang": 6666,
      "vasopres": 6667,
      "presentation": 6668,
      "reference": 6669,
      "clean": 6670,
      "Pregn": 6671,
      "ots": 6672,
      "nhú": 6673,
      "loon": 6674,
      "ils": 6675,
      "ximab": 6676,
      "initi": 6677,
      "significance": 6678,
      "counseling": 6679,
      "refrac": 6680,
      "amol": 6681,
      "conn": 6682,
      "healthcare": 6683,
      "usual": 6684,
      "wards": 6685,
      "pin": 6686,
      "tống": 6687,
      "đe": 6688,
      "superior": 6689,
      "premature": 6690,
      "mineral": 6691,
      "receive": 6692,
      "Pseudomonas": 6693,
      "Dương": 6694,
      "finger": 6695,
      "trocar": 6696,
      "postpartum": 6697,
      "dường": 6698,
      "zer": 6699,
      "ẹt": 6700,
      "PECT": 6701,
      "conscious": 6702,
      "preferred": 6703,
      "Tai": 6704,
      "hab": 6705,
      "amni": 6706,
      "Tran": 6707,
      "tenderness": 6708,
      "Identi": 6709,
      "usitis": 6710,
      "khích": 6711,
      "melan": 6712,
      "conser": 6713,
      "ferritin": 6714,
      "bậc": 6715,
      "phận": 6716,
      "Gãy": 6717,
      "Tây": 6718,
      "iding": 6719,
      "inful": 6720,
      "gastr": 6721,
      "natural": 6722,
      "GS": 6723,
      "bày": 6724,
      "sper": 6725,
      "ensis": 6726,
      "regur": 6727,
      "ABG": 6728,
      "difficulty": 6729,
      "sờ": 6730,
      "táo": 6731,
      "attemp": 6732,
      "Hepati": 6733,
      "profession": 6734,
      "authors": 6735,
      "ELISA": 6736,
      "sanh": 6737,
      "140": 6738,
      "130": 6739,
      "perman": 6740,
      "continence": 6741,
      "icrobial": 6742,
      "girls": 6743,
      "igh": 6744,
      "retinal": 6745,
      "cavity": 6746,
      "graph": 6747,
      "omegaly": 6748,
      "enrolled": 6749,
      "Reg": 6750,
      "cam": 6751,
      "digi": 6752,
      "night": 6753,
      "Describe": 6754,
      "Sciences": 6755,
      "IF": 6756,
      "nm": 6757,
      "rẫy": 6758,
      "vĩnh": 6759,
      "ụi": 6760,
      "exis": 6761,
      "khiến": 6762,
      "lymphaden": 6763,
      "trigger": 6764,
      "cô": 6765,
      "iring": 6766,
      "lão": 6767,
      "pit": 6768,
      "swe": 6769,
      "alkal": 6770,
      "retino": 6771,
      "caries": 6772,
      "khẳng": 6773,
      "actions": 6774,
      "cology": 6775,
      "urity": 6776,
      "move": 6777,
      "trials": 6778,
      "spectrum": 6779,
      "regul": 6780,
      "Cu": 6781,
      "Clo": 6782,
      "ode": 6783,
      "Child": 6784,
      "indicators": 6785,
      "hematoma": 6786,
      "anied": 6787,
      "return": 6788,
      "ofl": 6789,
      "kiếm": 6790,
      "Phát": 6791,
      "cholinergic": 6792,
      "3rd": 6793,
      "Bất": 6794,
      "nhức": 6795,
      "defini": 6796,
      "flav": 6797,
      "Sản": 6798,
      "varies": 6799,
      "said": 6800,
      "thói": 6801,
      "sification": 6802,
      "đói": 6803,
      "illus": 6804,
      "border": 6805,
      "cence": 6806,
      "tên": 6807,
      "Phu": 6808,
      "ponin": 6809,
      "FDG": 6810,
      "accompanied": 6811,
      "Initial": 6812,
      "trụ": 6813,
      "lets": 6814,
      "worsen": 6815,
      "aceae": 6816,
      "elimin": 6817,
      "mùa": 6818,
      "Bar": 6819,
      "lido": 6820,
      "five": 6821,
      "DR": 6822,
      "pra": 6823,
      "khung": 6824,
      "established": 6825,
      "HCT": 6826,
      "tân": 6827,
      "lipo": 6828,
      "interfer": 6829,
      "standards": 6830,
      "Eq": 6831,
      "p53": 6832,
      "chày": 6833,
      "isone": 6834,
      "aid": 6835,
      "idazole": 6836,
      "operating": 6837,
      "necology": 6838,
      "NV": 6839,
      "sim": 6840,
      "stitial": 6841,
      "cỡ": 6842,
      "nhầy": 6843,
      "treme": 6844,
      "blockers": 6845,
      "guided": 6846,
      "ET": 6847,
      "NY": 6848,
      "hCG": 6849,
      "attitudes": 6850,
      "NIH": 6851,
      "veget": 6852,
      "ford": 6853,
      "avy": 6854,
      "closed": 6855,
      "episodes": 6856,
      "Association": 6857,
      "bắp": 6858,
      "mEq": 6859,
      "tip": 6860,
      "quick": 6861,
      "live": 6862,
      "Thống": 6863,
      "previously": 6864,
      "reached": 6865,
      "adenocarcinoma": 6866,
      "excre": 6867,
      "bụi": 6868,
      "etiology": 6869,
      "aps": 6870,
      "cytes": 6871,
      "kẽm": 6872,
      "Vai": 6873,
      "Xây": 6874,
      "reflux": 6875,
      "excision": 6876,
      "traction": 6877,
      "huấn": 6878,
      "BT": 6879,
      "PCI": 6880,
      "ado": 6881,
      "mao": 6882,
      "ultaneous": 6883,
      "carditis": 6884,
      "differentiated": 6885,
      "pathogens": 6886,
      "Fol": 6887,
      "six": 6888,
      "acne": 6889,
      "heparin": 6890,
      "liquid": 6891,
      "devices": 6892,
      "sym": 6893,
      "bow": 6894,
      "saline": 6895,
      "phig": 6896,
      "maxillary": 6897,
      "creatinin": 6898,
      "chồng": 6899,
      "rot": 6900,
      "give": 6901,
      "decision": 6902,
      "morphine": 6903,
      "emphig": 6904,
      "random": 6905,
      "PTN": 6906,
      "VC": 6907,
      "zumab": 6908,
      "coid": 6909,
      "rist": 6910,
      "thrombin": 6911,
      "atrophy": 6912,
      "bs": 6913,
      "pation": 6914,
      "chạy": 6915,
      "instr": 6916,
      "phẳng": 6917,
      "Treat": 6918,
      "skeletal": 6919,
      "MIC": 6920,
      "past": 6921,
      "locations": 6922,
      "NYHA": 6923,
      "600": 6924,
      "Occ": 6925,
      "Pit": 6926,
      "nách": 6927,
      "uncommon": 6928,
      "hypothyroidism": 6929,
      "mask": 6930,
      "benefits": 6931,
      "alveolar": 6932,
      "DVT": 6933,
      "tition": 6934,
      "enting": 6935,
      "cemia": 6936,
      "dàng": 6937,
      "og": 6938,
      "peak": 6939,
      "IgE": 6940,
      "painful": 6941,
      "fetus": 6942,
      "anatomical": 6943,
      "stric": 6944,
      "disability": 6945,
      "Giới": 6946,
      "Male": 6947,
      "cold": 6948,
      "ites": 6949,
      "inci": 6950,
      "Consider": 6951,
      "description": 6952,
      "Drugs": 6953,
      "oxidant": 6954,
      "eal": 6955,
      "thing": 6956,
      "Hemo": 6957,
      "occupational": 6958,
      "Học": 6959,
      "gain": 6960,
      "exon": 6961,
      "optic": 6962,
      "predicting": 6963,
      "personal": 6964,
      "patterns": 6965,
      "chóp": 6966,
      "Hoá": 6967,
      "bóp": 6968,
      "bón": 6969,
      "thiệu": 6970,
      "khe": 6971,
      "apply": 6972,
      "balloon": 6973,
      "aneurysms": 6974,
      "bis": 6975,
      "plex": 6976,
      "mỏng": 6977,
      "oxin": 6978,
      "androgen": 6979,
      "abdomen": 6980,
      "CNS": 6981,
      "Hệ": 6982,
      "whose": 6983,
      "terms": 6984,
      "opharyngeal": 6985,
      "depth": 6986,
      "currently": 6987,
      "ASA": 6988,
      "Nên": 6989,
      "dan": 6990,
      "fos": 6991,
      "device": 6992,
      "FEV": 6993,
      "tivari": 6994,
      "chắn": 6995,
      "Science": 6996,
      "Based": 6997,
      "PCT": 6998,
      "pas": 6999,
      "orbital": 7000,
      "Cả": 7001,
      "Renal": 7002,
      "mờ": 7003,
      "usted": 7004,
      "balance": 7005,
      "therapies": 7006,
      "triglyceride": 7007,
      "Fem": 7008,
      "hard": 7009,
      "lamp": 7010,
      "acupuncture": 7011,
      "khúc": 7012,
      "formations": 7013,
      "proteins": 7014,
      "endocrine": 7015,
      "distinguish": 7016,
      "uinal": 7017,
      "arch": 7018,
      "cycle": 7019,
      "neuropathy": 7020,
      "continued": 7021,
      "AG": 7022,
      "SOF": 7023,
      "đu": 7024,
      "seizure": 7025,
      "kịch": 7026,
      "vative": 7027,
      "lif": 7028,
      "enzymes": 7029,
      "regurgitation": 7030,
      "Cong": 7031,
      "Hiệp": 7032,
      "UTI": 7033,
      "HBe": 7034,
      "SL": 7035,
      "zo": 7036,
      "tranh": 7037,
      "acu": 7038,
      "nosing": 7039,
      "moid": 7040,
      "electr": 7041,
      "mcL": 7042,
      "Antibio": 7043,
      "rid": 7044,
      "ủng": 7045,
      "Current": 7046,
      "Ery": 7047,
      "materials": 7048,
      "thought": 7049,
      "Clinic": 7050,
      "nén": 7051,
      "staging": 7052,
      "peptide": 7053,
      "Scal": 7054,
      "maintenance": 7055,
      "burden": 7056,
      "influence": 7057,
      "Bước": 7058,
      "appe": 7059,
      "septal": 7060,
      "pharmacy": 7061,
      "Tư": 7062,
      "equ": 7063,
      "tobac": 7064,
      "hoàng": 7065,
      "diol": 7066,
      "terol": 7067,
      "urethral": 7068,
      "B12": 7069,
      "cry": 7070,
      "Sa": 7071,
      "meet": 7072,
      "fixation": 7073,
      "131": 7074,
      "renatal": 7075,
      "actam": 7076,
      "gressive": 7077,
      "CEA": 7078,
      "Euro": 7079,
      "extreme": 7080,
      "Liver": 7081,
      "lối": 7082,
      "sclerosis": 7083,
      "anic": 7084,
      "indication": 7085,
      "probably": 7086,
      "anced": 7087,
      "ancies": 7088,
      "formin": 7089,
      "interview": 7090,
      "comfort": 7091,
      "sterile": 7092,
      "ception": 7093,
      "hydration": 7094,
      "RV": 7095,
      "aco": 7096,
      "mixed": 7097,
      "designed": 7098,
      "Te": 7099,
      "artic": 7100,
      "ector": 7101,
      "account": 7102,
      "diệt": 7103,
      "Resp": 7104,
      "ylase": 7105,
      "lungs": 7106,
      "FR": 7107,
      "Ni": 7108,
      "Ru": 7109,
      "ured": 7110,
      "ogenic": 7111,
      "transferase": 7112,
      "History": 7113,
      "KT": 7114,
      "Lượng": 7115,
      "ino": 7116,
      "outpatients": 7117,
      "levant": 7118,
      "lạm": 7119,
      "Đái": 7120,
      "kiềm": 7121,
      "hyponatremia": 7122,
      "burn": 7123,
      "spas": 7124,
      "PPV": 7125,
      "Hữu": 7126,
      "lli": 7127,
      "thres": 7128,
      "thách": 7129,
      "trán": 7130,
      "limin": 7131,
      "ids": 7132,
      "CLC": 7133,
      "aerob": 7134,
      "permanent": 7135,
      "Plas": 7136,
      "Ven": 7137,
      "insp": 7138,
      "targe": 7139,
      "popular": 7140,
      "apo": 7141,
      "localized": 7142,
      "Cân": 7143,
      "KS": 7144,
      "Tương": 7145,
      "Tập": 7146,
      "enta": 7147,
      "osome": 7148,
      "dạy": 7149,
      "thrombocytopenia": 7150,
      "semin": 7151,
      "AI": 7152,
      "thao": 7153,
      "trống": 7154,
      "trophic": 7155,
      "102": 7156,
      "ified": 7157,
      "desi": 7158,
      "critical": 7159,
      "requiring": 7160,
      "transient": 7161,
      "veins": 7162,
      "imer": 7163,
      "hypoglycemia": 7164,
      "individual": 7165,
      "appendicitis": 7166,
      "Hep": 7167,
      "IB": 7168,
      "Scan": 7169,
      "huỳnh": 7170,
      "intensity": 7171,
      "nhờ": 7172,
      "ested": 7173,
      "atosis": 7174,
      "ions": 7175,
      "bronchi": 7176,
      "consistent": 7177,
      "Lymph": 7178,
      "ovascular": 7179,
      "Pu": 7180,
      "otypes": 7181,
      "wise": 7182,
      "stun": 7183,
      "centers": 7184,
      "protection": 7185,
      "secretion": 7186,
      "Cao": 7187,
      "ju": 7188,
      "mỏm": 7189,
      "penem": 7190,
      "pig": 7191,
      "CPAP": 7192,
      "satisfied": 7193,
      "supportive": 7194,
      "triax": 7195,
      "bupivacaine": 7196,
      "Đông": 7197,
      "compres": 7198,
      "involving": 7199,
      "achieve": 7200,
      "preventing": 7201,
      "bella": 7202,
      "cycline": 7203,
      "fasting": 7204,
      "CMV": 7205,
      "vietnam": 7206,
      "Kim": 7207,
      "Vac": 7208,
      "mber": 7209,
      "đàn": 7210,
      "paras": 7211,
      "SE": 7212,
      "Ta": 7213,
      "sid": 7214,
      "sides": 7215,
      "Ther": 7216,
      "calcemia": 7217,
      "progress": 7218,
      "recognized": 7219,
      "alis": 7220,
      "aldos": 7221,
      "ises": 7222,
      "tach": 7223,
      "despite": 7224,
      "lưỡng": 7225,
      "Determin": 7226,
      "nephrotic": 7227,
      "Organ": 7228,
      "next": 7229,
      "bức": 7230,
      "hố": 7231,
      "clav": 7232,
      "CHT": 7233,
      "determination": 7234,
      "invasion": 7235,
      "IR": 7236,
      "Up": 7237,
      "vember": 7238,
      "ablation": 7239,
      "taz": 7240,
      "cerebro": 7241,
      "Gene": 7242,
      "105": 7243,
      "extent": 7244,
      "lưới": 7245,
      "communes": 7246,
      "epinephrine": 7247,
      "reproductive": 7248,
      "giàu": 7249,
      "acts": 7250,
      "uclear": 7251,
      "provinces": 7252,
      "đọng": 7253,
      "chì": 7254,
      "arrest": 7255,
      "diure": 7256,
      "United": 7257,
      "erichia": 7258,
      "istin": 7259,
      "methotrexate": 7260,
      "subsequ": 7261,
      "kidneys": 7262,
      "Descriptive": 7263,
      "opausal": 7264,
      "lamydia": 7265,
      "acuity": 7266,
      "Ger": 7267,
      "nx": 7268,
      "orrhea": 7269,
      "estern": 7270,
      "lol": 7271,
      "Anat": 7272,
      "CYP": 7273,
      "Test": 7274,
      "dinal": 7275,
      "breastfeeding": 7276,
      "amethasone": 7277,
      "slightly": 7278,
      "mast": 7279,
      "identification": 7280,
      "otonin": 7281,
      "La": 7282,
      "logistic": 7283,
      "becomes": 7284,
      "nerves": 7285,
      "since": 7286,
      "strepto": 7287,
      "Obstetrics": 7288,
      "Men": 7289,
      "ually": 7290,
      "lide": 7291,
      "oman": 7292,
      "Enter": 7293,
      "duodenal": 7294,
      "pneumothorax": 7295,
      "easily": 7296,
      "TD": 7297,
      "áu": 7298,
      "ref": 7299,
      "unts": 7300,
      "extensive": 7301,
      "baseline": 7302,
      "mediastinal": 7303,
      "Rh": 7304,
      "fatal": 7305,
      "clearance": 7306,
      "Indications": 7307,
      "Chuy": 7308,
      "sick": 7309,
      "châu": 7310,
      "Sel": 7311,
      "nắng": 7312,
      "Đề": 7313,
      "neoplas": 7314,
      "effectively": 7315,
      "Thalassemia": 7316,
      "Bài": 7317,
      "ON": 7318,
      "Quy": 7319,
      "cương": 7320,
      "hoành": 7321,
      "unilateral": 7322,
      "som": 7323,
      "service": 7324,
      "scopy": 7325,
      "upivacain": 7326,
      "diagnosing": 7327,
      "lẻ": 7328,
      "myel": 7329,
      "anatomy": 7330,
      "correction": 7331,
      "squamous": 7332,
      "ensure": 7333,
      "aucoma": 7334,
      "Thể": 7335,
      "nghệ": 7336,
      "sequencing": 7337,
      "Rare": 7338,
      "SM": 7339,
      "Two": 7340,
      "editary": 7341,
      "apnea": 7342,
      "nonspecific": 7343,
      "kênh": 7344,
      "anastom": 7345,
      "mòn": 7346,
      "formed": 7347,
      "seem": 7348,
      "hypertrophy": 7349,
      "changed": 7350,
      "rhinitis": 7351,
      "guidance": 7352,
      "Eye": 7353,
      "Pen": 7354,
      "μg": 7355,
      "Def": 7356,
      "pathologic": 7357,
      "gestation": 7358,
      "flaps": 7359,
      "demonstrated": 7360,
      "Den": 7361,
      "GH": 7362,
      "kẹp": 7363,
      "nhầm": 7364,
      "ices": 7365,
      "enters": 7366,
      "resources": 7367,
      "irrig": 7368,
      "output": 7369,
      "ference": 7370,
      "supply": 7371,
      "regional": 7372,
      "collection": 7373,
      "Low": 7374,
      "extremity": 7375,
      "Kinh": 7376,
      "rhyth": 7377,
      "boys": 7378,
      "Thong": 7379,
      "ocytes": 7380,
      "sàn": 7381,
      "urea": 7382,
      "marker": 7383,
      "SOFA": 7384,
      "gang": 7385,
      "ocular": 7386,
      "ngôn": 7387,
      "quad": 7388,
      "dermat": 7389,
      "District": 7390,
      "analyze": 7391,
      "Normal": 7392,
      "future": 7393,
      "fee": 7394,
      "Gây": 7395,
      "utum": 7396,
      "trắc": 7397,
      "atten": 7398,
      "109": 7399,
      "leaves": 7400,
      "Testing": 7401,
      "covered": 7402,
      "magnes": 7403,
      "Esch": 7404,
      "hông": 7405,
      "amid": 7406,
      "sputum": 7407,
      "Determine": 7408,
      "stipation": 7409,
      "potentially": 7410,
      "gor": 7411,
      "pack": 7412,
      "distance": 7413,
      "regions": 7414,
      "measurements": 7415,
      "sensation": 7416,
      "Pi": 7417,
      "wan": 7418,
      "memor": 7419,
      "aller": 7420,
      "urring": 7421,
      "enteric": 7422,
      "medicinal": 7423,
      "dilation": 7424,
      "explained": 7425,
      "osteoarthritis": 7426,
      "ngồi": 7427,
      "binh": 7428,
      "continue": 7429,
      "Thomas": 7430,
      "doctors": 7431,
      "tươi": 7432,
      "interstitial": 7433,
      "November": 7434,
      "behaviors": 7435,
      "analgesic": 7436,
      "Protein": 7437,
      "HBeAg": 7438,
      "tile": 7439,
      "refl": 7440,
      "diges": 7441,
      "detai": 7442,
      "might": 7443,
      "aminophen": 7444,
      "endotracheal": 7445,
      "hands": 7446,
      "puber": 7447,
      "profloxacin": 7448,
      "Step": 7449,
      "adone": 7450,
      "tritis": 7451,
      "Chang": 7452,
      "citonin": 7453,
      "preparation": 7454,
      "preci": 7455,
      "antimicrobial": 7456,
      "Mất": 7457,
      "epider": 7458,
      "encephalitis": 7459,
      "Tần": 7460,
      "swal": 7461,
      "heavy": 7462,
      "inguinal": 7463,
      "expected": 7464,
      "thern": 7465,
      "rectomy": 7466,
      "entire": 7467,
      "sun": 7468,
      "warm": 7469,
      "regarding": 7470,
      "abortion": 7471,
      "blastoma": 7472,
      "caregivers": 7473,
      "ell": 7474,
      "zinc": 7475,
      "retention": 7476,
      "thies": 7477,
      "linear": 7478,
      "investigated": 7479,
      "otide": 7480,
      "Hạ": 7481,
      "Hàm": 7482,
      "ectopic": 7483,
      "mipenem": 7484,
      "calc": 7485,
      "icide": 7486,
      "lapse": 7487,
      "cytokin": 7488,
      "component": 7489,
      "anomalies": 7490,
      "Dermat": 7491,
      "Women": 7492,
      "tuý": 7493,
      "antioxidant": 7494,
      "equivalent": 7495,
      "started": 7496,
      "LO": 7497,
      "Lu": 7498,
      "cessing": 7499,
      "slowly": 7500,
      "Respiratory": 7501,
      "160": 7502,
      "Bur": 7503,
      "trim": 7504,
      "mix": 7505,
      "mial": 7506,
      "recru": 7507,
      "necro": 7508,
      "detecting": 7509,
      "fluids": 7510,
      "Lung": 7511,
      "ria": 7512,
      "đám": 7513,
      "thổi": 7514,
      "insurance": 7515,
      "acting": 7516,
      "unclear": 7517,
      "formula": 7518,
      "ournal": 7519,
      "managed": 7520,
      "worldwide": 7521,
      "pressants": 7522,
      "prednisone": 7523,
      "incontinence": 7524,
      "plic": 7525,
      "donors": 7526,
      "Pan": 7527,
      "mùi": 7528,
      "earli": 7529,
      "literature": 7530,
      "Hum": 7531,
      "UTB": 7532,
      "acent": 7533,
      "depart": 7534,
      "Chảy": 7535,
      "medial": 7536,
      "polymerase": 7537,
      "vaso": 7538,
      "ICD": 7539,
      "Also": 7540,
      "schools": 7541,
      "avoided": 7542,
      "contaminated": 7543,
      "triaxone": 7544,
      "sừng": 7545,
      "sit": 7546,
      "Adverse": 7547,
      "younger": 7548,
      "superficial": 7549,
      "cic": 7550,
      "ensi": 7551,
      "ceed": 7552,
      "oder": 7553,
      "erythemat": 7554,
      "relieve": 7555,
      "threshold": 7556,
      "đè": 7557,
      "inpatients": 7558,
      "begins": 7559,
      "entific": 7560,
      "goal": 7561,
      "etyl": 7562,
      "Liên": 7563,
      "recommendations": 7564,
      "John": 7565,
      "Dị": 7566,
      "Ri": 7567,
      "tp": 7568,
      "uscular": 7569,
      "hips": 7570,
      "stor": 7571,
      "cytic": 7572,
      "applying": 7573,
      "prescribed": 7574,
      "rheumatoid": 7575,
      "HER2": 7576,
      "simultaneous": 7577,
      "HM": 7578,
      "easy": 7579,
      "thôn": 7580,
      "abuse": 7581,
      "basis": 7582,
      "ARDS": 7583,
      "itudinal": 7584,
      "TV": 7585,
      "avi": 7586,
      "bữa": 7587,
      "ket": 7588,
      "physician": 7589,
      "sali": 7590,
      "whereas": 7591,
      "granulo": 7592,
      "sk": 7593,
      "sts": 7594,
      "remission": 7595,
      "asia": 7596,
      "ectin": 7597,
      "Intra": 7598,
      "FSH": 7599,
      "Both": 7600,
      "trội": 7601,
      "aty": 7602,
      "incter": 7603,
      "inher": 7604,
      "AM": 7605,
      "Ci": 7606,
      "ches": 7607,
      "got": 7608,
      "Bu": 7609,
      "DC": 7610,
      "pher": 7611,
      "agement": 7612,
      "figure": 7613,
      "chemistry": 7614,
      "revealed": 7615,
      "intraoperative": 7616,
      "hemodynamic": 7617,
      "Gh": 7618,
      "UL": 7619,
      "erve": 7620,
      "reci": 7621,
      "ordin": 7622,
      "mpt": 7623,
      "Media": 7624,
      "Tiêm": 7625,
      "equipment": 7626,
      "efficient": 7627,
      "posed": 7628,
      "solutions": 7629,
      "carbohydr": 7630,
      "embolization": 7631,
      "Glo": 7632,
      "era": 7633,
      "divertic": 7634,
      "acetyl": 7635,
      "reasons": 7636,
      "oids": 7637,
      "VIDEO": 7638,
      "omyopathy": 7639,
      "directed": 7640,
      "Escherichia": 7641,
      "Emer": 7642,
      "intermit": 7643,
      "Quảng": 7644,
      "Histo": 7645,
      "Postoperative": 7646,
      "ka": 7647,
      "mẫn": 7648,
      "đất": 7649,
      "atography": 7650,
      "pergi": 7651,
      "sufficient": 7652,
      "calculated": 7653,
      "threatening": 7654,
      "Skin": 7655,
      "fav": 7656,
      "indo": 7657,
      "orth": 7658,
      "demand": 7659,
      "bilization": 7660,
      "catheterization": 7661,
      "IA": 7662,
      "]).": 7663,
      "woman": 7664,
      "lose": 7665,
      "Nhat": 7666,
      "hydrogen": 7667,
      "tivitis": 7668,
      "TAP": 7669,
      "arteri": 7670,
      "carcinôm": 7671,
      "damycin": 7672,
      "environmental": 7673,
      "catar": 7674,
      "PTNS": 7675,
      "oquinol": 7676,
      "bies": 7677,
      "calcitonin": 7678,
      "buil": 7679,
      "intermittent": 7680,
      "predis": 7681,
      "burns": 7682,
      "NSAIDs": 7683,
      "fast": 7684,
      "lens": 7685,
      "rạch": 7686,
      "pump": 7687,
      "tinib": 7688,
      "tròn": 7689,
      "disc": 7690,
      "anticoagul": 7691,
      "mediate": 7692,
      "neutropenia": 7693,
      "trimester": 7694,
      "Spr": 7695,
      "lang": 7696,
      "accum": 7697,
      "means": 7698,
      "biển": 7699,
      "fru": 7700,
      "Nhất": 7701,
      "indicates": 7702,
      "HK": 7703,
      "Scre": 7704,
      "bé": 7705,
      "eno": 7706,
      "agen": 7707,
      "Phản": 7708,
      "TTP": 7709,
      "feasible": 7710,
      "fa": 7711,
      "ony": 7712,
      "resh": 7713,
      "tends": 7714,
      "million": 7715,
      "consult": 7716,
      "Fever": 7717,
      "osoco": 7718,
      "QRS": 7719,
      "huống": 7720,
      "conver": 7721,
      "presenting": 7722,
      "cellent": 7723,
      "harm": 7724,
      "sat": 7725,
      "ớt": 7726,
      "waste": 7727,
      "modi": 7728,
      "aryng": 7729,
      "ART": 7730,
      "somal": 7731,
      "idal": 7732,
      "malformations": 7733,
      "platin": 7734,
      "TPHCM": 7735,
      "induction": 7736,
      "Psy": 7737,
      "San": 7738,
      "blin": 7739,
      "predominant": 7740,
      "comparing": 7741,
      "relax": 7742,
      "menstr": 7743,
      "menopausal": 7744,
      "issue": 7745,
      "philis": 7746,
      "osocomial": 7747,
      "Pear": 7748,
      "Vas": 7749,
      "bọng": 7750,
      "ming": 7751,
      "rif": 7752,
      "ders": 7753,
      "iciencies": 7754,
      "appen": 7755,
      "drinking": 7756,
      "Op": 7757,
      "gái": 7758,
      "sine": 7759,
      "già": 7760,
      "Chest": 7761,
      "buổi": 7762,
      "acetate": 7763,
      "Streptococcus": 7764,
      "gout": 7765,
      "việt": 7766,
      "duỗi": 7767,
      "epithelial": 7768,
      "ximately": 7769,
      "Cef": 7770,
      "đờ": 7771,
      "cele": 7772,
      "kalemia": 7773,
      "SpO2": 7774,
      "Bằng": 7775,
      "nhiệm": 7776,
      "metal": 7777,
      "fatty": 7778,
      "đứt": 7779,
      "ush": 7780,
      "101": 7781,
      "athy": 7782,
      "mediated": 7783,
      "lidocaine": 7784,
      "yet": 7785,
      "dip": 7786,
      "serotonin": 7787,
      "MRSA": 7788,
      "ankle": 7789,
      "EG": 7790,
      "trăm": 7791,
      "articular": 7792,
      "opia": 7793,
      "obese": 7794,
      "tuyệt": 7795,
      "reports": 7796,
      "awar": 7797,
      "Răng": 7798,
      "dãn": 7799,
      "chor": 7800,
      "chron": 7801,
      "lithi": 7802,
      "ife": 7803,
      "throat": 7804,
      "Good": 7805,
      "memory": 7806,
      "FABP": 7807,
      "icular": 7808,
      "haem": 7809,
      "indices": 7810,
      "variable": 7811,
      "propofol": 7812,
      "AML": 7813,
      "bắc": 7814,
      "date": 7815,
      "tỏ": 7816,
      "Đột": 7817,
      "orrh": 7818,
      "statin": 7819,
      "surro": 7820,
      "laryngeal": 7821,
      "Effects": 7822,
      "Business": 7823,
      "Bacter": 7824,
      "hàn": 7825,
      "ẾT": 7826,
      "angina": 7827,
      "khoáng": 7828,
      "factory": 7829,
      "gingi": 7830,
      "acids": 7831,
      "behavioral": 7832,
      "acetamol": 7833,
      "SG": 7834,
      "tel": 7835,
      "hyperplasia": 7836,
      "closely": 7837,
      "compromised": 7838,
      "kem": 7839,
      "đeo": 7840,
      "thuyết": 7841,
      "oses": 7842,
      "amyloid": 7843,
      "Thử": 7844,
      "phenyl": 7845,
      "consists": 7846,
      "existing": 7847,
      "Cr": 7848,
      "dar": 7849,
      "ork": 7850,
      "excess": 7851,
      "buộc": 7852,
      "experimental": 7853,
      "preventive": 7854,
      "list": 7855,
      "thiên": 7856,
      "izumab": 7857,
      "Meas": 7858,
      "Soci": 7859,
      "requirements": 7860,
      "ECMO": 7861,
      "substances": 7862,
      "emplo": 7863,
      "key": 7864,
      "phrag": 7865,
      "Chương": 7866,
      "parenchy": 7867,
      "carry": 7868,
      "programs": 7869,
      "substance": 7870,
      "individu": 7871,
      "leakage": 7872,
      "bóc": 7873,
      "bite": 7874,
      "fec": 7875,
      "nano": 7876,
      "toward": 7877,
      "cot": 7878,
      "STE": 7879,
      "techno": 7880,
      "oflur": 7881,
      "phylactic": 7882,
      "narrow": 7883,
      "dressing": 7884,
      "liminary": 7885,
      "zi": 7886,
      "khẩn": 7887,
      "dimen": 7888,
      "video": 7889,
      "elbow": 7890,
      "follows": 7891,
      "Bio": 7892,
      "Guide": 7893,
      "BH": 7894,
      "Duong": 7895,
      "Gn": 7896,
      "Mặt": 7897,
      "nhắt": 7898,
      "heat": 7899,
      "lie": 7900,
      "Endoscopic": 7901,
      "Tính": 7902,
      "assessing": 7903,
      "institu": 7904,
      "atherosclerosis": 7905,
      "awareness": 7906,
      "VIII": 7907,
      "bùng": 7908,
      "rụng": 7909,
      "vọng": 7910,
      "viol": 7911,
      "tolerance": 7912,
      "Ban": 7913,
      "puncture": 7914,
      "ask": 7915,
      "polymorph": 7916,
      "aorta": 7917,
      "Springer": 7918,
      "utive": 7919,
      "giving": 7920,
      "acro": 7921,
      "adhes": 7922,
      "tripsy": 7923,
      "cyan": 7924,
      "crin": 7925,
      "varice": 7926,
      "consequences": 7927,
      "Scale": 7928,
      "Cro": 7929,
      "Hướng": 7930,
      "Sho": 7931,
      "alter": 7932,
      "functions": 7933,
      "dosage": 7934,
      "simplex": 7935,
      "Rarely": 7936,
      "MM": 7937,
      "trĩ": 7938,
      "amen": 7939,
      "visible": 7940,
      "generalized": 7941,
      "bular": 7942,
      "terine": 7943,
      "suture": 7944,
      "nguyện": 7945,
      "Phú": 7946,
      "cephalosporin": 7947,
      "PC": 7948,
      "Tạp": 7949,
      "thấm": 7950,
      "parts": 7951,
      "Second": 7952,
      "iasis": 7953,
      "die": 7954,
      "probe": 7955,
      "linked": 7956,
      "GER": 7957,
      "Pap": 7958,
      "lost": 7959,
      "ERCP": 7960,
      "reliable": 7961,
      "structural": 7962,
      "hydrox": 7963,
      "glaucoma": 7964,
      "laryng": 7965,
      "duoden": 7966,
      "consciousness": 7967,
      "KH": 7968,
      "Labor": 7969,
      "dities": 7970,
      "implantation": 7971,
      "vasopressin": 7972,
      "myelin": 7973,
      "departments": 7974,
      "tàn": 7975,
      "orac": 7976,
      "wid": 7977,
      "prompt": 7978,
      "Thận": 7979,
      "thoả": 7980,
      "extremities": 7981,
      "Xuất": 7982,
      "Fur": 7983,
      "Hơn": 7984,
      "rural": 7985,
      "ốm": 7986,
      "sil": 7987,
      "comorbi": 7988,
      "hyperthyroidism": 7989,
      "country": 7990,
      "NGHI": 7991,
      "flavon": 7992,
      "LM": 7993,
      "Material": 7994,
      "OC": 7995,
      "weigh": 7996,
      "valv": 7997,
      "miếng": 7998,
      "Hiếm": 7999,
      "branches": 8000,
      "beginning": 8001,
      "susceptibility": 8002,
      "reversible": 8003,
      "TE": 8004,
      "pand": 8005,
      "deliver": 8006,
      "radial": 8007,
      "vôi": 8008,
      "practition": 8009,
      "Comple": 8010,
      "molar": 8011,
      "receptors": 8012,
      "sources": 8013,
      "BA": 8014,
      "Cre": 8015,
      "Tâm": 8016,
      "focus": 8017,
      "plastic": 8018,
      "suggesting": 8019,
      "States": 8020,
      "Diseases": 8021,
      "false": 8022,
      "contamination": 8023,
      "NIHSS": 8024,
      "RES": 8025,
      "bế": 8026,
      "vét": 8027,
      "reviewed": 8028,
      "vascul": 8029,
      "deficiencies": 8030,
      "axillary": 8031,
      "techn": 8032,
      "phiên": 8033,
      "cyclophosph": 8034,
      "bruary": 8035,
      "GO": 8036,
      "Journal": 8037,
      "prenatal": 8038,
      "megal": 8039,
      "excellent": 8040,
      "Như": 8041,
      "amination": 8042,
      "axel": 8043,
      "basic": 8044,
      "Compar": 8045,
      "screen": 8046,
      "Only": 8047,
      "Reco": 8048,
      "sphincter": 8049,
      "nhật": 8050,
      "tery": 8051,
      "005": 8052,
      "therefore": 8053,
      "fying": 8054,
      "adjust": 8055,
      "models": 8056,
      "nico": 8057,
      "irrit": 8058,
      "prepared": 8059,
      "GE": 8060,
      "sỹ": 8061,
      "irregular": 8062,
      "recur": 8063,
      "crit": 8064,
      "responding": 8065,
      "anastomosis": 8066,
      "Usu": 8067,
      "viết": 8068,
      "noãn": 8069,
      "ventricle": 8070,
      "adjacent": 8071,
      "erythema": 8072,
      "stunting": 8073,
      "icans": 8074,
      "docu": 8075,
      "secon": 8076,
      "cholecyst": 8077,
      "Injur": 8078,
      "Emergency": 8079,
      "anth": 8080,
      "immunity": 8081,
      "families": 8082,
      "Hypertension": 8083,
      "esophagus": 8084,
      "ever": 8085,
      "Ứng": 8086,
      "trơn": 8087,
      "erad": 8088,
      "sial": 8089,
      "losis": 8090,
      "devi": 8091,
      "tax": 8092,
      "stitis": 8093,
      "Carb": 8094,
      "Prac": 8095,
      "bật": 8096,
      "pp": 8097,
      "zol": 8098,
      "rium": 8099,
      "team": 8100,
      "tyro": 8101,
      "opulmonary": 8102,
      "diaphrag": 8103,
      "immo": 8104,
      "vocal": 8105,
      "wounds": 8106,
      "dysplasia": 8107,
      "Management": 8108,
      "Gluco": 8109,
      "kì": 8110,
      "zen": 8111,
      "đỡ": 8112,
      "prolapse": 8113,
      "brid": 8114,
      "determining": 8115,
      "sperm": 8116,
      "cồn": 8117,
      "zhe": 8118,
      "ngại": 8119,
      "ona": 8120,
      "laparoscopy": 8121,
      "poorly": 8122,
      "NCT": 8123,
      "Oste": 8124,
      "matis": 8125,
      "ulop": 8126,
      "ĐI": 8127,
      "ulinum": 8128,
      "molars": 8129,
      "fresh": 8130,
      "demic": 8131,
      "constipation": 8132,
      "Contraindic": 8133,
      "variables": 8134,
      "litaxel": 8135,
      "Nutritional": 8136,
      "Ghép": 8137,
      "Mẫu": 8138,
      "scler": 8139,
      "encour": 8140,
      "cohort": 8141,
      "follic": 8142,
      "adju": 8143,
      "anatomic": 8144,
      "gallbladder": 8145,
      "Neonatal": 8146,
      "Screening": 8147,
      "Society": 8148,
      "oblastic": 8149,
      "Tiếp": 8150,
      "shorter": 8151,
      "scientific": 8152,
      "Ảnh": 8153,
      "lig": 8154,
      "Hoạt": 8155,
      "tracy": 8156,
      "formity": 8157,
      "normally": 8158,
      "Overall": 8159,
      "strongly": 8160,
      "surgeon": 8161,
      "Lâm": 8162,
      "processing": 8163,
      "cann": 8164,
      "incid": 8165,
      "inhal": 8166,
      "physicians": 8167,
      "reactive": 8168,
      "stopped": 8169,
      "Lew": 8170,
      "proved": 8171,
      "whom": 8172,
      "communic": 8173,
      "questions": 8174,
      "newborn": 8175,
      "brachial": 8176,
      "minimally": 8177,
      "spontaneously": 8178,
      "ejection": 8179,
      "plaque": 8180,
      "Europe": 8181,
      "seconds": 8182,
      "dừng": 8183,
      "lobe": 8184,
      "conazole": 8185,
      "clearly": 8186,
      "peritonitis": 8187,
      "glomerular": 8188,
      "Bên": 8189,
      "Bởi": 8190,
      "Clas": 8191,
      "Fin": 8192,
      "esty": 8193,
      "ulum": 8194,
      "venom": 8195,
      "plays": 8196,
      "cardiomyopathy": 8197,
      "histopathology": 8198,
      "bướ": 8199,
      "ỨU": 8200,
      "rehen": 8201,
      "bilical": 8202,
      "biochemical": 8203,
      "DT": 8204,
      "hắc": 8205,
      "hemi": 8206,
      "agre": 8207,
      "Nghe": 8208,
      "clonal": 8209,
      "radiotherapy": 8210,
      "Alzhe": 8211,
      "solute": 8212,
      "Before": 8213,
      "onephritis": 8214,
      "đờm": 8215,
      "bướm": 8216,
      "Del": 8217,
      "FAC": 8218,
      "Hor": 8219,
      "iro": 8220,
      "decreasing": 8221,
      "longitudinal": 8222,
      "sarcoid": 8223,
      "PI": 8224,
      "bông": 8225,
      "ele": 8226,
      "zoster": 8227,
      "asal": 8228,
      "urban": 8229,
      "củng": 8230,
      "gether": 8231,
      "hyperglycemia": 8232,
      "pregnancies": 8233,
      "February": 8234,
      "tivariate": 8235,
      "Congenital": 8236,
      "aerobic": 8237,
      "Ge": 8238,
      "SC": 8239,
      "Tắc": 8240,
      "hầm": 8241,
      "ơng": 8242,
      "rich": 8243,
      "thermia": 8244,
      "Cyto": 8245,
      "farin": 8246,
      "Differ": 8247,
      "Ano": 8248,
      "Qo": 8249,
      "ilic": 8250,
      "polar": 8251,
      "zes": 8252,
      "ulated": 8253,
      "conversion": 8254,
      "Ngày": 8255,
      "Cardiac": 8256,
      "strategy": 8257,
      "m3": 8258,
      "đới": 8259,
      "unding": 8260,
      "added": 8261,
      "synthesis": 8262,
      "neurological": 8263,
      "salt": 8264,
      "explo": 8265,
      "ranged": 8266,
      "agonists": 8267,
      "H2O": 8268,
      "digital": 8269,
      "FEV1": 8270,
      "Hol": 8271,
      "aki": 8272,
      "ngơi": 8273,
      "khuyên": 8274,
      "ffic": 8275,
      "endocarditis": 8276,
      "personality": 8277,
      "amounts": 8278,
      "epilepsy": 8279,
      "Hepatitis": 8280,
      "Cấp": 8281,
      "ocytosis": 8282,
      "sắp": 8283,
      "đổ": 8284,
      "lexi": 8285,
      "valuable": 8286,
      "global": 8287,
      "sedation": 8288,
      "Pregnancy": 8289,
      "T0": 8290,
      "pty": 8291,
      "cosis": 8292,
      "tear": 8293,
      "contribu": 8294,
      "cending": 8295,
      "Contraindications": 8296,
      "Fr": 8297,
      "olution": 8298,
      "tilization": 8299,
      "toid": 8300,
      "suicide": 8301,
      "mechanisms": 8302,
      "neurom": 8303,
      "nephropathy": 8304,
      "lithotripsy": 8305,
      "NGHIÊN": 8306,
      "Rate": 8307,
      "tụt": 8308,
      "aggressive": 8309,
      "author": 8310,
      "option": 8311,
      "foc": 8312,
      "tradiol": 8313,
      "Peri": 8314,
      "constric": 8315,
      "FDA": 8316,
      "capsule": 8317,
      "benzodiaz": 8318,
      "Vo": 8319,
      "Vis": 8320,
      "ised": 8321,
      "lihood": 8322,
      "Index": 8323,
      "destruc": 8324,
      "poses": 8325,
      "metformin": 8326,
      "nephrectomy": 8327,
      "supplementation": 8328,
      "facilit": 8329,
      "individuals": 8330,
      "cholecystectomy": 8331,
      "GR": 8332,
      "cẩn": 8333,
      "lặn": 8334,
      "tosis": 8335,
      "keep": 8336,
      "binding": 8337,
      "responses": 8338,
      "increasingly": 8339,
      "lactamase": 8340,
      "quickly": 8341,
      "Usually": 8342,
      "York": 8343,
      "tứ": 8344,
      "tấn": 8345,
      "brile": 8346,
      "osomal": 8347,
      "World": 8348,
      "poietic": 8349,
      "SR": 8350,
      "exclude": 8351,
      "Âu": 8352,
      "ĐMC": 8353,
      "bances": 8354,
      "basal": 8355,
      "selection": 8356,
      "hemolytic": 8357,
      "histological": 8358,
      "Gynecology": 8359,
      "earlier": 8360,
      "800": 8361,
      "Barr": 8362,
      "CỨU": 8363,
      "tex": 8364,
      "intro": 8365,
      "estradiol": 8366,
      "Tháng": 8367,
      "Time": 8368,
      "Quality": 8369,
      "improves": 8370,
      "selective": 8371,
      "neutrophil": 8372,
      "extended": 8373,
      "nosocomial": 8374,
      "ofac": 8375,
      "aud": 8376,
      "extracts": 8377,
      "ilia": 8378,
      "Alzheimer": 8379,
      "FE": 8380,
      "thơ": 8381,
      "Chứng": 8382,
      "intermediate": 8383,
      "Khối": 8384,
      "colitis": 8385,
      "CAP": 8386,
      "LU": 8387,
      "VII": 8388,
      "nếp": 8389,
      "Trau": 8390,
      "broncho": 8391,
      "integr": 8392,
      "Centers": 8393,
      "mác": 8394,
      "uterus": 8395,
      "agonist": 8396,
      "plexus": 8397,
      "Họ": 8398,
      "cation": 8399,
      "lỗi": 8400,
      "chán": 8401,
      "hout": 8402,
      "ruptured": 8403,
      "AVM": 8404,
      "abscesses": 8405,
      "D2": 8406,
      "FI": 8407,
      "ếc": 8408,
      "transport": 8409,
      "PaO2": 8410,
      "subsequent": 8411,
      "atypical": 8412,
      "fro": 8413,
      "Điện": 8414,
      "mel": 8415,
      "doxy": 8416,
      "power": 8417,
      "rise": 8418,
      "functioning": 8419,
      "Quá": 8420,
      "controls": 8421,
      "stead": 8422,
      "ACTH": 8423,
      "Động": 8424,
      "rough": 8425,
      "allergy": 8426,
      "Head": 8427,
      "experienced": 8428,
      "Abdominal": 8429,
      "issues": 8430,
      "accidents": 8431,
      "conjunctivitis": 8432,
      "Multiple": 8433,
      "Systemic": 8434,
      "parathyroidism": 8435,
      "Am": 8436,
      "Acc": 8437,
      "õm": 8438,
      "ern": 8439,
      "occurring": 8440,
      "cruc": 8441,
      "extracted": 8442,
      "flexion": 8443,
      "Several": 8444,
      "Infections": 8445,
      "refractory": 8446,
      "QoL": 8447,
      "But": 8448,
      "Imaging": 8449,
      "Pal": 8450,
      "SPECT": 8451,
      "bad": 8452,
      "ãnh": 8453,
      "ests": 8454,
      "nearly": 8455,
      "tymp": 8456,
      "obtain": 8457,
      "cuff": 8458,
      "dextr": 8459,
      "Neph": 8460,
      "exacerbation": 8461,
      "periodontal": 8462,
      "acceptable": 8463,
      "GC": 8464,
      "dội": 8465,
      "xẹp": 8466,
      "promin": 8467,
      "examine": 8468,
      "Chiều": 8469,
      "meningi": 8470,
      "glands": 8471,
      "prednisol": 8472,
      "together": 8473,
      "Phù": 8474,
      "etal": 8475,
      "differentiate": 8476,
      "adjuvant": 8477,
      "RR": 8478,
      "hue": 8479,
      "jaw": 8480,
      "tick": 8481,
      "appa": 8482,
      "Ben": 8483,
      "Bướu": 8484,
      "đứa": 8485,
      "chond": 8486,
      "rexia": 8487,
      "cycles": 8488,
      "iliac": 8489,
      "disturbances": 8490,
      "definitive": 8491,
      "NE": 8492,
      "Por": 8493,
      "bones": 8494,
      "cử": 8495,
      "lí": 8496,
      "đay": 8497,
      "sugar": 8498,
      "pedicle": 8499,
      "tropin": 8500,
      "influenzae": 8501,
      "skull": 8502,
      "Bes": 8503,
      "amic": 8504,
      "ingestion": 8505,
      "extension": 8506,
      "secutive": 8507,
      "placenta": 8508,
      "Oncology": 8509,
      "antigens": 8510,
      "probability": 8511,
      "112": 8512,
      "hcm": 8513,
      "ov": 8514,
      "chal": 8515,
      "arcoma": 8516,
      "pow": 8517,
      "syphilis": 8518,
      "Chức": 8519,
      "cụt": 8520,
      "dexamethasone": 8521,
      "histopathological": 8522,
      "contraindicated": 8523,
      "2D": 8524,
      "Bone": 8525,
      "cumin": 8526,
      "muc": 8527,
      "pling": 8528,
      "chè": 8529,
      "discomfort": 8530,
      "oped": 8531,
      "Khả": 8532,
      "broad": 8533,
      "brea": 8534,
      "ocyte": 8535,
      "activation": 8536,
      "epidemiological": 8537,
      "minimize": 8538,
      "width": 8539,
      "SF": 8540,
      "Tn": 8541,
      "Tế": 8542,
      "Tech": 8543,
      "dán": 8544,
      "rule": 8545,
      "look": 8546,
      "Ins": 8547,
      "likelihood": 8548,
      "thoracoscopic": 8549,
      "sched": 8550,
      "tronidazole": 8551,
      "lous": 8552,
      "eclamp": 8553,
      "mpa": 8554,
      "shape": 8555,
      "withdrawal": 8556,
      "menstrual": 8557,
      "PAP": 8558,
      "gement": 8559,
      "vital": 8560,
      "voflur": 8561,
      "chấm": 8562,
      "tose": 8563,
      "bel": 8564,
      "folate": 8565,
      "variety": 8566,
      "cites": 8567,
      "tte": 8568,
      "trễ": 8569,
      "ert": 8570,
      "roots": 8571,
      "dial": 8572,
      "applic": 8573,
      "prec": 8574,
      "sampling": 8575,
      "paper": 8576,
      "chromosome": 8577,
      "remaining": 8578,
      "Frac": 8579,
      "Red": 8580,
      "syring": 8581,
      "obvious": 8582,
      "overload": 8583,
      "selves": 8584,
      "measuring": 8585,
      "Cali": 8586,
      "susceptible": 8587,
      "relapse": 8588,
      "rr": 8589,
      "wrist": 8590,
      "đồi": 8591,
      "ớn": 8592,
      "consecutive": 8593,
      "colistin": 8594,
      "hemorrho": 8595,
      "openem": 8596,
      "manifestation": 8597,
      "interferon": 8598,
      "bẫy": 8599,
      "ellow": 8600,
      "resolution": 8601,
      "bearing": 8602,
      "regard": 8603,
      "aceu": 8604,
      "chloride": 8605,
      "difficulties": 8606,
      "Fran": 8607,
      "mosis": 8608,
      "oides": 8609,
      "vít": 8610,
      "proteinuria": 8611,
      "approximately": 8612,
      "Further": 8613,
      "doxycycline": 8614,
      "VÀ": 8615,
      "oC": 8616,
      "endemic": 8617,
      "across": 8618,
      "Thủ": 8619,
      "bronchial": 8620,
      "sarcoma": 8621,
      "contraindications": 8622,
      "circumference": 8623,
      "Aims": 8624,
      "Ure": 8625,
      "bộc": 8626,
      "cũ": 8627,
      "splin": 8628,
      "phagia": 8629,
      "INR": 8630,
      "identifying": 8631,
      "acetaminophen": 8632,
      "supplements": 8633,
      "staining": 8634,
      "extremely": 8635,
      "Apr": 8636,
      "SH": 8637,
      "pemphig": 8638,
      "chro": 8639,
      "arbon": 8640,
      "conclu": 8641,
      "cartil": 8642,
      "feet": 8643,
      "CLCS": 8644,
      "otitis": 8645,
      "hormones": 8646,
      "(-)": 8647,
      "BM": 8648,
      "Main": 8649,
      "vatives": 8650,
      "pharyngeal": 8651,
      "thoảng": 8652,
      "TNMT": 8653,
      "themselves": 8654,
      "hematuria": 8655,
      "waist": 8656,
      "HSV": 8657,
      "temporal": 8658,
      "puberty": 8659,
      "PM": 8660,
      "Vol": 8661,
      "creas": 8662,
      "eng": 8663,
      "vẹo": 8664,
      "icy": 8665,
      "signal": 8666,
      "valvular": 8667,
      "aceutical": 8668,
      "danger": 8669,
      "sca": 8670,
      "cryst": 8671,
      "albicans": 8672,
      "lactin": 8673,
      "peptic": 8674,
      "aminotransferase": 8675,
      "blind": 8676,
      "Suc": 8677,
      "bốn": 8678,
      "cham": 8679,
      "acill": 8680,
      "erebral": 8681,
      "dissemin": 8682,
      "keto": 8683,
      "inhibi": 8684,
      "platelets": 8685,
      "tives": 8686,
      "stant": 8687,
      "opening": 8688,
      "hereditary": 8689,
      "Num": 8690,
      "tibial": 8691,
      "ason": 8692,
      "itative": 8693,
      "apparent": 8694,
      "worm": 8695,
      "SSRI": 8696,
      "palsy": 8697,
      "leukin": 8698,
      "bronch": 8699,
      "spondy": 8700,
      "Beta": 8701,
      "Classification": 8702,
      "Amp": 8703,
      "costs": 8704,
      "unk": 8705,
      "washing": 8706,
      "extr": 8707,
      "travel": 8708,
      "frag": 8709,
      "STEMI": 8710,
      "Vari": 8711,
      "fri": 8712,
      "goxin": 8713,
      "jection": 8714,
      "ned": 8715,
      "vance": 8716,
      "phthal": 8717,
      "adren": 8718,
      "umbilical": 8719,
      "dazole": 8720,
      "Diagnostic": 8721,
      "ACHE": 8722,
      "investigation": 8723,
      "ituximab": 8724,
      "strategies": 8725,
      "Ultrasound": 8726,
      "aldosterone": 8727,
      "fing": 8728,
      "quai": 8729,
      "ada": 8730,
      "erson": 8731,
      "APACHE": 8732,
      "Nghệ": 8733,
      "resolve": 8734,
      "CABG": 8735,
      "Har": 8736,
      "đẳng": 8737,
      "novi": 8738,
      "Nhu": 8739,
      "sinusitis": 8740,
      "Thg4": 8741,
      "recipi": 8742,
      "Califor": 8743,
      "Dùng": 8744,
      "Urin": 8745,
      "pay": 8746,
      "chin": 8747,
      "inadequate": 8748,
      "dislocation": 8749,
      "student": 8750,
      "Medic": 8751,
      "princi": 8752,
      "methadone": 8753,
      "IFN": 8754,
      "Fal": 8755,
      "TQ": 8756,
      "edo": 8757,
      "paracetamol": 8758,
      "Meth": 8759,
      "micron": 8760,
      "changing": 8761,
      "physiologic": 8762,
      "conservative": 8763,
      "California": 8764,
      "Sức": 8765,
      "ĐH": 8766,
      "thật": 8767,
      "oric": 8768,
      "rib": 8769,
      "logous": 8770,
      "presents": 8771,
      "Prov": 8772,
      "bacterium": 8773,
      "contents": 8774,
      "prescription": 8775,
      "doctor": 8776,
      "Investigation": 8777,
      "Anatomy": 8778,
      "favor": 8779,
      "eclampsia": 8780,
      "Breast": 8781,
      "kacin": 8782,
      "ptic": 8783,
      "cosme": 8784,
      "dient": 8785,
      "Thần": 8786,
      "Hoà": 8787,
      "huế": 8788,
      "myelo": 8789,
      "Recomm": 8790,
      "PL": 8791,
      "PV": 8792,
      "lường": 8793,
      "liễu": 8794,
      "llus": 8795,
      "cyste": 8796,
      "bìu": 8797,
      "referred": 8798,
      "infertility": 8799,
      "Myco": 8800,
      "herniation": 8801,
      "Det": 8802,
      "schi": 8803,
      "complement": 8804,
      "methop": 8805,
      "starting": 8806,
      "feeling": 8807,
      "DO": 8808,
      "DIC": 8809,
      "onazole": 8810,
      "ense": 8811,
      "leaf": 8812,
      "clon": 8813,
      "Intern": 8814,
      "Nhan": 8815,
      "ughout": 8816,
      "carcinomas": 8817,
      "autosomal": 8818,
      "Hematology": 8819,
      "Enterobacter": 8820,
      "Crohn": 8821,
      "Cir": 8822,
      "nạ": 8823,
      "yn": 8824,
      "gastritis": 8825,
      "adjusted": 8826,
      "accident": 8827,
      "technology": 8828,
      "G6": 8829,
      "true": 8830,
      "unexplained": 8831,
      "caus": 8832,
      "disrup": 8833,
      "002": 8834,
      "entero": 8835,
      "monella": 8836,
      "warfarin": 8837,
      "progesterone": 8838,
      "FA": 8839,
      "Son": 8840,
      "bớt": 8841,
      "surve": 8842,
      "135": 8843,
      "Cardiovascular": 8844,
      "iovenous": 8845,
      "decompression": 8846,
      "Làm": 8847,
      "tally": 8848,
      "chích": 8849,
      "ofloxacin": 8850,
      "liative": 8851,
      "doanh": 8852,
      "feel": 8853,
      "bectomy": 8854,
      "masses": 8855,
      "routinely": 8856,
      "cyclophosphamide": 8857,
      "fit": 8858,
      "khè": 8859,
      "tism": 8860,
      "ectasis": 8861,
      "microscopic": 8862,
      "fibrinogen": 8863,
      "GLS": 8864,
      "Lao": 8865,
      "bền": 8866,
      "gà": 8867,
      "plants": 8868,
      "003": 8869,
      "smaller": 8870,
      "immunohisto": 8871,
      "DSA": 8872,
      "Nang": 8873,
      "gạc": 8874,
      "itching": 8875,
      "counter": 8876,
      "TTT": 8877,
      "Recommend": 8878,
      "Ke": 8879,
      "Ol": 8880,
      "Tử": 8881,
      "XHD": 8882,
      "final": 8883,
      "lab": 8884,
      "tàu": 8885,
      "depressive": 8886,
      "big": 8887,
      "failed": 8888,
      "abnormality": 8889,
      "providing": 8890,
      "profile": 8891,
      "machine": 8892,
      "Elec": 8893,
      "magnesium": 8894,
      "recruited": 8895,
      "rehensive": 8896,
      "War": 8897,
      "yi": 8898,
      "nhện": 8899,
      "host": 8900,
      "antibacterial": 8901,
      "comit": 8902,
      "periods": 8903,
      "surgeons": 8904,
      "proliferative": 8905,
      "pandemic": 8906,
      "fingers": 8907,
      "Bác": 8908,
      "lling": 8909,
      "ĐD": 8910,
      "elitis": 8911,
      "ready": 8912,
      "electrolyte": 8913,
      "swallowing": 8914,
      "carbohydrate": 8915,
      "nhổ": 8916,
      "ero": 8917,
      "chờ": 8918,
      "Chế": 8919,
      "worse": 8920,
      "fiber": 8921,
      "gran": 8922,
      "ALL": 8923,
      "excretion": 8924,
      "storage": 8925,
      "acillin": 8926,
      "Br": 8927,
      "Sus": 8928,
      "exchange": 8929,
      "epsin": 8930,
      "throughout": 8931,
      "adenoma": 8932,
      "participate": 8933,
      "smear": 8934,
      "somnia": 8935,
      "digestive": 8936,
      "KẾT": 8937,
      "sha": 8938,
      "ascites": 8939,
      "giảng": 8940,
      "artment": 8941,
      "glass": 8942,
      "fluoroquinol": 8943,
      "lipoprotein": 8944,
      "cytokines": 8945,
      "xine": 8946,
      "Throm": 8947,
      "requency": 8948,
      "Herpes": 8949,
      "retinopathy": 8950,
      "Laboratory": 8951,
      "cysteine": 8952,
      "bạo": 8953,
      "doing": 8954,
      "Nghi": 8955,
      "Regi": 8956,
      "relationships": 8957,
      "administered": 8958,
      "garis": 8959,
      "encephalopathy": 8960,
      "conclusions": 8961,
      "fossa": 8962,
      "Hồng": 8963,
      "cối": 8964,
      "mông": 8965,
      "rat": 8966,
      "vòi": 8967,
      "enia": 8968,
      "ulas": 8969,
      "Thorac": 8970,
      "phosphatase": 8971,
      "sporine": 8972,
      "QUẢ": 8973,
      "restriction": 8974,
      "Plasma": 8975,
      "megalovirus": 8976,
      "UI": 8977,
      "bè": 8978,
      "tiệt": 8979,
      "trạm": 8980,
      "24h": 8981,
      "choledo": 8982,
      "humans": 8983,
      "clindamycin": 8984,
      "BPTNMT": 8985,
      "professional": 8986,
      "randomly": 8987,
      "estyle": 8988,
      "Hung": 8989,
      "kĩ": 8990,
      "ẬN": 8991,
      "tid": 8992,
      "annu": 8993,
      "atch": 8994,
      "atous": 8995,
      "hetero": 8996,
      "arynx": 8997,
      "buted": 8998,
      "And": 8999,
      "injured": 9000,
      "tablets": 9001,
      "inserted": 9002,
      "104": 9003,
      "ify": 9004,
      "kets": 9005,
      "Additional": 9006,
      "Specific": 9007,
      "450": 9008,
      "bv": 9009,
      "lants": 9010,
      "mọc": 9011,
      "pages": 9012,
      "ùm": 9013,
      "instruc": 9014,
      "ADH": 9015,
      "Choles": 9016,
      "exercises": 9017,
      "WBC": 9018,
      "sảng": 9019,
      "nhẫn": 9020,
      "eration": 9021,
      "dimer": 9022,
      "ura": 9023,
      "neural": 9024,
      "sequel": 9025,
      "RH": 9026,
      "Tem": 9027,
      "dust": 9028,
      "khò": 9029,
      "ifically": 9030,
      "otherwise": 9031,
      "rub": 9032,
      "channel": 9033,
      "walking": 9034,
      "bicarbon": 9035,
      "stimulating": 9036,
      "floor": 9037,
      "BD": 9038,
      "equal": 9039,
      "fra": 9040,
      "mốc": 9041,
      "hemost": 9042,
      "khuynh": 9043,
      "newly": 9044,
      "stabili": 9045,
      "Lar": 9046,
      "atum": 9047,
      "ulent": 9048,
      "uptake": 9049,
      "dilated": 9050,
      "ction": 9051,
      "côm": 9052,
      "lái": 9053,
      "amox": 9054,
      "attacks": 9055,
      "tobacco": 9056,
      "Insulin": 9057,
      "Bra": 9058,
      "Mc": 9059,
      "Prof": 9060,
      "ezing": 9061,
      "ginal": 9062,
      "lav": 9063,
      "ographic": 9064,
      "rào": 9065,
      "oru": 9066,
      "interactions": 9067,
      "vast": 9068,
      "175": 9069,
      "conduction": 9070,
      "legs": 9071,
      "suffered": 9072,
      "Salmonella": 9073,
      "Sex": 9074,
      "Tan": 9075,
      "Vương": 9076,
      "recently": 9077,
      "arithromycin": 9078,
      "name": 9079,
      "cholecy": 9080,
      "layer": 9081,
      "G6PD": 9082,
      "SO": 9083,
      "gli": 9084,
      "tap": 9085,
      "Đã": 9086,
      "illi": 9087,
      "severely": 9088,
      "multiplex": 9089,
      "hexidine": 9090,
      "International": 9091,
      "dãy": 9092,
      "trating": 9093,
      "abine": 9094,
      "ett": 9095,
      "ciprofloxacin": 9096,
      "ophil": 9097,
      "ATS": 9098,
      "Position": 9099,
      "estimate": 9100,
      "emotional": 9101,
      "embry": 9102,
      "psychiatric": 9103,
      "item": 9104,
      "traffic": 9105,
      "fold": 9106,
      "Diet": 9107,
      "completed": 9108,
      "phoresis": 9109,
      "Infants": 9110,
      "Tumor": 9111,
      "surfactant": 9112,
      "Complete": 9113,
      "Dys": 9114,
      "mRNA": 9115,
      "chạm": 9116,
      "edge": 9117,
      "delta": 9118,
      "observation": 9119,
      "Cephal": 9120,
      "CAD": 9121,
      "eti": 9122,
      "gare": 9123,
      "aint": 9124,
      "Intensive": 9125,
      "126": 9126,
      "understanding": 9127,
      "differential": 9128,
      "xime": 9129,
      "vaccinated": 9130,
      "eyelid": 9131,
      "properties": 9132,
      "EBV": 9133,
      "lõm": 9134,
      "phường": 9135,
      "coordin": 9136,
      "auton": 9137,
      "outside": 9138,
      "firm": 9139,
      "organism": 9140,
      "aminoglyco": 9141,
      "movements": 9142,
      "GERD": 9143,
      "cãi": 9144,
      "atoma": 9145,
      "domes": 9146,
      "relatives": 9147,
      "1999": 9148,
      "nutri": 9149,
      "ATION": 9150,
      "Las": 9151,
      "ub": 9152,
      "robot": 9153,
      "troph": 9154,
      "deformity": 9155,
      "magi": 9156,
      "fair": 9157,
      "prediction": 9158,
      "ventilator": 9159,
      "grees": 9160,
      "holds": 9161,
      "contains": 9162,
      "pect": 9163,
      "inpatient": 9164,
      "start": 9165,
      "glot": 9166,
      "bilities": 9167,
      "ADS": 9168,
      "parenteral": 9169,
      "Ministry": 9170,
      "derivatives": 9171,
      "hematocrit": 9172,
      "tas": 9173,
      "thác": 9174,
      "esarean": 9175,
      "ising": 9176,
      "testicular": 9177,
      "Quản": 9178,
      "ATP": 9179,
      "pancreas": 9180,
      "opioids": 9181,
      "North": 9182,
      "histamine": 9183,
      "Sc": 9184,
      "dom": 9185,
      "iditis": 9186,
      "occupation": 9187,
      "exacerbations": 9188,
      "amethox": 9189,
      "Johnson": 9190,
      "Comparison": 9191,
      "cartilage": 9192,
      "Fami": 9193,
      "Western": 9194,
      "tt": 9195,
      "vate": 9196,
      "compl": 9197,
      "viscer": 9198,
      "perforator": 9199,
      "philia": 9200,
      "membranes": 9201,
      "botulinum": 9202,
      "Pediatrics": 9203,
      "recovered": 9204,
      "gauge": 9205,
      "comorbidities": 9206,
      "Oxy": 9207,
      "PO": 9208,
      "tus": 9209,
      "phó": 9210,
      "opause": 9211,
      "crani": 9212,
      "MENT": 9213,
      "regularly": 9214,
      "gnition": 9215,
      "Transfusion": 9216,
      "papillary": 9217,
      "Mortality": 9218,
      "C1": 9219,
      "nhai": 9220,
      "apter": 9221,
      "ineff": 9222,
      "111": 9223,
      "counts": 9224,
      "IC50": 9225,
      "intestine": 9226,
      "intravascular": 9227,
      "filtration": 9228,
      ",\"": 9229,
      "GBS": 9230,
      "lú": 9231,
      "remed": 9232,
      "towards": 9233,
      "virut": 9234,
      "sense": 9235,
      "Lev": 9236,
      "empir": 9237,
      "Immuno": 9238,
      "Cushing": 9239,
      "ngửa": 9240,
      "rectum": 9241,
      "synthes": 9242,
      "PEEP": 9243,
      "anorexia": 9244,
      "ophthalmo": 9245,
      "cạm": 9246,
      "dải": 9247,
      "objects": 9248,
      "uốn": 9249,
      "quát": 9250,
      "ulf": 9251,
      "osed": 9252,
      "Tràn": 9253,
      "interventional": 9254,
      "Down": 9255,
      "Studying": 9256,
      "hepatectomy": 9257,
      "dopamine": 9258,
      "Auto": 9259,
      "Human": 9260,
      "rác": 9261,
      "perine": 9262,
      "Analysis": 9263,
      "ARB": 9264,
      "Aspergi": 9265,
      "objectives": 9266,
      "tolerated": 9267,
      "thyroxine": 9268,
      "derived": 9269,
      "poietin": 9270,
      "composition": 9271,
      "Secondary": 9272,
      "GM": 9273,
      "aes": 9274,
      "junction": 9275,
      "seal": 9276,
      "amines": 9277,
      "Median": 9278,
      "muscular": 9279,
      "PPH": 9280,
      "Description": 9281,
      "categor": 9282,
      "Female": 9283,
      "wire": 9284,
      "degrees": 9285,
      "sple": 9286,
      "mox": 9287,
      "surgically": 9288,
      "blunt": 9289,
      "teaching": 9290,
      "Pearls": 9291,
      "Stress": 9292,
      "Tạo": 9293,
      "gold": 9294,
      "ticaria": 9295,
      "117": 9296,
      "aspects": 9297,
      "photer": 9298,
      "gonado": 9299,
      "reser": 9300,
      "oppor": 9301,
      "veni": 9302,
      "minimum": 9303,
      "manage": 9304,
      "Nhiệt": 9305,
      "visit": 9306,
      "RIF": 9307,
      "fluores": 9308,
      "discharged": 9309,
      "phospholipid": 9310,
      "endometri": 9311,
      "rời": 9312,
      "icles": 9313,
      "prolactin": 9314,
      "rubella": 9315,
      "pathway": 9316,
      "ource": 9317,
      "herbal": 9318,
      "differentiation": 9319,
      "planning": 9320,
      "challeng": 9321,
      "jo": 9322,
      "tea": 9323,
      "tubular": 9324,
      "epidemic": 9325,
      "Pitfalls": 9326,
      "powder": 9327,
      "A2": 9328,
      "DE": 9329,
      "lồ": 9330,
      "zoli": 9331,
      "constitu": 9332,
      "nghẹt": 9333,
      "tivation": 9334,
      "Develop": 9335,
      "responsible": 9336,
      "prur": 9337,
      "curcumin": 9338,
      "observ": 9339,
      "Graves": 9340,
      "challenge": 9341,
      "spleen": 9342,
      "Cut": 9343,
      "Tái": 9344,
      "Vắc": 9345,
      "ẵng": 9346,
      "khổng": 9347,
      "sevoflur": 9348,
      "correl": 9349,
      "cardiopulmonary": 9350,
      "idiasis": 9351,
      "allows": 9352,
      "Rep": 9353,
      "ko": 9354,
      "mào": 9355,
      "zone": 9356,
      "antic": 9357,
      "giọng": 9358,
      "hoang": 9359,
      "distric": 9360,
      "malformation": 9361,
      "ICP": 9362,
      "stret": 9363,
      "đọc": 9364,
      "belong": 9365,
      "ogenesis": 9366,
      "Thg9": 9367,
      "vulgaris": 9368,
      "prominent": 9369,
      "Yo": 9370,
      "sởi": 9371,
      "income": 9372,
      "proton": 9373,
      "rigi": 9374,
      "Phác": 9375,
      "nitro": 9376,
      "vascularization": 9377,
      "enhancement": 9378,
      "vẻ": 9379,
      "Đà": 9380,
      "atinib": 9381,
      "amma": 9382,
      "lumin": 9383,
      "Internal": 9384,
      "123": 9385,
      "thereby": 9386,
      "hypox": 9387,
      "conjug": 9388,
      "Cell": 9389,
      "prednisolone": 9390,
      "opedic": 9391,
      "dox": 9392,
      "107": 9393,
      "nitr": 9394,
      "elvic": 9395,
      "illance": 9396,
      "tropical": 9397,
      "tools": 9398,
      "instru": 9399,
      "Bản": 9400,
      "Nai": 9401,
      "bếp": 9402,
      "gót": 9403,
      "đem": 9404,
      "nhàng": 9405,
      "uspid": 9406,
      "hypersensitivity": 9407,
      "subtypes": 9408,
      "stiff": 9409,
      "smooth": 9410,
      "enhanced": 9411,
      "atresia": 9412,
      "NVYT": 9413,
      "eradication": 9414,
      "frozen": 9415,
      "pts": 9416,
      "migr": 9417,
      "corresponding": 9418,
      "pivac": 9419,
      "INH": 9420,
      "chlorhexidine": 9421,
      "zyg": 9422,
      "lifestyle": 9423,
      "tachment": 9424,
      "D3": 9425,
      "Hẹp": 9426,
      "oration": 9427,
      "round": 9428,
      "bring": 9429,
      "Tien": 9430,
      "nephritis": 9431,
      "isolation": 9432,
      "activated": 9433,
      "enlargement": 9434,
      "Pneumo": 9435,
      "cerebrospinal": 9436,
      "amethoxazole": 9437,
      "PB": 9438,
      "ắk": 9439,
      "oradi": 9440,
      "phồng": 9441,
      "holic": 9442,
      "computer": 9443,
      "compati": 9444,
      "quyền": 9445,
      "PEX": 9446,
      "discussed": 9447,
      "Aspir": 9448,
      "Small": 9449,
      "ropivac": 9450,
      "mann": 9451,
      "volunt": 9452,
      "Afric": 9453,
      "analgesics": 9454,
      "HbA1C": 9455,
      "Combin": 9456,
      "enlarged": 9457,
      "Organization": 9458,
      "rhythm": 9459,
      "MAC": 9460,
      "Sw": 9461,
      "luật": 9462,
      "soạn": 9463,
      "fixed": 9464,
      "Proced": 9465,
      "shorten": 9466,
      "oxidase": 9467,
      "UTBM": 9468,
      "flavonoid": 9469,
      ".,": 9470,
      "uage": 9471,
      "toin": 9472,
      "resem": 9473,
      "controver": 9474,
      "tonsi": 9475,
      "esterase": 9476,
      "publ": 9477,
      "Spinal": 9478,
      "repeat": 9479,
      "retroperitoneal": 9480,
      "pupils": 9481,
      "frontal": 9482,
      "neuromuscular": 9483,
      "NN": 9484,
      "Rem": 9485,
      "Xử": 9486,
      "retin": 9487,
      "sies": 9488,
      "unstable": 9489,
      "nghèo": 9490,
      "options": 9491,
      "berg": 9492,
      "NSCLC": 9493,
      "temporary": 9494,
      "experts": 9495,
      "precipit": 9496,
      "Mắt": 9497,
      "N2": 9498,
      "NST": 9499,
      "RAS": 9500,
      "lẽ": 9501,
      "own": 9502,
      "astic": 9503,
      "quân": 9504,
      "dermal": 9505,
      "Chưa": 9506,
      "microm": 9507,
      "lymphocytes": 9508,
      "famili": 9509,
      "indus": 9510,
      "implemented": 9511,
      "Besides": 9512,
      "C3": 9513,
      "Function": 9514,
      "Max": 9515,
      "Xơ": 9516,
      "dors": 9517,
      "Độc": 9518,
      "iss": 9519,
      "itself": 9520,
      "hiv": 9521,
      "steroidal": 9522,
      "proliferation": 9523,
      "cotton": 9524,
      "KAP": 9525,
      "Yen": 9526,
      "pate": 9527,
      "arti": 9528,
      "morning": 9529,
      "manifests": 9530,
      "abolic": 9531,
      "borns": 9532,
      "implementation": 9533,
      "NPV": 9534,
      "photericin": 9535,
      "Ble": 9536,
      "GB": 9537,
      "Kidney": 9538,
      "Sàng": 9539,
      "uch": 9540,
      "vec": 9541,
      "instability": 9542,
      "beam": 9543,
      "suyễn": 9544,
      "cream": 9545,
      "thropo": 9546,
      "septum": 9547,
      "Thg1": 9548,
      "Abnormal": 9549,
      "hộp": 9550,
      "White": 9551,
      "TW": 9552,
      "đèn": 9553,
      "ley": 9554,
      "belie": 9555,
      "untain": 9556,
      "sea": 9557,
      "oxi": 9558,
      "controlling": 9559,
      "expect": 9560,
      "habits": 9561,
      "amniotic": 9562,
      "Clostri": 9563,
      "technical": 9564,
      "comitant": 9565,
      "Ace": 9566,
      "Epi": 9567,
      "Yên": 9568,
      "job": 9569,
      "sổ": 9570,
      "trời": 9571,
      "erous": 9572,
      "rology": 9573,
      "dead": 9574,
      "iae": 9575,
      "compens": 9576,
      "hyster": 9577,
      "febrile": 9578,
      "CTX": 9579,
      "toxins": 9580,
      "PDA": 9581,
      "ampli": 9582,
      "Stage": 9583,
      "situations": 9584,
      "Carcin": 9585,
      "picion": 9586,
      "prazole": 9587,
      "Sơn": 9588,
      "SXHD": 9589,
      "ullary": 9590,
      "Nhìn": 9591,
      "injections": 9592,
      "MPH": 9593,
      "NKH": 9594,
      "psychological": 9595,
      "reasonable": 9596,
      "infiltration": 9597,
      "lexible": 9598,
      "Jeff": 9599,
      "mee": 9600,
      "exact": 9601,
      "massive": 9602,
      "beneficial": 9603,
      "steps": 9604,
      "saturation": 9605,
      "contributing": 9606,
      "chamber": 9607,
      "Ghi": 9608,
[...]
