{
  "version": "1.0",
  "truncation": null,
  "padding": null,
  "added_tokens": [
    {
      "id": 0,
      "content": "<pad>",
      "single_word": false,
      "lstrip": false,
      "rstrip": false,
      "normalized": false,
      "special": true
    },
    {
      "id": 1,
      "content": "<sos>",
      "single_word": false,
      "lstrip": false,
      "rstrip": false,
      "normalized": false,
      "special": true
    },
    {
      "id": 2,
      "content": "<eos>",
      "single_word": false,
      "lstrip": false,
      "rstrip": false,
      "normalized": false,
      "special": true
    },
    {
      "id": 3,
      "content": "<unk>",
      "single_word": false,
      "lstrip": false,
      "rstrip": false,
      "normalized": false,
      "special": true
    }
  ],
  "normalizer": null,
  "pre_tokenizer": {
    "type": "ByteLevel",
    "add_prefix_space": false,
    "trim_offsets": true,
    "use_regex": true
  },
  "post_processor": null,
  "decoder": {
    "type": "ByteLevel",
    "add_prefix_space": true,
    "trim_offsets": true,
    "use_regex": true
  },
  "model": {
    "type": "BPE",
    "dropout": null,
    "unk_token": "<unk>",
    "continuing_subword_prefix": null,
    "end_of_word_suffix": null,
    "fuse_unk": false,
    "byte_fallback": false,
    "ignore_merges": false,
    "vocab": {
      "<pad>": 0,
      "<sos>": 1,
      "<eos>": 2,
      "<unk>": 3,
      "!": 4,
      "\"": 5,
      "#": 6,
      "$": 7,
      "%": 8,
      "&": 9,
      "'": 10,
      "(": 11,
      ")": 12,
      "*": 13,
      "+": 14,
      ",": 15,
      "-": 16,
      ".": 17,
      "/": 18,
      "0": 19,
      "1": 20,
      "2": 21,
      "3": 22,
      "4": 23,
      "5": 24,
      "6": 25,
      "7": 26,
      "8": 27,
      "9": 28,
      ":": 29,
      ";": 30,
      "<": 31,
      "=": 32,
      ">": 33,
      "?": 34,
      "@": 35,
      "A": 36,
      "B": 37,
      "C": 38,
      "D": 39,
      "E": 40,
      "F": 41,
      "G": 42,
      "H": 43,
      "I": 44,
      "J": 45,
      "K": 46,
      "L": 47,
      "M": 48,
      "N": 49,
      "O": 50,
      "P": 51,
      "Q": 52,
      "R": 53,
      "S": 54,
      "T": 55,
      "U": 56,
      "V": 57,
      "W": 58,
      "X": 59,
      "Y": 60,
      "Z": 61,
      "[": 62,
      "\\": 63,
      "]": 64,
      "^": 65,
      "_": 66,
      "`": 67,
      "a": 68,
      "b": 69,
      "c": 70,
      "d": 71,
      "e": 72,
      "f": 73,
      "g": 74,
      "h": 75,
      "i": 76,
      "j": 77,
      "k": 78,
      "l": 79,
      "m": 80,
      "n": 81,
      "o": 82,
      "p": 83,
      "q": 84,
      "r": 85,
      "s": 86,
      "t": 87,
      "u": 88,
      "v": 89,
      "w": 90,
      "x": 91,
      "y": 92,
      "z": 93,
      "{": 94,
      "|": 95,
      "}": 96,
      "~": 97,
      "¡": 98,
      "¢": 99,
      "£": 100,
      "¤": 101,
      "¥": 102,
      "¦": 103,
      "§": 104,
      "¨": 105,
      "©": 106,
      "ª": 107,
      "«": 108,
      "¬": 109,
      "®": 110,
      "¯": 111,
      "°": 112,
      "±": 113,
      "²": 114,
      "³": 115,
      "´": 116,
      "µ": 117,
      "¶": 118,
      "·": 119,
      "¸": 120,
      "¹": 121,
      "º": 122,
      "»": 123,
      "¼": 124,
      "½": 125,
      "¾": 126,
      "¿": 127,
      "À": 128,
      "Á": 129,
      "Â": 130,
      "Ã": 131,
      "Ä": 132,
      "Å": 133,
      "Æ": 134,
      "Ç": 135,
      "È": 136,
      "É": 137,
      "Ê": 138,
      "Ë": 139,
      "Ì": 140,
      "Í": 141,
      "Î": 142,
      "Ï": 143,
      "Ð": 144,
      "Ñ": 145,
      "Ò": 146,
      "Ó": 147,
      "Ô": 148,
      "Õ": 149,
      "Ö": 150,
      "×": 151,
      "Ø": 152,
      "Ù": 153,
      "Ú": 154,
      "Û": 155,
      "Ü": 156,
      "Ý": 157,
      "Þ": 158,
      "ß": 159,
      "à": 160,
      "á": 161,
      "â": 162,
      "ã": 163,
      "ä": 164,
      "å": 165,
      "æ": 166,
      "ç": 167,
      "è": 168,
      "é": 169,
      "ê": 170,
      "ë": 171,
      "ì": 172,
      "í": 173,
      "î": 174,
      "ï": 175,
      "ð": 176,
      "ñ": 177,
      "ò": 178,
      "ó": 179,
      "ô": 180,
      "õ": 181,
      "ö": 182,
      "÷": 183,
      "ø": 184,
      "ù": 185,
      "ú": 186,
      "û": 187,
      "ü": 188,
      "ý": 189,
      "þ": 190,
      "ÿ": 191,
      "Ā": 192,
      "ā": 193,
      "Ă": 194,
      "ă": 195,
      "Ą": 196,
      "ą": 197,
      "Ć": 198,
      "ć": 199,
      "Ĉ": 200,
      "ĉ": 201,
      "Ċ": 202,
      "ċ": 203,
      "Č": 204,
      "č": 205,
      "Ď": 206,
      "ď": 207,
      "Đ": 208,
      "đ": 209,
      "Ē": 210,
      "ē": 211,
      "Ĕ": 212,
      "ĕ": 213,
      "Ė": 214,
      "ė": 215,
      "Ę": 216,
      "ę": 217,
      "Ě": 218,
      "ě": 219,
      "Ĝ": 220,
      "ĝ": 221,
      "Ğ": 222,
      "ğ": 223,
      "Ġ": 224,
      "ġ": 225,
      "Ģ": 226,
      "ģ": 227,
      "Ĥ": 228,
      "ĥ": 229,
      "Ħ": 230,
      "ħ": 231,
      "Ĩ": 232,
      "ĩ": 233,
      "Ī": 234,
      "ī": 235,
      "Ĭ": 236,
      "ĭ": 237,
      "Į": 238,
      "į": 239,
      "İ": 240,
      "ı": 241,
      "Ĳ": 242,
      "ĳ": 243,
      "Ĵ": 244,
      "ĵ": 245,
      "Ķ": 246,
      "ķ": 247,
      "ĸ": 248,
      "Ĺ": 249,
      "ĺ": 250,
      "Ļ": 251,
      "ļ": 252,
      "Ľ": 253,
      "ľ": 254,
      "Ŀ": 255,
      "ŀ": 256,
      "Ł": 257,
      "ł": 258,
      "Ń": 259,
      "in": 260,
      "Ġa": 261,
      "Ġt": 262,
      "re": 263,
      "ti": 264,
      "on": 265,
      "he": 266,
      "en": 267,
      "Ġo": 268,
      "er": 269,
      "al": 270,
      "Ġs": 271,
      "Ġc": 272,
      "Ġp": 273,
      "es": 274,
      "is": 275,
      "Ġof": 276,
      "Ġan": 277,
      "Ġin": 278,
      "Ġthe": 279,
      "or": 280,
      "ed": 281,
      "Ġw": 282,
      "at": 283,
      "it": 284,
      "ati": 285,
      "Ġd": 286,
      "Ġm": 287,
      "ic": 288,
      "an": 289,
      "ro": 290,
      "Ġand": 291,
      "as": 292,
      "ar": 293,
      "ent": 294,
      "Ġf": 295,
      "Ġb": 296,
      "ing": 297,
      "ec": 298,
      "us": 299,
      "os": 300,
      "om": 301,
      "Ġre": 302,
      "ve": 303,
      "ul": 304,
      "Ġ(": 305,
      "Ġh": 306,
      "Ġto": 307,
      "ation": 308,
      "ac": 309,
      "le": 310,
      "ly": 311,
      "ur": 312,
      "Ġe": 313,
      "ith": 314,
      "et": 315,
      "tion": 316,
      "Ġn": 317,
      "Ġwith": 318,
      "lo": 319,
      "ho": 320,
      "Ġis": 321,
      "ter": 322,
      "id": 323,
      "un": 324,
      "ents": 325,
      "Ġg": 326,
      "Ġ1": 327,
      "ut": 328,
      "il": 329,
      "Ġst": 330,
      "Ġ2": 331,
      "ia": 332,
      "im": 333,
      "Ġl": 334,
      "ra": 335,
      "Ġth": 336,
      "Ġpati": 337,
      "The": 338,
      "ig": 339,
      "ts": 340,
      "ol": 341,
      "ce": 342,
      "Ġfor": 343,
      "Ġor": 344,
      "Ġpatients": 345,
      "ĠC": 346,
      "um": 347,
      "ver": 348,
      "ment": 349,
      "tic": 350,
      "ge": 351,
      "op": 352,
      "ud": 353,
      "ion": 354,
      "od": 355,
      "ate": 356,
      "ere": 357,
      "ical": 358,
      "ot": 359,
      "Ġbe": 360,
      "uc": 361,
      "Ġcon": 362,
      "Ġv": 363,
      "if": 364,
      "st": 365,
      "ity": 366,
      "ure": 367,
      "Ġwas": 368,
      "Ġpro": 369,
      "Ġr": 370,
      "el": 371,
      "ay": 372,
      "am": 373,
      "ir": 374,
      "Ġcom": 375,
      "Ġon": 376,
      "rom": 377,
      "Ġdis": 378,
      "Ġres": 379,
      "up": 380,
      "reat": 381,
      "ĠA": 382,
      "Ġat": 383,
      "Ġare": 384,
      "em": 385,
      "th": 386,
      "Ġpre": 387,
      "Ġhe": 388,
      "ss": 389,
      "ĠH": 390,
      "ĠT": 391,
      "tive": 392,
      "ĠP": 393,
      "Ġch": 394,
      "fec": 395,
      "ĠS": 396,
      "Ġ3": 397,
      "ess": 398,
      "ĠM": 399,
      "cl": 400,
      "ri": 401,
      "Ġac": 402,
      "oc": 403,
      ").": 404,
      "qu": 405,
      "yp": 406,
      "Ġha": 407,
      "ated": 408,
      "ary": 409,
      "ep": 410,
      "Ġwere": 411,
      "ine": 412,
      "Ġex": 413,
      "ase": 414,
      "ĠI": 415,
      "ĠD": 416,
      "Ġus": 417,
      "der": 418,
      "Ġtreat": 419,
      "Ġby": 420,
      "Ġ20": 421,
      "her": 422,
      "ab": 423,
      "Ġ-": 424,
      "gn": 425,
      "ted": 426,
      "ital": 427,
      "Ġstud": 428,
      "Ġcan": 429,
      "Ġca": 430,
      "pl": 431,
      "ant": 432,
      "Ġal": 433,
      "ain": 434,
      "ore": 435,
      "osp": 436,
      "di": 437,
      "est": 438,
      "ear": 439,
      "ren": 440,
      "hy": 441,
      "ds": 442,
      "Ġas": 443,
      "ug": 444,
      "act": 445,
      "Ġ4": 446,
      "Ġfrom": 447,
      "ost": 448,
      "age": 449,
      "mon": 450,
      "pec": 451,
      "Ġ5": 452,
      "osis": 453,
      "ults": 454,
      "Ġsy": 455,
      "igh": 456,
      "Ġ0": 457,
      "Ġ/": 458,
      "low": 459,
      "),": 460,
      "Ġim": 461,
      "ospital": 462,
      "Ġle": 463,
      "tr": 464,
      "Ġde": 465,
      "se": 466,
      "ial": 467,
      "Ġper": 468,
      "mp": 469,
      "Ġthat": 470,
      "ations": 471,
      "tom": 472,
      "Ġ6": 473,
      "val": 474,
      "ous": 475,
      "iti": 476,
      "ub": 477,
      "Ġsho": 478,
      "ular": 479,
      "ĠR": 480,
      "ors": 481,
      "Ġsur": 482,
      "Ġstudy": 483,
      "Ġaf": 484,
      "Ġtreatment": 485,
      "rap": 486,
      "oun": 487,
      "ens": 488,
      "log": 489,
      "Ġmay": 490,
      "Ġab": 491,
      "Ġne": 492,
      "Ġun": 493,
      "ign": 494,
      "ĠB": 495,
      "Ġad": 496,
      "ases": 497,
      "Ġcl": 498,
      "Ġgro": 499,
      "iz": 500,
      "Ġdia": 501,
      "ally": 502,
      "ow": 503,
      "ĠN": 504,
      "Ġse": 505,
      "orm": 506,
      "ist": 507,
      "ad": 508,
      "etho": 509,
      "ast": 510,
      "ĠE": 511,
      "usion": 512,
      "ild": 513,
      "ĠThe": 514,
      "duc": 515,
      "ran": 516,
      "ome": 517,
      "ven": 518,
      "end": 519,
      "cre": 520,
      "ell": 521,
      "00": 522,
      "Ġy": 523,
      "jec": 524,
      "ag": 525,
      "ies": 526,
      "Ġdise": 527,
      "Ġgroup": 528,
      "Ġhave": 529,
      "Ġk": 530,
      "ort": 531,
      "Ġnot": 532,
      "ip": 533,
      "ue": 534,
      "Ġef": 535,
      "Ġcaus": 536,
      "ĠV": 537,
      "Ġ7": 538,
      "ap": 539,
      "ch": 540,
      "Ġafter": 541,
      "ific": 542,
      "ger": 543,
      "inical": 544,
      "ys": 545,
      "one": 546,
      "ative": 547,
      "ose": 548,
      "Ġ9": 549,
      "Ġ8": 550,
      "ĠL": 551,
      "Ġcont": 552,
      "Ġcomp": 553,
      "cer": 554,
      "ne": 555,
      "ence": 556,
      "clud": 557,
      "ib": 558,
      "ory": 559,
      "Ġrec": 560,
      "ult": 561,
      "Ġhyp": 562,
      "%,": 563,
      "Ġhospital": 564,
      "fic": 565,
      "Ġwh": 566,
      "ress": 567,
      "cy": 568,
      "Â±": 569,
      "Ġrate": 570,
      "mptom": 571,
      "per": 572,
      "In": 573,
      "Ġdisease": 574,
      "clusion": 575,
      "Res": 576,
      "ther": 577,
      "out": 578,
      "art": 579,
      "Ġint": 580,
      "ildren": 581,
      "uld": 582,
      "inal": 583,
      "Ġinfec": 584,
      "Ġinf": 585,
      "ĠG": 586,
      "ie": 587,
      "olog": 588,
      "Ġap": 589,
      "og": 590,
      "ill": 591,
      "Ġeffec": 592,
      "Ġinclud": 593,
      "Ġyear": 594,
      "Ġanti": 595,
      "acter": 596,
      "Ġblo": 597,
      "ased": 598,
      "Ġcases": 599,
      "Ġbet": 600,
      "we": 601,
      "gnosis": 602,
      "ves": 603,
      "ĠF": 604,
      "Ġwe": 605,
      "Ġthan": 606,
      "Ġsc": 607,
      "pro": 608,
      "ong": 609,
      "Ġmon": 610,
      "our": 611,
      "eg": 612,
      "Ġrel": 613,
      "ance": 614,
      "Ġcar": 615,
      "Ġcor": 616,
      "ight": 617,
      "red": 618,
      "Ġar": 619,
      "Ġsign": 620,
      "Ġass": 621,
      "ĠO": 622,
      "isk": 623,
      "enti": 624,
      "ich": 625,
      "Ġtim": 626,
      "Con": 627,
      "valu": 628,
      "vel": 629,
      "Ġfact": 630,
      "Ġman": 631,
      "gery": 632,
      "able": 633,
      "iver": 634,
      "tions": 635,
      "%.": 636,
      "ers": 637,
      "Ġmed": 638,
      "ak": 639,
      "ive": 640,
      "Ġme": 641,
      "hen": 642,
      "Ġincre": 643,
      "ĠÂ±": 644,
      "Ġacc": 645,
      "ros": 646,
      "all": 647,
      "Ġ201": 648,
      "tional": 649,
      "Ġclinical": 650,
      "ric": 651,
      "ute": 652,
      "Ġshould": 653,
      "and": 654,
      "Ġinter": 655,
      "Ġchildren": 656,
      "mptoms": 657,
      "Ġresults": 658,
      "ide": 659,
      "Ġpl": 660,
      "ass": 661,
      "Ġcommon": 662,
      "ron": 663,
      "Ġhad": 664,
      "Ġblood": 665,
      "cc": 666,
      "Ġlevel": 667,
      "rug": 668,
      "Ġsurgery": 669,
      "Ġhigh": 670,
      "Ġrisk": 671,
      "Ġgen": 672,
      "Conclusion": 673,
      "Ġage": 674,
      "Ġ10": 675,
      "ĠIn": 676,
      "Ġday": 677,
      "iet": 678,
      "te": 679,
      "Ġdif": 680,
      "Ġyears": 681,
      "rans": 682,
      "Ġlow": 683,
      "dic": 684,
      "erm": 685,
      "Ġwhich": 686,
      "Ġmost": 687,
      "Ġpar": 688,
      "ater": 689,
      "Results": 690,
      "Ġmetho": 691,
      "ey": 692,
      "Ġsp": 693,
      "ween": 694,
      "plic": 695,
      "Ġhas": 696,
      "Ġdet": 697,
      "Ġbut": 698,
      "tis": 699,
      "unc": 700,
      "cop": 701,
      "order": 702,
      "20": 703,
      "ures": 704,
      "Ġwho": 705,
      "Ġbetween": 706,
      "ll": 707,
      "tics": 708,
      "Ġob": 709,
      "fere": 710,
      "%)": 711,
      "Ġfactors": 712,
      "Ġpos": 713,
      "Ġcancer": 714,
      "ĠU": 715,
      "Ġfe": 716,
      "Key": 717,
      "Ġit": 718,
      "ied": 719,
      "nd": 720,
      "Ġout": 721,
      "oid": 722,
      "alth": 723,
      "Ġocc": 724,
      "Ġother": 725,
      "rapy": 726,
      "Ġsome": 727,
      "mun": 728,
      "ding": 729,
      "Ġdrug": 730,
      "itis": 731,
      "ĠHospital": 732,
      "Ġmore": 733,
      "Ġtyp": 734,
      "tal": 735,
      "gen": 736,
      "Ġmonth": 737,
      "ality": 738,
      "tim": 739,
      "Ġpatient": 740,
      "Ġpr": 741,
      "ail": 742,
      "atic": 743,
      "amin": 744,
      "feren": 745,
      "ple": 746,
      "Ġser": 747,
      "ood": 748,
      "Ġused": 749,
      "ang": 750,
      "Ġtrans": 751,
      "Ġevalu": 752,
      "rop": 753,
      "esc": 754,
      "Ġra": 755,
      "so": 756,
      "pective": 757,
      "Ġdisorder": 758,
      "Ġtime": 759,
      "ten": 760,
      "ugh": 761,
      "use": 762,
      "ral": 763,
      "%),": 764,
      "Ġdur": 765,
      "ting": 766,
      "Ġqu": 767,
      "Ġpo": 768,
      "Ġthis": 769,
      "Ġcell": 770,
      "Ġsuc": 771,
      "atory": 772,
      "Ġhyper": 773,
      "ale": 774,
      "Ġco": 775,
      "ually": 776,
      "bjec": 777,
      "Ġsignific": 778,
      "Ġfol": 779,
      "nal": 780,
      "Ġsub": 781,
      "Ġhem": 782,
      "Ġhig": 783,
      "ved": 784,
      "ormal": 785,
      "Ġalso": 786,
      "oma": 787,
      "Ġpres": 788,
      "Ġsymptoms": 789,
      "Ġpain": 790,
      "ack": 791,
      "Ġno": 792,
      "rain": 793,
      "Ġunder": 794,
      "Ġcons": 795,
      "ien": 796,
      "ach": 797,
      "Ġsignificant": 798,
      "ech": 799,
      "Ġinfection": 800,
      "ire": 801,
      "ords": 802,
      "iew": 803,
      "Ġover": 804,
      "ĠTh": 805,
      "Ġen": 806,
      "aracter": 807,
      "Ġresp": 808,
      "'s": 809,
      "Ġhealth": 810,
      "vere": 811,
      "Objec": 812,
      "hem": 813,
      "Ġshow": 814,
      "Ġtum": 815,
      "ber": 816,
      "Ġdec": 817,
      "Ġ<": 818,
      "af": 819,
      "Ġfl": 820,
      "cess": 821,
      "vi": 822,
      "ating": 823,
      "Ġfollow": 824,
      "Ġmin": 825,
      "ology": 826,
      "cent": 827,
      "Ġspec": 828,
      "Ġmonths": 829,
      "port": 830,
      "cin": 831,
      "Ġcause": 832,
      "Ġdep": 833,
      "lop": 834,
      "ving": 835,
      "iss": 836,
      "Ġoccur": 837,
      "ound": 838,
      "Ġtest": 839,
      "%).": 840,
      "Ġag": 841,
      "de": 842,
      "Ġcomplic": 843,
      "oci": 844,
      "omen": 845,
      "ruc": 846,
      "Ġcol": 847,
      "Ġval": 848,
      "ause": 849,
      "ndrom": 850,
      "Ġuse": 851,
      "Ġdifferen": 852,
      "Ġusing": 853,
      "Ġend": 854,
      "escri": 855,
      "por": 856,
      "ĠJ": 857,
      "io": 858,
      "Keyw": 859,
      "Ġlo": 860,
      "Ġcharacter": 861,
      "now": 862,
      "Ġsevere": 863,
      "gnos": 864,
      "Ġsup": 865,
      "tiv": 866,
      "Ġacute": 867,
      "ld": 868,
      "ĠW": 869,
      "ke": 870,
      "fore": 871,
      "ronic": 872,
      "Ġmet": 873,
      "Ġneed": 874,
      "ace": 875,
      "form": 876,
      "rol": 877,
      "ates": 878,
      "Ġ12": 879,
      "Ġtr": 880,
      "Ġall": 881,
      "are": 882,
      "ect": 883,
      "Ġdiagnosis": 884,
      "Ġarter": 885,
      "ograp": 886,
      "eop": 887,
      "Ġreg": 888,
      "Ġduring": 889,
      "kin": 890,
      "itive": 891,
      "Ġbec": 892,
      "Ġsyndrom": 893,
      "cular": 894,
      "ces": 895,
      "ities": 896,
      "vention": 897,
      "ium": 898,
      "ced": 899,
      "ft": 900,
      "velop": 901,
      "ever": 902,
      "oper": 903,
      "Ġro": 904,
      "Ġnon": 905,
      "Ġbeen": 906,
      "ual": 907,
      "ĠCh": 908,
      "Ġwhen": 909,
      "ized": 910,
      "atients": 911,
      "Keywords": 912,
      "Ġpost": 913,
      "Ġabout": 914,
      "ism": 915,
      "inh": 916,
      "Ġcare": 917,
      "Ġanal": 918,
      "bin": 919,
      "Ġdo": 920,
      "Ġel": 921,
      "Ġif": 922,
      "unction": 923,
      "ility": 924,
      "Ġantib": 925,
      "Ġprov": 926,
      "und": 927,
      "hes": 928,
      "mo": 929,
      "emia": 930,
      "Ġ202": 931,
      "Ġusually": 932,
      "stem": 933,
      "hol": 934,
      "Ġhigher": 935,
      "Ġins": 936,
      "Metho": 937,
      "Ġwomen": 938,
      "Ġtherapy": 939,
      "Ġdevelop": 940,
      "tens": 941,
      "ile": 942,
      "Ġmethod": 943,
      "ung": 944,
      "oth": 945,
      "Ġsyndrome": 946,
      "ph": 947,
      "ck": 948,
      "ness": 949,
      "ĠTo": 950,
      "nam": 951,
      "very": 952,
      "Ġthere": 953,
      "Ġ=": 954,
      "ions": 955,
      "There": 956,
      "ardi": 957,
      "tomy": 958,
      "ard": 959,
      "Ġcharacteris": 960,
      "Ġtreated": 961,
      "ross": 962,
      "Ġwor": 963,
      "copic": 964,
      "sy": 965,
      "reatment": 966,
      "ian": 967,
      "Ġdescri": 968,
      "Th": 969,
      "vas": 970,
      "Ġsec": 971,
      "ai": 972,
      "Ġmal": 973,
      "Ġup": 974,
      "Ġchronic": 975,
      "ite": 976,
      "ath": 977,
      "Ġsuch": 978,
      "Ġmean": 979,
      "Ġinclude": 980,
      "hys": 981,
      "05": 982,
      "ĠViet": 983,
      "verage": 984,
      "mong": 985,
      "Ġone": 986,
      "Ġdays": 987,
      "ression": 988,
      "Ġj": 989,
      "Ġassoci": 990,
      "ax": 991,
      "eople": 992,
      "ior": 993,
      "ree": 994,
      "int": 995,
      "Ġop": 996,
      "Ġdiab": 997,
      "owever": 998,
      "operative": 999,
      "ek": 1000,
      "ct": 1001,
      "Ġknow": 1002,
      "Ġimpro": 1003,
      "jur": 1004,
      "Ġgra": 1005,
      "Ġrequ": 1006,
      "ond": 1007,
      "ni": 1008,
      "Ġdiagnos": 1009,
      "Ġoften": 1010,
      "ful": 1011,
      "gical": 1012,
      "Ġes": 1013,
      "Ġresult": 1014,
      "view": 1015,
      "Ġsystem": 1016,
      "com": 1017,
      "Ġâ": 1018,
      "Ġcardi": 1019,
      "arly": 1020,
      "eral": 1021,
      "Ġul": 1022,
      "irst": 1023,
      "ĠRe": 1024,
      "Ġgl": 1025,
      "Ġfail": 1026,
      "Ġmod": 1027,
      "Ġincreased": 1028,
      "atis": 1029,
      "Ġmg": 1030,
      "ĠK": 1031,
      "urren": 1032,
      "ivers": 1033,
      "Ġ15": 1034,
      "ography": 1035,
      "uid": 1036,
      "Ġdecre": 1037,
      "Ġcorre": 1038,
      "Ġdue": 1039,
      "ysis": 1040,
      "ody": 1041,
      "tain": 1042,
      "led": 1043,
      "Ġcomplications": 1044,
      "Ġhour": 1045,
      "ening": 1046,
      "Ġles": 1047,
      "etes": 1048,
      "Ġtw": 1049,
      "Ġcharacteristics": 1050,
      "Ġpul": 1051,
      "Ġapp": 1052,
      "Ġinjur": 1053,
      "earch": 1054,
      "Ġdrugs": 1055,
      "ulation": 1056,
      "Ġmus": 1057,
      "Ġpeople": 1058,
      "ection": 1059,
      "Ġhel": 1060,
      "Ġlevels": 1061,
      "round": 1062,
      "ane": 1063,
      "ational": 1064,
      "oph": 1065,
      "Ġdeterm": 1066,
      "Ġur": 1067,
      "Ġfirst": 1068,
      "Ġassess": 1069,
      "ants": 1070,
      "erv": 1071,
      "Ġbefore": 1072,
      "Ġmm": 1073,
      "ization": 1074,
      "pos": 1075,
      "utri": 1076,
      "Ġso": 1077,
      "Ġhist": 1078,
      "Ġdisorders": 1079,
      "Ġcontrol": 1080,
      "Ġsh": 1081,
      "Ġindic": 1082,
      "Ġaccoun": 1083,
      "ry": 1084,
      "hest": 1085,
      "Ġnec": 1086,
      "Ġtech": 1087,
      "Ġph": 1088,
      "Ġweek": 1089,
      "struc": 1090,
      "Ġfem": 1091,
      "Ġtheir": 1092,
      "eding": 1093,
      "lation": 1094,
      "Ġrelated": 1095,
      "monary": 1096,
      "Ġsam": 1097,
      "Ġmain": 1098,
      "tives": 1099,
      "ĠMed": 1100,
      "Ġhep": 1101,
      "Ġid": 1102,
      "atho": 1103,
      "Ġ30": 1104,
      "tud": 1105,
      "ma": 1106,
      "Ġamong": 1107,
      "Ġpregn": 1108,
      "Ġtype": 1109,
      "Ġhelp": 1110,
      "pectively": 1111,
      "Ġpress": 1112,
      "trac": 1113,
      "Ġep": 1114,
      "Ġfailure": 1115,
      "ficien": 1116,
      "Ġlower": 1117,
      "Ġbecause": 1118,
      "Ġaverage": 1119,
      "Ġactiv": 1120,
      "ges": 1121,
      "Ġpresent": 1122,
      "Ġly": 1123,
      "Ġheart": 1124,
      "ob": 1125,
      "tric": 1126,
      "Ġ>": 1127,
      "ĠUn": 1128,
      "ledge": 1129,
      "Ġincluding": 1130,
      "ons": 1131,
      "Ġexamin": 1132,
      "Ġmedical": 1133,
      "ise": 1134,
      "ox": 1135,
      "Ġmeas": 1136,
      "Ġ11": 1137,
      "ice": 1138,
      "Ġtra": 1139,
      "Ġsaf": 1140,
      "Ġcross": 1141,
      "Ġdys": 1142,
      "iod": 1143,
      "Ġthese": 1144,
      "cep": 1145,
      "Ġinc": 1146,
      "ments": 1147,
      "ĠVietnam": 1148,
      "Ġonly": 1149,
      "Ġcauses": 1150,
      "artment": 1151,
      "Ġmy": 1152,
      "dom": 1153,
      "acy": 1154,
      "Ġ200": 1155,
      "Ġreduc": 1156,
      "Ġnormal": 1157,
      "oss": 1158,
      "Ġpressure": 1159,
      "ically": 1160,
      "res": 1161,
      "Ġassociated": 1162,
      "201": 1163,
      "asis": 1164,
      "Ġeffective": 1165,
      "iversity": 1166,
      "ms": 1167,
      "lam": 1168,
      "Ġimmun": 1169,
      "Ġpartic": 1170,
      "roid": 1171,
      "enter": 1172,
      "Ġevaluate": 1173,
      "Ġaffec": 1174,
      "Ġcy": 1175,
      "Ġhours": 1176,
      "vid": 1177,
      "Ġdiabetes": 1178,
      "neum": 1179,
      "Ġscore": 1180,
      "Ġlymp": 1181,
      "sec": 1182,
      "Ġrespectively": 1183,
      "ficiency": 1184,
      "iagnosis": 1185,
      "Ġtwo": 1186,
      "ble": 1187,
      "Ġold": 1188,
      "Ġskin": 1189,
      "Ġvar": 1190,
      "med": 1191,
      "valence": 1192,
      "Ġcase": 1193,
      "ulti": 1194,
      "atus": 1195,
      "niqu": 1196,
      "Ġeffects": 1197,
      "ible": 1198,
      "vent": 1199,
      "Ġsurgical": 1200,
      "etic": 1201,
      "Ġli": 1202,
      "ared": 1203,
      "omy": 1204,
      "vol": 1205,
      "Ġam": 1206,
      "Ġtumor": 1207,
      "Methods": 1208,
      "Ġloc": 1209,
      "Ġwithout": 1210,
      "Ġret": 1211,
      "Ġsens": 1212,
      "centr": 1213,
      "Ġcomple": 1214,
      "ortality": 1215,
      "king": 1216,
      "ackg": 1217,
      "tension": 1218,
      "ectomy": 1219,
      "Ġprac": 1220,
      "ural": 1221,
      "Ġcombin": 1222,
      "yl": 1223,
      "ize": 1224,
      "Ġ100": 1225,
      "Ġfin": 1226,
      "Ġidenti": 1227,
      "Ġgood": 1228,
      "Ġnum": 1229,
      "Ġâī": 1230,
      "However": 1231,
      "rit": 1232,
      "mer": 1233,
      "aneous": 1234,
      "ont": 1235,
      "Ġtechniqu": 1236,
      "This": 1237,
      "fer": 1238,
      "Ġmethods": 1239,
      "ered": 1240,
      "Ġtes": 1241,
      "Ġappro": 1242,
      "Ġearly": 1243,
      "gan": 1244,
      "Ġantibio": 1245,
      "Ġconcentr": 1246,
      "Ġprim": 1247,
      "Ġthey": 1248,
      "ackground": 1249,
      "sectional": 1250,
      "ints": 1251,
      "Ġoper": 1252,
      "Ġfr": 1253,
      "ĠAn": 1254,
      "Patients": 1255,
      "eph": 1256,
      "arge": 1257,
      "..": 1258,
      "urrent": 1259,
      "Ġrenal": 1260,
      "alc": 1261,
      "ected": 1262,
      "Ġserum": 1263,
      "Ġknowledge": 1264,
      "Ġbi": 1265,
      "Ġgroups": 1266,
      "mia": 1267,
      "Objective": 1268,
      "Ġinto": 1269,
      "Ġ24": 1270,
      "aging": 1271,
      "Ġlif": 1272,
      "Ġliver": 1273,
      "Ġ50": 1274,
      "athy": 1275,
      "Ġsim": 1276,
      "19": 1277,
      "ious": 1278,
      "Ġmortality": 1279,
      "iratory": 1280,
      "Ġmany": 1281,
      "arm": 1282,
      "Ġfunction": 1283,
      "ĠII": 1284,
      "ture": 1285,
      "Ġprog": 1286,
      "Ġperform": 1287,
      "Background": 1288,
      "atient": 1289,
      "Ġartery": 1290,
      "terior": 1291,
      "Ġpneum": 1292,
      "Ġ14": 1293,
      "atitis": 1294,
      "Objectives": 1295,
      "ef": 1296,
      "Ġlesions": 1297,
      "ancy": 1298,
      "requ": 1299,
      "Ġless": 1300,
      "tras": 1301,
      "Ġdone": 1302,
      "Ġconduc": 1303,
      "Ġradi": 1304,
      "%;": 1305,
      "Ġstatus": 1306,
      "Ġ18": 1307,
      "Ġcoun": 1308,
      "Ġshowed": 1309,
      "Ġproduc": 1310,
      "Ġdiseases": 1311,
      "uro": 1312,
      "Ġpositive": 1313,
      "Ġpulmonary": 1314,
      "ĠCT": 1315,
      "Ġav": 1316,
      "orr": 1317,
      "Ġsep": 1318,
      "Ġma": 1319,
      "Ġinvol": 1320,
      "ĠRes": 1321,
      "Ġphys": 1322,
      "Ġ13": 1323,
      "Ġproced": 1324,
      "Ġspecific": 1325,
      "erc": 1326,
      "Ġdi": 1327,
      "Ġed": 1328,
      "Ġthose": 1329,
      "be": 1330,
      "ID": 1331,
      "Ġthro": 1332,
      "Ġmedic": 1333,
      "Ġcells": 1334,
      "ake": 1335,
      "Ġsm": 1336,
      "Ġgi": 1337,
      "Ġwell": 1338,
      "vis": 1339,
      "olic": 1340,
      "Ġmar": 1341,
      "Ġloss": 1342,
      "idne": 1343,
      "Ġprevalence": 1344,
      "normal": 1345,
      "hed": 1346,
      "ition": 1347,
      "Ġsus": 1348,
      "vir": 1349,
      "ange": 1350,
      "Ġidentif": 1351,
      "Ġsug": 1352,
      "10": 1353,
      "If": 1354,
      "ince": 1355,
      "RI": 1356,
      "vascular": 1357,
      "jects": 1358,
      "ily": 1359,
      "Ġintervention": 1360,
      "Ġperiod": 1361,
      "Ġ60": 1362,
      "Ġbacter": 1363,
      "entral": 1364,
      "Ġboth": 1365,
      "Ġweeks": 1366,
      "Ġtotal": 1367,
      "ording": 1368,
      "tig": 1369,
      "ĠUniversity": 1370,
      "fusion": 1371,
      "Ġ25": 1372,
      "ins": 1373,
      "action": 1374,
      "ptive": 1375,
      "Ġtiss": 1376,
      "ĠPh": 1377,
      "til": 1378,
      "Ġfood": 1379,
      "Ġnumber": 1380,
      "other": 1381,
      "Ġdist": 1382,
      "lamm": 1383,
      "uf": 1384,
      "Ġinjury": 1385,
      "ages": 1386,
      "Ġresist": 1387,
      "apa": 1388,
      "Ġimp": 1389,
      "rib": 1390,
      "Ġdel": 1391,
      "Ġquality": 1392,
      "ove": 1393,
      "Ġrequire": 1394,
      "Ġlung": 1395,
      "linical": 1396,
      "othe": 1397,
      "Ġtub": 1398,
      "ially": 1399,
      "Ġtumors": 1400,
      "Ġbased": 1401,
      "Ġadm": 1402,
      "Ġdose": 1403,
      "times": 1404,
      "onia": 1405,
      "erg": 1406,
      "Ġlim": 1407,
      "ocy": 1408,
      "Ġvir": 1409,
      "Ġcaused": 1410,
      "Ġred": 1411,
      "Ġbre": 1412,
      "Ġhypertension": 1413,
      "Ġexamination": 1414,
      "Ġresearch": 1415,
      "sis": 1416,
      "vity": 1417,
      "Ġble": 1418,
      "roscopic": 1419,
      "Ġlife": 1420,
      "Ġclass": 1421,
      "Ġext": 1422,
      "ex": 1423,
      "Ġ16": 1424,
      "Ġmulti": 1425,
      "Ġinh": 1426,
      "its": 1427,
      "ution": 1428,
      "Ġsel": 1429,
      "Ġ19": 1430,
      "Ġinfections": 1431,
      "Ġvalue": 1432,
      "urs": 1433,
      "Ġintra": 1434,
      "Ġmic": 1435,
      "rial": 1436,
      "les": 1437,
      "Ġtimes": 1438,
      "of": 1439,
      "omm": 1440,
      "omp": 1441,
      "cle": 1442,
      "Ġben": 1443,
      "ymptoms": 1444,
      "Ġlong": 1445,
      "Ġsever": 1446,
      "Ġlymph": 1447,
      "ick": 1448,
      "dominal": 1449,
      "tern": 1450,
      "air": 1451,
      "Ġkidne": 1452,
      "tho": 1453,
      "Ġ[": 1454,
      "ental": 1455,
      "cho": 1456,
      "Ġdiagnosed": 1457,
      "ified": 1458,
      "agement": 1459,
      "CT": 1460,
      "Ġabs": 1461,
      "Ġincrease": 1462,
      "Ġimprove": 1463,
      "Ġform": 1464,
      "Ġ40": 1465,
      "Ġaut": 1466,
      "cinoma": 1467,
      "Ġprimary": 1468,
      "Ġvis": 1469,
      "Ġabnormal": 1470,
      "Ġweight": 1471,
      "Ġconsid": 1472,
      "tice": 1473,
      "Ġnod": 1474,
      "Ġbone": 1475,
      "Conclusions": 1476,
      "Ġâī¥": 1477,
      "Ġconducted": 1478,
      "las": 1479,
      "hip": 1480,
      "Ġvac": 1481,
      "vers": 1482,
      "ning": 1483,
      "Ġcommun": 1484,
      "Ġfrequ": 1485,
      "Ġcompared": 1486,
      "ram": 1487,
      "Ġir": 1488,
      "Ġultras": 1489,
      "Ġhy": 1490,
      "ĠCO": 1491,
      "romb": 1492,
      "Ġrespiratory": 1493,
      "Ġpoly": 1494,
      "ish": 1495,
      "Ġleft": 1496,
      "Ġcondi": 1497,
      "ritis": 1498,
      "uce": 1499,
      "Ġfib": 1500,
      "Treatment": 1501,
      "ata": 1502,
      "utes": 1503,
      "Ġpers": 1504,
      "way": 1505,
      "pecially": 1506,
      "Ġkg": 1507,
      "Ġwork": 1508,
      "Ġpredic": 1509,
      "ature": 1510,
      "Ġchang": 1511,
      "co": 1512,
      "Ġfound": 1513,
      "Ġnew": 1514,
      "Ġimport": 1515,
      "copy": 1516,
      "Ġfinding": 1517,
      "onse": 1518,
      "lu": 1519,
      "iat": 1520,
      "ĠIV": 1521,
      "Ġvery": 1522,
      "erve": 1523,
      "Ġstage": 1524,
      "Ġbleeding": 1525,
      "aterial": 1526,
      "Ġacid": 1527,
      "Ġrep": 1528,
      "IV": 1529,
      "jor": 1530,
      "ateral": 1531,
      "Ġsignificantly": 1532,
      "Ġ2022": 1533,
      "Ġstudies": 1534,
      "Ġsmall": 1535,
      "Ġhistory": 1536,
      "Ġsol": 1537,
      "Ġtesting": 1538,
      "Ġdetermine": 1539,
      "Ġstatis": 1540,
      "atal": 1541,
      "Ġbody": 1542,
      "Ġorgan": 1543,
      "Ġfollowing": 1544,
      "eng": 1545,
      "vic": 1546,
      "Ġmeasure": 1547,
      "ired": 1548,
      "atures": 1549,
      "Ġeffect": 1550,
      "plant": 1551,
      "oster": 1552,
      "Ġtests": 1553,
      "ricular": 1554,
      "ited": 1555,
      "ularly": 1556,
      "Ġthrough": 1557,
      "Ġcir": 1558,
      "abor": 1559,
      "Ġmale": 1560,
      "Ġright": 1561,
      "Ġgeneral": 1562,
      "ĠSt": 1563,
      "Ġfemale": 1564,
      "12": 1565,
      "tein": 1566,
      "Ġmen": 1567,
      "ommend": 1568,
      "Ġdescriptive": 1569,
      "Ġchem": 1570,
      "Ġang": 1571,
      "ord": 1572,
      "athe": 1573,
      "Ġcalc": 1574,
      "Ġstudents": 1575,
      "ues": 1576,
      "struction": 1577,
      "Ġbl": 1578,
      "It": 1579,
      "utrition": 1580,
      "Ġtechnique": 1581,
      "otherapy": 1582,
      "Ġfluid": 1583,
      "Sub": 1584,
      "atio": 1585,
      "Ġconcentration": 1586,
      "lev": 1587,
      "tical": 1588,
      "estinal": 1589,
      "aren": 1590,
      "Ġresponse": 1591,
      "Ġany": 1592,
      "Ġgast": 1593,
      "Ġoral": 1594,
      "viewed": 1595,
      "Ġkidney": 1596,
      "Ġimportant": 1597,
      "Ġvas": 1598,
      "Ġvol": 1599,
      "Ġmanagement": 1600,
      "Ġiniti": 1601,
      "ability": 1602,
      "arc": 1603,
      "Ġrare": 1604,
      "onary": 1605,
      "inary": 1606,
      "Ġmut": 1607,
      "Ġfract": 1608,
      "Ġpregnancy": 1609,
      "Ġvent": 1610,
      "Ġconf": 1611,
      "yroid": 1612,
      "Ġcoll": 1613,
      "Ġsecond": 1614,
      "ationship": 1615,
      "Ġdeath": 1616,
      "01": 1617,
      "Ġaccounted": 1618,
      "Ġpneumonia": 1619,
      "verse": 1620,
      "term": 1621,
      "Ġwhe": 1622,
      "tit": 1623,
      "Ġtissue": 1624,
      "Ġey": 1625,
      "Ġfeatures": 1626,
      "ix": 1627,
      "atholog": 1628,
      "Ġpercent": 1629,
      "vestig": 1630,
      "NA": 1631,
      "Ġpropor": 1632,
      "Ġmajor": 1633,
      "Ġbreast": 1634,
      "Ġespecially": 1635,
      "ently": 1636,
      "gative": 1637,
      "Ġsigns": 1638,
      "Ġposs": 1639,
      "ust": 1640,
      "Ġperformed": 1641,
      "ng": 1642,
      "Ġmuc": 1643,
      "Ġlapa": 1644,
      "Ġrem": 1645,
      "dex": 1646,
      "Ġhead": 1647,
      "Ġer": 1648,
      "Ġthromb": 1649,
      "ĠDep": 1650,
      "Ġgiven": 1651,
      "iv": 1652,
      "ĠHo": 1653,
      "Ġprovince": 1654,
      "Ġanest": 1655,
      "emb": 1656,
      "Ġpractice": 1657,
      "ulin": 1658,
      "Ġ95": 1659,
      "ĠMD": 1660,
      "iatric": 1661,
      "Ġcm": 1662,
      "Ġinhib": 1663,
      "Ġaccording": 1664,
      "tically": 1665,
      "Ġratio": 1666,
      "itor": 1667,
      "Ġfever": 1668,
      "itivity": 1669,
      "utaneous": 1670,
      "ption": 1671,
      "Ġdecreased": 1672,
      "Ġwithin": 1673,
      "Ġ17": 1674,
      "Ġminutes": 1675,
      "Ġexper": 1676,
      "Ġol": 1677,
      "pected": 1678,
      "ification": 1679,
      "Ġpot": 1680,
      "oscopic": 1681,
      "Ġits": 1682,
      "Ġrecommend": 1683,
      "Ġ2021": 1684,
      "erate": 1685,
      "Ġchol": 1686,
      "itation": 1687,
      "roke": 1688,
      "itu": 1689,
      "Ġabdominal": 1690,
      "iate": 1691,
      "Ġcardiac": 1692,
      "row": 1693,
      "cept": 1694,
      "az": 1695,
      "An": 1696,
      "orrh": 1697,
      "oints": 1698,
      "ines": 1699,
      "Ġdifference": 1700,
      "To": 1701,
      "Ġdire": 1702,
      "ential": 1703,
      "Ġanalysis": 1704,
      "ache": 1705,
      "Ġpostoperative": 1706,
      "Ġtraum": 1707,
      "Ġexp": 1708,
      "Ġsuccess": 1709,
      "Ġstand": 1710,
      "ans": 1711,
      "ological": 1712,
      "Ġcoronary": 1713,
      "Ġactivity": 1714,
      "ereb": 1715,
      "Ġsurvi": 1716,
      "Ġoccurs": 1717,
      "Ġcity": 1718,
      "Ġfindings": 1719,
      "Ġmanif": 1720,
      "rec": 1721,
      "Ġprocedure": 1722,
      "Ġure": 1723,
      "itary": 1724,
      "asing": 1725,
      "riter": 1726,
      "For": 1727,
      "arg": 1728,
      "Ġprevent": 1729,
      "ĠPatient": 1730,
      "ole": 1731,
      "Ġve": 1732,
      "Ġrelationship": 1733,
      "Ġdifferent": 1734,
      "ission": 1735,
      "ĠTreatment": 1736,
      "ety": 1737,
      "to": 1738,
      "veness": 1739,
      "fter": 1740,
      "ient": 1741,
      "ocardi": 1742,
      "Ġaim": 1743,
      "Ġfam": 1744,
      "tudy": 1745,
      "SA": 1746,
      ");": 1747,
      "Ġpan": 1748,
      "Ġremo": 1749,
      "ilar": 1750,
      "Ġsize": 1751,
      "av": 1752,
      "essary": 1753,
      "Ġproportion": 1754,
      "ym": 1755,
      "Ġresistance": 1756,
      "ĠThis": 1757,
      "vised": 1758,
      "Ġinflamm": 1759,
      "Ġchanges": 1760,
      "Ġnerve": 1761,
      "Ġcle": 1762,
      "Ch": 1763,
      "Ġdes": 1764,
      "Diagnosis": 1765,
      "arr": 1766,
      "Ġsti": 1767,
      "Ġmor": 1768,
      "Ġtox": 1769,
      "Ġcarcinoma": 1770,
      "uy": 1771,
      "Ġimaging": 1772,
      "pri": 1773,
      "Ġlabor": 1774,
      "ĠSep": 1775,
      "Ġref": 1776,
      "Ġsometimes": 1777,
      "ema": 1778,
      "rosis": 1779,
      "Ġgluc": 1780,
      "ples": 1781,
      "Ġneuro": 1782,
      "rospective": 1783,
      "ĠDepartment": 1784,
      "CR": 1785,
      "Ġindex": 1786,
      "Ġair": 1787,
      "Ġvit": 1788,
      "Ġrece": 1789,
      "though": 1790,
      "Ġte": 1791,
      "ume": 1792,
      "ĠQ": 1793,
      "idence": 1794,
      "Ġbrain": 1795,
      "Ġcriter": 1796,
      "atheter": 1797,
      "rin": 1798,
      "ĠBy": 1799,
      "echan": 1800,
      "ducation": 1801,
      "Ġ21": 1802,
      "roll": 1803,
      "Ġlarge": 1804,
      "for": 1805,
      "Ġhighest": 1806,
      "Ġdiffic": 1807,
      "OR": 1808,
      "Ġprocess": 1809,
      "Ġscre": 1810,
      "lex": 1811,
      "tiveness": 1812,
      "Ġhum": 1813,
      "Ġfac": 1814,
      "trict": 1815,
      "Ġsurvival": 1816,
      "001": 1817,
      "ogen": 1818,
      "Ġsex": 1819,
      "Ġdem": 1820,
      "ha": 1821,
      "Ġconsidered": 1822,
      "Evalu": 1823,
      "Ġdefec": 1824,
      "AS": 1825,
      "ĠEducation": 1826,
      "Ġlead": 1827,
      "Ġphysical": 1828,
      "ĠMetho": 1829,
      "Ġsafety": 1830,
      "come": 1831,
      "Ġstroke": 1832,
      "Ġreco": 1833,
      "Ġher": 1834,
      "see": 1835,
      "AT": 1836,
      "occ": 1837,
      "ĠCI": 1838,
      "Ġhaving": 1839,
      "Ġcontin": 1840,
      "Ġprol": 1841,
      "ovascular": 1842,
      "Ġdeficiency": 1843,
      "ĠThere": 1844,
      "ined": 1845,
      "tial": 1846,
      "Ġevaluation": 1847,
      "imal": 1848,
      "Ġventricular": 1849,
      "ps": 1850,
      "ones": 1851,
      "Ġexpos": 1852,
      "ides": 1853,
      "ull": 1854,
      "Ġrest": 1855,
      "Ġcount": 1856,
      "Ġappear": 1857,
      "Ġtypically": 1858,
      "ean": 1859,
      "oids": 1860,
      "Ġcomplete": 1861,
      "igns": 1862,
      "ĠView": 1863,
      "Ġox": 1864,
      "ĠRevised": 1865,
      "priate": 1866,
      "Ġthyroid": 1867,
      "ste": 1868,
      "MI": 1869,
      "ĠReviewed": 1870,
      "Ġsafe": 1871,
      "ĠMedic": 1872,
      "ologic": 1873,
      "Ġplas": 1874,
      "Ġadv": 1875,
      "inic": 1876,
      "ency": 1877,
      "umb": 1878,
      "hyl": 1879,
      "irth": 1880,
      "Ġgastro": 1881,
      "ty": 1882,
      "Ġpercentage": 1883,
      "Ġml": 1884,
      "Ġmanifest": 1885,
      "ĠPro": 1886,
      "Ġprotein": 1887,
      "Ġnecessary": 1888,
      "Ġolder": 1889,
      "Ġadults": 1890,
      "Ġgas": 1891,
      "Ġchest": 1892,
      "jection": 1893,
      "Ġantibiotics": 1894,
      "lated": 1895,
      "Ġidentify": 1896,
      "Ġcult": 1897,
      "AP": 1898,
      "comes": 1899,
      "Ġcriteria": 1900,
      "Ġwater": 1901,
      "ade": 1902,
      "Ġnurs": 1903,
      "Ġbiop": 1904,
      "Ġparticularly": 1905,
      "ĠNg": 1906,
      "iasis": 1907,
      "Ġmetast": 1908,
      "Ġcereb": 1909,
      "Ġ2020": 1910,
      "ĠJan": 1911,
      "Ġventi": 1912,
      "oscopy": 1913,
      "oly": 1914,
      "Ġfactor": 1915,
      "Ġlike": 1916,
      "Ġven": 1917,
      "derly": 1918,
      "Ġtak": 1919,
      "Ġstr": 1920,
      "Ġmetab": 1921,
      "ator": 1922,
      "Ġhemorrh": 1923,
      "opic": 1924,
      "Ġlocal": 1925,
      "Ġneon": 1926,
      "Ġmass": 1927,
      "Ġ90": 1928,
      "Ġstatistically": 1929,
      "Ġinvestig": 1930,
      "Ġneeded": 1931,
      "Ġ22": 1932,
      "met": 1933,
      "vey": 1934,
      "Ġstill": 1935,
      "ision": 1936,
      "Ġblock": 1937,
      "Ġcorrelation": 1938,
      "opathy": 1939,
      "chem": 1940,
      "asal": 1941,
      "oint": 1942,
      "Ġthen": 1943,
      "We": 1944,
      "Ġthem": 1945,
      "hesia": 1946,
      "Ġx": 1947,
      "Ġlaparoscopic": 1948,
      "11": 1949,
      "Ġill": 1950,
      "Ġupper": 1951,
      "function": 1952,
      "Ġeffic": 1953,
      "Ġtract": 1954,
      "ĠHC": 1955,
      "uary": 1956,
      "iab": 1957,
      "Ġ80": 1958,
      "ĠHIV": 1959,
      "Ġmild": 1960,
      "leep": 1961,
      "50": 1962,
      "Ġelev": 1963,
      "Ġmuscle": 1964,
      "Ġshock": 1965,
      "Ġprot": 1966,
      "Ġchild": 1967,
      "urn": 1968,
      "Ġscho": 1969,
      "Al": 1970,
      "Result": 1971,
      "orac": 1972,
      "omas": 1973,
      "ipid": 1974,
      "loc": 1975,
      "ĠCon": 1976,
      "Ġschool": 1977,
      "Ġarea": 1978,
      "ese": 1979,
      "Ġbil": 1980,
      "ĠMedical": 1981,
      "Ġmechan": 1982,
      "ĠSigns": 1983,
      "iting": 1984,
      "Some": 1985,
      "ortic": 1986,
      "Ġvirus": 1987,
      "Method": 1988,
      "rem": 1989,
      "200": 1990,
      "Ġhemat": 1991,
      "Ġrole": 1992,
      "Ġem": 1993,
      "Ġreduce": 1994,
      "Ġoutcomes": 1995,
      "ject": 1996,
      "Ġduration": 1997,
      "Ġwill": 1998,
      "Ġ23": 1999,
      "Ġdata": 2000,
      "Ġnegative": 2001,
      "Ġgrow": 2002,
      "AR": 2003,
      "Ġside": 2004,
      "ĠMedicine": 2005,
      "Ġelderly": 2006,
      "Ġmultiple": 2007,
      "Ġpop": 2008,
      "Ġgene": 2009,
      "Ġreport": 2010,
      "ressive": 2011,
      "Ġec": 2012,
      "str": 2013,
      "Ġfollowed": 2014,
      "Ġneph": 2015,
      "lic": 2016,
      "aterials": 2017,
      "IC": 2018,
      "âĢ": 2019,
      "Ġcatheter": 2020,
      "Ġsuspected": 2021,
      "Ġ\"": 2022,
      "Ġoutcome": 2023,
      "Ġpros": 2024,
      "Ġinfants": 2025,
      "pr": 2026,
      "Ġepid": 2027,
      "Ġmother": 2028,
      "ison": 2029,
      "Ġrates": 2030,
      "ditional": 2031,
      "ervical": 2032,
      "Ġmoderate": 2033,
      "Ġpancre": 2034,
      "Ġvolume": 2035,
      "Ġ35": 2036,
      "Ġsimilar": 2037,
      "ember": 2038,
      "mic": 2039,
      "Ġultrasound": 2040,
      "Ġhand": 2041,
      "uter": 2042,
      "iety": 2043,
      "Ġsw": 2044,
      "Ġincluded": 2045,
      "Ġsensitivity": 2046,
      "Ġglucose": 2047,
      "hea": 2048,
      "Ġdos": 2049,
      "Ġshort": 2050,
      "Ġconfir": 2051,
      "thritis": 2052,
      "rolled": 2053,
      "ae": 2054,
      "Ġdam": 2055,
      "ources": 2056,
      "Ġpoor": 2057,
      "Ġ70": 2058,
      "Ġeffectiveness": 2059,
      "ĠChi": 2060,
      "Ġdef": 2061,
      "Ġprevention": 2062,
      "Ġtrauma": 2063,
      "Ġantibiotic": 2064,
      "Ġour": 2065,
      "hic": 2066,
      "titud": 2067,
      "Ġulcer": 2068,
      "Ġsamples": 2069,
      "Ġpat": 2070,
      "Ġavail": 2071,
      "Ġatt": 2072,
      "ype": 2073,
      "Ġbirth": 2074,
      "Ġ48": 2075,
      "Ġgrade": 2076,
      "itted": 2077,
      "inc": 2078,
      "plantation": 2079,
      "vious": 2080,
      "Ġdirect": 2081,
      "Ġcombination": 2082,
      "olar": 2083,
      "25": 2084,
      "Ġdifficult": 2085,
      "eu": 2086,
      "ĠPoints": 2087,
      "Ġflap": 2088,
      "13": 2089,
      "Ġsmo": 2090,
      "15": 2091,
      "ported": 2092,
      "Ġobs": 2093,
      "Ġcentral": 2094,
      "aring": 2095,
      "Ġeach": 2096,
      "Ġdepartment": 2097,
      "Ġbiopsy": 2098,
      "ĠHe": 2099,
      "ĠMinh": 2100,
      "ocyt": 2101,
      "Ġmicro": 2102,
      "Study": 2103,
      "Ġeduc": 2104,
      "havi": 2105,
      "gest": 2106,
      "ĠDiagnosis": 2107,
      "Ġtem": 2108,
      "lob": 2109,
      "Ġdistrict": 2110,
      "atisf": 2111,
      "Ġdysfunction": 2112,
      "Ġmid": 2113,
      "oral": 2114,
      "Ġdisc": 2115,
      "Ġproble": 2116,
      "Ġcho": 2117,
      "gency": 2118,
      "ipher": 2119,
      "Ġpossible": 2120,
      "Ġequ": 2121,
      "ok": 2122,
      "acement": 2123,
      "ediatric": 2124,
      "sth": 2125,
      "These": 2126,
      "AL": 2127,
      "Ġprost": 2128,
      "Ġrap": 2129,
      "yn": 2130,
      "Ġ36": 2131,
      "Ġbacteria": 2132,
      "Ġind": 2133,
      "plement": 2134,
      "Ġmark": 2135,
      "Ġcommonly": 2136,
      "Ġpal": 2137,
      "omet": 2138,
      "ĠChildren": 2139,
      "Ġinform": 2140,
      "ER": 2141,
      "inus": 2142,
      "istr": 2143,
      "set": 2144,
      "Ġcirc": 2145,
      "ano": 2146,
      "Ġcombined": 2147,
      "Ġanemia": 2148,
      "...": 2149,
      "Ġhor": 2150,
      "cell": 2151,
      "Ġfamily": 2152,
      "ĠMRI": 2153,
      "AC": 2154,
      "Ġ28": 2155,
      "let": 2156,
      "ocal": 2157,
      "intestinal": 2158,
      "14": 2159,
      "Ġ2019": 2160,
      "Ġanterior": 2161,
      "Ġdeg": 2162,
      "ĠGen": 2163,
      "Ġmust": 2164,
      "Ġtable": 2165,
      "Ġappropriate": 2166,
      "Ġrecei": 2167,
      "Ġischem": 2168,
      "Ġindicated": 2169,
      "adder": 2170,
      "Ġhepatitis": 2171,
      "Most": 2172,
      "Ġprospective": 2173,
      "Ġincidence": 2174,
      "min": 2175,
      "ĠX": 2176,
      "Ġmyocardi": 2177,
      "Ġsleep": 2178,
      "the": 2179,
      "ray": 2180,
      "mptomatic": 2181,
      "Ġobstruction": 2182,
      "Ġincreasing": 2183,
      "Ġrapid": 2184,
      "mediate": 2185,
      "li": 2186,
      "ules": 2187,
      "Ġmemb": 2188,
      "Ġdiet": 2189,
      "uyen": 2190,
      "ĠCom": 2191,
      "Ġplasma": 2192,
      "Ġaffected": 2193,
      "ipheral": 2194,
      "vasive": 2195,
      "Ġurinary": 2196,
      "Ġevaluated": 2197,
      "Ġ31": 2198,
      "):": 2199,
      "Ġcortic": 2200,
      "Ġfet": 2201,
      "Ġavailable": 2202,
      "Ġreduced": 2203,
      "plied": 2204,
      "Ġanesthesia": 2205,
      "Ġabnormalities": 2206,
      "icity": 2207,
      "ites": 2208,
      "hing": 2209,
      "dro": 2210,
      "Ġefficacy": 2211,
      "lying": 2212,
      "Ġbeing": 2213,
      "ingle": 2214,
      "Ġsupport": 2215,
      "Ġtend": 2216,
      "aryn": 2217,
      "Ġareas": 2218,
      "Ġseverity": 2219,
      "ĠPre": 2220,
      "á»": 2221,
      "Ġinfarc": 2222,
      "duction": 2223,
      "Symptoms": 2224,
      "Ġsugges": 2225,
      "Ġwhile": 2226,
      "nea": 2227,
      "EN": 2228,
      "Ġattitud": 2229,
      "16": 2230,
      "VID": 2231,
      "less": 2232,
      "Ġsubjects": 2233,
      "Ġsal": 2234,
      "old": 2235,
      "Ġ45": 2236,
      "Ġinitial": 2237,
      "All": 2238,
      "Ġregim": 2239,
      "Ġmonitor": 2240,
      "Ġ33": 2241,
      "Ġspinal": 2242,
      "Ġterm": 2243,
      "uria": 2244,
      "Ġstruc": 2245,
      "mergency": 2246,
      "PD": 2247,
      "par": 2248,
      "Ġevery": 2249,
      "ried": 2250,
      "Ġdoes": 2251,
      "ists": 2252,
      "Ġreac": 2253,
      "SS": 2254,
      "als": 2255,
      "95": 2256,
      "Ġdecrease": 2257,
      "Clinical": 2258,
      "yz": 2259,
      "osph": 2260,
      "tract": 2261,
      "Ġcomplication": 2262,
      "Ġguid": 2263,
      "Ġcausing": 2264,
      "go": 2265,
      "eration": 2266,
      "ĠmL": 2267,
      "Ġdiagnostic": 2268,
      "Ġsatisf": 2269,
      "Com": 2270,
      "Ġbetter": 2271,
      "Ġques": 2272,
      "Ġsoft": 2273,
      "Ġcervical": 2274,
      "Ġvag": 2275,
      "17": 2276,
      "uring": 2277,
      "Ġinjuries": 2278,
      "Ġdevelopment": 2279,
      "Ġparen": 2280,
      "Ġperson": 2281,
      "ST": 2282,
      "Ġvitamin": 2283,
      "esity": 2284,
      "Ġsystemic": 2285,
      "Ġpregnant": 2286,
      "ĠNational": 2287,
      "odies": 2288,
      "Ġrecommended": 2289,
      "tib": 2290,
      "tained": 2291,
      "Ġhepat": 2292,
      "Ġ+": 2293,
      "Ġextrac": 2294,
      "Ġconditions": 2295,
      "Ġgreat": 2296,
      "ination": 2297,
      "itus": 2298,
      "cohol": 2299,
      "18": 2300,
      "illary": 2301,
      "Ġemb": 2302,
      "Ġsten": 2303,
      "Ġbehavi": 2304,
      "Ġincreases": 2305,
      "Ġrequired": 2306,
      "After": 2307,
      "Ġeven": 2308,
      "Ġinformation": 2309,
      "Ġ32": 2310,
      "Ġach": 2311,
      "ĠJanuary": 2312,
      "Ġelect": 2313,
      "ind": 2314,
      "tensive": 2315,
      "Pre": 2316,
      "Ġadverse": 2317,
      "Ġavoid": 2318,
      "weight": 2319,
      "ĠSc": 2320,
      "Ġaged": 2321,
      "ĠY": 2322,
      "Ġcorticoster": 2323,
      "ĠAc": 2324,
      "genital": 2325,
      "ĠIII": 2326,
      "Ġrecurrent": 2327,
      "Ġagain": 2328,
      "ĠMethods": 2329,
      "Ġinfarction": 2330,
      "Ġcontain": 2331,
      "Ġdescribe": 2332,
      "Ġoperation": 2333,
      "Ġexposure": 2334,
      "sthma": 2335,
      "Ġ26": 2336,
      "ĠCOVID": 2337,
      "ective": 2338,
      "Ġevid": 2339,
      "Ġmodel": 2340,
      "ĠMod": 2341,
      "utritional": 2342,
      "Ġvaccin": 2343,
      "Ġchange": 2344,
      "pir": 2345,
      "ĠNe": 2346,
      "ule": 2347,
      "Ġisol": 2348,
      "ula": 2349,
      "Ġvascular": 2350,
      "cine": 2351,
      "ĠDis": 2352,
      "Ġremain": 2353,
      "Ġprop": 2354,
      "Ġest": 2355,
      "ĠCenter": 2356,
      "Ġresection": 2357,
      "Ġinhibit": 2358,
      "Ġsyn": 2359,
      "Ġ27": 2360,
      "cler": 2361,
      "Ġmainly": 2362,
      "Ġventilation": 2363,
      "went": 2364,
      "22": 2365,
      "Ġtypes": 2366,
      "omic": 2367,
      "Ġcongenital": 2368,
      "ĠSymptoms": 2369,
      "ias": 2370,
      "Ġpub": 2371,
      "lyce": 2372,
      "eth": 2373,
      "Ġstress": 2374,
      "Ġsuccessful": 2375,
      "Ġdepression": 2376,
      "Ġmax": 2377,
      "Ġsite": 2378,
      "Ġstandard": 2379,
      "duced": 2380,
      "ending": 2381,
      "ĠWe": 2382,
      "omal": 2383,
      "Ġonset": 2384,
      "Ġsitu": 2385,
      "Ġcer": 2386,
      "Ġrepl": 2387,
      "Ġperipheral": 2388,
      "Ġdid": 2389,
      "Ġinflu": 2390,
      "Ġcontinu": 2391,
      "den": 2392,
      "orn": 2393,
      "ĠBinh": 2394,
      "Ġpur": 2395,
      "Ġmo": 2396,
      "Ġgrowth": 2397,
      "Ġdamage": 2398,
      "Ġstenosis": 2399,
      "Ġgo": 2400,
      "Ġcardiovascular": 2401,
      "Ġtherap": 2402,
      "Ġsame": 2403,
      "cutaneous": 2404,
      "Ġyoun": 2405,
      "Ġplate": 2406,
      "Ġfew": 2407,
      "Ġculture": 2408,
      "enia": 2409,
      "Ġopen": 2410,
      "21": 2411,
      "Ġ75": 2412,
      "Ġmalign": 2413,
      "ĠCentral": 2414,
      "ends": 2415,
      "Ġapplied": 2416,
      "ĠJun": 2417,
      "tiology": 2418,
      "Ġsingle": 2419,
      "Ġposterior": 2420,
      "Ġactivities": 2421,
      "Ġeducation": 2422,
      "Ġgastrointestinal": 2423,
      "Ġver": 2424,
      "Ġthree": 2425,
      "Ġchemotherapy": 2426,
      "ĠDec": 2427,
      "logic": 2428,
      "anced": 2429,
      "emic": 2430,
      "ength": 2431,
      "Ġseveral": 2432,
      "Ġachie": 2433,
      "anoi": 2434,
      "Ġjoint": 2435,
      "any": 2436,
      "ĠHB": 2437,
      "Ġendoscopic": 2438,
      "Ġhormon": 2439,
      "Ġfat": 2440,
      "ales": 2441,
      "Ġworkers": 2442,
      "Ġfunc": 2443,
      "Ġvenous": 2444,
      "Ġlikely": 2445,
      "Ġmening": 2446,
      "Ġcould": 2447,
      "Ġscreening": 2448,
      "Ġcap": 2449,
      "ished": 2450,
      "Ġurine": 2451,
      "bs": 2452,
      "abil": 2453,
      "bid": 2454,
      "ygen": 2455,
      "Ġspecificity": 2456,
      "Ġbr": 2457,
      "Ġposition": 2458,
      "olism": 2459,
      "Ġpart": 2460,
      "tention": 2461,
      "Ġmyocardial": 2462,
      "ergic": 2463,
      "aus": 2464,
      "Ġreported": 2465,
      "Ġassessment": 2466,
      "Ġinvolve": 2467,
      "Ġfracture": 2468,
      "33": 2469,
      "Ġmedicine": 2470,
      "Ġalcohol": 2471,
      "Ġpsy": 2472,
      "Ġcondition": 2473,
      "Ġunderwent": 2474,
      "yper": 2475,
      "Ġlaboratory": 2476,
      "pose": 2477,
      "Ġ2018": 2478,
      "Ġgastric": 2479,
      "Ġ37": 2480,
      "ience": 2481,
      "Ġesoph": 2482,
      "Ġsuggest": 2483,
      "uong": 2484,
      "uk": 2485,
      "Ġleast": 2486,
      "amine": 2487,
      "Ġorally": 2488,
      "Ġparticip": 2489,
      "arget": 2490,
      "Ġhuman": 2491,
      "Ġhemorrhage": 2492,
      "Ġbacterial": 2493,
      "Ġaden": 2494,
      "Ġmanifestations": 2495,
      "Ġduc": 2496,
      "Ġclinic": 2497,
      "Ġsecondary": 2498,
      "uted": 2499,
      "ON": 2500,
      "Ġcurrent": 2501,
      "Ġcerebral": 2502,
      "ester": 2503,
      "100": 2504,
      "Ġasthma": 2505,
      "ĠPatients": 2506,
      "dition": 2507,
      "Ġadj": 2508,
      "Ġagainst": 2509,
      "ays": 2510,
      "Ġobesity": 2511,
      "Ġ29": 2512,
      "umin": 2513,
      "ension": 2514,
      "ĠHanoi": 2515,
      "hyth": 2516,
      "ians": 2517,
      "Ġsoc": 2518,
      "cardi": 2519,
      "Ġdoc": 2520,
      "Ġaccur": 2521,
      "rine": 2522,
      "Ġery": 2523,
      "ranial": 2524,
      "ĠHealth": 2525,
      "var": 2526,
      "Ġillness": 2527,
      "Ġsinus": 2528,
      "Ġthorac": 2529,
      "ercul": 2530,
      "23": 2531,
      "ances": 2532,
      "ternal": 2533,
      "Ġoutp": 2534,
      "Ġkne": 2535,
      "ĠCho": 2536,
      "na": 2537,
      "Ġuntil": 2538,
      "Subjects": 2539,
      "Ġ65": 2540,
      "Ġreduction": 2541,
      "au": 2542,
      "Ġ2017": 2543,
      "Ġinjection": 2544,
      "Ġ38": 2545,
      "sor": 2546,
      "Ġonce": 2547,
      "itone": 2548,
      "iology": 2549,
      "osa": 2550,
      "ĠEx": 2551,
      "Ġinfected": 2552,
      "St": 2553,
      "ĠCity": 2554,
      "Ġneedle": 2555,
      "urther": 2556,
      "Ġangi": 2557,
      "ĠCan": 2558,
      "Ġserious": 2559,
      "plas": 2560,
      "gin": 2561,
      "Ġpen": 2562,
      "Ġdeliver": 2563,
      "Ġdisch": 2564,
      "Ġche": 2565,
      "Ġflow": 2566,
      "Ġdetect": 2567,
      "zym": 2568,
      "Ġcolon": 2569,
      "Ġmutations": 2570,
      "Sur": 2571,
      "Ġstrain": 2572,
      "Ġlesion": 2573,
      "Other": 2574,
      "Ġimproved": 2575,
      "phal": 2576,
      "Ġself": 2577,
      "Ġlength": 2578,
      "outh": 2579,
      "nutrition": 2580,
      "och": 2581,
      "ĠConclusion": 2582,
      "Ġcontrib": 2583,
      "Ġear": 2584,
      "Ġ34": 2585,
      "rence": 2586,
      "ĠMar": 2587,
      "DL": 2588,
      "Ġtransplantation": 2589,
      "Ġradiation": 2590,
      "Ġneck": 2591,
      "Se": 2592,
      "Ġpatho": 2593,
      "uss": 2594,
      "Ġdon": 2595,
      "Ġsurvey": 2596,
      "line": 2597,
      "Ġinflammation": 2598,
      "Ġarterial": 2599,
      "Ġinsulin": 2600,
      "Ġdetected": 2601,
      "adi": 2602,
      "Ġemergency": 2603,
      "ĠNguyen": 2604,
      "Ġeth": 2605,
      "Ġexerc": 2606,
      "Ġhypot": 2607,
      "Ġprevious": 2608,
      "Ġdegree": 2609,
      "Ġanalyz": 2610,
      "Ġevidence": 2611,
      "owel": 2612,
      "Ġvs": 2613,
      "Ġmeasured": 2614,
      "Ġworld": 2615,
      "erior": 2616,
      "vices": 2617,
      "Ġfore": 2618,
      "ageal": 2619,
      "Ġdiss": 2620,
      "arrhea": 2621,
      "ĠSur": 2622,
      "erved": 2623,
      "ĠNo": 2624,
      "quate": 2625,
      "ĠRay": 2626,
      "Ġfractures": 2627,
      "Ġidentified": 2628,
      "CO": 2629,
      "logy": 2630,
      "Ġprolong": 2631,
      "ĠIC": 2632,
      "%);": 2633,
      "Ġedema": 2634,
      "lor": 2635,
      "Ġple": 2636,
      "Ġpatholog": 2637,
      "ĠÎ": 2638,
      "Ġmetabolic": 2639,
      "Ġperfor": 2640,
      "24": 2641,
      "Ġanalges": 2642,
      "Ġelevated": 2643,
      "ES": 2644,
      "Ġtransm": 2645,
      "Ġbron": 2646,
      "geal": 2647,
      "yst": 2648,
      "Ġtrial": 2649,
      "Ġvaccine": 2650,
      "ication": 2651,
      "ĠIN": 2652,
      "Ġprognosis": 2653,
      "ĠModified": 2654,
      "Ġanat": 2655,
      "Ġvalve": 2656,
      "Ġquestion": 2657,
      "30": 2658,
      "pt": 2659,
      "roup": 2660,
      "ĠAl": 2661,
      "Ġpharm": 2662,
      "Ġtrain": 2663,
      "ĠAd": 2664,
      "Ġwall": 2665,
      "Ġcord": 2666,
      "Ġdil": 2667,
      "otor": 2668,
      "ĠMay": 2669,
      "Ġapproach": 2670,
      "ĠGeneral": 2671,
      "Ġairway": 2672,
      "Ġtarget": 2673,
      "ĠPE": 2674,
      "Ġpoints": 2675,
      "ĠCl": 2676,
      "PV": 2677,
      "Ġsuf": 2678,
      "Ġsurf": 2679,
      "upture": 2680,
      "Ġscale": 2681,
      "Ġpotential": 2682,
      "Ġoxygen": 2683,
      "Materials": 2684,
      "abl": 2685,
      "ounds": 2686,
      "Ġcollected": 2687,
      "Ġshows": 2688,
      "BC": 2689,
      "Ġstay": 2690,
      "Ġplac": 2691,
      "Ġgenetic": 2692,
      "Ġrelie": 2693,
      "tid": 2694,
      "Ġleuk": 2695,
      "plication": 2696,
      "Ġlea": 2697,
      "trast": 2698,
      "Ġstim": 2699,
      "Ġbenef": 2700,
      "Ġrelative": 2701,
      "Ġneu": 2702,
      "Ġwhere": 2703,
      "asty": 2704,
      "Ġ72": 2705,
      "ococc": 2706,
      "aryngeal": 2707,
      "Ġ|": 2708,
      "onography": 2709,
      "67": 2710,
      "gnostic": 2711,
      "IN": 2712,
      "istent": 2713,
      "ĠJune": 2714,
      "Ġsu": 2715,
      "ands": 2716,
      "Ġureter": 2717,
      "Ġdoses": 2718,
      "Ġvom": 2719,
      "Ġemp": 2720,
      "Evaluation": 2721,
      "Ġz": 2722,
      "ards": 2723,
      "Ġeye": 2724,
      "most": 2725,
      "ĠSome": 2726,
      "year": 2727,
      "related": 2728,
      "Ġuseful": 2729,
      "Ġsequ": 2730,
      "Ġoverall": 2731,
      "Ġmothers": 2732,
      "Ġbecome": 2733,
      "Ġextrem": 2734,
      "Ġtop": 2735,
      "tious": 2736,
      "ark": 2737,
      "ucle": 2738,
      "ergy": 2739,
      "Ġclassification": 2740,
      "tro": 2741,
      "Ex": 2742,
      "Ad": 2743,
      "Ġhowever": 2744,
      "ĠKey": 2745,
      "viron": 2746,
      "Ġtechniques": 2747,
      "elvic": 2748,
      "Ġ39": 2749,
      "Ġorder": 2750,
      "Ġline": 2751,
      "Ġpresence": 2752,
      "Ġtube": 2753,
      "man": 2754,
      "Ġdesign": 2755,
      "Ġscan": 2756,
      "Ġimmediate": 2757,
      "Ġtrig": 2758,
      "Ġdiarrhea": 2759,
      "ĠCD": 2760,
      "Ġbenign": 2761,
      "Ġattitude": 2762,
      "ssess": 2763,
      "Ġ55": 2764,
      "Ġrecurren": 2765,
      "aff": 2766,
      "Ġcalcium": 2767,
      "Ġnutritional": 2768,
      "ĠVietnamese": 2769,
      "75": 2770,
      "ped": 2771,
      "ycin": 2772,
      "Ġgest": 2773,
      "Ġseiz": 2774,
      "Ġcomplex": 2775,
      "cies": 2776,
      "ecause": 2777,
      "Ġnasal": 2778,
      "ella": 2779,
      "Ġcur": 2780,
      "Ġ01": 2781,
      "titis": 2782,
      "Ġenzym": 2783,
      "iel": 2784,
      "Ġcreat": 2785,
      "Ġsk": 2786,
      "Ġactive": 2787,
      "sequ": 2788,
      "aged": 2789,
      "When": 2790,
      "Ġoste": 2791,
      "read": 2792,
      "aily": 2793,
      "Ġthir": 2794,
      "On": 2795,
      "essel": 2796,
      "roph": 2797,
      "ialysis": 2798,
      "Ġsl": 2799,
      "Ġdelivery": 2800,
      "illin": 2801,
      "Ġmonitoring": 2802,
      "ĠSy": 2803,
      "isms": 2804,
      "Ġpattern": 2805,
      "ount": 2806,
      "sc": 2807,
      "Ġinvasive": 2808,
      "ilitary": 2809,
      "Ġpopulation": 2810,
      "Ġdiabetic": 2811,
      "ophil": 2812,
      "elling": 2813,
      "Ġundergo": 2814,
      "ĠDise": 2815,
      "HO": 2816,
      "renal": 2817,
      "virus": 2818,
      "Ġrepair": 2819,
      "Ġthick": 2820,
      "axis": 2821,
      "ration": 2822,
      "Ġintrac": 2823,
      "vironment": 2824,
      "aria": 2825,
      "CG": 2826,
      "Ġ44": 2827,
      "Ġincludes": 2828,
      "ensity": 2829,
      "esis": 2830,
      "Ġev": 2831,
      "Ġvalues": 2832,
      "ĠResults": 2833,
      "Ġmalignant": 2834,
      "Ġrange": 2835,
      "Ġ05": 2836,
      "Ġaffect": 2837,
      "Ġbladder": 2838,
      "28": 2839,
      "logical": 2840,
      "dle": 2841,
      "Ġderm": 2842,
      "venous": 2843,
      "ĠIns": 2844,
      "Ġsepsis": 2845,
      "amet": 2846,
      "Ġdrain": 2847,
      "rophy": 2848,
      "iary": 2849,
      "Ġwa": 2850,
      "Ġvomiting": 2851,
      "Ġmedian": 2852,
      "plications": 2853,
      "Ġelectro": 2854,
      "ou": 2855,
      "Ġextract": 2856,
      "Ġpediatric": 2857,
      "Ġtubercul": 2858,
      "Ġprovide": 2859,
      "Ġimmune": 2860,
      "hetic": 2861,
      "itt": 2862,
      "urys": 2863,
      "Ġ2015": 2864,
      "rim": 2865,
      "atin": 2866,
      "27": 2867,
      "Ġminim": 2868,
      "Pro": 2869,
      "Ġnurses": 2870,
      "ateg": 2871,
      "inf": 2872,
      "raindic": 2873,
      "iop": 2874,
      "isted": 2875,
      "They": 2876,
      "Research": 2877,
      "Ġfetal": 2878,
      "ulmonary": 2879,
      "iltr": 2880,
      "Ġbeta": 2881,
      "Ġinsuf": 2882,
      "Ġcyst": 2883,
      "Ġmajority": 2884,
      "Ġrecovery": 2885,
      "Ġ2016": 2886,
      "AD": 2887,
      "umbar": 2888,
      "thro": 2889,
      "son": 2890,
      "hyd": 2891,
      "Ġ42": 2892,
      "36": 2893,
      "Ġmove": 2894,
      "Ġhospitals": 2895,
      "Ġiron": 2896,
      "br": 2897,
      "Ġanx": 2898,
      "Ġinser": 2899,
      "Ġrupture": 2900,
      "ators": 2901,
      "pho": 2902,
      "omes": 2903,
      "Ġarthritis": 2904,
      "Ġregion": 2905,
      "Ġadmission": 2906,
      "Ġaspir": 2907,
      "Ġbowel": 2908,
      "Ġprof": 2909,
      "Ġsituation": 2910,
      "Mean": 2911,
      "ĠUS": 2912,
      "itoneal": 2913,
      "Ġaortic": 2914,
      "Ġfree": 2915,
      "Ġcys": 2916,
      "Ġmutation": 2917,
      "pecific": 2918,
      "Ġquan": 2919,
      "obacter": 2920,
      "ĠResources": 2921,
      "CI": 2922,
      "Ġwound": 2923,
      "ĠIg": 2924,
      "Ġbran": 2925,
      "ĠCol": 2926,
      "Ġretrospective": 2927,
      "aine": 2928,
      "Ġabscess": 2929,
      "ulated": 2930,
      "ographic": 2931,
      "Ġrecept": 2932,
      "Ġcann": 2933,
      "Ġmembran": 2934,
      "Ġpap": 2935,
      "olesc": 2936,
      "Ġslow": 2937,
      "Ġdaily": 2938,
      "Ġ46": 2939,
      "ĠTopic": 2940,
      "Ġfrequency": 2941,
      "Ġreceived": 2942,
      "ference": 2943,
      "Ġrecon": 2944,
      "Ġseries": 2945,
      "ĠClinical": 2946,
      "hood": 2947,
      "Ġfunctional": 2948,
      "45": 2949,
      "onic": 2950,
      "Ġmeasures": 2951,
      "ring": 2952,
      "Ġvers": 2953,
      "Ġspecies": 2954,
      "Ġnutrition": 2955,
      "Ġadmitted": 2956,
      "Ġset": 2957,
      "Ġlimited": 2958,
      "Ġstones": 2959,
      "Ġinterven": 2960,
      "Ġrecurrence": 2961,
      "care": 2962,
      "Ġadult": 2963,
      "ably": 2964,
      "Ġshown": 2965,
      "Ġprocedures": 2966,
      "oot": 2967,
      "Ġdeep": 2968,
      "Ġreaction": 2969,
      "AB": 2970,
      "thal": 2971,
      "Ġvein": 2972,
      "gien": 2973,
      "Ġtransfusion": 2974,
      "Ġdifferenti": 2975,
      "ferred": 2976,
      "Ġlon": 2977,
      "Ġabove": 2978,
      "Therefore": 2979,
      "otomy": 2980,
      "ffec": 2981,
      "Ġoverweight": 2982,
      "Ġdelay": 2983,
      "Ġindi": 2984,
      "ropathy": 2985,
      "otic": 2986,
      "Ġchrom": 2987,
      "Ġaddition": 2988,
      "Ġweak": 2989,
      "Ġseen": 2990,
      "ina": 2991,
      "ries": 2992,
      "ĠIL": 2993,
      "Ġ43": 2994,
      "Ġuter": 2995,
      "Ġantic": 2996,
      "Ġparamet": 2997,
      "Ġknown": 2998,
      "Ġcorticosteroids": 2999,
      "Ġstem": 3000,
      "endent": 3001,
      "Ġnode": 3002,
      "herence": 3003,
      "ĠThai": 3004,
      "lood": 3005,
      "Ġclear": 3006,
      "odium": 3007,
      "Ġprec": 3008,
      "Subject": 3009,
      "Ġdiamet": 3010,
      "Ġinvestigate": 3011,
      "At": 3012,
      "Ġatrial": 3013,
      "own": 3014,
      "Ġbreat": 3015,
      "Ġpresc": 3016,
      "ficient": 3017,
      "Ġdetection": 3018,
      "ler": 3019,
      "Ġ41": 3020,
      "Ġback": 3021,
      "Ġcontrac": 3022,
      "Ġimprovement": 3023,
      "Ġcertain": 3024,
      "clinical": 3025,
      "35": 3026,
      "Ġspl": 3027,
      "opatholog": 3028,
      "aired": 3029,
      "60": 3030,
      "Ġcut": 3031,
      "olec": 3032,
      "Ġclos": 3033,
      "Ġsample": 3034,
      "Ġestim": 3035,
      "Ġreas": 3036,
      "Ġhepatic": 3037,
      "Ġrh": 3038,
      "Ġalthough": 3039,
      "Ġcarried": 3040,
      "Ġgener": 3041,
      "Ġobstruc": 3042,
      "Ġregimen": 3043,
      "Ġphase": 3044,
      "chool": 3045,
      "Ġhealthy": 3046,
      "ĠNam": 3047,
      "As": 3048,
      "II": 3049,
      "Ġstudied": 3050,
      "ficial": 3051,
      "Ġvessel": 3052,
      "Ġcarb": 3053,
      "Ġfurther": 3054,
      "Ġ2010": 3055,
      "ellitus": 3056,
      "Ġpoint": 3057,
      "Ġmales": 3058,
      "Ġinflammatory": 3059,
      "Ġduct": 3060,
      "ĠOF": 3061,
      "aw": 3062,
      "Ġane": 3063,
      "Ġinhibitors": 3064,
      "rogen": 3065,
      "Ġknee": 3066,
      "Ġhospitalized": 3067,
      "Ġtoxicity": 3068,
      "Ġdischarge": 3069,
      "Ġleg": 3070,
      "Ġvisual": 3071,
      "Ġsmoking": 3072,
      "Ġlonger": 3073,
      "53": 3074,
      "Ġenvironment": 3075,
      "andom": 3076,
      "them": 3077,
      "Ġlate": 3078,
      "quired": 3079,
      "Ġ2012": 3080,
      "Ġrequires": 3081,
      "Ġmechanical": 3082,
      "eling": 3083,
      "ĠApr": 3084,
      "Ġho": 3085,
      "ĠAR": 3086,
      "Ġ*": 3087,
      "formation": 3088,
      "Ġfrequently": 3089,
      "opl": 3090,
      "eutic": 3091,
      "Ġ47": 3092,
      "Ġoptim": 3093,
      "Ġgrad": 3094,
      "rag": 3095,
      "Ġprob": 3096,
      "ĠFor": 3097,
      "Ġmental": 3098,
      "cles": 3099,
      "Ġlympho": 3100,
      "Ġmuch": 3101,
      "Ġischemic": 3102,
      "Ġreplacement": 3103,
      "Ġhydro": 3104,
      "Ġeyes": 3105,
      "Ġmmol": 3106,
      "Ġproduction": 3107,
      "Ġ85": 3108,
      "26": 3109,
      "ret": 3110,
      "40": 3111,
      "bumin": 3112,
      "Ġdefects": 3113,
      "naire": 3114,
      "ochem": 3115,
      "Ġliving": 3116,
      "Ġbal": 3117,
      "ĠLe": 3118,
      "aternal": 3119,
      "Ġvaginal": 3120,
      "Ġhormone": 3121,
      "ourse": 3122,
      "Ġlateral": 3123,
      "Ġ2013": 3124,
      "Ġdetermined": 3125,
      "Ġpredict": 3126,
      "asion": 3127,
      "Ġ58": 3128,
      "Ġcommunity": 3129,
      "Ġcost": 3130,
      "acer": 3131,
      "Ġcorrect": 3132,
      "azole": 3133,
      "Ġng": 3134,
      "etric": 3135,
      "ĠIm": 3136,
      "Ġrarely": 3137,
      "Ġten": 3138,
      "ĠHue": 3139,
      "Ġinternal": 3140,
      "Ġinfluen": 3141,
      "Ġtom": 3142,
      "oplas": 3143,
      "ĠST": 3144,
      "Ġbo": 3145,
      "Ġvia": 3146,
      "Ġtemper": 3147,
      "Ġadmin": 3148,
      "Ġtraining": 3149,
      "Ġstaff": 3150,
      "ics": 3151,
      "SD": 3152,
      "Ġimpair": 3153,
      "Ġviral": 3154,
      "Ġwide": 3155,
      "Ġconfirmed": 3156,
      "ised": 3157,
      "arb": 3158,
      "Ġthird": 3159,
      "psy": 3160,
      "ensive": 3161,
      "Ġassessed": 3162,
      "Ġtho": 3163,
      "Ġmellitus": 3164,
      "ĠCont": 3165,
      "Ġaccounting": 3166,
      "Ġecho": 3167,
      "tra": 3168,
      "Ġcontrast": 3169,
      "Ġhygien": 3170,
      "IT": 3171,
      "han": 3172,
      "ĠPharm": 3173,
      ".)": 3174,
      "Ġintake": 3175,
      "con": 3176,
      "Ġ56": 3177,
      "Ġcontrolled": 3178,
      "Ġrecord": 3179,
      "Ġrele": 3180,
      "Ġwhether": 3181,
      "Ġyoung": 3182,
      "Ġdiameter": 3183,
      "ward": 3184,
      "Ġdistal": 3185,
      "que": 3186,
      "ĠEvalu": 3187,
      "Ġmalnutrition": 3188,
      "Ġfemales": 3189,
      "Ġreview": 3190,
      "iter": 3191,
      "arning": 3192,
      "tes": 3193,
      "Ġassociation": 3194,
      "Ġneonatal": 3195,
      "ylor": 3196,
      "Ġdefect": 3197,
      "Ġmotor": 3198,
      "ars": 3199,
      "34": 3200,
      "Ġsolution": 3201,
      "ĠÂ": 3202,
      "Ġproblems": 3203,
      "Ġexercise": 3204,
      "Ġax": 3205,
      "90": 3206,
      "Ġ96": 3207,
      "Ġenter": 3208,
      "aling": 3209,
      "Ġbas": 3210,
      "engue": 3211,
      "Ġclose": 3212,
      "time": 3213,
      "lycemia": 3214,
      "AN": 3215,
      "Ġsubst": 3216,
      "Ġisolated": 3217,
      "Ġrandom": 3218,
      "Ġability": 3219,
      "Ġrepe": 3220,
      "Ġfacil": 3221,
      "gra": 3222,
      "Ġsimple": 3223,
      "ubation": 3224,
      "Ġagents": 3225,
      "Ġprovid": 3226,
      "mal": 3227,
      "Ġ64": 3228,
      "bed": 3229,
      "nia": 3230,
      "Ġthus": 3231,
      "lobin": 3232,
      "ĠMilitary": 3233,
      "fe": 3234,
      "Ġmade": 3235,
      "ills": 3236,
      "Ġanxiety": 3237,
      "Ġparameters": 3238,
      "Ġsupp": 3239,
      "No": 3240,
      "Ġoc": 3241,
      "amp": 3242,
      "ĠHem": 3243,
      "Ġconcer": 3244,
      "Ġ54": 3245,
      "Ġ62": 3246,
      "gens": 3247,
      "lot": 3248,
      "Ġ57": 3249,
      "ĠDecember": 3250,
      "hythm": 3251,
      "ks": 3252,
      "áº": 3253,
      "Ġprolonged": 3254,
      "ode": 3255,
      "Ġproducts": 3256,
      "ways": 3257,
      "Ġcirr": 3258,
      "mg": 3259,
      "Ġexcess": 3260,
      "ner": 3261,
      "enal": 3262,
      "Ġ53": 3263,
      "Ġtaken": 3264,
      "Ġbronch": 3265,
      "Ġaneurys": 3266,
      "MC": 3267,
      "clerosis": 3268,
      "Ġbest": 3269,
      "65": 3270,
      "Ġfist": 3271,
      "aps": 3272,
      "meric": 3273,
      "Ġstrong": 3274,
      "Ġcr": 3275,
      "Ġwords": 3276,
      "Ġsocial": 3277,
      "Ġlas": 3278,
      "ardia": 3279,
      "OS": 3280,
      "ĠCo": 3281,
      "Ġeas": 3282,
      "Ġ2011": 3283,
      "Ġultrasonography": 3284,
      "ĠOct": 3285,
      "Ġcenter": 3286,
      "achy": 3287,
      "Ġoccup": 3288,
      "ately": 3289,
      "Ġ49": 3290,
      "arily": 3291,
      "Ġallow": 3292,
      "Ġlocation": 3293,
      "eterm": 3294,
      "ĠBMI": 3295,
      "Ġâī¤": 3296,
      "Ġquestionnaire": 3297,
      "tures": 3298,
      "Ġ52": 3299,
      "Ġadvanced": 3300,
      "plasia": 3301,
      "CL": 3302,
      "unt": 3303,
      "Ġcompl": 3304,
      "ĠAr": 3305,
      "uncture": 3306,
      "cing": 3307,
      "Ġestabl": 3308,
      "Ab": 3309,
      "Ġpancreatic": 3310,
      "Ġ66": 3311,
      "ĠSp": 3312,
      "Ġmiddle": 3313,
      "Ġtuberculosis": 3314,
      "hylaxis": 3315,
      "cardiography": 3316,
      "Ġdig": 3317,
      "Ġsatisfaction": 3318,
      "With": 3319,
      "Ġrout": 3320,
      "Ġleading": 3321,
      "Ġresulting": 3322,
      "by": 3323,
      "ontaneous": 3324,
      "ymptomatic": 3325,
      "fication": 3326,
      "ĠJul": 3327,
      "Ġpylor": 3328,
      "Ġtreating": 3329,
      "Ġspecial": 3330,
      "Ġess": 3331,
      "Ġgender": 3332,
      "Ġsymptom": 3333,
      "Ġcompon": 3334,
      "Ġ59": 3335,
      "Ġlumbar": 3336,
      "Ġpredictive": 3337,
      "Ġhygiene": 3338,
      "ecting": 3339,
      "Ġster": 3340,
      "otype": 3341,
      "lammatory": 3342,
      "Ġthrombosis": 3343,
      "get": 3344,
      "rob": 3345,
      "Ġtaking": 3346,
      "agulation": 3347,
      "ausea": 3348,
      "Although": 3349,
      "ough": 3350,
      "ov": 3351,
      "ĠQu": 3352,
      "Ac": 3353,
      "Ġmac": 3354,
      "Ġprogram": 3355,
      "Ġnursing": 3356,
      "Ġroutine": 3357,
      "Ġexam": 3358,
      "elines": 3359,
      "bidity": 3360,
      "Ġinvolved": 3361,
      "Ġauth": 3362,
      "Because": 3363,
      "Ġneeds": 3364,
      "ened": 3365,
      "Ġworking": 3366,
      "âĢĶ": 3367,
      "ND": 3368,
      "ymp": 3369,
      "usc": 3370,
      "Ġcancers": 3371,
      "Ġ68": 3372,
      "38": 3373,
      "ither": 3374,
      "Ġadolesc": 3375,
      "Ġstop": 3376,
      "Ġ000": 3377,
      "izing": 3378,
      "Ġflu": 3379,
      "Ġremoval": 3380,
      "vice": 3381,
      "active": 3382,
      "Ġdistrib": 3383,
      "Ġphen": 3384,
      "Ġhighly": 3385,
      "Ġantibodies": 3386,
      "Ġresistant": 3387,
      "29": 3388,
      "hel": 3389,
      "Ġprem": 3390,
      "Ġ51": 3391,
      "HE": 3392,
      "Ġenc": 3393,
      "Ġteeth": 3394,
      "iable": 3395,
      "Ġexperience": 3396,
      "cardia": 3397,
      "ĠDescri": 3398,
      "ĠPCR": 3399,
      "Ġcontinuous": 3400,
      "rill": 3401,
      "Ġmake": 3402,
      "Ġobserved": 3403,
      "FR": 3404,
      "Ġneut": 3405,
      "Ġtomography": 3406,
      "hesis": 3407,
      "Ġlast": 3408,
      "fection": 3409,
      "Ġcheck": 3410,
      "Ġseptic": 3411,
      "titute": 3412,
      "Ġstrains": 3413,
      "Ġ61": 3414,
      "mune": 3415,
      "ls": 3416,
      "athic": 3417,
      "Ġproper": 3418,
      "Ġsuggests": 3419,
      "steop": 3420,
      "Ġrat": 3421,
      "istration": 3422,
      "Ġtemperature": 3423,
      "ĠâĢ": 3424,
      "Ġmagn": 3425,
      "Ġpsycho": 3426,
      "ulder": 3427,
      "Ġ2014": 3428,
      "Ġplan": 3429,
      "varian": 3430,
      "Ġpri": 3431,
      "atology": 3432,
      "inger": 3433,
      "uod": 3434,
      "raw": 3435,
      "Ġade": 3436,
      "Ġobtained": 3437,
      "Ġsurface": 3438,
      "aking": 3439,
      "Ġresid": 3440,
      "oglobin": 3441,
      "Ġunderlying": 3442,
      "Ġauto": 3443,
      "Ġundergoing": 3444,
      "Ġpelvic": 3445,
      "ye": 3446,
      "atur": 3447,
      "Ġmil": 3448,
      "iness": 3449,
      "Ġtake": 3450,
      "atives": 3451,
      "Ġantibody": 3452,
      "onomic": 3453,
      "Ġintestinal": 3454,
      "Ġconsum": 3455,
      "ool": 3456,
      "ings": 3457,
      "Ġmetastasis": 3458,
      "31": 3459,
      "32": 3460,
      "42": 3461,
      "ked": 3462,
      "Ġlar": 3463,
      "Ġyou": 3464,
      "Ġaccess": 3465,
      "ware": 3466,
      "Ġ&": 3467,
      "Ġheadache": 3468,
      "like": 3469,
      "otal": 3470,
      "stetric": 3471,
      "Ġarteries": 3472,
      "rup": 3473,
      "alled": 3474,
      "apse": 3475,
      "aryng": 3476,
      "Ġclinically": 3477,
      "Ġsupplement": 3478,
      "loid": 3479,
      "ield": 3480,
      "aled": 3481,
      "Ġ76": 3482,
      "Ġpartial": 3483,
      "Ġnons": 3484,
      "ypes": 3485,
      "ches": 3486,
      "range": 3487,
      "Ġmeningitis": 3488,
      "uture": 3489,
      "Ġseizures": 3490,
      "Ġevents": 3491,
      "Ġmolec": 3492,
      "ĠDe": 3493,
      "Ġasymptomatic": 3494,
      "Ġoccurred": 3495,
      "nel": 3496,
      "ored": 3497,
      "inant": 3498,
      "Ġcountries": 3499,
      "Ġanother": 3500,
      "omer": 3501,
      "Ġnear": 3502,
      "48": 3503,
      "heum": 3504,
      "Ġtreatments": 3505,
      "Ġcompar": 3506,
      "roidism": 3507,
      "Ġresol": 3508,
      "Ġeffusion": 3509,
      "CP": 3510,
      "Cl": 3511,
      "iological": 3512,
      "Ġlig": 3513,
      "ĠAug": 3514,
      "acheal": 3515,
      "Ġvarious": 3516,
      "ĠPar": 3517,
      "ĠDNA": 3518,
      "Ġ67": 3519,
      "sp": 3520,
      "Ġadherence": 3521,
      "asionally": 3522,
      "37": 3523,
      "Ġothers": 3524,
      "ash": 3525,
      "ĠDisease": 3526,
      "Ġdeveloped": 3527,
      "hosis": 3528,
      "thral": 3529,
      "ouse": 3530,
      "Ġ88": 3531,
      "osphate": 3532,
      "fort": 3533,
      "ticular": 3534,
      "ching": 3535,
      "Ġbed": 3536,
      "rectal": 3537,
      "ĠAll": 3538,
      "Ġpreoperative": 3539,
      "Ġ97": 3540,
      "RE": 3541,
      "gment": 3542,
      "habil": 3543,
      "Ġplace": 3544,
      "onin": 3545,
      "Ġgreater": 3546,
      "Ġplus": 3547,
      "ĠHb": 3548,
      "encephal": 3549,
      "Ġessential": 3550,
      "Ġsodium": 3551,
      "rotid": 3552,
      "ĠSchool": 3553,
      "ION": 3554,
      "SH": 3555,
      "Ġaround": 3556,
      "tility": 3557,
      "Ġadequate": 3558,
      "hat": 3559,
      "Ġlipid": 3560,
      "Ġwhite": 3561,
      "Ġlip": 3562,
      "arean": 3563,
      "CE": 3564,
      "ton": 3565,
      "aly": 3566,
      "pect": 3567,
      "seud": 3568,
      "47": 3569,
      "Ġneurologic": 3570,
      "Ġsed": 3571,
      "Ġconcentrations": 3572,
      "pp": 3573,
      "ulitis": 3574,
      "Ġrectal": 3575,
      "Ġparac": 3576,
      "vidual": 3577,
      "Ġbile": 3578,
      "Ġhal": 3579,
      "uble": 3580,
      "Ġrelatively": 3581,
      "43": 3582,
      "Ġmorpho": 3583,
      "initis": 3584,
      "ĠCOPD": 3585,
      "Ġproblem": 3586,
      "Ġconcern": 3587,
      "ĠHa": 3588,
      "Ġtherapeutic": 3589,
      "Ġstone": 3590,
      "Ġport": 3591,
      "roscopy": 3592,
      "Ġpleural": 3593,
      "Ġfall": 3594,
      "ĠAs": 3595,
      "Ġflex": 3596,
      "ocus": 3597,
      "Ġfrequent": 3598,
      "Ġinsufficiency": 3599,
      "CA": 3600,
      "ĠAmeric": 3601,
      "Ġpred": 3602,
      "Ġ108": 3603,
      "Ġscores": 3604,
      "Table": 3605,
      "Ġ83": 3606,
      "phys": 3607,
      "Ġmit": 3608,
      "ĠCross": 3609,
      "Ġspontaneous": 3610,
      "esterol": 3611,
      "Ġexamined": 3612,
      "onal": 3613,
      "amination": 3614,
      "ament": 3615,
      "Ġepis": 3616,
      "SF": 3617,
      "Ġlymphoma": 3618,
      "Ġcannot": 3619,
      "soriasis": 3620,
      "Ġsexual": 3621,
      "ocar": 3622,
      "Ġamount": 3623,
      "Ġ86": 3624,
      "80": 3625,
      "pnea": 3626,
      "Ġnausea": 3627,
      "Ġapplication": 3628,
      "Ġ87": 3629,
      "ĠOb": 3630,
      "Ġappend": 3631,
      "Ġ2009": 3632,
      "esarean": 3633,
      "Ġdental": 3634,
      "Ġ73": 3635,
      "Ġcharacterized": 3636,
      "nic": 3637,
      "ĠAfter": 3638,
      "Ġcompare": 3639,
      "Ġachieved": 3640,
      "uls": 3641,
      "Ġ71": 3642,
      "ource": 3643,
      "Ġnodes": 3644,
      "inflammatory": 3645,
      "inine": 3646,
      "Ġexc": 3647,
      "ĠObjec": 3648,
      "Ġcoli": 3649,
      "Ġrecorded": 3650,
      "ulf": 3651,
      "Ġdifferences": 3652,
      "Ġmaintain": 3653,
      "Ġhelps": 3654,
      "cal": 3655,
      "enem": 3656,
      "Ġ63": 3657,
      "oh": 3658,
      "teb": 3659,
      "Assess": 3660,
      "58": 3661,
      "osin": 3662,
      "gnose": 3663,
      "Ġ78": 3664,
      "Ġlight": 3665,
      "Ġcontact": 3666,
      "Ġobjec": 3667,
      "troduction": 3668,
      "iol": 3669,
      "Ġcat": 3670,
      "Ġrespons": 3671,
      "ynec": 3672,
      "habilitation": 3673,
      "reg": 3674,
      "Ġmaternal": 3675,
      "RS": 3676,
      "ining": 3677,
      "Ġdrainage": 3678,
      "acerb": 3679,
      "Ġsectional": 3680,
      "Ġpractic": 3681,
      "Comp": 3682,
      "dib": 3683,
      "Ġprogression": 3684,
      "lipid": 3685,
      "Ġhip": 3686,
      "ĠDinh": 3687,
      "cluding": 3688,
      "Ġreconstruction": 3689,
      "iance": 3690,
      "Ġinp": 3691,
      "Ġphysic": 3692,
      "Ġhome": 3693,
      "gnitive": 3694,
      "Ġcanal": 3695,
      "junc": 3696,
      "Ġuniversity": 3697,
      "atig": 3698,
      "reng": 3699,
      "ĠHBV": 3700,
      "ters": 3701,
      "46": 3702,
      "Over": 3703,
      "ependent": 3704,
      "Ġservices": 3705,
      "ught": 3706,
      "Ġaffecting": 3707,
      "Ġ69": 3708,
      "ressed": 3709,
      "ĠGi": 3710,
      "entia": 3711,
      "ober": 3712,
      "Ġfix": 3713,
      "Ġnerv": 3714,
      "Ġheight": 3715,
      "NP": 3716,
      "Ġconfirm": 3717,
      "Ġfull": 3718,
      "71": 3719,
      "sing": 3720,
      "Ġosteop": 3721,
      "Ġcolo": 3722,
      "73": 3723,
      "Ġcent": 3724,
      "Ġrapidly": 3725,
      "Ġfer": 3726,
      "stand": 3727,
      "Ġmouth": 3728,
      "Ġstool": 3729,
      "Ġbegin": 3730,
      "Ġsubclinical": 3731,
      "Ġprogressive": 3732,
      "lycer": 3733,
      "ured": 3734,
      "Ġcyt": 3735,
      "86": 3736,
      "icillin": 3737,
      "ulating": 3738,
      "Ġenh": 3739,
      "ense": 3740,
      "Ġmedications": 3741,
      "Ġneonates": 3742,
      "Rec": 3743,
      "Ġhypog": 3744,
      "aphy": 3745,
      "Ġalmost": 3746,
      "Ġpass": 3747,
      "Ġmc": 3748,
      "Ġfoot": 3749,
      "Ġpylori": 3750,
      "99": 3751,
      "part": 3752,
      "angi": 3753,
      "Ġcough": 3754,
      "Ġallergic": 3755,
      "Ġsensitive": 3756,
      "Ġfibrosis": 3757,
      "Ġobstructive": 3758,
      "Ġhistopatholog": 3759,
      "Ġforeign": 3760,
      "cont": 3761,
      "Ġsecre": 3762,
      "alysis": 3763,
      "Ġnecrosis": 3764,
      "Ġ84": 3765,
      "Ġsum": 3766,
      "ĠdL": 3767,
      "Ġbur": 3768,
      "Ġtraditional": 3769,
      "Ġrecogn": 3770,
      "RP": 3771,
      "Ġgenerally": 3772,
      "CD": 3773,
      "Ne": 3774,
      "xim": 3775,
      "Ġexpression": 3776,
      "orax": 3777,
      "Ġbehavior": 3778,
      "bil": 3779,
      "Ġburn": 3780,
      "Ġpercutaneous": 3781,
      "Ġpoison": 3782,
      "ocol": 3783,
      "ĠFrom": 3784,
      "Ġselected": 3785,
      "44": 3786,
      "ĠEnd": 3787,
      "ended": 3788,
      "Ġindividual": 3789,
      "ĠRet": 3790,
      "based": 3791,
      "ĠTB": 3792,
      "Ġoperated": 3793,
      "Ġfacial": 3794,
      "70": 3795,
      "osition": 3796,
      "Ġcontraindic": 3797,
      "Ġcre": 3798,
      "acity": 3799,
      "Ġexacerb": 3800,
      "Ġspecim": 3801,
      "Ġbiliary": 3802,
      "Ġlimit": 3803,
      "pha": 3804,
      "ĠAt": 3805,
      "Ġexternal": 3806,
      "actors": 3807,
      "Ġesophageal": 3808,
      "Ġbenefit": 3809,
      "Ġconven": 3810,
      "MD": 3811,
      "].": 3812,
      "Ġtachy": 3813,
      "ĠDan": 3814,
      "See": 3815,
      "Ġroot": 3816,
      "Ġtopical": 3817,
      "Ġget": 3818,
      "ĠTra": 3819,
      "Ġimplement": 3820,
      "55": 3821,
      "Ġlater": 3822,
      "Ġplatelet": 3823,
      "Ġtooth": 3824,
      "vided": 3825,
      "Ġfung": 3826,
      "rectomy": 3827,
      "Ġtempor": 3828,
      "MA": 3829,
      "Ġmice": 3830,
      "Ġhearing": 3831,
      "atigue": 3832,
      "ĠTable": 3833,
      "Ġreducing": 3834,
      "Ġchemical": 3835,
      "Ġrespond": 3836,
      "Ġinvolves": 3837,
      "Ġmix": 3838,
      "Ġ82": 3839,
      "aracteris": 3840,
      "85": 3841,
      "Ġalways": 3842,
      "Ġfour": 3843,
      "Ġinvolvement": 3844,
      "imum": 3845,
      "Ġorig": 3846,
      "Ġcirrhosis": 3847,
      "dibular": 3848,
      "induced": 3849,
      "Ġlack": 3850,
      "Ġaltern": 3851,
      "Ġimages": 3852,
      "ĠJuly": 3853,
      "Ġcourse": 3854,
      "Ġcontent": 3855,
      "rig": 3856,
      "Ġgran": 3857,
      "openia": 3858,
      "39": 3859,
      "Ġface": 3860,
      "ibility": 3861,
      "Ġmembrane": 3862,
      "Ġversus": 3863,
      "ping": 3864,
      "Ġmes": 3865,
      "ĠTrans": 3866,
      "toma": 3867,
      "Introduction": 3868,
      "TS": 3869,
      "Ġpor": 3870,
      "Ġnow": 3871,
      "Ġuncom": 3872,
      "Ġmorbidity": 3873,
      "Ġreceptor": 3874,
      "DS": 3875,
      "Ġrad": 3876,
      "Ġmarrow": 3877,
      "ĠAcute": 3878,
      "Ġpublic": 3879,
      "pid": 3880,
      "Ġangle": 3881,
      "41": 3882,
      "erum": 3883,
      "Ġdry": 3884,
      "ubin": 3885,
      "Ġspine": 3886,
      "ulate": 3887,
      "Ġinfusion": 3888,
      "Ġ94": 3889,
      "Ġerythem": 3890,
      "arding": 3891,
      "acin": 3892,
      "Ġ98": 3893,
      "Ġcharacteristic": 3894,
      "Ġchoice": 3895,
      "Ġovarian": 3896,
      "immune": 3897,
      "lobulin": 3898,
      "ract": 3899,
      "anh": 3900,
      "rotic": 3901,
      "Ġconsider": 3902,
      "Ġstate": 3903,
      "Ġbelow": 3904,
      "Ġgestational": 3905,
      "Ġsa": 3906,
      "Ġshoulder": 3907,
      "Ġmedi": 3908,
      "istry": 3909,
      "know": 3910,
      "orosis": 3911,
      "isting": 3912,
      "iabetes": 3913,
      "ĠPer": 3914,
      "Ġ93": 3915,
      "Is": 3916,
      "Ġfocus": 3917,
      "Ġ91": 3918,
      "Ġcircum": 3919,
      "Ġnervous": 3920,
      "agul": 3921,
      "namic": 3922,
      "56": 3923,
      "Ġarr": 3924,
      "Ġreactions": 3925,
      "ĠMarch": 3926,
      "ling": 3927,
      "Ġforms": 3928,
      "ils": 3929,
      "Ġprostate": 3930,
      "iltration": 3931,
      "ying": 3932,
      "Ġintensive": 3933,
      "ĠOn": 3934,
      "Ġdiff": 3935,
      "Ġtissues": 3936,
      "PE": 3937,
      "ained": 3938,
      "valent": 3939,
      "Ġ92": 3940,
      "Ġu": 3941,
      "ences": 3942,
      "Ġstable": 3943,
      "Ġstructure": 3944,
      "96": 3945,
      "Co": 3946,
      "000": 3947,
      "Ġimpaired": 3948,
      "92": 3949,
      "upp": 3950,
      "ĠDuc": 3951,
      "ervation": 3952,
      "76": 3953,
      "tum": 3954,
      "urb": 3955,
      "opro": 3956,
      "Ġacet": 3957,
      "ĠBach": 3958,
      "aden": 3959,
      "Ġdistress": 3960,
      "onstr": 3961,
      "eline": 3962,
      "Ġtool": 3963,
      "ĠFe": 3964,
      "ivac": 3965,
      "Ġswelling": 3966,
      "Ġdefic": 3967,
      "Ġunit": 3968,
      "Ġ74": 3969,
      "Ġhospitalization": 3970,
      "Ġlimb": 3971,
      "Ġinterventions": 3972,
      "Ġantigen": 3973,
      "57": 3974,
      "Ġoperative": 3975,
      "Ġweakness": 3976,
      "ĠApril": 3977,
      "Ġrecent": 3978,
      "Ġaccomp": 3979,
      "Ġlaser": 3980,
      "Ġpe": 3981,
      "IDS": 3982,
      "lipidemia": 3983,
      "Ġalone": 3984,
      "tile": 3985,
      "Ġyour": 3986,
      "Ġpho": 3987,
      "64": 3988,
      "Ġeither": 3989,
      "Ġrot": 3990,
      "Ġischemia": 3991,
      "Ġbel": 3992,
      "ĠAD": 3993,
      "ĠMai": 3994,
      "97": 3995,
      "Im": 3996,
      "ould": 3997,
      "Ġvary": 3998,
      "ospor": 3999,
      "Ag": 4000,
      "Ġprognostic": 4001,
      "Ġadrenal": 4002,
      "Ġ81": 4003,
      "Ġenzyme": 4004,
      "ĠOver": 4005,
      "Ġcorrec": 4006,
      "Ġpreterm": 4007,
      "Ġinfectious": 4008,
      "eps": 4009,
      "Ġabsor": 4010,
      "Ġdoct": 4011,
      "Ġangiography": 4012,
      "ĠCardi": 4013,
      "Ġcaps": 4014,
      "Ġdirectly": 4015,
      "66": 4016,
      "Ġpalp": 4017,
      "physiology": 4018,
      "tember": 4019,
      "udden": 4020,
      "Ġprogress": 4021,
      "Ġwould": 4022,
      "Ġtypical": 4023,
      "CC": 4024,
      "LE": 4025,
      "ximal": 4026,
      "Ġguidelines": 4027,
      "Ġfistula": 4028,
      "54": 4029,
      "Ġrang": 4030,
      "ĠAL": 4031,
      "Ġdemonstr": 4032,
      "Ġquantit": 4033,
      "52": 4034,
      "Ġfast": 4035,
      "urg": 4036,
      "Ġpersistent": 4037,
      "born": 4038,
      "eart": 4039,
      "assium": 4040,
      "IS": 4041,
      "dose": 4042,
      "ame": 4043,
      "ĠEn": 4044,
      "Ġparents": 4045,
      "62": 4046,
      "chy": 4047,
      "ĠAP": 4048,
      "Ġtender": 4049,
      "Ġechocardiography": 4050,
      "Ġreve": 4051,
      "Ġdeveloping": 4052,
      "ĠAugust": 4053,
      "Ġiss": 4054,
      "rillation": 4055,
      "Ġfeeding": 4056,
      "nowledge": 4057,
      "Ġexperien": 4058,
      "Ġsection": 4059,
      "Ġdivided": 4060,
      "RO": 4061,
      "icardi": 4062,
      "Ġtested": 4063,
      "inated": 4064,
      "Ġsyst": 4065,
      "93": 4066,
      "actic": 4067,
      "neal": 4068,
      "Ġgraft": 4069,
      "Ġvision": 4070,
      "pler": 4071,
      "ĠDrug": 4072,
      "Ġsubt": 4073,
      "Ġexample": 4074,
      "61": 4075,
      "tingu": 4076,
      "Ġdistribution": 4077,
      "rate": 4078,
      "Ġaer": 4079,
      "lege": 4080,
      "oll": 4081,
      "Ġhalf": 4082,
      "Ġstent": 4083,
      "Ġstreng": 4084,
      "ureus": 4085,
      "Ġvaccination": 4086,
      "ĠOctober": 4087,
      "88": 4088,
      "mary": 4089,
      "asc": 4090,
      "Ġmedication": 4091,
      "Ġrelease": 4092,
      "Ġdistingu": 4093,
      "off": 4094,
      "Ġaccuracy": 4095,
      "cellular": 4096,
      "72": 4097,
      "Ġhow": 4098,
      "osinophil": 4099,
      "ĠGiang": 4100,
      "zing": 4101,
      "Ġ(>": 4102,
      "ostomy": 4103,
      "hold": 4104,
      "Ġ77": 4105,
      "produc": 4106,
      "Ġorgans": 4107,
      "known": 4108,
      "ilateral": 4109,
      "ĠDisorder": 4110,
      "Ġpancreatitis": 4111,
      "63": 4112,
      "Ġhypert": 4113,
      "Ġgu": 4114,
      "Ġendoscopy": 4115,
      "Ġprior": 4116,
      "aphyloc": 4117,
      "Ġmeet": 4118,
      "Ġintracranial": 4119,
      "98": 4120,
      "ĠCH": 4121,
      "uch": 4122,
      "Ġremoved": 4123,
      "Ġdementia": 4124,
      "dia": 4125,
      "Ġinterval": 4126,
      "ociated": 4127,
      "ĠInstitute": 4128,
      "irubin": 4129,
      "negative": 4130,
      "Ġfemoral": 4131,
      "ml": 4132,
      "enic": 4133,
      "orph": 4134,
      "ĠOr": 4135,
      "osomal": 4136,
      "agic": 4137,
      "Ġimmediately": 4138,
      "Ġcreatinine": 4139,
      "Ġstre": 4140,
      "Ġsuscep": 4141,
      "Gen": 4142,
      "ĠPharmacy": 4143,
      "Ġcolorectal": 4144,
      "Ġstrateg": 4145,
      "Ġaureus": 4146,
      "Ġaimed": 4147,
      "ĠSeptember": 4148,
      "Ġtechn": 4149,
      "Ġvessels": 4150,
      "Many": 4151,
      "Per": 4152,
      "ĠMost": 4153,
      "istant": 4154,
      "Ġaccounts": 4155,
      "lux": 4156,
      "Ġtendon": 4157,
      "Ġrehabilitation": 4158,
      "ider": 4159,
      "Ġcalled": 4160,
      "Ġsurge": 4161,
      "Ġdyspnea": 4162,
      "ngl": 4163,
      "Ġbilateral": 4164,
      "rays": 4165,
      "ional": 4166,
      "lim": 4167,
      "aphylococc": 4168,
      "ĠPT": 4169,
      "Ġaccid": 4170,
      "Ġent": 4171,
      "antages": 4172,
      "Ġcognitive": 4173,
      "oplasty": 4174,
      "Ġdiver": 4175,
      "Ġimage": 4176,
      "02": 4177,
      "edic": 4178,
      "Ġet": 4179,
      "Ġfind": 4180,
      "ĠAb": 4181,
      "istic": 4182,
      "Ġdom": 4183,
      "Ġtoler": 4184,
      "Ġdirec": 4185,
      "Ġpsoriasis": 4186,
      "Ġfatigue": 4187,
      "portive": 4188,
      "Un": 4189,
      "men": 4190,
      "Ġamp": 4191,
      "Ġing": 4192,
      "ĠAF": 4193,
      "Ġenl": 4194,
      "risk": 4195,
      "Ġmat": 4196,
      "Ġanalyzed": 4197,
      "Ġperforation": 4198,
      "wh": 4199,
      "Thus": 4200,
      "ĠInter": 4201,
      "Ġreason": 4202,
      "Ġtachycardia": 4203,
      "olytic": 4204,
      "Ġdelayed": 4205,
      "bl": 4206,
      "Ġsites": 4207,
      "Ġacquired": 4208,
      "Ġsymptomatic": 4209,
      "aracteristics": 4210,
      "Ġcri": 4211,
      "Ġadd": 4212,
      "Ġminor": 4213,
      "utions": 4214,
      "Ġdown": 4215,
      "Ġthin": 4216,
      "Ġcontaining": 4217,
      "83": 4218,
      "Ġoff": 4219,
      "odes": 4220,
      "Ġdevelops": 4221,
      "Ġclassified": 4222,
      "Ġpharmac": 4223,
      "Keyword": 4224,
      "Ġretro": 4225,
      "Ġcholesterol": 4226,
      "Ġdefined": 4227,
      "atre": 4228,
      "Ġstages": 4229,
      "ĠTho": 4230,
      "Ġcos": 4231,
      "ises": 4232,
      "Ġmaterial": 4233,
      "ape": 4234,
      "Ġmilk": 4235,
      "US": 4236,
      "including": 4237,
      "urpose": 4238,
      "Ġdepends": 4239,
      "Ġanesthetic": 4240,
      "Ġcapacity": 4241,
      "Hg": 4242,
      "Ġsuccessfully": 4243,
      "with": 4244,
      "ulations": 4245,
      "uan": 4246,
      "Ġgenes": 4247,
      "Ġepidem": 4248,
      "Ġesophag": 4249,
      "Ġimpairment": 4250,
      "Ġprep": 4251,
      "MP": 4252,
      "Ġ2008": 4253,
      "Ġpneumoniae": 4254,
      "69": 4255,
      "bal": 4256,
      "ument": 4257,
      "Ġattention": 4258,
      "Ġ89": 4259,
      "hythmias": 4260,
      "Ġlact": 4261,
      "Ġproximal": 4262,
      "Effec": 4263,
      "Ġsoftware": 4264,
      "ime": 4265,
      "ĠECG": 4266,
      "ibly": 4267,
      "Ġparticular": 4268,
      "Ġaims": 4269,
      "Ġappearance": 4270,
      "Ġdiscuss": 4271,
      "duce": 4272,
      "Ġdan": 4273,
      "Ġenergy": 4274,
      "auses": 4275,
      "82": 4276,
      "Ġstom": 4277,
      "oppler": 4278,
      "Ġinfant": 4279,
      "iotic": 4280,
      "gia": 4281,
      "kal": 4282,
      "Ġtri": 4283,
      "Ġalbumin": 4284,
      "Ġocclusion": 4285,
      "Ġmeasurement": 4286,
      "ccording": 4287,
      "ogenic": 4288,
      "Post": 4289,
      "Ġpathogen": 4290,
      "Ġchi": 4291,
      "Ġcompliance": 4292,
      "Ġvul": 4293,
      "Ġpractices": 4294,
      "Ġgall": 4295,
      "Ġaffects": 4296,
      "Ġfoods": 4297,
      "osal": 4298,
      "Ġnas": 4299,
      "Ġact": 4300,
      "Ġparas": 4301,
      "Ġgland": 4302,
      "Ġincision": 4303,
      "Ġrather": 4304,
      "ĠZ": 4305,
      "lox": 4306,
      "Ġrheum": 4307,
      "Ġregression": 4308,
      "gl": 4309,
      "Ġantico": 4310,
      "osupp": 4311,
      "Ġcomputed": 4312,
      "Ġhelpful": 4313,
      "Ġaspiration": 4314,
      "earing": 4315,
      "Ġglomer": 4316,
      "Ġmuscles": 4317,
      "Ġextra": 4318,
      "Re": 4319,
      "Ġnit": 4320,
      "Ġplant": 4321,
      "Ġcouns": 4322,
      "Ġimpact": 4323,
      "Ġder": 4324,
      "Ġdensity": 4325,
      "erat": 4326,
      "ocrine": 4327,
      "Ġwidely": 4328,
      "ask": 4329,
      "Ġexpl": 4330,
      "Ġspread": 4331,
      "Ġsystolic": 4332,
      "91": 4333,
      "Ġaw": 4334,
      "pite": 4335,
      "sm": 4336,
      "ĠRec": 4337,
      "cope": 4338,
      "Ġcommunication": 4339,
      "ties": 4340,
      "Ġsudden": 4341,
      "Ġreal": 4342,
      "ensitivity": 4343,
      "Ġlowest": 4344,
      "ĠmmHg": 4345,
      "Ġmembers": 4346,
      "Ġmovement": 4347,
      "Ġpotassium": 4348,
      "Ġevent": 4349,
      "Ġprepar": 4350,
      "Ġdepending": 4351,
      "Ġirrit": 4352,
      "ypass": 4353,
      "Ġdiagnose": 4354,
      "Ġoccasionally": 4355,
      "ĠCancer": 4356,
      "Ġfacilities": 4357,
      "atremia": 4358,
      "OL": 4359,
      "Ġens": 4360,
      "ĠHai": 4361,
      "Ġrisks": 4362,
      "Ġtoxic": 4363,
      "ochemical": 4364,
      "Ġadministration": 4365,
      "ocellular": 4366,
      "Ġprom": 4367,
      "ĠOR": 4368,
      "Ġsystems": 4369,
      "plete": 4370,
      "Ġcorrelated": 4371,
      "Ġcompression": 4372,
      "ĠMethod": 4373,
      "ocarcinoma": 4374,
      "Ġencephal": 4375,
      "Ġeating": 4376,
      "Ġdescribed": 4377,
      "Ġhypotension": 4378,
      "partum": 4379,
      "ffic": 4380,
      "ising": 4381,
      "Ġmob": 4382,
      "LA": 4383,
      "itud": 4384,
      "Ġthrombocyt": 4385,
      "Ġosteoporosis": 4386,
      "astom": 4387,
      "arrow": 4388,
      "Ġleukemia": 4389,
      "atous": 4390,
      "Ġdrin": 4391,
      "Ġfibrillation": 4392,
      "grade": 4393,
      "77": 4394,
      "kle": 4395,
      "side": 4396,
      "Ġsegment": 4397,
      "Ġkin": 4398,
      "Ġintravenous": 4399,
      "51": 4400,
      "Ġcop": 4401,
      "NT": 4402,
      "ĠHyper": 4403,
      "03": 4404,
      "Ġintubation": 4405,
      "Ġextraction": 4406,
      "Ġimproving": 4407,
      "ception": 4408,
      "uman": 4409,
      "Ġfeas": 4410,
      "Ġcompletely": 4411,
      "81": 4412,
      "Ġbase": 4413,
      "odialysis": 4414,
      "ĠHep": 4415,
      "Ġamin": 4416,
      "ids": 4417,
      "Ġ79": 4418,
      "Ġmel": 4419,
      "Ġreceiving": 4420,
      "aun": 4421,
      "Ġpa": 4422,
      "Ġmitral": 4423,
      "Ġdietary": 4424,
      "Ġanalgesia": 4425,
      "Ġparaclinical": 4426,
      "ĠAmerican": 4427,
      "Ġpoisoning": 4428,
      "ores": 4429,
      "ipment": 4430,
      "Ġbypass": 4431,
      "Ġmul": 4432,
      "oman": 4433,
      "ĠHyp": 4434,
      "Ġnodules": 4435,
      "Ġcholec": 4436,
      "olysis": 4437,
      "Ġthoracic": 4438,
      "Ġinfluenz": 4439,
      "Ġexcessive": 4440,
      "umab": 4441,
      "oxid": 4442,
      "87": 4443,
      "VT": 4444,
      "Ġnail": 4445,
      "Ġvalid": 4446,
      "Ġvari": 4447,
      "uscitation": 4448,
      "Ġmediast": 4449,
      "49": 4450,
      "stage": 4451,
      "Ġsepar": 4452,
      "Ġcommune": 4453,
      "'t": 4454,
      "itable": 4455,
      "Ġalong": 4456,
      "trum": 4457,
      "Ġprimarily": 4458,
      "ĠPrevention": 4459,
      "89": 4460,
      "ĠProspective": 4461,
      "quam": 4462,
      "Ġadditional": 4463,
      "Ġprotocol": 4464,
      "âĢĻ": 4465,
      "rac": 4466,
      "Ġhemoglobin": 4467,
      "Ġresidual": 4468,
      "Ġcarotid": 4469,
      "Ġsynt": 4470,
      "nglish": 4471,
      "Ġradical": 4472,
      "PH": 4473,
      "Ġinitially": 4474,
      "isc": 4475,
      "Ġant": 4476,
      "Ġfil": 4477,
      "Ġevaluating": 4478,
      "Ġnucle": 4479,
      "Ġunknown": 4480,
      "Ġmolecular": 4481,
      "tif": 4482,
      "ork": 4483,
      "eptic": 4484,
      "ĠWith": 4485,
      "Ġstain": 4486,
      "Ġulcers": 4487,
      "arin": 4488,
      "oli": 4489,
      "Ġabsence": 4490,
      "osterone": 4491,
      "Ġrestric": 4492,
      "Ġtransmission": 4493,
      "Ġsci": 4494,
      "Ġ2023": 4495,
      "Ġmetastatic": 4496,
      "Ġskills": 4497,
      "rimary": 4498,
      "hort": 4499,
      "Ġ500": 4500,
      "ontin": 4501,
      "ephal": 4502,
      "Ġunits": 4503,
      "ithel": 4504,
      "Ġnewborn": 4505,
      "piratory": 4506,
      "Ġ(+": 4507,
      "Ġstric": 4508,
      "Ġathe": 4509,
      "Ġexclud": 4510,
      "68": 4511,
      "Ġwors": 4512,
      "Ġmonit": 4513,
      "ĠÎ²": 4514,
      "ĠSometimes": 4515,
      "ĠTr": 4516,
      "Ġdoi": 4517,
      "athophysiology": 4518,
      "Ġuterine": 4519,
      "ivacaine": 4520,
      "Ġhair": 4521,
      "Ġinsertion": 4522,
      "ta": 4523,
      "ectr": 4524,
      "ĠStudy": 4525,
      "Ġleak": 4526,
      "Ġappears": 4527,
      "urance": 4528,
      "Ġcorneal": 4529,
      "Ġenough": 4530,
      "Ġinjec": 4531,
      "Ġfamil": 4532,
      "ĠCollege": 4533,
      "feeding": 4534,
      "draw": 4535,
      "Ġstar": 4536,
      "Ġverteb": 4537,
      "Ġcry": 4538,
      "ĠSe": 4539,
      "Ġdecreases": 4540,
      "Ġprophylaxis": 4541,
      "Ãł": 4542,
      "arthritis": 4543,
      "Ġopi": 4544,
      "Ġrecords": 4545,
      "Ġcysts": 4546,
      "Among": 4547,
      "ĠSyndrom": 4548,
      "thalm": 4549,
      "Ġlymphocy": 4550,
      "Ġpy": 4551,
      "ĠHPV": 4552,
      "Ġclinicians": 4553,
      "Ġhouse": 4554,
      "Ġenhance": 4555,
      "Ġ(<": 4556,
      "aparoscopic": 4557,
      "Ġremains": 4558,
      "Ġstomach": 4559,
      "ĠIt": 4560,
      "Ġcontribute": 4561,
      "Ġnat": 4562,
      "ips": 4563,
      "arged": 4564,
      "78": 4565,
      "phy": 4566,
      "Ġpolyps": 4567,
      "Ġparticipants": 4568,
      "ĠICU": 4569,
      "rist": 4570,
      "Ġgir": 4571,
      "ĠHCC": 4572,
      "ittle": 4573,
      "Ġautoimmune": 4574,
      "Ġsulf": 4575,
      "Ġproduct": 4576,
      "unting": 4577,
      "Ġshe": 4578,
      "lyc": 4579,
      "ĠBlood": 4580,
      "Ġprovides": 4581,
      "Ġinhibitor": 4582,
      "robial": 4583,
      "osus": 4584,
      "ĠAIDS": 4585,
      "Ġtraumatic": 4586,
      "Ġpow": 4587,
      "Ġbranch": 4588,
      "Ġstart": 4589,
      "Ġsuper": 4590,
      "stetrics": 4591,
      "EP": 4592,
      "otox": 4593,
      "Ġperiodon": 4594,
      "ituitary": 4595,
      "ococcal": 4596,
      "aundic": 4597,
      "84": 4598,
      "Risk": 4599,
      "xy": 4600,
      "rest": 4601,
      "Ġsee": 4602,
      "Ġhypertensive": 4603,
      "ĠMin": 4604,
      "Ġful": 4605,
      "omical": 4606,
      "Ġindicate": 4607,
      "ocyte": 4608,
      "Ġsummary": 4609,
      "Ġcompounds": 4610,
      "Ġgram": 4611,
      "ventricular": 4612,
      "Ġbro": 4613,
      "Ġquite": 4614,
      "74": 4615,
      "ene": 4616,
      "ĠComp": 4617,
      "Ġrelief": 4618,
      "thyroid": 4619,
      "tip": 4620,
      "eli": 4621,
      "othorax": 4622,
      "Ġgradually": 4623,
      "Ġspace": 4624,
      "Ġestimated": 4625,
      "04": 4626,
      "94": 4627,
      "Ġasc": 4628,
      "Ġmye": 4629,
      "Factors": 4630,
      "ĠMR": 4631,
      "ĠMS": 4632,
      "astro": 4633,
      "ĠThanh": 4634,
      "ĠSurgery": 4635,
      "otr": 4636,
      "over": 4637,
      "igure": 4638,
      "ĠES": 4639,
      "ports": 4640,
      "Ġdisturb": 4641,
      "Ġoptimal": 4642,
      "Ġves": 4643,
      "ĠMy": 4644,
      "Ġdiffuse": 4645,
      "day": 4646,
      "ocl": 4647,
      "itamin": 4648,
      "Ġtrigger": 4649,
      "inol": 4650,
      "Ġjoints": 4651,
      "Ġanomal": 4652,
      "Ġconclusion": 4653,
      "Ġconsequ": 4654,
      "Ġnoted": 4655,
      "ĠGI": 4656,
      "Ġreturn": 4657,
      "Ġadolescents": 4658,
      "Ġmonitored": 4659,
      "aundice": 4660,
      "ongue": 4661,
      "Ġdefin": 4662,
      "79": 4663,
      "Ġslight": 4664,
      "astolic": 4665,
      "Ġhealing": 4666,
      "Ġefficiency": 4667,
      "Ġmetabolism": 4668,
      "xia": 4669,
      "Ġthickness": 4670,
      "actam": 4671,
      "ĠChronic": 4672,
      "ET": 4673,
      "Purpose": 4674,
      "Ġ99": 4675,
      "ĠGia": 4676,
      "Ġexperim": 4677,
      "erative": 4678,
      "Ġdim": 4679,
      "upus": 4680,
      "bital": 4681,
      "yle": 4682,
      "Ġfetus": 4683,
      "Ġlarger": 4684,
      "Ġanastom": 4685,
      "Ġdengue": 4686,
      "Ġchlor": 4687,
      "Ġcareg": 4688,
      "ocytes": 4689,
      "Ġprescrib": 4690,
      "ED": 4691,
      "Ġcomparison": 4692,
      "Ġmedium": 4693,
      "version": 4694,
      "Ġstatistical": 4695,
      "Ġcontracep": 4696,
      "Ġtransfer": 4697,
      "CH": 4698,
      "MR": 4699,
      "rect": 4700,
      "Ġsetting": 4701,
      "ĠAV": 4702,
      "Evaluate": 4703,
      "Ġchain": 4704,
      "Ġcomponents": 4705,
      "IL": 4706,
      "free": 4707,
      "Ġfocal": 4708,
      "etr": 4709,
      "Ġlittle": 4710,
      "hysical": 4711,
      "MS": 4712,
      "ĠAss": 4713,
      "ert": 4714,
      "Ġchall": 4715,
      "ĠSub": 4716,
      "Ġhemody": 4717,
      "throp": 4718,
      "Early": 4719,
      "iologic": 4720,
      "hep": 4721,
      "Ġsource": 4722,
      "Ġendomet": 4723,
      "Ġdisloc": 4724,
      "Ġmostly": 4725,
      "Ġattack": 4726,
      "Ġstructures": 4727,
      "iopathic": 4728,
      "Ġconventional": 4729,
      "icitis": 4730,
      "Ġparalysis": 4731,
      "onance": 4732,
      "ĠHeart": 4733,
      "Ġalve": 4734,
      "inate": 4735,
      "ĠpH": 4736,
      "ulatory": 4737,
      "entially": 4738,
      "load": 4739,
      "ĠBe": 4740,
      "positive": 4741,
      "ots": 4742,
      "ortion": 4743,
      "va": 4744,
      "Ġsensory": 4745,
      "Ġabsent": 4746,
      "ĠEvaluation": 4747,
      "junctiv": 4748,
      "IP": 4749,
      "onitis": 4750,
      "hyroidism": 4751,
      "Ġimmunosupp": 4752,
      "Ġcesarean": 4753,
      "hers": 4754,
      "ĠHoa": 4755,
      "Ġherni": 4756,
      "Ġepidural": 4757,
      "Ġpurpose": 4758,
      "CV": 4759,
      "],": 4760,
      "lock": 4761,
      "Ġages": 4762,
      "Ġureteral": 4763,
      "ypical": 4764,
      "gestion": 4765,
      "Ġ2007": 4766,
      "quamous": 4767,
      "ĠPediatric": 4768,
      "ĠDong": 4769,
      "hydro": 4770,
      "Ġpath": 4771,
      "Ġduod": 4772,
      "activ": 4773,
      "ets": 4774,
      "Ġunless": 4775,
      "Ġhemodialysis": 4776,
      "Ġminute": 4777,
      "ophageal": 4778,
      "effec": 4779,
      "Ġindependent": 4780,
      "59": 4781,
      "allow": 4782,
      "Ġmarkers": 4783,
      "NS": 4784,
      "Ġtear": 4785,
      "here": 4786,
      "Ġmolar": 4787,
      "Ġproduce": 4788,
      "Ġmcg": 4789,
      "Ġray": 4790,
      "Ġwar": 4791,
      "ilic": 4792,
      "orrhea": 4793,
      "agon": 4794,
      "Ġminh": 4795,
      "Ġmalaria": 4796,
      "uff": 4797,
      "Knowledge": 4798,
      "Ġpast": 4799,
      "Ġmill": 4800,
      "astric": 4801,
      "ĠAND": 4802,
      "Ġunderstand": 4803,
      "Ġmedia": 4804,
      "Ġcurve": 4805,
      "Ġconsumption": 4806,
      "Rel": 4807,
      "Ġpathology": 4808,
      "Ġbreathing": 4809,
      "clus": 4810,
      "Ġwhole": 4811,
      "Ġsubcutaneous": 4812,
      "Characteristics": 4813,
      "Ġobjective": 4814,
      "ltras": 4815,
      "oring": 4816,
      "osing": 4817,
      "Ġmarked": 4818,
      "ĠLDL": 4819,
      "tenance": 4820,
      "Ġpsych": 4821,
      "Ġelectroly": 4822,
      "He": 4823,
      "Ġconn": 4824,
      "Ġmechanism": 4825,
      "Ġsuitable": 4826,
      "HA": 4827,
      "tide": 4828,
      "omeg": 4829,
      "2012": 4830,
      "Ġlocated": 4831,
      "lastic": 4832,
      "Ġleads": 4833,
      "ru": 4834,
      "Ġcultures": 4835,
      "lycemic": 4836,
      "Ġspecimens": 4837,
      "One": 4838,
      "eas": 4839,
      "Ġdeform": 4840,
      "Ġgenotype": 4841,
      "Ġfraction": 4842,
      "Ġaccompan": 4843,
      "Ġanimal": 4844,
      "Ġpla": 4845,
      "More": 4846,
      "Ġtow": 4847,
      "Ġnorm": 4848,
      "Ġprote": 4849,
      "Ġinterview": 4850,
      "Ġdyslipidemia": 4851,
      "Ġhernia": 4852,
      "Ġdissection": 4853,
      "Ġprofess": 4854,
      "Ġprovided": 4855,
      "Ġligament": 4856,
      "GFR": 4857,
      "actions": 4858,
      "try": 4859,
      "trans": 4860,
      "Ġinduced": 4861,
      "ĠPa": 4862,
      "app": 4863,
      "Ġhepatocellular": 4864,
      "Ġvaccines": 4865,
      "amide": 4866,
      "ĠEtiology": 4867,
      "perm": 4868,
      "Ġvariab": 4869,
      "Ġelevation": 4870,
      "ĠHbA": 4871,
      "cious": 4872,
      "Ġwithdraw": 4873,
      "Ġinferior": 4874,
      "Ġtrop": 4875,
      "letal": 4876,
      "Ġidiopathic": 4877,
      "Ġremove": 4878,
      "Ġsuic": 4879,
      "06": 4880,
      "esting": 4881,
      "Ġrelation": 4882,
      "Ġrepres": 4883,
      "Ġcirculation": 4884,
      "Ġalternative": 4885,
      "Ġlev": 4886,
      "Ġrepeated": 4887,
      "BL": 4888,
      "Ġsem": 4889,
      "osoc": 4890,
      "ĠÂµ": 4891,
      "keletal": 4892,
      "Ġsoon": 4893,
      "Ġventric": 4894,
      "itic": 4895,
      "Ġpericardi": 4896,
      "rosur": 4897,
      "Ġmodified": 4898,
      "ĠHCMC": 4899,
      "Ġoutpatient": 4900,
      "Ġtoo": 4901,
      "ietnam": 4902,
      "Ġspe": 4903,
      "Ġformation": 4904,
      "Ġchildhood": 4905,
      "natal": 4906,
      "Ġect": 4907,
      "Ġoil": 4908,
      "organ": 4909,
      "Ġbeg": 4910,
      "generation": 4911,
      "overed": 4912,
      "ii": 4913,
      "ife": 4914,
      "iring": 4915,
      "Ġresuscitation": 4916,
      "Ġsuggested": 4917,
      "ĠSyndrome": 4918,
      "Ġsyndromes": 4919,
      "resistant": 4920,
      "Ġregimens": 4921,
      "Acute": 4922,
      "wide": 4923,
      "Ġtongue": 4924,
      "idal": 4925,
      "Ġortho": 4926,
      "ĠAT": 4927,
      "Ġplacement": 4928,
      "ĠInfec": 4929,
      "Ġsolid": 4930,
      "ĠPET": 4931,
      "atoid": 4932,
      "Ġmandibular": 4933,
      "Ġtwice": 4934,
      "omegaly": 4935,
      "Ġenti": 4936,
      "ĠGroup": 4937,
      "acterial": 4938,
      "hens": 4939,
      "Ġatheros": 4940,
      "Ġpup": 4941,
      "ovirus": 4942,
      "onatremia": 4943,
      "Ġresonance": 4944,
      "ĠPl": 4945,
      "Ġelectr": 4946,
      "Ġcounseling": 4947,
      "denti": 4948,
      "Ġswe": 4949,
      "ĠCons": 4950,
      "ĠNT": 4951,
      "Ġindications": 4952,
      "ENT": 4953,
      "Ġmaximum": 4954,
      "Ġeosinophil": 4955,
      "ĠLV": 4956,
      "aching": 4957,
      "Ġmotion": 4958,
      "Ġtenderness": 4959,
      "UT": 4960,
      "itting": 4961,
      "Ġhom": 4962,
      "ĠIf": 4963,
      "fered": 4964,
      "Ġdecomp": 4965,
      "Ġcomplicated": 4966,
      "Ġreduces": 4967,
      "Ġportal": 4968,
      "CS": 4969,
      "domen": 4970,
      "Ġdialysis": 4971,
      "Ġ(%)": 4972,
      "ĠMan": 4973,
      "itial": 4974,
      "Ġjaundice": 4975,
      "Ġprescri": 4976,
      "ĠDisorders": 4977,
      "PCR": 4978,
      "upuncture": 4979,
      "Ġhemorrhagic": 4980,
      "Ġmorphology": 4981,
      "PL": 4982,
      "rd": 4983,
      "Ġintr": 4984,
      "ocomp": 4985,
      "Ġcorticosteroid": 4986,
      "ik": 4987,
      "Ġpulse": 4988,
      "Ġvaric": 4989,
      "Ġhyd": 4990,
      "Ġmetastases": 4991,
      "auc": 4992,
      "Ġcand": 4993,
      "Ġroom": 4994,
      "Ġepile": 4995,
      "Ġpresented": 4996,
      "Ġreceive": 4997,
      "Ġembolism": 4998,
      "otracheal": 4999,
      "bit": 5000,
      "ze": 5001,
      "English": 5002,
      "Med": 5003,
      "Ġcolor": 5004,
      "Ġauthors": 5005,
      "Ġbul": 5006,
      "Ġreference": 5007,
      "Ġliter": 5008,
      "Ġresear": 5009,
      "Ġgenital": 5010,
      "Ġdermatitis": 5011,
      "ush": 5012,
      "oidal": 5013,
      "Ġdonor": 5014,
      "Ġsignificance": 5015,
      "Assessment": 5016,
      "Ġcutaneous": 5017,
      "Ġfield": 5018,
      "associated": 5019,
      "microbial": 5020,
      "Ġrandomized": 5021,
      "Ġdeficits": 5022,
      "FA": 5023,
      "rox": 5024,
      "teral": 5025,
      "yph": 5026,
      "ĠWHO": 5027,
      "pes": 5028,
      "Ġfinger": 5029,
      "Ġtransplant": 5030,
      "UC": 5031,
      "cology": 5032,
      "oarthritis": 5033,
      "loon": 5034,
      "Ġlab": 5035,
      "Ġproduced": 5036,
      "Ġuncommon": 5037,
      "Ġnose": 5038,
      "Ġgon": 5039,
      "ĠLong": 5040,
      "Ġlymphaden": 5041,
      "Ġdeaths": 5042,
      "ĠCK": 5043,
      "Ġattem": 5044,
      "titial": 5045,
      "Ġelim": 5046,
      "ĠResearch": 5047,
      "Ġstandards": 5048,
      "oses": 5049,
      "Ġlearning": 5050,
      "Ġregurg": 5051,
      "Ġethnic": 5052,
      "rad": 5053,
      "iform": 5054,
      "ock": 5055,
      "Ġminimal": 5056,
      "Ġacidosis": 5057,
      "yg": 5058,
      "used": 5059,
      "lets": 5060,
      "Ġperman": 5061,
      "Ġcoagulation": 5062,
      "Ġpostpartum": 5063,
      "2015": 5064,
      "Ġgirls": 5065,
      "BNP": 5066,
      "Ġwal": 5067,
      "ote": 5068,
      "Ġtrim": 5069,
      "erves": 5070,
      "Ġpremature": 5071,
      "Ġarrhythmias": 5072,
      "etry": 5073,
      "idine": 5074,
      "Ġpredom": 5075,
      "Ġcavity": 5076,
      "Ġenrolled": 5077,
      "Ġdifficulty": 5078,
      "Complications": 5079,
      "Ġtrials": 5080,
      "End": 5081,
      "ived": 5082,
      "alass": 5083,
      "Ġhealthcare": 5084,
      "Ġachieve": 5085,
      "ats": 5086,
      "Ġarm": 5087,
      "Ġnarrow": 5088,
      "ĠMore": 5089,
      "plasty": 5090,
      "Ġload": 5091,
      "Surgical": 5092,
      "acts": 5093,
      "operation": 5094,
      "Ġorganisms": 5095,
      "About": 5096,
      "Ġfluor": 5097,
      "Ġperformance": 5098,
      "Ġod": 5099,
      "Ġmig": 5100,
      "aces": 5101,
      "Ġ120": 5102,
      "elf": 5103,
      "Ġvitro": 5104,
      "Ġsaid": 5105,
      "Ġnatural": 5106,
      "DA": 5107,
      "Data": 5108,
      "âī": 5109,
      "Ġperi": 5110,
      "Ġagg": 5111,
      "2010": 5112,
      "ĠSup": 5113,
      "Ġexcre": 5114,
      "Ġalpha": 5115,
      "Ġsuperior": 5116,
      "Ġcaries": 5117,
      "kinson": 5118,
      "Ġetiology": 5119,
      "Ġpreferred": 5120,
      "Ġregular": 5121,
      "Ġindicators": 5122,
      "OP": 5123,
      "])": 5124,
      "Ġbot": 5125,
      "ida": 5126,
      "Ġlat": 5127,
      "Ġhematoma": 5128,
      "Ġreached": 5129,
      "inding": 5130,
      "Ġexcept": 5131,
      "Ġ2005": 5132,
      "ĠInformation": 5133,
      "Ġagent": 5134,
      "Ġpossibly": 5135,
      "Ġtransmitted": 5136,
      "According": 5137,
      "rant": 5138,
      "Ġann": 5139,
      "Ġaccurate": 5140,
      "Ġpathogens": 5141,
      "Ġaneurysm": 5142,
      "wo": 5143,
      "onds": 5144,
      "atosis": 5145,
      "ĠControl": 5146,
      "uity": 5147,
      "usually": 5148,
      "Ġdepend": 5149,
      "Ġaccompanied": 5150,
      "ventive": 5151,
      "ĠPhD": 5152,
      "Ġstimulation": 5153,
      "De": 5154,
      "RA": 5155,
      "oration": 5156,
      "ocon": 5157,
      "Ġable": 5158,
      "avy": 5159,
      "ĠCommon": 5160,
      "ĠRetrospective": 5161,
      "Ġphot": 5162,
      "Our": 5163,
      "ched": 5164,
      "tition": 5165,
      "lastoma": 5166,
      "Ġpolyp": 5167,
      "Ġbreath": 5168,
      "09": 5169,
      "anol": 5170,
      "Ġbodies": 5171,
      "Ġdevices": 5172,
      "Ġdiastolic": 5173,
      "Ġmagnetic": 5174,
      "ynecology": 5175,
      "uv": 5176,
      "ify": 5177,
      "Ġdisability": 5178,
      "Ġaccept": 5179,
      "ests": 5180,
      "ria": 5181,
      "xt": 5182,
      "Ġmaking": 5183,
      "Ġacne": 5184,
      "Children": 5185,
      "Ġattitudes": 5186,
      "Ġquantitative": 5187,
      "Ġdest": 5188,
      "Ġway": 5189,
      "posed": 5190,
      "Ġsaline": 5191,
      "Ġfal": 5192,
      "rams": 5193,
      "month": 5194,
      "Ġpresentation": 5195,
      "Ġepisodes": 5196,
      "otrop": 5197,
      "ĠQuang": 5198,
      "Ġborder": 5199,
      "ressing": 5200,
      "ocytosis": 5201,
      "08": 5202,
      "Etiology": 5203,
      "Ġreproduc": 5204,
      "Ġveget": 5205,
      "Ġpituitary": 5206,
      "Ġfron": 5207,
      "Ġpolym": 5208,
      "Common": 5209,
      "Ġplaced": 5210,
      "Ġbenefits": 5211,
      "Ġpatterns": 5212,
      "Ġhs": 5213,
      "istory": 5214,
      "Ġpainful": 5215,
      "Ġliqu": 5216,
      "Ġterms": 5217,
      "Ġanatomical": 5218,
      "Ġestablish": 5219,
      "GA": 5220,
      "OT": 5221,
      "PA": 5222,
      "bre": 5223,
      "ili": 5224,
      "Ġlive": 5225,
      "ump": 5226,
      "Ġhypox": 5227,
      "Ġinfer": 5228,
      "Hyp": 5229,
      "acill": 5230,
      "Ġgive": 5231,
      "romycin": 5232,
      "Investig": 5233,
      "Ġgraf": 5234,
      "Ġsn": 5235,
      "aches": 5236,
      "ĠTotal": 5237,
      "ultaneous": 5238,
      "Ġcyto": 5239,
      "Ġwhose": 5240,
      "Ġantimicrobial": 5241,
      "uinal": 5242,
      "utum": 5243,
      "ĠDoppler": 5244,
      "Ġjust": 5245,
      "Ġexcision": 5246,
      "ĠSoc": 5247,
      "Ġabdomen": 5248,
      "Ġpredicting": 5249,
      "Ġmucosa": 5250,
      "bo": 5251,
      "upivacaine": 5252,
      "Ġdevice": 5253,
      "Ġdouble": 5254,
      "ĠPhu": 5255,
      "Ġexposed": 5256,
      "Ġhypothyroidism": 5257,
      "oxidant": 5258,
      "ĠMet": 5259,
      "ĠNon": 5260,
      "ociation": 5261,
      "Ġcephal": 5262,
      "Ġlupus": 5263,
      "cemia": 5264,
      "2011": 5265,
      "UR": 5266,
      "ancies": 5267,
      "Ġlungs": 5268,
      "ĠMean": 5269,
      "Ġqual": 5270,
      "Ġregurgitation": 5271,
      "rs": 5272,
      "Ġlith": 5273,
      "Ġplay": 5274,
      "Ġquick": 5275,
      "Ġdescription": 5276,
      "Prevalence": 5277,
      "Ġinfluence": 5278,
      "Survey": 5279,
      "Ġapply": 5280,
      "Ġgranul": 5281,
      "acent": 5282,
      "Ġunex": 5283,
      "Ġmaintenance": 5284,
      "Ġoperating": 5285,
      "Ġoccupational": 5286,
      "Ġtib": 5287,
      "otypes": 5288,
      "Ġreflux": 5289,
      "Ġestablished": 5290,
      "Ġinfluenza": 5291,
      "Of": 5292,
      "RT": 5293,
      "Ġmaterials": 5294,
      "usted": 5295,
      "ems": 5296,
      "ĠPhong": 5297,
      "Ġclosure": 5298,
      "Ġstrength": 5299,
      "Ġtro": 5300,
      "Ġinst": 5301,
      "uscular": 5302,
      "acial": 5303,
      "Ġatrophy": 5304,
      "Ġassay": 5305,
      "orbid": 5306,
      "ĠHF": 5307,
      "Ġabsorption": 5308,
      "loxacin": 5309,
      "From": 5310,
      "ĠGl": 5311,
      "ogram": 5312,
      "MT": 5313,
      "ave": 5314,
      "chol": 5315,
      "inces": 5316,
      "entan": 5317,
      "Ġaccount": 5318,
      "levant": 5319,
      "Ġtherapies": 5320,
      "infec": 5321,
      "Ġthesis": 5322,
      "astic": 5323,
      "Ġoptic": 5324,
      "Ġepithel": 5325,
      "Ġana": 5326,
      "Ġinvas": 5327,
      "icin": 5328,
      "ilis": 5329,
      "Ġpedic": 5330,
      "Ġinstr": 5331,
      "Ġgain": 5332,
      "iaz": 5333,
      "Ġeg": 5334,
      "ĠDo": 5335,
      "ĠInf": 5336,
      "Ġsch": 5337,
      "aris": 5338,
      "artments": 5339,
      "Ġclosed": 5340,
      "Ġaneurysms": 5341,
      "Ġsix": 5342,
      "Ġrevers": 5343,
      "ĠCare": 5344,
      "lobal": 5345,
      "aturation": 5346,
      "mentation": 5347,
      "Ġrash": 5348,
      "Ġcystic": 5349,
      "Ġthought": 5350,
      "Ġorigin": 5351,
      "Ġdistinguish": 5352,
      "Ġ(+)": 5353,
      "Treat": 5354,
      "wise": 5355,
      "phthalm": 5356,
      "ocarditis": 5357,
      "Ġadvantages": 5358,
      "EV": 5359,
      "zed": 5360,
      "peritoneal": 5361,
      "resis": 5362,
      "Ġretin": 5363,
      "Ġsusp": 5364,
      "Ġpreventing": 5365,
      "Ġreflex": 5366,
      "hepatic": 5367,
      "anic": 5368,
      "Ġscienti": 5369,
      "Ġaort": 5370,
      "Ġsperm": 5371,
      "Ġba": 5372,
      "Ġprovinces": 5373,
      "Ġguide": 5374,
      "nis": 5375,
      "aced": 5376,
      "Ġlay": 5377,
      "opo": 5378,
      "2013": 5379,
      "Ġventil": 5380,
      "Ġadenocarcinoma": 5381,
      "During": 5382,
      "FS": 5383,
      "Ġ150": 5384,
      "Ġfixation": 5385,
      "PT": 5386,
      "Ġmast": 5387,
      "ims": 5388,
      "Ġextreme": 5389,
      "Ġprobably": 5390,
      "07": 5391,
      "Ġfive": 5392,
      "acc": 5393,
      "ĠPost": 5394,
      "Par": 5395,
      "ĠDa": 5396,
      "Ġsupportive": 5397,
      "ector": 5398,
      "Ġenzymes": 5399,
      "apenem": 5400,
      "2014": 5401,
      "arynx": 5402,
      "Ġoutpatients": 5403,
      "Ġcal": 5404,
      "Ġdispl": 5405,
      "cline": 5406,
      "Ġspp": 5407,
      "ropenia": 5408,
      "from": 5409,
      "Ġcold": 5410,
      "Ġmicrob": 5411,
      "Drug": 5412,
      "Ġconsult": 5413,
      "Ġ2006": 5414,
      "Ġballoon": 5415,
      "Ġappendicitis": 5416,
      "Ġpermanent": 5417,
      "stim": 5418,
      "Ġdied": 5419,
      "ariate": 5420,
      "ĠDeterm": 5421,
      "Ġfungal": 5422,
      "clusive": 5423,
      "bow": 5424,
      "Ġbar": 5425,
      "Ġview": 5426,
      "Ġindication": 5427,
      "arent": 5428,
      "Ġsequen": 5429,
      "Ġchromos": 5430,
      "ĠâĢĵ": 5431,
      "radi": 5432,
      "ĠCSF": 5433,
      "ĠCRP": 5434,
      "Ġacuity": 5435,
      "ĠVAS": 5436,
      "Ġcontamin": 5437,
      "dications": 5438,
      "ĠObjectives": 5439,
      "Ġdetermination": 5440,
      "Ġseptal": 5441,
      "Ġveins": 5442,
      "Â°": 5443,
      "Ġthres": 5444,
      "Ġconc": 5445,
      "Ġsubsequ": 5446,
      "Ġidentification": 5447,
      "SAID": 5448,
      "ushing": 5449,
      "Ġservice": 5450,
      "Ġtransient": 5451,
      "Ġcorrel": 5452,
      "ĠImmun": 5453,
      "Ġcenters": 5454,
      "Ġstaging": 5455,
      "ifferen": 5456,
      "Ġkidneys": 5457,
      "Ġdespite": 5458,
      "Ġpreviously": 5459,
      "Ġhypoglycemia": 5460,
      "DM": 5461,
      "Ġwid": 5462,
      "ables": 5463,
      "Ġhyponatremia": 5464,
      "orrho": 5465,
      "Ġbreastfeeding": 5466,
      "Ġlocalized": 5467,
      "Ġbilirubin": 5468,
      "Ġcritical": 5469,
      "Ġperitoneal": 5470,
      "iodine": 5471,
      "Ġcommunes": 5472,
      "ĠStaphylococc": 5473,
      "Ġnephrotic": 5474,
      "Hyper": 5475,
      "rors": 5476,
      "Ġsick": 5477,
      "Ġbecomes": 5478,
      "Ġrequiring": 5479,
      "Ġurethral": 5480,
      "IA": 5481,
      "dep": 5482,
      "flow": 5483,
      "oce": 5484,
      "Ġburden": 5485,
      "Ġsince": 5486,
      "Ġarrest": 5487,
      "Ġinters": 5488,
      "Ġirrig": 5489,
      "ras": 5490,
      "Ġpack": 5491,
      "Ġdri": 5492,
      "ĠOverview": 5493,
      "Ġconst": 5494,
      "stemic": 5495,
      "Ġretinal": 5496,
      "Ġembry": 5497,
      "ĠConclusions": 5498,
      "Ġinvasion": 5499,
      "PR": 5500,
      "mber": 5501,
      "Ġpseud": 5502,
      "Ġnerves": 5503,
      "ocaine": 5504,
      "Ġextensive": 5505,
      "ĠNew": 5506,
      "Ġslightly": 5507,
      "Ġflo": 5508,
      "Ġhard": 5509,
      "uric": 5510,
      "ĠTHE": 5511,
      "kines": 5512,
      "Ġclearance": 5513,
      "Ġreproductive": 5514,
      "KI": 5515,
      "tox": 5516,
      "anc": 5517,
      "Ġhands": 5518,
      "Ġextent": 5519,
      "ausal": 5520,
      "Ġstimul": 5521,
      "Determ": 5522,
      "Ġnext": 5523,
      "Ġinvolving": 5524,
      "Evaluating": 5525,
      "Ġpopular": 5526,
      "Ġeffectively": 5527,
      "Ġ300": 5528,
      "ĠNinh": 5529,
      "Cont": 5530,
      "Ġdiagnosing": 5531,
      "Ġleaves": 5532,
      "which": 5533,
      "Ġthrombocytopenia": 5534,
      "thyroidism": 5535,
      "pre": 5536,
      "imer": 5537,
      "raz": 5538,
      "uma": 5539,
      "Ġsym": 5540,
      "Ġflaps": 5541,
      "Ġdemonstrated": 5542,
      "itate": 5543,
      "otri": 5544,
      "Ġvietnam": 5545,
      "Ġregions": 5546,
      "Ġincontin": 5547,
      "Ġcycle": 5548,
      "Ġfully": 5549,
      "AV": 5550,
      "Ġaz": 5551,
      "Ġmight": 5552,
      "Ġapnea": 5553,
      "Ġnumb": 5554,
      "Ġauthor": 5555,
      "Ġnonspecific": 5556,
      "ging": 5557,
      "Ġmis": 5558,
      "opausal": 5559,
      "Ġrub": 5560,
      "Ġuns": 5561,
      "2021": 5562,
      "Ġcontinued": 5563,
      "Ġpharmacy": 5564,
      "Ġgestation": 5565,
      "CM": 5566,
      "ivalent": 5567,
      "Ġmem": 5568,
      "arp": 5569,
      "ĠBP": 5570,
      "Ġguidance": 5571,
      "Ġbehaviors": 5572,
      "CoV": 5573,
      "ff": 5574,
      "Ġsquamous": 5575,
      "Ġstep": 5576,
      "Ġneur": 5577,
      "arcoma": 5578,
      "ptococc": 5579,
      "omial": 5580,
      "clear": 5581,
      "Ġmeasurements": 5582,
      "Ġensure": 5583,
      "tipation": 5584,
      "tural": 5585,
      "econd": 5586,
      "aginal": 5587,
      "ĠGra": 5588,
      "ometric": 5589,
      "Ġmediastinal": 5590,
      "cul": 5591,
      "norm": 5592,
      "Ġnight": 5593,
      "Ġunilateral": 5594,
      "Inf": 5595,
      "Ġdetail": 5596,
      "Ġquad": 5597,
      "Ġboys": 5598,
      "Ġcaregivers": 5599,
      "bing": 5600,
      "ery": 5601,
      "Ġpotentially": 5602,
      "Ġanalyze": 5603,
      "ittent": 5604,
      "Ġbaseline": 5605,
      "ĠObstetrics": 5606,
      "Ġpeak": 5607,
      "Using": 5608,
      "ĠDerm": 5609,
      "Ġcarcin": 5610,
      "Ġclean": 5611,
      "Ġentire": 5612,
      "pinal": 5613,
      "Ġcranial": 5614,
      "Ġdip": 5615,
      "rof": 5616,
      "propriate": 5617,
      "Ġconscious": 5618,
      "inter": 5619,
      "Ġtit": 5620,
      "Ġoutput": 5621,
      "Ġeasily": 5622,
      "ĠÄ": 5623,
      "Ġnational": 5624,
      "Chronic": 5625,
      "uation": 5626,
      "Ġile": 5627,
      "Ġhyperg": 5628,
      "Ġinsurance": 5629,
      "Ġpneumothorax": 5630,
      "areness": 5631,
      "Ġinvestigated": 5632,
      "ARS": 5633,
      "Ġosteoarthritis": 5634,
      "group": 5635,
      "Ġcure": 5636,
      "Ġfuture": 5637,
      "ressants": 5638,
      "Ġinterm": 5639,
      "Ġsputum": 5640,
      "Ġanatomy": 5641,
      "Ġdoctors": 5642,
      "ĠThong": 5643,
      "Ġmedicinal": 5644,
      "Ġzinc": 5645,
      "uccess": 5646,
      "Ġbasis": 5647,
      "ĠCor": 5648,
      "land": 5649,
      "opress": 5650,
      "Ġmanaged": 5651,
      "ultiple": 5652,
      "Ġsupply": 5653,
      "Ġfasting": 5654,
      "ĠCauses": 5655,
      "ĠHDL": 5656,
      "ocular": 5657,
      "ders": 5658,
      "hern": 5659,
      "Ġperfusion": 5660,
      "Ġablation": 5661,
      "Ġdistance": 5662,
      "rown": 5663,
      "Ġyounger": 5664,
      "Ġworldwide": 5665,
      "Ġanalgesic": 5666,
      "Ġwhereas": 5667,
      "Ġslowly": 5668,
      "Ġpreparation": 5669,
      "Ġbio": 5670,
      "Ġsensation": 5671,
      "treat": 5672,
      "ancom": 5673,
      "Ġregarding": 5674,
      "athies": 5675,
      "Ġearli": 5676,
      "Ġrhinitis": 5677,
      "tosis": 5678,
      "Ġanore": 5679,
      "ura": 5680,
      "olization": 5681,
      "ticularly": 5682,
      "Ġheavy": 5683,
      "Ġendotracheal": 5684,
      "Ġuro": 5685,
      "Ġretention": 5686,
      "Ġunclear": 5687,
      "Ġintro": 5688,
      "Ġantioxidant": 5689,
      "ovember": 5690,
      "Ġsatisfied": 5691,
      "aucoma": 5692,
      "Ġcandid": 5693,
      "Ġpac": 5694,
      "Ġalkal": 5695,
      "Ġformula": 5696,
      "tibility": 5697,
      "Ġdonors": 5698,
      "Ġmixed": 5699,
      "Ġrheumatoid": 5700,
      "Ġliquid": 5701,
      "lect": 5702,
      "Ġantih": 5703,
      "Ġfluids": 5704,
      "bladder": 5705,
      "itudinal": 5706,
      "rophic": 5707,
      "Ġmyel": 5708,
      "Ġmaxillary": 5709,
      "Serum": 5710,
      "inosa": 5711,
      "rel": 5712,
      "Ġsun": 5713,
      "ypically": 5714,
      "ĠNovember": 5715,
      "Ġke": 5716,
      "Ġapplying": 5717,
      "Ġcontinue": 5718,
      "adequate": 5719,
      "Ġswallow": 5720,
      "Ġtriglycer": 5721,
      "Ġectopic": 5722,
      "ctomy": 5723,
      "anted": 5724,
      "Ġfatal": 5725,
      "Ġ001": 5726,
      "assisted": 5727,
      "Ġsolutions": 5728,
      "Ġrecommendations": 5729,
      "Ġrelieve": 5730,
      "Ġeasy": 5731,
      "Ġpredis": 5732,
      "Ġinpatients": 5733,
      "Ġbab": 5734,
      "ĠHCV": 5735,
      "Ġschools": 5736,
      "ACE": 5737,
      "Ġhypertrophy": 5738,
      "Dia": 5739,
      "invasive": 5740,
      "alp": 5741,
      "Ġsuture": 5742,
      "ĠDiabetes": 5743,
      "Ġabortion": 5744,
      "formations": 5745,
      "ervative": 5746,
      "Ġimmunocomp": 5747,
      "Ġmucosal": 5748,
      "Ġhemodynamic": 5749,
      "ĠAB": 5750,
      "Ġdetecting": 5751,
      "Ġintraoperative": 5752,
      "Ġcalculated": 5753,
      "Ġcorrection": 5754,
      "IG": 5755,
      "ceed": 5756,
      "Ġresources": 5757,
      "ĠUnited": 5758,
      "Ġeyel": 5759,
      "incter": 5760,
      "Ġavoided": 5761,
      "Ġliterature": 5762,
      "oemb": 5763,
      "Ġincom": 5764,
      "orter": 5765,
      "Ġhaem": 5766,
      "Ġeconomic": 5767,
      "Ġthreshold": 5768,
      "Average": 5769,
      "Ġov": 5770,
      "Ġfrag": 5771,
      "ĠDistrict": 5772,
      "Ġstarted": 5773,
      "Ġsuperficial": 5774,
      "Ġincontinence": 5775,
      "tre": 5776,
      "onding": 5777,
      "Ġsaliv": 5778,
      "Ġprescribed": 5779,
      "omon": 5780,
      "uting": 5781,
      "Ġabuse": 5782,
      "Ġgoal": 5783,
      "osocomial": 5784,
      "Ġbegins": 5785,
      "Man": 5786,
      "opharyngeal": 5787,
      "Ġ2004": 5788,
      "resh": 5789,
      "Ġrevealed": 5790,
      "ML": 5791,
      "Trans": 5792,
      "Ġcef": 5793,
      "rous": 5794,
      "ticul": 5795,
      "Ġmineral": 5796,
      "Ġdesigned": 5797,
      "Ġbu": 5798,
      "Ġalle": 5799,
      "ĠNeuro": 5800,
      "urop": 5801,
      "ecu": 5802,
      "ĠAssess": 5803,
      "pling": 5804,
      "ĠNhat": 5805,
      "Ġlob": 5806,
      "taining": 5807,
      "Ġsuffer": 5808,
      "junctivitis": 5809,
      "asm": 5810,
      "izes": 5811,
      "arely": 5812,
      "Ġsimultaneous": 5813,
      "Ġequipment": 5814,
      "cellent": 5815,
      "Ġcurrently": 5816,
      "Ġneurom": 5817,
      "ancomycin": 5818,
      "Descri": 5819,
      "romised": 5820,
      "reatening": 5821,
      "rile": 5822,
      "Ġ400": 5823,
      "Ġrecru": 5824,
      "Ġmeans": 5825,
      "ficiencies": 5826,
      "Ġphysician": 5827,
      "HF": 5828,
      "ĠÃ": 5829,
      "ĠThi": 5830,
      "Ġappe": 5831,
      "omyopathy": 5832,
      "viral": 5833,
      "ogenous": 5834,
      "Ġfill": 5835,
      "Ġpromp": 5836,
      "ensin": 5837,
      "Ġvaries": 5838,
      "Ġreasons": 5839,
      "Ġperit": 5840,
      "Ġprolif": 5841,
      "Ġextremity": 5842,
      "Ġsecretion": 5843,
      "Ġfeasible": 5844,
      "Ġsequencing": 5845,
      "hospital": 5846,
      "Ġindicates": 5847,
      "Ġneutropenia": 5848,
      "Ġchallen": 5849,
      "BS": 5850,
      "Ġwoman": 5851,
      "rog": 5852,
      "Ġhypers": 5853,
      "Ġproteins": 5854,
      "break": 5855,
      "ank": 5856,
      "vern": 5857,
      "ĠAp": 5858,
      "Ġdiure": 5859,
      "Ġlac": 5860,
      "uginosa": 5861,
      "akes": 5862,
      "Ġindices": 5863,
      "psia": 5864,
      "ximately": 5865,
      "Ġburns": 5866,
      "Ap": 5867,
      "tered": 5868,
      "Ġpersonal": 5869,
      "Ġenvironmental": 5870,
      "Ġcomponent": 5871,
      "Ġanomalies": 5872,
      "mol": 5873,
      "opia": 5874,
      "Ġones": 5875,
      "ĠMal": 5876,
      "achial": 5877,
      "ephritis": 5878,
      "asia": 5879,
      "Ġemo": 5880,
      "opulmonary": 5881,
      "Ġhyperplasia": 5882,
      "Ġpathological": 5883,
      "Ġinguinal": 5884,
      "lin": 5885,
      "cephal": 5886,
      "ĠCa": 5887,
      "Ġund": 5888,
      "Ġwhat": 5889,
      "Ġaccum": 5890,
      "RNA": 5891,
      "Ġphosphate": 5892,
      "Ġpuncture": 5893,
      "Ġpuber": 5894,
      "Ġmelan": 5895,
      "irm": 5896,
      "ĠTri": 5897,
      "Ġyet": 5898,
      "ĠGastro": 5899,
      "alls": 5900,
      "hylactic": 5901,
      "ĠDengue": 5902,
      "Ġrequirements": 5903,
      "rid": 5904,
      "Ġdyst": 5905,
      "Ġ(âī": 5906,
      "Ġste": 5907,
      "Ġfibrin": 5908,
      "oracic": 5909,
      "ongen": 5910,
      "Ġconsists": 5911,
      "Ġassessing": 5912,
      "yphilis": 5913,
      "NF": 5914,
      "arn": 5915,
      "Ġabnorm": 5916,
      "Ġsufficient": 5917,
      "iella": 5918,
      "Ġneoplas": 5919,
      "Ġket": 5920,
      "Ġrecip": 5921,
      "phrag": 5922,
      "Ġcorresp": 5923,
      "Ġprotection": 5924,
      "Ġcontaminated": 5925,
      "onate": 5926,
      "Ġfish": 5927,
      "Ġread": 5928,
      "Ġadjust": 5929,
      "liminary": 5930,
      "LI": 5931,
      "Ġumb": 5932,
      "eriatric": 5933,
      "Ġwaste": 5934,
      "Ġampl": 5935,
      "Ġcollection": 5936,
      "Ġsubstances": 5937,
      "Ġmillion": 5938,
      "tible": 5939,
      "olid": 5940,
      "Ġheat": 5941,
      "Ġcomparing": 5942,
      "Ġ103": 5943,
      "Ġendocrine": 5944,
      "ĠPrognosis": 5945,
      "Ġcatheterization": 5946,
      "Ġequivalent": 5947,
      "Ġfatty": 5948,
      "Be": 5949,
      "SV": 5950,
      "Ġinher": 5951,
      "Ġ06": 5952,
      "Ġdifferentiated": 5953,
      "Ġaeruginosa": 5954,
      "Ġanticoagul": 5955,
      "Ġdrinking": 5956,
      "alassemia": 5957,
      "Ġpall": 5958,
      "Ġreports": 5959,
      "rium": 5960,
      "ĠGram": 5961,
      "Ġ1000": 5962,
      "ĠDescriptive": 5963,
      "Ġrepresent": 5964,
      "Ġaorta": 5965,
      "OC": 5966,
      "oz": 5967,
      "proBNP": 5968,
      "Ġrelax": 5969,
      "Ġmalformations": 5970,
      "Anal": 5971,
      "Ġcateg": 5972,
      "ĠCand": 5973,
      "Ġmach": 5974,
      "Ġpreventive": 5975,
      "ĠPit": 5976,
      "ĠRBC": 5977,
      "Ġintensity": 5978,
      "Ġprograms": 5979,
      "hydration": 5980,
      "Ġclosely": 5981,
      "EF": 5982,
      "Ġtends": 5983,
      "Ġsac": 5984,
      "Ġimplant": 5985,
      "Ġlinear": 5986,
      "Ġmemory": 5987,
      "treated": 5988,
      "Hem": 5989,
      "oin": 5990,
      "Ġinduction": 5991,
      "urm": 5992,
      "ĠCent": 5993,
      "ĠSP": 5994,
      "Ġfollows": 5995,
      "Ġthroat": 5996,
      "then": 5997,
      "Ġlaryngeal": 5998,
      "odg": 5999,
      "Ġcover": 6000,
      "fully": 6001,
      "2016": 6002,
      "vision": 6003,
      "2009": 6004,
      "Imp": 6005,
      "Ġdrop": 6006,
      "Ġcomorbid": 6007,
      "ĠHg": 6008,
      "ĠPoly": 6009,
      "Pl": 6010,
      "ineph": 6011,
      "Ġsclerosis": 6012,
      "amma": 6013,
      "2018": 6014,
      "Ġbreak": 6015,
      "Ġgeneralized": 6016,
      "Also": 6017,
      "ohist": 6018,
      "Ġvertebral": 6019,
      "CRP": 6020,
      "Ġprotective": 6021,
      "Ġbeginning": 6022,
      "ongenital": 6023,
      "UL": 6024,
      "cor": 6025,
      "onatal": 6026,
      "ern": 6027,
      "ancer": 6028,
      "Ġrural": 6029,
      "ograph": 6030,
      "Ġsmear": 6031,
      "Ġtoxin": 6032,
      "ĠComplications": 6033,
      "particularly": 6034,
      "Ġatherosclerosis": 6035,
      "Ġtric": 6036,
      "reen": 6037,
      "Ġplex": 6038,
      "Ġfasc": 6039,
      "gnancy": 6040,
      "Ġdex": 6041,
      "obic": 6042,
      "Ġamb": 6043,
      "ĠIgG": 6044,
      "small": 6045,
      "dentif": 6046,
      "uvant": 6047,
      "ecutive": 6048,
      "Ã¡": 6049,
      "Ġsources": 6050,
      "aster": 6051,
      "Ġcalcul": 6052,
      "Ġextremities": 6053,
      "Ġcholecyst": 6054,
      "Ġalveolar": 6055,
      "Ġpolymorph": 6056,
      "TP": 6057,
      "Ġlog": 6058,
      "atomy": 6059,
      "Ġtoward": 6060,
      "Ġprenatal": 6061,
      "ĠThu": 6062,
      "Ġdepartments": 6063,
      "Ġprompt": 6064,
      "me": 6065,
      "ĠvÃł": 6066,
      "izumab": 6067,
      "istered": 6068,
      "Ġfunctions": 6069,
      "Ġbalance": 6070,
      "Ġconsequences": 6071,
      "Ġankle": 6072,
      "ollow": 6073,
      "ĠSARS": 6074,
      "Ġcarry": 6075,
      "Ġpractition": 6076,
      "Ġangina": 6077,
      "BP": 6078,
      "infection": 6079,
      "esophageal": 6080,
      "Ġstabil": 6081,
      "ĠDuong": 6082,
      "ounts": 6083,
      "othel": 6084,
      "Ġdominant": 6085,
      "fib": 6086,
      "Ġlens": 6087,
      "otensin": 6088,
      "absor": 6089,
      "Ġmedial": 6090,
      "Ġbasic": 6091,
      "Ġsubstance": 6092,
      "Ġfresh": 6093,
      "raphy": 6094,
      "Ġcontamination": 6095,
      "Ġtrache": 6096,
      "Ġelbow": 6097,
      "otripsy": 6098,
      "yloid": 6099,
      "estive": 6100,
      "Ġexcellent": 6101,
      "ĠFood": 6102,
      "Ġdepth": 6103,
      "Ġradial": 6104,
      "ATION": 6105,
      "Ġsusceptibility": 6106,
      "entanyl": 6107,
      "ĠStaphylococcus": 6108,
      "Ġreviewed": 6109,
      "amm": 6110,
      "Ġheter": 6111,
      "ĠIM": 6112,
      "Ġ2000": 6113,
      "Ġfru": 6114,
      "Ġbenz": 6115,
      "Ġsterile": 6116,
      "phragm": 6117,
      "Ġce": 6118,
      "riers": 6119,
      "agia": 6120,
      "ĠUsing": 6121,
      "Ġgiving": 6122,
      "Use": 6123,
      "acco": 6124,
      "requency": 6125,
      "Ġdocument": 6126,
      "Cons": 6127,
      "2017": 6128,
      "Ġmorph": 6129,
      "Ġplacent": 6130,
      "Ġneuropathy": 6131,
      "bruary": 6132,
      "Ġawareness": 6133,
      "Current": 6134,
      "lebs": 6135,
      "Ġchor": 6136,
      "Ġarth": 6137,
      "Ġoutbreak": 6138,
      "Ġvalu": 6139,
      "Ġdosage": 6140,
      "Ġphysicians": 6141,
      "Ġintermittent": 6142,
      "Ġmiss": 6143,
      "roun": 6144,
      "Ġviol": 6145,
      "Ġintern": 6146,
      "Ġtherefore": 6147,
      "position": 6148,
      "Ġremission": 6149,
      "Ġteam": 6150,
      "Ġstopped": 6151,
      "EM": 6152,
      "sh": 6153,
      "Ġgang": 6154,
      "ĠVinh": 6155,
      "Initial": 6156,
      "Ġobese": 6157,
      "Ġphosph": 6158,
      "Ġwounds": 6159,
      "uments": 6160,
      "plained": 6161,
      "ĠThese": 6162,
      "Ġparenchy": 6163,
      "ĠCovid": 6164,
      "esides": 6165,
      "Ġfigure": 6166,
      "ĠHow": 6167,
      "Ġimmo": 6168,
      "Ġadhes": 6169,
      "Ġshorter": 6170,
      "2019": 6171,
      "Ġvisible": 6172,
      "Ġscientific": 6173,
      "bits": 6174,
      "enz": 6175,
      "ĠCase": 6176,
      "Ġadjacent": 6177,
      "Cor": 6178,
      "brile": 6179,
      "creening": 6180,
      "Ġsubs": 6181,
      "Ġrhin": 6182,
      "Ġsuicide": 6183,
      "Ġstunting": 6184,
      "Ġlaryng": 6185,
      "Ġsymp": 6186,
      "Ġintere": 6187,
      "Ġcohort": 6188,
      "ullary": 6189,
      "ractory": 6190,
      "Ġprepared": 6191,
      "Ġhyperthyroidism": 6192,
      "Ġapparent": 6193,
      "ĠObjective": 6194,
      "lebsiella": 6195,
      "iated": 6196,
      "Ġmask": 6197,
      "Ġbinh": 6198,
      "Ġharm": 6199,
      "Ġinterc": 6200,
      "Ġtransc": 6201,
      "Ġendocarditis": 6202,
      "Ġselective": 6203,
      "Ġmodels": 6204,
      "ĠClass": 6205,
      "ochemistry": 6206,
      "Ġstrongly": 6207,
      "Ġencour": 6208,
      "Ġexperimental": 6209,
      "Blood": 6210,
      "UD": 6211,
      "rehens": 6212,
      "ideo": 6213,
      "2020": 6214,
      "tivariate": 6215,
      "ulties": 6216,
      "Ġerad": 6217,
      "Ġwave": 6218,
      "Ġbranches": 6219,
      "Ġrecognized": 6220,
      "Ġbelie": 6221,
      "ĠOrgan": 6222,
      "Ġfalse": 6223,
      "Ġocular": 6224,
      "anth": 6225,
      "Ġ03": 6226,
      "Ġquestions": 6227,
      "Ġspontaneously": 6228,
      "Ġfamilies": 6229,
      "Ġventricle": 6230,
      "sually": 6231,
      "treatment": 6232,
      "rees": 6233,
      "annel": 6234,
      "emale": 6235,
      "ĠReg": 6236,
      "Ġwhom": 6237,
      "Ġbiological": 6238,
      "Ġirreg": 6239,
      "Ġprolapse": 6240,
      "Ġminimally": 6241,
      "Ġtolerance": 6242,
      "SC": 6243,
      "Ġtip": 6244,
      "Ġdecreasing": 6245,
      "Ġbiochemical": 6246,
      "iability": 6247,
      "ochrom": 6248,
      "Ġvariables": 6249,
      "Ġepilepsy": 6250,
      "Ġpredominant": 6251,
      "ony": 6252,
      "ĠPneum": 6253,
      "comfort": 6254,
      "Ġtravel": 6255,
      "Ġvariable": 6256,
      "avor": 6257,
      "Ġnephrectomy": 6258,
      "Ġregional": 6259,
      "Ġstrategy": 6260,
      "SI": 6261,
      "Ġejection": 6262,
      "eta": 6263,
      "ocrin": 6264,
      "ours": 6265,
      "Ġpregnancies": 6266,
      "Ġlaparoscopy": 6267,
      "onephritis": 6268,
      "lol": 6269,
      "Ġorbital": 6270,
      "tral": 6271,
      "ĠBl": 6272,
      "Ġparts": 6273,
      "Ġ2003": 6274,
      "ĠStates": 6275,
      "Ġsupplementation": 6276,
      "Ġinadequate": 6277,
      "Ġwarm": 6278,
      "acute": 6279,
      "plements": 6280,
      "Ġgallbladder": 6281,
      "LD": 6282,
      "bic": 6283,
      "Ġlost": 6284,
      "Ġacupuncture": 6285,
      "ĠRep": 6286,
      "Ġconstipation": 6287,
      "Ġregard": 6288,
      "Ġglaucoma": 6289,
      "Ġclearly": 6290,
      "Ġmechanisms": 6291,
      "strual": 6292,
      "Ġnephropathy": 6293,
      "Ġpoorly": 6294,
      "Ġstructural": 6295,
      "Ġpersonality": 6296,
      "Ġreceptors": 6297,
      "SAIDs": 6298,
      "Le": 6299,
      "test": 6300,
      "Ġgel": 6301,
      "tilization": 6302,
      "Ġuterus": 6303,
      "Ġerythema": 6304,
      "Reg": 6305,
      "ients": 6306,
      "vular": 6307,
      "Ġtet": 6308,
      "Ġnosocomial": 6309,
      "Ġdetermining": 6310,
      "Ġamounts": 6311,
      "Ġextracts": 6312,
      "Ġanastomosis": 6313,
      "Ġtrimester": 6314,
      "hib": 6315,
      "ĠCV": 6316,
      "change": 6317,
      "Ġtransport": 6318,
      "Ġlongitudinal": 6319,
      "ĠSurgical": 6320,
      "Ġanatomic": 6321,
      "raindications": 6322,
      "Ġhistopathology": 6323,
      "controlled": 6324,
      "Ġadded": 6325,
      "Ġderiv": 6326,
      "Wh": 6327,
      "Ġlin": 6328,
      "Ġcardiomyopathy": 6329,
      "Ġradio": 6330,
      "Ġprocessing": 6331,
      "Ġdilation": 6332,
      "Ġperitonitis": 6333,
      "zen": 6334,
      "ecal": 6335,
      "oside": 6336,
      "ĠAmong": 6337,
      "Ġfollic": 6338,
      "MRI": 6339,
      "Ġtestosterone": 6340,
      "Ġchanged": 6341,
      "Ġneurological": 6342,
      "ĠFebruary": 6343,
      "TT": 6344,
      "lactam": 6345,
      "tor": 6346,
      "hour": 6347,
      "ĠType": 6348,
      "rief": 6349,
      "Ġaction": 6350,
      "ologist": 6351,
      "Ġimproves": 6352,
      "Antib": 6353,
      "Ġenlarge": 6354,
      "Pain": 6355,
      "ohyd": 6356,
      "Ġtons": 6357,
      "ulted": 6358,
      "Ġcellular": 6359,
      "idney": 6360,
      "Ġindividuals": 6361,
      "iliac": 6362,
      "Ġearlier": 6363,
      "Ġtrem": 6364,
      "oler": 6365,
      "Ġprobe": 6366,
      "ĠRadi": 6367,
      "ĠInfection": 6368,
      "everal": 6369,
      "ĠClinic": 6370,
      "Ġleakage": 6371,
      "inephrine": 6372,
      "atch": 6373,
      "anti": 6374,
      "unk": 6375,
      "olus": 6376,
      "ĠSD": 6377,
      "ĠMic": 6378,
      "ĠVir": 6379,
      "Ġinfiltr": 6380,
      "onset": 6381,
      "Ġresponses": 6382,
      "Ġplexus": 6383,
      "ezing": 6384,
      "icobacter": 6385,
      "level": 6386,
      "Ġpromin": 6387,
      "Ġalter": 6388,
      "Ġcountry": 6389,
      "Ġexperienced": 6390,
      "Ġsurgeon": 6391,
      "Ġaggressive": 6392,
      "Ġophthalm": 6393,
      "Ġring": 6394,
      "appropriate": 6395,
      "Ġplays": 6396,
      "Ġlobe": 6397,
      "Ġradiotherapy": 6398,
      "elihood": 6399,
      "ĠAssociation": 6400,
      "agn": 6401,
      "Ġging": 6402,
      "ĠAge": 6403,
      "Ġincreasingly": 6404,
      "Ġexclude": 6405,
      "Ġsubsequent": 6406,
      "Out": 6407,
      "elves": 6408,
      "Ġproducing": 6409,
      "Ġesophagus": 6410,
      "hor": 6411,
      "itative": 6412,
      "ects": 6413,
      "ĠAnal": 6414,
      "ietic": 6415,
      "Ġanalys": 6416,
      "Ġglands": 6417,
      "Ġskull": 6418,
      "Ġdifferentiate": 6419,
      "Ġchromat": 6420,
      "Ġthough": 6421,
      "effective": 6422,
      "Ġinterstitial": 6423,
      "Ġhyperglycemia": 6424,
      "trex": 6425,
      "but": 6426,
      "uration": 6427,
      "Ġseconds": 6428,
      "Ġimmunity": 6429,
      "Ġepiderm": 6430,
      "ĠEnter": 6431,
      "ĠÂµg": 6432,
      "IH": 6433,
      "Ġoption": 6434,
      "Ġselection": 6435,
      "ĠProv": 6436,
      "Ġviruses": 6437,
      "Ġcapsule": 6438,
      "odgkin": 6439,
      "En": 6440,
      "Ġtob": 6441,
      "Ġerythro": 6442,
      "Ġethanol": 6443,
      "Ġminimize": 6444,
      "Ġsplen": 6445,
      "Ġcatar": 6446,
      "ged": 6447,
      "oqu": 6448,
      "uous": 6449,
      "Ġide": 6450,
      "Ġdors": 6451,
      "ĠHel": 6452,
      "andemic": 6453,
      "Ġacids": 6454,
      "ymph": 6455,
      "Ġperiodontal": 6456,
      "Ġnormally": 6457,
      "Sim": 6458,
      "ier": 6459,
      "moid": 6460,
      "erous": 6461,
      "Ġbad": 6462,
      "Ġhistological": 6463,
      "Ġherpes": 6464,
      "Ġplaque": 6465,
      "Ġconsciousness": 6466,
      "Ġmorphine": 6467,
      "Ġthems": 6468,
      "Ġdiscomfort": 6469,
      "ĠHigh": 6470,
      "ĠGynecology": 6471,
      "Ġprinc": 6472,
      "Ġincid": 6473,
      "athyroidism": 6474,
      "Ġabscesses": 6475,
      "ABP": 6476,
      "Ġnearly": 6477,
      "hout": 6478,
      "ellar": 6479,
      "Ġoverload": 6480,
      "ĠAnti": 6481,
      "Ġextended": 6482,
      "Ġestrogen": 6483,
      "Ġplacenta": 6484,
      "DG": 6485,
      "Primary": 6486,
      "Ġextracted": 6487,
      "Ġaccidents": 6488,
      "worm": 6489,
      "orld": 6490,
      "ĠImp": 6491,
      "ungal": 6492,
      "ĠOncology": 6493,
      "Ġepidemiological": 6494,
      "clo": 6495,
      "max": 6496,
      "Ġpg": 6497,
      "ories": 6498,
      "Ġbones": 6499,
      "abdominal": 6500,
      "Ġlik": 6501,
      "Ġprobability": 6502,
      "Ġquickly": 6503,
      "omonas": 6504,
      "jug": 6505,
      "ellow": 6506,
      "Ġhered": 6507,
      "ĠLow": 6508,
      "Ġbene": 6509,
      "Ġmanifestation": 6510,
      "Ġemplo": 6511,
      "Ġseizure": 6512,
      "Ġsedation": 6513,
      "Ġissues": 6514,
      "ulent": 6515,
      "Ġhue": 6516,
      "ystic": 6517,
      "Ġobvious": 6518,
      "Ġmeasuring": 6519,
      "Ġ250": 6520,
      "oprotein": 6521,
      "Ġdirected": 6522,
      "Ġsynthesis": 6523,
      "utis": 6524,
      "orage": 6525,
      "Ġfar": 6526,
      "ided": 6527,
      "actory": 6528,
      "ĠEffec": 6529,
      "Ġdecision": 6530,
      "Ġcholang": 6531,
      "Ġcontraindicated": 6532,
      "Ġglomerular": 6533,
      "Ġpedicle": 6534,
      "Ġvaluable": 6535,
      "Ġthemselves": 6536,
      "specific": 6537,
      "ĠPathophysiology": 6538,
      "plicated": 6539,
      "Ġdysplasia": 6540,
      "Ġcycles": 6541,
      "Ġpersist": 6542,
      "Severe": 6543,
      "Ġdisturbances": 6544,
      "Ġdestruc": 6545,
      "Ġtun": 6546,
      "Ġinv": 6547,
      "Ġhar": 6548,
      "Ġspond": 6549,
      "Ġallergy": 6550,
      "Ġarteri": 6551,
      "Ġlactate": 6552,
      "Ġwithdrawal": 6553,
      "Ġpuberty": 6554,
      "itant": 6555,
      "rology": 6556,
      "Ġele": 6557,
      "Ġemer": 6558,
      "amic": 6559,
      "Ġreliable": 6560,
      "Ġvariety": 6561,
      "ĠParkinson": 6562,
      "Ġhistopathological": 6563,
      "Ġdanger": 6564,
      "Ġdefinitive": 6565,
      "Ġion": 6566,
      "Ġscler": 6567,
      "Ġintest": 6568,
      "Ġscar": 6569,
      "Ġanaly": 6570,
      "Ġamn": 6571,
      "Ġbroncho": 6572,
      "Ġcontraindications": 6573,
      "sAg": 6574,
      "Ġpandemic": 6575,
      "Ġingestion": 6576,
      "Ġmurm": 6577,
      "ithiasis": 6578,
      "ĠCP": 6579,
      "ĠOur": 6580,
      "Ġconsecutive": 6581,
      "lasma": 6582,
      "Ġchromosome": 6583,
      "Ġtymp": 6584,
      "Ġdeficiencies": 6585,
      "angu": 6586,
      "Ġcontrols": 6587,
      "Ġwaist": 6588,
      "Ġfalls": 6589,
      "Ġcircumference": 6590,
      "Ġlum": 6591,
      "irium": 6592,
      "Ġchannel": 6593,
      "istance": 6594,
      "Ġkit": 6595,
      "ĠÎ¼": 6596,
      "Ġaxillary": 6597,
      "Ġbauman": 6598,
      "Ġcholecystectomy": 6599,
      "block": 6600,
      "Ġanap": 6601,
      "eremia": 6602,
      "Ġexamine": 6603,
      "Ġsyring": 6604,
      "Ġimpl": 6605,
      "ĠEurop": 6606,
      "Ġconsistent": 6607,
      "Ġremaining": 6608,
      "Ġplatelets": 6609,
      "Ġneutroph": 6610,
      "Ar": 6611,
      "letion": 6612,
      "ĠBac": 6613,
      "Ġjaw": 6614,
      "Ġproteinuria": 6615,
      "Ġidentifying": 6616,
      "Ġglobal": 6617,
      "ĠPain": 6618,
      "Ġsph": 6619,
      "Ġsampling": 6620,
      "Ġvasopress": 6621,
      "Ġthoracoscopic": 6622,
      "Ġexacerbation": 6623,
      "Ġantagon": 6624,
      "Ġlikelihood": 6625,
      "rocy": 6626,
      "osed": 6627,
      "ĠHCM": 6628,
      "Ġcosts": 6629,
      "Ġsuspic": 6630,
      "TI": 6631,
      "avic": 6632,
      "drug": 6633,
      "ingers": 6634,
      "Ġrule": 6635,
      "Ġatypical": 6636,
      "aceu": 6637,
      "Ġsalt": 6638,
      "III": 6639,
      "Ġinfertility": 6640,
      "Ġkeep": 6641,
      "Ġinj": 6642,
      "ilical": 6643,
      "hyroid": 6644,
      "ĠÎ±": 6645,
      "ING": 6646,
      "Physical": 6647,
      "Ġclo": 6648,
      "estern": 6649,
      "rotomy": 6650,
      "Ġstability": 6651,
      "stable": 6652,
      "Ġcoma": 6653,
      "Ġaging": 6654,
      "Ġherniation": 6655,
      "Ġextremely": 6656,
      "HD": 6657,
      "Ġcas": 6658,
      "olute": 6659,
      "ophy": 6660,
      "ophen": 6661,
      "ropho": 6662,
      "Ġuric": 6663,
      "lampsia": 6664,
      "ĠSch": 6665,
      "pects": 6666,
      "Ġdevi": 6667,
      "Ġdiaphragm": 6668,
      "Ġcontents": 6669,
      "Ġconsist": 6670,
      "Ġoccurring": 6671,
      "Ġshape": 6672,
      "Ġinhal": 6673,
      "Ġdifficulties": 6674,
      "Ġinvestigation": 6675,
      "Ġstrategies": 6676,
      "ives": 6677,
      "wing": 6678,
      "Ġcruc": 6679,
      "ices": 6680,
      "etal": 6681,
      "Ġcond": 6682,
      "ĠHer": 6683,
      "Ġspectrum": 6684,
      "Ġcycl": 6685,
      "Ġperiods": 6686,
      "Ġencephalitis": 6687,
      "Ġegg": 6688,
      "Ġ02": 6689,
      "Ġintermediate": 6690,
      "Ġ2002": 6691,
      "Ġapproximately": 6692,
      "Ġpenicillin": 6693,
      "Sc": 6694,
      "take": 6695,
      "ĠCA": 6696,
      "umor": 6697,
      "Ġsupplements": 6698,
      "poses": 6699,
      "Ġgastritis": 6700,
      "ban": 6701,
      "ror": 6702,
      "Ġiodine": 6703,
      "arter": 6704,
      "Ġbasal": 6705,
      "ĠPulmonary": 6706,
      "Ġcartil": 6707,
      "Ġpalsy": 6708,
      "ĠHematology": 6709,
      "ptic": 6710,
      "orth": 6711,
      "ĠMT": 6712,
      "ughout": 6713,
      "Ġconservative": 6714,
      "uided": 6715,
      "Ġsugar": 6716,
      "Ġdissem": 6717,
      "CLC": 6718,
      "Ġresolve": 6719,
      "Ġopioid": 6720,
      "Ġduodenal": 6721,
      "Ġunexplained": 6722,
      "aceutical": 6723,
      "ECT": 6724,
      "Non": 6725,
      "gent": 6726,
      "itions": 6727,
      "Î±": 6728,
      "Ġtren": 6729,
      "Ġtran": 6730,
      "educ": 6731,
      "Ġwrist": 6732,
      "ĠEp": 6733,
      "ĠOf": 6734,
      "Ġimmunohist": 6735,
      "ext": 6736,
      "Ġsuggesting": 6737,
      "Ġsusceptible": 6738,
      "Ġvesic": 6739,
      "articular": 6740,
      "eck": 6741,
      "ĠDM": 6742,
      "acting": 6743,
      "Ġsurve": 6744,
      "ensis": 6745,
      "Ġstaining": 6746,
      "Ġwidth": 6747,
      "Ġinterest": 6748,
      "EO": 6749,
      "esium": 6750,
      "usiness": 6751,
      "omnia": 6752,
      "lous": 6753,
      "ĠCy": 6754,
      "Ġrig": 6755,
      "Ġinteg": 6756,
      "Ġrelapse": 6757,
      "Ġartic": 6758,
      "ĠOther": 6759,
      "Ġhemorrho": 6760,
      "ritin": 6761,
      "Ġparticipate": 6762,
      "GI": 6763,
      "Ġpeptic": 6764,
      "Ġthym": 6765,
      "atelet": 6766,
      "Ġacross": 6767,
      "ologous": 6768,
      "Ġprofile": 6769,
      "Ġglomerul": 6770,
      "ĠCKD": 6771,
      "Aut": 6772,
      "Sp": 6773,
      "Ġcran": 6774,
      "Ġfoss": 6775,
      "Ġtoget": 6776,
      "ĠStr": 6777,
      "Ġhapp": 6778,
      "ĠNS": 6779,
      "Ġfeeling": 6780,
      "ĠKlebsiella": 6781,
      "ĠÂ°": 6782,
      "Ġdecompression": 6783,
      "Ġtogether": 6784,
      "iliary": 6785,
      "ĠACE": 6786,
      "Ġcham": 6787,
      "ĠIs": 6788,
      "ĠNutrition": 6789,
      "Ġantigens": 6790,
      "Ġsched": 6791,
      "after": 6792,
      "Ġrefractory": 6793,
      "Ġbrachial": 6794,
      "uclear": 6795,
      "Ġaud": 6796,
      "Ġremed": 6797,
      "Ġgout": 6798,
      "erectomy": 6799,
      "ĠHistory": 6800,
      "Ġusual": 6801,
      "ĠER": 6802,
      "genic": 6803,
      "Ġtracheal": 6804,
      "pedic": 6805,
      "AA": 6806,
      "Two": 6807,
      "nh": 6808,
      "Ġvital": 6809,
      "ĠAKI": 6810,
      "ĠVan": 6811,
      "Ġmasses": 6812,
      "Ġmarker": 6813,
      "ĠEvaluate": 6814,
      "Ġstarting": 6815,
      "Ġrecruited": 6816,
      "Ġirregular": 6817,
      "Ġhereditary": 6818,
      "Ġarch": 6819,
      "iotics": 6820,
      "rehensive": 6821,
      "Ġpig": 6822,
      "Ġrib": 6823,
      "ĠUse": 6824,
      "Ġcarbapenem": 6825,
      "Ġroutinely": 6826,
      "Ġtibial": 6827,
      "onazole": 6828,
      "albumin": 6829,
      "Ġpay": 6830,
      "Ġdisrup": 6831,
      "rospinal": 6832,
      "Ġfeel": 6833,
      "achment": 6834,
      "Ġdoing": 6835,
      "Ġnewly": 6836,
      "erebral": 6837,
      "Ġhematuria": 6838,
      "ĠDiseases": 6839,
      "Ġaccident": 6840,
      "ait": 6841,
      "wn": 6842,
      "ĠNhan": 6843,
      "Ġmanage": 6844,
      "Ġendothel": 6845,
      "Ġbiom": 6846,
      "Ġthroughout": 6847,
      "Ġscreen": 6848,
      "Ġdigital": 6849,
      "opoietic": 6850,
      "ĠÃĹ": 6851,
      "Des": 6852,
      "tur": 6853,
      "reast": 6854,
      "isp": 6855,
      "ĠPseud": 6856,
      "ĠDi": 6857,
      "ĠLa": 6858,
      "Ġopening": 6859,
      "Ġsinusitis": 6860,
      "Ġdislocation": 6861,
      "Ġlithotripsy": 6862,
      "Ġabnormality": 6863,
      "Material": 6864,
      "edema": 6865,
      "Ġfeet": 6866,
      "Ġsmaller": 6867,
      "Ġhumans": 6868,
      "Ġtemporal": 6869,
      "ltrasound": 6870,
      "avirus": 6871,
      "hotic": 6872,
      "ĠHLA": 6873,
      "ressure": 6874,
      "Ġotherwise": 6875,
      "Ġantibacterial": 6876,
      "Ġfailed": 6877,
      "Ġdysph": 6878,
      "ĠStre": 6879,
      "ometry": 6880,
      "So": 6881,
      "zation": 6882,
      "antib": 6883,
      "Ġlist": 6884,
      "ĠIntra": 6885,
      "Ġmolars": 6886,
      "Ġexcretion": 6887,
      "Ġschiz": 6888,
      "Ġswallowing": 6889,
      "Ass": 6890,
      "Ġreferred": 6891,
      "ulas": 6892,
      "Ġgot": 6893,
      "Ġmethyl": 6894,
      "Ġworse": 6895,
      "traction": 6896,
      "Ġimmobil": 6897,
      "trexate": 6898,
      "CN": 6899,
      "PI": 6900,
      "Ġotitis": 6901,
      "Ġfinal": 6902,
      "ithromycin": 6903,
      "etobacter": 6904,
      "Ġlid": 6905,
      "atell": 6906,
      "Ġdebr": 6907,
      "ĠRisk": 6908,
      "ellular": 6909,
      "Ġker": 6910,
      "iovenous": 6911,
      "Ġrecover": 6912,
      "Ġhormones": 6913,
      "Ġsurgeons": 6914,
      "Ġfloor": 6915,
      "cm": 6916,
      "Ġtre": 6917,
      "Ġpel": 6918,
      "Ġstudent": 6919,
      "Ġleaf": 6920,
      "ĠVitamin": 6921,
      "Ġlot": 6922,
      "Ġcomplement": 6923,
      "Further": 6924,
      "falls": 6925,
      "Ġdesc": 6926,
      "Ġextension": 6927,
      "Ġinteractions": 6928,
      "Ġplants": 6929,
      "Ġendemic": 6930,
      "aceae": 6931,
      "enteric": 6932,
      "Ġautosomal": 6933,
      "Ġrelationships": 6934,
      "Ġproviding": 6935,
      "Ġrestriction": 6936,
      "ACT": 6937,
      "Met": 6938,
      "Ġfingers": 6939,
      "ĠDuring": 6940,
      "Ġexercises": 6941,
      "Ġconclusions": 6942,
      "EMI": 6943,
      "Ġaid": 6944,
      "Ġband": 6945,
      "ifically": 6946,
      "riends": 6947,
      "earls": 6948,
      "creased": 6949,
      "ectasis": 6950,
      "Ġexplo": 6951,
      "Ġacceptable": 6952,
      "But": 6953,
      "rier": 6954,
      "estyle": 6955,
      "aret": 6956,
      "resp": 6957,
      "azol": 6958,
      "Ġmachine": 6959,
      "Ġtobacco": 6960,
      "Both": 6961,
      "sur": 6962,
      "Ġstorage": 6963,
      "ĠLaparoscopic": 6964,
      "Ġrecently": 6965,
      "Ġurea": 6966,
      "Ġsequel": 6967,
      "Overview": 6968,
      "Ġdoctor": 6969,
      "Ġeyelid": 6970,
      "HR": 6971,
      "Ph": 6972,
      "Ġturn": 6973,
      "ĠPeople": 6974,
      "abolic": 6975,
      "Ġcontroll": 6976,
      "iences": 6977,
      "Ġseverely": 6978,
      "Ġconduction": 6979,
      "Ġflexion": 6980,
      "activity": 6981,
      "Ġepithelial": 6982,
      "Ġretinopathy": 6983,
      "mit": 6984,
      "ister": 6985,
      "Ġdy": 6986,
      "Ġhemost": 6987,
      "Ġdepressive": 6988,
      "Ġagon": 6989,
      "oy": 6990,
      "Ġpump": 6991,
      "rozen": 6992,
      "ĠRNA": 6993,
      "ĠIntern": 6994,
      "Ġroots": 6995,
      "Ġpresenting": 6996,
      "Ġchanging": 6997,
      "aboratory": 6998,
      "throplasty": 6999,
      "Ġrandomly": 7000,
      "ĠSociety": 7001,
      "Ġcephalospor": 7002,
      "Op": 7003,
      "Ġpages": 7004,
      "Ġbic": 7005,
      "Ġbupivacaine": 7006,
      "ĠHung": 7007,
      "oidosis": 7008,
      "mediated": 7009,
      "Ġprediction": 7010,
      "Ġequal": 7011,
      "Ġmovements": 7012,
      "ABG": 7013,
      "Ġinpatient": 7014,
      "Ġsphincter": 7015,
      "ĠTu": 7016,
      "Ġexchange": 7017,
      "Ġkey": 7018,
      "portun": 7019,
      "Ġtablets": 7020,
      "Ġpathway": 7021,
      "Ġfossa": 7022,
      "Do": 7023,
      "Oral": 7024,
      "deg": 7025,
      "kers": 7026,
      "mar": 7027,
      "Ġsyphilis": 7028,
      "Ġunlike": 7029,
      "loph": 7030,
      "Ġmicroscopic": 7031,
      "stein": 7032,
      "Ġbroad": 7033,
      "DR": 7034,
      "Ġdust": 7035,
      "Prognosis": 7036,
      "Ġdigestive": 7037,
      "Ġproperties": 7038,
      "Ġcomorbidities": 7039,
      "Ġsilic": 7040,
      "Ġdifferential": 7041,
      "iceal": 7042,
      "Ġsuffered": 7043,
      "Ġexacerbations": 7044,
      "Ġtowards": 7045,
      "Ġprescription": 7046,
      "Ġcytokines": 7047,
      "econdary": 7048,
      "HB": 7049,
      "Æ°": 7050,
      "Ġcuff": 7051,
      "Ġward": 7052,
      "Ġneural": 7053,
      "ĠEmergency": 7054,
      "Ġkerat": 7055,
      "Ġtraffic": 7056,
      "merase": 7057,
      "Ġparenteral": 7058,
      "Ġembolization": 7059,
      "Ġattacks": 7060,
      "Ġelectrolyte": 7061,
      "uccessful": 7062,
      "eness": 7063,
      "Ġcot": 7064,
      "ann": 7065,
      "Ġbig": 7066,
      "Ġborn": 7067,
      "Ġseek": 7068,
      "chron": 7069,
      "Ġcomposition": 7070,
      "Ġintell": 7071,
      "anges": 7072,
      "Ġlook": 7073,
      "Ġtrue": 7074,
      "Ġlegs": 7075,
      "da": 7076,
      "metic": 7077,
      "oor": 7078,
      "Ġperforator": 7079,
      "ĠMinistry": 7080,
      "Ġattemp": 7081,
      "How": 7082,
      "fric": 7083,
      "Ġtur": 7084,
      "rail": 7085,
      "igaret": 7086,
      "Ġexpect": 7087,
      "tisol": 7088,
      "lamy": 7089,
      "Ġcounts": 7090,
      "ĠRespiratory": 7091,
      "Ġintravascular": 7092,
      "Ġinserted": 7093,
      "Ġdeformity": 7094,
      "avi": 7095,
      "Ġvocal": 7096,
      "ĠSh": 7097,
      "ĠEye": 7098,
      "Ġhemolytic": 7099,
      "Ġagree": 7100,
      "Ġdegrees": 7101,
      "Ġcontains": 7102,
      "work": 7103,
      "orough": 7104,
      "Ġdomes": 7105,
      "asone": 7106,
      "omatic": 7107,
      "nii": 7108,
      "Ġdilated": 7109,
      "Ġempir": 7110,
      "ĠPitfalls": 7111,
      "ĠMI": 7112,
      "ĠEGFR": 7113,
      "Ġobservation": 7114,
      "ohn": 7115,
      "Ġascites": 7116,
      "Ġventilator": 7117,
      ",\"": 7118,
      "Occ": 7119,
      "iative": 7120,
      "Ġexpected": 7121,
      "ĠDD": 7122,
      "ĠLung": 7123,
      "Ġmeth": 7124,
      "Ġblockers": 7125,
      "Ġneurop": 7126,
      "Ġsteroid": 7127,
      "Ġissue": 7128,
      "ĠCandida": 7129,
      "Ġtors": 7130,
      "Ġcore": 7131,
      "Ġlines": 7132,
      "ameth": 7133,
      "ĠSO": 7134,
      "0001": 7135,
      "Ġrelatives": 7136,
      "Ġallerg": 7137,
      "Ġregularly": 7138,
      "Ġshunt": 7139,
      "ĠESBL": 7140,
      "Ġunderstanding": 7141,
      "rosurgery": 7142,
      "ĠÄĳ": 7143,
      "Ġprominent": 7144,
      "Ġcartilage": 7145,
      "Cs": 7146,
      "High": 7147,
      "rated": 7148,
      "Ġfair": 7149,
      "Ġreach": 7150,
      "opause": 7151,
      "ept": 7152,
      "ĠDia": 7153,
      "Ġrecess": 7154,
      "Ġrecovered": 7155,
      "resia": 7156,
      "Ġblunt": 7157,
      "Ġherbal": 7158,
      "2008": 7159,
      "PECT": 7160,
      "Ġderivatives": 7161,
      "ĠDu": 7162,
      "Ġcontro": 7163,
      "Ġdemand": 7164,
      "plastic": 7165,
      "Ġprednis": 7166,
      "Low": 7167,
      "Ġhis": 7168,
      "ĠDys": 7169,
      "ĠRem": 7170,
      "Ġcholest": 7171,
      "Ġpancreas": 7172,
      "incial": 7173,
      "PLC": 7174,
      "Ġbuild": 7175,
      "Ġemotional": 7176,
      "more": 7177,
      "isions": 7178,
      "uspid": 7179,
      "idity": 7180,
      "Ġfluc": 7181,
      "Ġobjectives": 7182,
      "Ġopioids": 7183,
      "mean": 7184,
      "Ġinappropriate": 7185,
      "idazole": 7186,
      "Ġforce": 7187,
      "Ġinterfere": 7188,
      "Ġcryst": 7189,
      "GF": 7190,
      "chers": 7191,
      "mus": 7192,
      "hex": 7193,
      "accin": 7194,
      "ĠPR": 7195,
      "igned": 7196,
      "Ġantif": 7197,
      "Ġobserv": 7198,
      "ĠDrugs": 7199,
      "ĠHR": 7200,
      "ĠDVT": 7201,
      "ĠEF": 7202,
      "tivation": 7203,
      "Ġurban": 7204,
      "Ġbehavioral": 7205,
      "Step": 7206,
      "Only": 7207,
      "Ġallows": 7208,
      "ĠALT": 7209,
      "Ġsubtypes": 7210,
      "Ġ(âī¥": 7211,
      "Rarely": 7212,
      "yel": 7213,
      "Î²": 7214,
      "omatous": 7215,
      "Ġvancomycin": 7216,
      "ĠAS": 7217,
      "apter": 7218,
      "Ġopportun": 7219,
      "stead": 7220,
      "Ġmembranes": 7221,
      "Ġsynthes": 7222,
      "OH": 7223,
      "Ġ04": 7224,
      "ronch": 7225,
      "ĠHBsAg": 7226,
      "Ġdischarged": 7227,
      "Ġdermat": 7228,
      "Ġprecip": 7229,
      "Ġcarbon": 7230,
      "Ġwalking": 7231,
      "Ġenlargement": 7232,
      "flex": 7233,
      "facial": 7234,
      "sw": 7235,
      "Ġprev": 7236,
      "Ġoutside": 7237,
      "Ġmalformation": 7238,
      "Ġsurgically": 7239,
      "anguage": 7240,
      "Pathophysiology": 7241,
      "Val": 7242,
      "otyp": 7243,
      "ĠAbs": 7244,
      "Ġaspects": 7245,
      "merc": 7246,
      "Ġtesticular": 7247,
      "Ġhepatectomy": 7248,
      "Ġaspirin": 7249,
      "control": 7250,
      "Ġretroperitoneal": 7251,
      "Postoperative": 7252,
      "Ġbaumannii": 7253,
      "car": 7254,
      "era": 7255,
      "anal": 7256,
      "Ġname": 7257,
      "ticaria": 7258,
      "iff": 7259,
      "threatening": 7260,
      "ĠTáº": 7261,
      "aped": 7262,
      "Ġresponsible": 7263,
      "Compar": 7264,
      "Ġprofessional": 7265,
      "eclampsia": 7266,
      "ĠPrimary": 7267,
      "Ġsple": 7268,
      "Ġthereby": 7269,
      "Ġanorexia": 7270,
      "Ġchallenge": 7271,
      "Ġumbilical": 7272,
      "Ġtunnel": 7273,
      "Ġintestine": 7274,
      "Pearls": 7275,
      "ads": 7276,
      "Ġos": 7277,
      "oscope": 7278,
      "olution": 7279,
      "ĠDel": 7280,
      "Ġobjects": 7281,
      "ĠWorld": 7282,
      "Ġmenstrual": 7283,
      "Ġpenet": 7284,
      "Ġimplemented": 7285,
      "Ġdiscussed": 7286,
      "Ã©": 7287,
      "ĠSho": 7288,
      "Ġmanifests": 7289,
      "Ġanalgesics": 7290,
      "ĠâĢĶ": 7291,
      "Ġimplementation": 7292,
      "ĠTransfusion": 7293,
      "oclonal": 7294,
      "Ġlayer": 7295,
      "GT": 7296,
      "Ig": 7297,
      "Patient": 7298,
      "calc": 7299,
      "Ġbite": 7300,
      "Ġstra": 7301,
      "ĠAm": 7302,
      "ĠMale": 7303,
      "unctional": 7304,
      "comitant": 7305,
      "Ġ115": 7306,
      "Ġpaper": 7307,
      "Ġenlarged": 7308,
      "Ġpupils": 7309,
      "rady": 7310,
      "Ġsound": 7311,
      "mental": 7312,
      "Ġconversion": 7313,
      "Ġrhythm": 7314,
      "amycin": 7315,
      "ĠRel": 7316,
      "ĠEl": 7317,
      "ĠLiver": 7318,
      "Ġcomputer": 7319,
      "iants": 7320,
      "Ġcholed": 7321,
      "Ġdifferentiation": 7322,
      "Ġinjections": 7323,
      "Investigation": 7324,
      "By": 7325,
      "till": 7326,
      "Ġrefer": 7327,
      "ĠAverage": 7328,
      "quit": 7329,
      "Ġimm": 7330,
      "ĠFib": 7331,
      "Ġfebrile": 7332,
      "Ġcompleted": 7333,
      "existing": 7334,
      "Ġblind": 7335,
      "orticoster": 7336,
      "Ġinterventional": 7337,
      "Ġinstability": 7338,
      "Ġneuromuscular": 7339,
      "Ġhypersensitivity": 7340,
      "gow": 7341,
      "Ġtap": 7342,
      "Ġput": 7343,
      "ĠSon": 7344,
      "Ġcardiopulmonary": 7345,
      "Ġpathologic": 7346,
      "Ġenhancement": 7347,
      "%:": 7348,
      "EA": 7349,
      "MENT": 7350,
      "garis": 7351,
      "lished": 7352,
      "atosus": 7353,
      "Ġcome": 7354,
      "Ġdistric": 7355,
      "Ġlifestyle": 7356,
      "Ġoxid": 7357,
      "ochond": 7358,
      "ĠAFP": 7359,
      "Ġmobil": 7360,
      "Ġunstable": 7361,
      "ystitis": 7362,
      "Ġdependent": 7363,
      "Ġpuls": 7364,
      "Ġitself": 7365,
      "arring": 7366,
      "therapy": 7367,
      "Ġtechnology": 7368,
      "Ġeradication": 7369,
      "xide": 7370,
      "ĠKeywords": 7371,
      "Ġoffic": 7372,
      "ancre": 7373,
      "Ġproved": 7374,
      "ĠTran": 7375,
      "Ġhypo": 7376,
      "illance": 7377,
      "Ġcoef": 7378,
      "cinetobacter": 7379,
      "Ġstiff": 7380,
      "ogenesis": 7381,
      "AST": 7382,
      "Ġprostatic": 7383,
      "Ġisolation": 7384,
      "Ġaxis": 7385,
      "ĠHepatitis": 7386,
      "ĠInfections": 7387,
      "ĠConsider": 7388,
      "Group": 7389,
      "irs": 7390,
      "Ġuses": 7391,
      "Ġinfiltration": 7392,
      "Ġassisted": 7393,
      "Ġcoord": 7394,
      "Ġoptions": 7395,
      "ĠYen": 7396,
      "Ġruptured": 7397,
      "Ġranged": 7398,
      "Ġinjured": 7399,
      "Ġspleen": 7400,
      "guided": 7401,
      "mall": 7402,
      "oradi": 7403,
      "iae": 7404,
      "Ġthorough": 7405,
      "mented": 7406,
      "ĠTO": 7407,
      "Ġimplantation": 7408,
      "Ġcompress": 7409,
      "centage": 7410,
      "structive": 7411,
      "Ġveloc": 7412,
      "Ġexperiences": 7413,
      "Ġencephalopathy": 7414,
      "absorption": 7415,
      "utism": 7416,
      "Cardi": 7417,
      "Ġnam": 7418,
      "Ġglyc": 7419,
      "iment": 7420,
      "ĠHowever": 7421,
      "ĠUr": 7422,
      "Ġtranspl": 7423,
      "Ġimmunode": 7424,
      "ĠScale": 7425,
      "ptococcus": 7426,
      "Ġpi": 7427,
      "Ġineffective": 7428,
      "osterior": 7429,
      "Ġstret": 7430,
      "ĠPCI": 7431,
      "ĠSan": 7432,
      "Ġpapill": 7433,
      "Ġestimate": 7434,
      "Ġimmunocompromised": 7435,
      "People": 7436,
      "Several": 7437,
      "where": 7438,
      "Ġcra": 7439,
      "acquired": 7440,
      "Ġsteps": 7441,
      "ĠRV": 7442,
      "Ġprur": 7443,
      "Ġdecline": 7444,
      "Ġtea": 7445,
      "Ġepidemic": 7446,
      "ĠScience": 7447,
      "Ġplanning": 7448,
      "Ġbelong": 7449,
      "Ġirrigation": 7450,
      "Ġsuffering": 7451,
      "MV": 7452,
      "YP": 7453,
      "ca": 7454,
      "Ġfusion": 7455,
      "umn": 7456,
      "ĠTien": 7457,
      "Ġcortisol": 7458,
      "ĠChild": 7459,
      "holds": 7460,
      "Ġolig": 7461,
      "Ġteaching": 7462,
      "ĠNeonatal": 7463,
      "Ġsituations": 7464,
      "Ġferritin": 7465,
      "Ġtools": 7466,
      "ozyg": 7467,
      "Ġsyringe": 7468,
      "UN": 7469,
      "patients": 7470,
      "onium": 7471,
      "Ġdent": 7472,
      "Ġfrozen": 7473,
      "teroidal": 7474,
      "ĠOut": 7475,
      "ĠNghe": 7476,
      "Ġcerebrospinal": 7477,
      "Ġnephritis": 7478,
      "hythmia": 7479,
      "Ġindirect": 7480,
      "Ġcomplain": 7481,
      "Ġpower": 7482,
      "Ġincomplete": 7483,
      "Ġcorresponding": 7484,
      "Age": 7485,
      "TB": 7486,
      "Ġsaturation": 7487,
      "eter": 7488,
      "umber": 7489,
      "ĠEr": 7490,
      "ĠIntensive": 7491,
      "ĠAnatomy": 7492,
      "Ġexperts": 7493,
      "ATI": 7494,
      "ICU": 7495,
      "Ġcontributing": 7496,
      "ussion": 7497,
      "Ġtemporary": 7498,
      "lit": 7499,
      "type": 7500,
      "Ġbull": 7501,
      "Ġglobulin": 7502,
      "esthesia": 7503,
      "ĠInjur": 7504,
      "ĠWhen": 7505,
      "vascularization": 7506,
      "Ġtubular": 7507,
      "Ġvisit": 7508,
      "going": 7509,
      "Ġmagnesium": 7510,
      "Ġcosmetic": 7511,
      "fficacy": 7512,
      "Ġchromatography": 7513,
      "ajor": 7514,
      "lder": 7515,
      "tus": 7516,
      "Ġpolic": 7517,
      "Ġfiltration": 7518,
      "Ġhost": 7519,
      "ĠCar": 7520,
      "rombin": 7521,
      "ades": 7522,
      "Ġcomprehensive": 7523,
      "Ġmuscular": 7524,
      "Ġseptum": 7525,
      "Ġviscer": 7526,
      "Ġvasc": 7527,
      "Ġadjusted": 7528,
      "Ġtechnical": 7529,
      "LISA": 7530,
      "Ġbeneficial": 7531,
      "Ġsequelae": 7532,
      "ford": 7533,
      "inergic": 7534,
      "ĠTSH": 7535,
      "ĠVID": 7536,
      "Ġtrunk": 7537,
      "titu": 7538,
      "Ġcream": 7539,
      "Ġfrontal": 7540,
      "alle": 7541,
      "Ġvo": 7542,
      "Ġhabits": 7543,
      "Ġspect": 7544,
      "Ġmeta": 7545,
      "Ġmorning": 7546,
      "Ġhematopoietic": 7547,
      "Ġmarket": 7548,
      "ĠPregnancy": 7549,
      "Ġpapillary": 7550,
      "Ġvasculitis": 7551,
      "BD": 7552,
      "iatic": 7553,
      "Ġpin": 7554,
      "leb": 7555,
      "Ġcontract": 7556,
      "essation": 7557,
      "eptide": 7558,
      "Ġspor": 7559,
      "Ġobtain": 7560,
      "Ġthromboemb": 7561,
      "Ġneonate": 7562,
      "Ġeventually": 7563,
      "Laparoscopic": 7564,
      "Ġclot": 7565,
      "ĠAfric": 7566,
      "ICAL": 7567,
      "Ġpsychological": 7568,
      "amethasone": 7569,
      "Ġdistricts": 7570,
      "oL": 7571,
      "Ġter": 7572,
      "Ġstates": 7573,
      "ĠCL": 7574,
      "opar": 7575,
      "ĠPSA": 7576,
      "ĠNa": 7577,
      "Ġvariants": 7578,
      "Ġfunctioning": 7579,
      "Ġdefine": 7580,
      "Prevention": 7581,
      "Ġdangerous": 7582,
      "lif": 7583,
      "Ġfentanyl": 7584,
      "urity": 7585,
      "hob": 7586,
      "Ġglo": 7587,
      "Ġvideo": 7588,
      "ights": 7589,
      "Ġrob": 7590,
      "Ġinsomnia": 7591,
      "Ġjob": 7592,
      "ophren": 7593,
      "ĠAntib": 7594,
      "Surgery": 7595,
      "ĠDetermine": 7596,
      "DNA": 7597,
      "ME": 7598,
      "Ġdl": 7599,
      "Ġrelevant": 7600,
      "Ġatresia": 7601,
      "ĠBa": 7602,
      "Ġrecur": 7603,
      "Inter": 7604,
      "Ġgeneration": 7605,
      "ĠIndex": 7606,
      "ĠTox": 7607,
      "Ġdelirium": 7608,
      "ogene": 7609,
      "Ġoccupation": 7610,
      "ĠSPSS": 7611,
      "CSF": 7612,
      "jun": 7613,
      "Ġaest": 7614,
      "Ġown": 7615,
      "umes": 7616,
      "umatic": 7617,
      "Ġdehydration": 7618,
      "ĠOp": 7619,
      "Ġinterviewed": 7620,
      "Sometimes": 7621,
      "Ġrepeat": 7622,
      "Ġconcurrent": 7623,
      "Ġdestruction": 7624,
      "ĠVIDEO": 7625,
      "Stud": 7626,
      "vate": 7627,
      "Ġfavor": 7628,
      "dient": 7629,
      "Ġsurroun": 7630,
      "Ins": 7631,
      "Indications": 7632,
      "Ġminimum": 7633,
      "ĠPediatrics": 7634,
      "Ġinherited": 7635,
      "Ġcontrolling": 7636,
      "mission": 7637,
      "oking": 7638,
      "atum": 7639,
      "Ġconjunctivitis": 7640,
      "Ġrun": 7641,
      "ountain": 7642,
      "Ġcompens": 7643,
      "Ġjunction": 7644,
      "ĠSciences": 7645,
      "ITAL": 7646,
      "Ġfixed": 7647,
      "Ġpromote": 7648,
      "Ġstricture": 7649,
      "Ġgau": 7650,
      "ĠRenal": 7651,
      "ĠOral": 7652,
      "utrient": 7653,
      "ĠArter": 7654,
      "ĠSU": 7655,
      "Ġrectum": 7656,
      "ofol": 7657,
      "Anti": 7658,
      "á»ĳ": 7659,
      "ĠAlthough": 7660,
      "Ġactual": 7661,
      "Ġcontraceptive": 7662,
      "Ġmarkedly": 7663,
      "Describe": 7664,
      "Ġproliferation": 7665,
      "Ġlidocaine": 7666,
      "erving": 7667,
      "Ġdark": 7668,
      "ason": 7669,
      "Ġburs": 7670,
      "Ġhall": 7671,
      "Ġglycemic": 7672,
      "Ġthumb": 7673,
      "aste": 7674,
      "ologically": 7675,
      "Ġheparin": 7676,
      "Ġepig": 7677,
      "Ġretros": 7678,
      "ĠIgA": 7679,
      "Ġanticoagulation": 7680,
      "LS": 7681,
      "especially": 7682,
      "Ġwashing": 7683,
      "ĠPD": 7684,
      "Ġdeterior": 7685,
      "ĠWil": 7686,
      "sych": 7687,
      "Ġactivation": 7688,
      "Ġsmooth": 7689,
      "Ġeducational": 7690,
      "Ġpublished": 7691,
      "Ġconsultation": 7692,
      "Hist": 7693,
      "hi": 7694,
      "ker": 7695,
      "Ġbrief": 7696,
      "ĠCal": 7697,
      "Ġexact": 7698,
      "Ġarteriovenous": 7699,
      "Ġcyan": 7700,
      "lasgow": 7701,
      "titution": 7702,
      "avail": 7703,
      "Ġsmoke": 7704,
      "Ġinhibitory": 7705,
      "Ġthickening": 7706,
      "Ġmyeloma": 7707,
      "ĠOrganization": 7708,
      "HC": 7709,
      "PS": 7710,
      "TC": 7711,
      "ded": 7712,
      "raft": 7713,
      "amol": 7714,
      "thra": 7715,
      "ignific": 7716,
      "Ġscalp": 7717,
      "Ġshif": 7718,
      "Ġ2001": 7719,
      "Ġmedicines": 7720,
      "tigm": 7721,
      "othermia": 7722,
      "Ġstandardi": 7723,
      "OSP": 7724,
      "nec": 7725,
      "Ġiliac": 7726,
      "rio": 7727,
      "Ġstudying": 7728,
      "Ġreasonable": 7729,
      "Ġsuspicion": 7730,
      "Ġdomestic": 7731,
      "ket": 7732,
      "Ġ(-": 7733,
      "Ġconver": 7734,
      "ĠSal": 7735,
      "ocortic": 7736,
      "ineal": 7737,
      "ocytic": 7738,
      "Ġintraocular": 7739,
      "Ġmassive": 7740,
      "Ġnewborns": 7741,
      "Ġperiodontitis": 7742,
      "Dep": 7743,
      "Eq": 7744,
      "right": 7745,
      "sies": 7746,
      "els": 7747,
      "Ġprefer": 7748,
      "Ġaltered": 7749,
      "dial": 7750,
      "cedure": 7751,
      "omyel": 7752,
      "athyroid": 7753,
      "ofl": 7754,
      "Ġsafely": 7755,
      "Ġprotect": 7756,
      "arks": 7757,
      "Ġepisode": 7758,
      "inous": 7759,
      "oskeletal": 7760,
      "ques": 7761,
      "ĠNeph": 7762,
      "ipolar": 7763,
      "Ġintoler": 7764,
      "aker": 7765,
      "Ġgenotypes": 7766,
      "comp": 7767,
      "2007": 7768,
      "oked": 7769,
      "Ġcirculating": 7770,
      "Ġvaccinated": 7771,
      "Ġversion": 7772,
      "ĠContraindications": 7773,
      "Overall": 7774,
      "Ġamino": 7775,
      "Ġqualitative": 7776,
      "ĠAssessment": 7777,
      "Ġlogistic": 7778,
      "Women": 7779,
      "ejun": 7780,
      "Ġmood": 7781,
      "ithotomy": 7782,
      "ĠPA": 7783,
      "ĠSerum": 7784,
      "ĠMon": 7785,
      "Ġacce": 7786,
      "tria": 7787,
      "ĠGuid": 7788,
      "riction": 7789,
      "Ġserologic": 7790,
      "Ġsystematic": 7791,
      "Ġfiber": 7792,
      "untary": 7793,
      "Ġerythematosus": 7794,
      "Ġdiuretics": 7795,
      "Ġmurmur": 7796,
      "Ġmakes": 7797,
      "ĠHOSP": 7798,
      "Ġfeature": 7799,
      "olemia": 7800,
      "okal": 7801,
      "Ġlymphocytes": 7802,
      "Ġanimals": 7803,
      "patient": 7804,
      "urse": 7805,
      "Ġcommerc": 7806,
      "ĠTub": 7807,
      "Ġmaneu": 7808,
      "Ġmethotrexate": 7809,
      "Ġgastrectomy": 7810,
      "ASI": 7811,
      "ocele": 7812,
      "ĠHOSPITAL": 7813,
      "Hep": 7814,
      "Up": 7815,
      "otrans": 7816,
      "Ġexceed": 7817,
      "Ġperc": 7818,
      "Ġrab": 7819,
      "Ġendovascular": 7820,
      "ĠUnit": 7821,
      "Ġpostoperatively": 7822,
      "Ġquestionnaires": 7823,
      "Ġspecimen": 7824,
      "Ġcapsules": 7825,
      "Ġvulgaris": 7826,
      "Tr": 7827,
      "ival": 7828,
      "Ġtension": 7829,
      "igmoid": 7830,
      "Ġrise": 7831,
      "acteremia": 7832,
      "airs": 7833,
      "Ġnodule": 7834,
      "Ġchemoradi": 7835,
      "iabetic": 7836,
      "ĠDescribe": 7837,
      "ĠSevere": 7838,
      "iro": 7839,
      "nar": 7840,
      "pret": 7841,
      "inating": 7842,
      "orp": 7843,
      "Ġhot": 7844,
      "estations": 7845,
      "Ġuntreated": 7846,
      "ĠEry": 7847,
      "cluded": 7848,
      "Ġmargin": 7849,
      "Ġsustained": 7850,
      "athetic": 7851,
      "orrhage": 7852,
      "Ġangiotensin": 7853,
      "ĠDescription": 7854,
      "Ġtolerated": 7855,
      "Ġexcluded": 7856,
      "Ġendometrial": 7857,
      "Ġpericardial": 7858,
      "Ġregardless": 7859,
      "Ġcotton": 7860,
      "Ġcontrovers": 7861,
      "App": 7862,
      "ontal": 7863,
      "Ġskeletal": 7864,
      "ĠmEq": 7865,
      "ĠHy": 7866,
      "asting": 7867,
      "certain": 7868,
      "Ġpredicted": 7869,
      "Ġchoose": 7870,
      "aturity": 7871,
      "Ġinjected": 7872,
      "Ġpowder": 7873,
      "Ġelectrical": 7874,
      "ĠHelicobacter": 7875,
      "ĠInternational": 7876,
      "Ġsurrounding": 7877,
      "Besides": 7878,
      "Dis": 7879,
      "Ġbacill": 7880,
      "utation": 7881,
      "Ġshowing": 7882,
      "Ġpossibility": 7883,
      "Ġingre": 7884,
      "Ġvariant": 7885,
      "tified": 7886,
      "Ġlymphadenectomy": 7887,
      "BMI": 7888,
      "Ġmim": 7889,
      "opa": 7890,
      "ĠAN": 7891,
      "Ġscreened": 7892,
      "uterine": 7893,
      "Ġtargeted": 7894,
      "Ġpractitioners": 7895,
      "Ġdeviation": 7896,
      "ignificant": 7897,
      "aemia": 7898,
      "onad": 7899,
      "ather": 7900,
      "Ġlanguage": 7901,
      "ĠPres": 7902,
      "ĠDI": 7903,
      "Ġantidep": 7904,
      "ournal": 7905,
      "Ġpractical": 7906,
      "hal": 7907,
      "Ġcessation": 7908,
      "Ġconcomitant": 7909,
      "Ġproposed": 7910,
      "ĠTric": 7911,
      "ocutaneous": 7912,
      "Ġgross": 7913,
      "Ġcausative": 7914,
      "oxy": 7915,
      "Ġindexes": 7916,
      "Ġscrew": 7917,
      "Ġdirection": 7918,
      "Ġnitrogen": 7919,
      "Based": 7920,
      "OG": 7921,
      "Testing": 7922,
      "ioma": 7923,
      "opt": 7924,
      "ĠHA": 7925,
      "Ġunderg": 7926,
      "Ġcommunic": 7927,
      "ĠHead": 7928,
      "ĠARV": 7929,
      "Ġspeech": 7930,
      "des": 7931,
      "vae": 7932,
      "izz": 7933,
      "Ġmonoclonal": 7934,
      "Ġpara": 7935,
      "Ġmuscul": 7936,
      "Ġthyroidectomy": 7937,
      "Ġplacebo": 7938,
      "Ġhousehold": 7939,
      "Ġanaer": 7940,
      "Ġcataract": 7941,
      "Ġchamber": 7942,
      "Ġtight": 7943,
      "tival": 7944,
      "Ġinstruc": 7945,
      "arct": 7946,
      "ĠAut": 7947,
      "emph": 7948,
      "ĠPub": 7949,
      "adv": 7950,
      "Intra": 7951,
      "Ġautonomic": 7952,
      "arcoidosis": 7953,
      "Ġmacular": 7954,
      "Ġfund": 7955,
      "opical": 7956,
      "istin": 7957,
      "ĠFract": 7958,
      "Ġeng": 7959,
      "ĠWh": 7960,
      "Ġautologous": 7961,
      "rowth": 7962,
      "prim": 7963,
      "Ġsplenic": 7964,
      "Ġelectrolytes": 7965,
      "Ġtriglyceride": 7966,
      "Ġendothelial": 7967,
      "kine": 7968,
      "no": 7969,
      "Ġty": 7970,
      "Ġdressing": 7971,
      "Ġmos": 7972,
      "oming": 7973,
      "ĠRES": 7974,
      "Ġcolitis": 7975,
      "Ġwheezing": 7976,
      "ĠSurvey": 7977,
      "Ġbronchial": 7978,
      "ĠCenters": 7979,
      "ĠProvince": 7980,
      "OD": 7981,
      "inn": 7982,
      "hetics": 7983,
      "Ġseem": 7984,
      "amines": 7985,
      "Ġorganism": 7986,
      "Ġblack": 7987,
      "Ġremoving": 7988,
      "Ġrefl": 7989,
      "Ġadministered": 7990,
      "Ġmaintaining": 7991,
      "Ġpalpable": 7992,
      "Ġgrafting": 7993,
      "Ġdysphagia": 7994,
      "osyn": 7995,
      "leeding": 7996,
      "Ġnature": 7997,
      "iph": 7998,
      "ifications": 7999
    },
    "merges": [
      [
        "i",
        "n"
      ],
      [
        "Ġ",
        "a"
      ],
      [
        "Ġ",
        "t"
      ],
      [
        "r",
        "e"
      ],
      [
        "t",
        "i"
      ],
      [
        "o",
        "n"
      ],
      [
        "h",
        "e"
      ],
      [
        "e",
        "n"
      ],
      [
        "Ġ",
        "o"
      ],
      [
        "e",
        "r"
      ],
      [
        "a",
        "l"
      ],
      [
        "Ġ",
        "s"
      ],
      [
        "Ġ",
        "c"
      ],
      [
        "Ġ",
        "p"
      ],
      [
        "e",
        "s"
      ],
      [
        "i",
        "s"
      ],
      [
        "Ġo",
        "f"
      ],
      [
        "Ġa",
        "n"
      ],
      [
        "Ġ",
        "in"
      ],
      [
        "Ġt",
        "he"
      ],
      [
        "o",
        "r"
      ],
      [
        "e",
        "d"
      ],
      [
        "Ġ",
        "w"
      ],
      [
        "a",
        "t"
      ],
      [
        "i",
        "t"
      ],
      [
        "a",
        "ti"
      ],
      [
        "Ġ",
        "d"
      ],
      [
        "Ġ",
        "m"
      ],
      [
        "i",
        "c"
      ],
      [
        "a",
        "n"
      ],
      [
        "r",
        "o"
      ],
      [
        "Ġan",
        "d"
      ],
      [
        "a",
        "s"
      ],
      [
        "a",
        "r"
      ],
      [
        "en",
        "t"
      ],
      [
        "Ġ",
        "f"
      ],
      [
        "Ġ",
        "b"
      ],
      [
        "in",
        "g"
      ],
      [
        "e",
        "c"
      ],
      [
        "u",
        "s"
      ],
      [
        "o",
        "s"
      ],
      [
        "o",
        "m"
      ],
      [
        "Ġ",
        "re"
      ],
      [
        "v",
        "e"
      ],
      [
        "u",
        "l"
      ],
      [
        "Ġ",
        "("
      ],
      [
        "Ġ",
        "h"
      ],
      [
        "Ġt",
        "o"
      ],
      [
        "ati",
        "on"
      ],
      [
        "a",
        "c"
      ],
      [
        "l",
        "e"
      ],
      [
        "l",
        "y"
      ],
      [
        "u",
        "r"
      ],
      [
        "Ġ",
        "e"
      ],
      [
        "it",
        "h"
      ],
      [
        "e",
        "t"
      ],
      [
        "ti",
        "on"
      ],
      [
        "Ġ",
        "n"
      ],
      [
        "Ġw",
        "ith"
      ],
      [
        "l",
        "o"
      ],
      [
        "h",
        "o"
      ],
      [
        "Ġ",
        "is"
      ],
      [
        "t",
        "er"
      ],
      [
        "i",
        "d"
      ],
      [
        "u",
        "n"
      ],
      [
        "ent",
        "s"
      ],
      [
        "Ġ",
        "g"
      ],
      [
        "Ġ",
        "1"
      ],
      [
        "u",
        "t"
      ],
      [
        "i",
        "l"
      ],
      [
        "Ġs",
        "t"
      ],
      [
        "Ġ",
        "2"
      ],
      [
        "i",
        "a"
      ],
      [
        "i",
        "m"
      ],
      [
        "Ġ",
        "l"
      ],
      [
        "r",
        "a"
      ],
      [
        "Ġt",
        "h"
      ],
      [
        "Ġp",
        "ati"
      ],
      [
        "T",
        "he"
      ],
      [
        "i",
        "g"
      ],
      [
        "t",
        "s"
      ],
      [
        "o",
        "l"
      ],
      [
        "c",
        "e"
      ],
      [
        "Ġf",
        "or"
      ],
      [
        "Ġo",
        "r"
      ],
      [
        "Ġpati",
        "ents"
      ],
      [
        "Ġ",
        "C"
      ],
      [
        "u",
        "m"
      ],
      [
        "v",
        "er"
      ],
      [
        "m",
        "ent"
      ],
      [
        "ti",
        "c"
      ],
      [
        "g",
        "e"
      ],
      [
        "o",
        "p"
      ],
      [
        "u",
        "d"
      ],
      [
        "i",
        "on"
      ],
      [
        "o",
        "d"
      ],
      [
        "at",
        "e"
      ],
      [
        "e",
        "re"
      ],
      [
        "ic",
        "al"
      ],
      [
        "o",
        "t"
      ],
      [
        "Ġb",
        "e"
      ],
      [
        "u",
        "c"
      ],
      [
        "Ġc",
        "on"
      ],
      [
        "Ġ",
        "v"
      ],
      [
        "i",
        "f"
      ],
      [
        "s",
        "t"
      ],
      [
        "it",
        "y"
      ],
      [
        "u",
        "re"
      ],
      [
        "Ġw",
        "as"
      ],
      [
        "Ġp",
        "ro"
      ],
      [
        "Ġ",
        "r"
      ],
      [
        "e",
        "l"
      ],
      [
        "a",
        "y"
      ],
      [
        "a",
        "m"
      ],
      [
        "i",
        "r"
      ],
      [
        "Ġc",
        "om"
      ],
      [
        "Ġ",
        "on"
      ],
      [
        "ro",
        "m"
      ],
      [
        "Ġd",
        "is"
      ],
      [
        "Ġre",
        "s"
      ],
      [
        "u",
        "p"
      ],
      [
        "re",
        "at"
      ],
      [
        "Ġ",
        "A"
      ],
      [
        "Ġa",
        "t"
      ],
      [
        "Ġa",
        "re"
      ],
      [
        "e",
        "m"
      ],
      [
        "t",
        "h"
      ],
      [
        "Ġp",
        "re"
      ],
      [
        "Ġ",
        "he"
      ],
      [
        "s",
        "s"
      ],
      [
        "Ġ",
        "H"
      ],
      [
        "Ġ",
        "T"
      ],
      [
        "ti",
        "ve"
      ],
      [
        "Ġ",
        "P"
      ],
      [
        "Ġc",
        "h"
      ],
      [
        "f",
        "ec"
      ],
      [
        "Ġ",
        "S"
      ],
      [
        "Ġ",
        "3"
      ],
      [
        "es",
        "s"
      ],
      [
        "Ġ",
        "M"
      ],
      [
        "c",
        "l"
      ],
      [
        "r",
        "i"
      ],
      [
        "Ġa",
        "c"
      ],
      [
        "o",
        "c"
      ],
      [
        ")",
        "."
      ],
      [
        "q",
        "u"
      ],
      [
        "y",
        "p"
      ],
      [
        "Ġh",
        "a"
      ],
      [
        "at",
        "ed"
      ],
      [
        "ar",
        "y"
      ],
      [
        "e",
        "p"
      ],
      [
        "Ġw",
        "ere"
      ],
      [
        "in",
        "e"
      ],
      [
        "Ġe",
        "x"
      ],
      [
        "as",
        "e"
      ],
      [
        "Ġ",
        "I"
      ],
      [
        "Ġ",
        "D"
      ],
      [
        "Ġ",
        "us"
      ],
      [
        "d",
        "er"
      ],
      [
        "Ġt",
        "reat"
      ],
      [
        "Ġb",
        "y"
      ],
      [
        "Ġ2",
        "0"
      ],
      [
        "he",
        "r"
      ],
      [
        "a",
        "b"
      ],
      [
        "Ġ",
        "-"
      ],
      [
        "g",
        "n"
      ],
      [
        "t",
        "ed"
      ],
      [
        "it",
        "al"
      ],
      [
        "Ġst",
        "ud"
      ],
      [
        "Ġc",
        "an"
      ],
      [
        "Ġc",
        "a"
      ],
      [
        "p",
        "l"
      ],
      [
        "an",
        "t"
      ],
      [
        "Ġa",
        "l"
      ],
      [
        "a",
        "in"
      ],
      [
        "o",
        "re"
      ],
      [
        "os",
        "p"
      ],
      [
        "d",
        "i"
      ],
      [
        "es",
        "t"
      ],
      [
        "e",
        "ar"
      ],
      [
        "re",
        "n"
      ],
      [
        "h",
        "y"
      ],
      [
        "d",
        "s"
      ],
      [
        "Ġa",
        "s"
      ],
      [
        "u",
        "g"
      ],
      [
        "ac",
        "t"
      ],
      [
        "Ġ",
        "4"
      ],
      [
        "Ġf",
        "rom"
      ],
      [
        "os",
        "t"
      ],
      [
        "a",
        "ge"
      ],
      [
        "m",
        "on"
      ],
      [
        "p",
        "ec"
      ],
      [
        "Ġ",
        "5"
      ],
      [
        "os",
        "is"
      ],
      [
        "ul",
        "ts"
      ],
      [
        "Ġs",
        "y"
      ],
      [
        "ig",
        "h"
      ],
      [
        "Ġ",
        "0"
      ],
      [
        "Ġ",
        "/"
      ],
      [
        "lo",
        "w"
      ],
      [
        ")",
        ","
      ],
      [
        "Ġ",
        "im"
      ],
      [
        "osp",
        "ital"
      ],
      [
        "Ġ",
        "le"
      ],
      [
        "t",
        "r"
      ],
      [
        "Ġd",
        "e"
      ],
      [
        "s",
        "e"
      ],
      [
        "i",
        "al"
      ],
      [
        "Ġp",
        "er"
      ],
      [
        "m",
        "p"
      ],
      [
        "Ġth",
        "at"
      ],
      [
        "ation",
        "s"
      ],
      [
        "t",
        "om"
      ],
      [
        "Ġ",
        "6"
      ],
      [
        "v",
        "al"
      ],
      [
        "o",
        "us"
      ],
      [
        "i",
        "ti"
      ],
      [
        "u",
        "b"
      ],
      [
        "Ġs",
        "ho"
      ],
      [
        "ul",
        "ar"
      ],
      [
        "Ġ",
        "R"
      ],
      [
        "or",
        "s"
      ],
      [
        "Ġs",
        "ur"
      ],
      [
        "Ġstud",
        "y"
      ],
      [
        "Ġa",
        "f"
      ],
      [
        "Ġtreat",
        "ment"
      ],
      [
        "ra",
        "p"
      ],
      [
        "o",
        "un"
      ],
      [
        "en",
        "s"
      ],
      [
        "lo",
        "g"
      ],
      [
        "Ġm",
        "ay"
      ],
      [
        "Ġa",
        "b"
      ],
      [
        "Ġn",
        "e"
      ],
      [
        "Ġ",
        "un"
      ],
      [
        "ig",
        "n"
      ],
      [
        "Ġ",
        "B"
      ],
      [
        "Ġa",
        "d"
      ],
      [
        "as",
        "es"
      ],
      [
        "Ġc",
        "l"
      ],
      [
        "Ġg",
        "ro"
      ],
      [
        "i",
        "z"
      ],
      [
        "Ġd",
        "ia"
      ],
      [
        "al",
        "ly"
      ],
      [
        "o",
        "w"
      ],
      [
        "Ġ",
        "N"
      ],
      [
        "Ġs",
        "e"
      ],
      [
        "or",
        "m"
      ],
      [
        "is",
        "t"
      ],
      [
        "a",
        "d"
      ],
      [
        "et",
        "ho"
      ],
      [
        "as",
        "t"
      ],
      [
        "Ġ",
        "E"
      ],
      [
        "us",
        "ion"
      ],
      [
        "il",
        "d"
      ],
      [
        "Ġ",
        "The"
      ],
      [
        "d",
        "uc"
      ],
      [
        "r",
        "an"
      ],
      [
        "om",
        "e"
      ],
      [
        "v",
        "en"
      ],
      [
        "en",
        "d"
      ],
      [
        "c",
        "re"
      ],
      [
        "el",
        "l"
      ],
      [
        "0",
        "0"
      ],
      [
        "Ġ",
        "y"
      ],
      [
        "j",
        "ec"
      ],
      [
        "a",
        "g"
      ],
      [
        "i",
        "es"
      ],
      [
        "Ġdis",
        "e"
      ],
      [
        "Ġgro",
        "up"
      ],
      [
        "Ġha",
        "ve"
      ],
      [
        "Ġ",
        "k"
      ],
      [
        "or",
        "t"
      ],
      [
        "Ġn",
        "ot"
      ],
      [
        "i",
        "p"
      ],
      [
        "u",
        "e"
      ],
      [
        "Ġe",
        "f"
      ],
      [
        "Ġca",
        "us"
      ],
      [
        "Ġ",
        "V"
      ],
      [
        "Ġ",
        "7"
      ],
      [
        "a",
        "p"
      ],
      [
        "c",
        "h"
      ],
      [
        "Ġaf",
        "ter"
      ],
      [
        "if",
        "ic"
      ],
      [
        "g",
        "er"
      ],
      [
        "in",
        "ical"
      ],
      [
        "y",
        "s"
      ],
      [
        "on",
        "e"
      ],
      [
        "ati",
        "ve"
      ],
      [
        "os",
        "e"
      ],
      [
        "Ġ",
        "9"
      ],
      [
        "Ġ",
        "8"
      ],
      [
        "Ġ",
        "L"
      ],
      [
        "Ġcon",
        "t"
      ],
      [
        "Ġcom",
        "p"
      ],
      [
        "c",
        "er"
      ],
      [
        "n",
        "e"
      ],
      [
        "en",
        "ce"
      ],
      [
        "cl",
        "ud"
      ],
      [
        "i",
        "b"
      ],
      [
        "or",
        "y"
      ],
      [
        "Ġre",
        "c"
      ],
      [
        "ul",
        "t"
      ],
      [
        "Ġh",
        "yp"
      ],
      [
        "%",
        ","
      ],
      [
        "Ġh",
        "ospital"
      ],
      [
        "f",
        "ic"
      ],
      [
        "Ġw",
        "h"
      ],
      [
        "re",
        "ss"
      ],
      [
        "c",
        "y"
      ],
      [
        "Â",
        "±"
      ],
      [
        "Ġr",
        "ate"
      ],
      [
        "mp",
        "tom"
      ],
      [
        "p",
        "er"
      ],
      [
        "I",
        "n"
      ],
      [
        "Ġdise",
        "ase"
      ],
      [
        "cl",
        "usion"
      ],
      [
        "R",
        "es"
      ],
      [
        "t",
        "her"
      ],
      [
        "o",
        "ut"
      ],
      [
        "ar",
        "t"
      ],
      [
        "Ġin",
        "t"
      ],
      [
        "ild",
        "ren"
      ],
      [
        "ul",
        "d"
      ],
      [
        "in",
        "al"
      ],
      [
        "Ġin",
        "fec"
      ],
      [
        "Ġin",
        "f"
      ],
      [
        "Ġ",
        "G"
      ],
      [
        "i",
        "e"
      ],
      [
        "o",
        "log"
      ],
      [
        "Ġa",
        "p"
      ],
      [
        "o",
        "g"
      ],
      [
        "il",
        "l"
      ],
      [
        "Ġef",
        "fec"
      ],
      [
        "Ġin",
        "clud"
      ],
      [
        "Ġy",
        "ear"
      ],
      [
        "Ġan",
        "ti"
      ],
      [
        "ac",
        "ter"
      ],
      [
        "Ġb",
        "lo"
      ],
      [
        "as",
        "ed"
      ],
      [
        "Ġc",
        "ases"
      ],
      [
        "Ġb",
        "et"
      ],
      [
        "w",
        "e"
      ],
      [
        "gn",
        "osis"
      ],
      [
        "v",
        "es"
      ],
      [
        "Ġ",
        "F"
      ],
      [
        "Ġw",
        "e"
      ],
      [
        "Ġth",
        "an"
      ],
      [
        "Ġs",
        "c"
      ],
      [
        "p",
        "ro"
      ],
      [
        "on",
        "g"
      ],
      [
        "Ġm",
        "on"
      ],
      [
        "o",
        "ur"
      ],
      [
        "e",
        "g"
      ],
      [
        "Ġre",
        "l"
      ],
      [
        "an",
        "ce"
      ],
      [
        "Ġc",
        "ar"
      ],
      [
        "Ġc",
        "or"
      ],
      [
        "igh",
        "t"
      ],
      [
        "re",
        "d"
      ],
      [
        "Ġa",
        "r"
      ],
      [
        "Ġs",
        "ign"
      ],
      [
        "Ġa",
        "ss"
      ],
      [
        "Ġ",
        "O"
      ],
      [
        "is",
        "k"
      ],
      [
        "en",
        "ti"
      ],
      [
        "ic",
        "h"
      ],
      [
        "Ġt",
        "im"
      ],
      [
        "C",
        "on"
      ],
      [
        "val",
        "u"
      ],
      [
        "ve",
        "l"
      ],
      [
        "Ġf",
        "act"
      ],
      [
        "Ġm",
        "an"
      ],
      [
        "ger",
        "y"
      ],
      [
        "ab",
        "le"
      ],
      [
        "i",
        "ver"
      ],
      [
        "tion",
        "s"
      ],
      [
        "%",
        "."
      ],
      [
        "er",
        "s"
      ],
      [
        "Ġm",
        "ed"
      ],
      [
        "a",
        "k"
      ],
      [
        "i",
        "ve"
      ],
      [
        "Ġm",
        "e"
      ],
      [
        "he",
        "n"
      ],
      [
        "Ġin",
        "cre"
      ],
      [
        "Ġ",
        "Â±"
      ],
      [
        "Ġac",
        "c"
      ],
      [
        "ro",
        "s"
      ],
      [
        "al",
        "l"
      ],
      [
        "Ġ20",
        "1"
      ],
      [
        "tion",
        "al"
      ],
      [
        "Ġcl",
        "inical"
      ],
      [
        "r",
        "ic"
      ],
      [
        "ut",
        "e"
      ],
      [
        "Ġsho",
        "uld"
      ],
      [
        "an",
        "d"
      ],
      [
        "Ġin",
        "ter"
      ],
      [
        "Ġch",
        "ildren"
      ],
      [
        "mptom",
        "s"
      ],
      [
        "Ġres",
        "ults"
      ],
      [
        "id",
        "e"
      ],
      [
        "Ġp",
        "l"
      ],
      [
        "as",
        "s"
      ],
      [
        "Ġcom",
        "mon"
      ],
      [
        "r",
        "on"
      ],
      [
        "Ġha",
        "d"
      ],
      [
        "Ġblo",
        "od"
      ],
      [
        "c",
        "c"
      ],
      [
        "Ġle",
        "vel"
      ],
      [
        "r",
        "ug"
      ],
      [
        "Ġsur",
        "gery"
      ],
      [
        "Ġh",
        "igh"
      ],
      [
        "Ġr",
        "isk"
      ],
      [
        "Ġg",
        "en"
      ],
      [
        "Con",
        "clusion"
      ],
      [
        "Ġa",
        "ge"
      ],
      [
        "Ġ1",
        "0"
      ],
      [
        "ĠI",
        "n"
      ],
      [
        "Ġd",
        "ay"
      ],
      [
        "i",
        "et"
      ],
      [
        "t",
        "e"
      ],
      [
        "Ġd",
        "if"
      ],
      [
        "Ġyear",
        "s"
      ],
      [
        "ran",
        "s"
      ],
      [
        "Ġ",
        "low"
      ],
      [
        "d",
        "ic"
      ],
      [
        "er",
        "m"
      ],
      [
        "Ġwh",
        "ich"
      ],
      [
        "Ġm",
        "ost"
      ],
      [
        "Ġp",
        "ar"
      ],
      [
        "at",
        "er"
      ],
      [
        "Res",
        "ults"
      ],
      [
        "Ġm",
        "etho"
      ],
      [
        "e",
        "y"
      ],
      [
        "Ġs",
        "p"
      ],
      [
        "we",
        "en"
      ],
      [
        "pl",
        "ic"
      ],
      [
        "Ġh",
        "as"
      ],
      [
        "Ġd",
        "et"
      ],
      [
        "Ġb",
        "ut"
      ],
      [
        "ti",
        "s"
      ],
      [
        "un",
        "c"
      ],
      [
        "c",
        "op"
      ],
      [
        "or",
        "der"
      ],
      [
        "2",
        "0"
      ],
      [
        "ure",
        "s"
      ],
      [
        "Ġw",
        "ho"
      ],
      [
        "Ġbet",
        "ween"
      ],
      [
        "l",
        "l"
      ],
      [
        "tic",
        "s"
      ],
      [
        "Ġo",
        "b"
      ],
      [
        "f",
        "ere"
      ],
      [
        "%",
        ")"
      ],
      [
        "Ġfact",
        "ors"
      ],
      [
        "Ġp",
        "os"
      ],
      [
        "Ġcan",
        "cer"
      ],
      [
        "Ġ",
        "U"
      ],
      [
        "Ġf",
        "e"
      ],
      [
        "K",
        "ey"
      ],
      [
        "Ġ",
        "it"
      ],
      [
        "i",
        "ed"
      ],
      [
        "n",
        "d"
      ],
      [
        "Ġo",
        "ut"
      ],
      [
        "o",
        "id"
      ],
      [
        "al",
        "th"
      ],
      [
        "Ġo",
        "cc"
      ],
      [
        "Ġo",
        "ther"
      ],
      [
        "rap",
        "y"
      ],
      [
        "Ġs",
        "ome"
      ],
      [
        "m",
        "un"
      ],
      [
        "d",
        "ing"
      ],
      [
        "Ġd",
        "rug"
      ],
      [
        "iti",
        "s"
      ],
      [
        "ĠH",
        "ospital"
      ],
      [
        "Ġm",
        "ore"
      ],
      [
        "Ġt",
        "yp"
      ],
      [
        "t",
        "al"
      ],
      [
        "g",
        "en"
      ],
      [
        "Ġmon",
        "th"
      ],
      [
        "al",
        "ity"
      ],
      [
        "ti",
        "m"
      ],
      [
        "Ġpati",
        "ent"
      ],
      [
        "Ġp",
        "r"
      ],
      [
        "a",
        "il"
      ],
      [
        "ati",
        "c"
      ],
      [
        "am",
        "in"
      ],
      [
        "fere",
        "n"
      ],
      [
        "p",
        "le"
      ],
      [
        "Ġs",
        "er"
      ],
      [
        "o",
        "od"
      ],
      [
        "Ġus",
        "ed"
      ],
      [
        "an",
        "g"
      ],
      [
        "Ġt",
        "rans"
      ],
      [
        "Ġe",
        "valu"
      ],
      [
        "ro",
        "p"
      ],
      [
        "es",
        "c"
      ],
      [
        "Ġ",
        "ra"
      ],
      [
        "s",
        "o"
      ],
      [
        "pec",
        "tive"
      ],
      [
        "Ġdis",
        "order"
      ],
      [
        "Ġtim",
        "e"
      ],
      [
        "t",
        "en"
      ],
      [
        "ug",
        "h"
      ],
      [
        "us",
        "e"
      ],
      [
        "r",
        "al"
      ],
      [
        "%",
        "),"
      ],
      [
        "Ġd",
        "ur"
      ],
      [
        "t",
        "ing"
      ],
      [
        "Ġ",
        "qu"
      ],
      [
        "Ġp",
        "o"
      ],
      [
        "Ġth",
        "is"
      ],
      [
        "Ġc",
        "ell"
      ],
      [
        "Ġs",
        "uc"
      ],
      [
        "at",
        "ory"
      ],
      [
        "Ġhyp",
        "er"
      ],
      [
        "al",
        "e"
      ],
      [
        "Ġc",
        "o"
      ],
      [
        "u",
        "ally"
      ],
      [
        "b",
        "jec"
      ],
      [
        "Ġsign",
        "ific"
      ],
      [
        "Ġf",
        "ol"
      ],
      [
        "n",
        "al"
      ],
      [
        "Ġs",
        "ub"
      ],
      [
        "Ġhe",
        "m"
      ],
      [
        "Ġh",
        "ig"
      ],
      [
        "v",
        "ed"
      ],
      [
        "orm",
        "al"
      ],
      [
        "Ġal",
        "so"
      ],
      [
        "om",
        "a"
      ],
      [
        "Ġpre",
        "s"
      ],
      [
        "Ġsy",
        "mptoms"
      ],
      [
        "Ġp",
        "ain"
      ],
      [
        "ac",
        "k"
      ],
      [
        "Ġn",
        "o"
      ],
      [
        "ra",
        "in"
      ],
      [
        "Ġun",
        "der"
      ],
      [
        "Ġcon",
        "s"
      ],
      [
        "i",
        "en"
      ],
      [
        "ac",
        "h"
      ],
      [
        "Ġsignific",
        "ant"
      ],
      [
        "ec",
        "h"
      ],
      [
        "Ġinfec",
        "tion"
      ],
      [
        "i",
        "re"
      ],
      [
        "or",
        "ds"
      ],
      [
        "ie",
        "w"
      ],
      [
        "Ġo",
        "ver"
      ],
      [
        "ĠT",
        "h"
      ],
      [
        "Ġ",
        "en"
      ],
      [
        "ar",
        "acter"
      ],
      [
        "Ġres",
        "p"
      ],
      [
        "'",
        "s"
      ],
      [
        "Ġhe",
        "alth"
      ],
      [
        "ve",
        "re"
      ],
      [
        "O",
        "bjec"
      ],
      [
        "he",
        "m"
      ],
      [
        "Ġsho",
        "w"
      ],
      [
        "Ġt",
        "um"
      ],
      [
        "b",
        "er"
      ],
      [
        "Ġd",
        "ec"
      ],
      [
        "Ġ",
        "<"
      ],
      [
        "a",
        "f"
      ],
      [
        "Ġf",
        "l"
      ],
      [
        "c",
        "ess"
      ],
      [
        "v",
        "i"
      ],
      [
        "at",
        "ing"
      ],
      [
        "Ġfol",
        "low"
      ],
      [
        "Ġm",
        "in"
      ],
      [
        "olog",
        "y"
      ],
      [
        "c",
        "ent"
      ],
      [
        "Ġs",
        "pec"
      ],
      [
        "Ġmonth",
        "s"
      ],
      [
        "p",
        "ort"
      ],
      [
        "c",
        "in"
      ],
      [
        "Ġcaus",
        "e"
      ],
      [
        "Ġd",
        "ep"
      ],
      [
        "lo",
        "p"
      ],
      [
        "v",
        "ing"
      ],
      [
        "is",
        "s"
      ],
      [
        "Ġocc",
        "ur"
      ],
      [
        "oun",
        "d"
      ],
      [
        "Ġt",
        "est"
      ],
      [
        "%",
        ")."
      ],
      [
        "Ġa",
        "g"
      ],
      [
        "d",
        "e"
      ],
      [
        "Ġcom",
[...]
