{
  "version": "1.0",
  "truncation": null,
  "padding": null,
  "added_tokens": [
    {
      "id": 0,
      "content": "<pad>",
      "single_word": false,
      "lstrip": false,
      "rstrip": false,
      "normalized": false,
      "special": true
    },
    {
      "id": 1,
      "content": "<sos>",
      "single_word": false,
      "lstrip": false,
      "rstrip": false,
      "normalized": false,
      "special": true
    },
    {
      "id": 2,
      "content": "<eos>",
      "single_word": false,
      "lstrip": false,
      "rstrip": false,
      "normalized": false,
      "special": true
    },
    {
      "id": 3,
      "content": "<unk>",
      "single_word": false,
      "lstrip": false,
      "rstrip": false,
      "normalized": false,
      "special": true
    }
  ],
  "normalizer": null,
  "pre_tokenizer": {
    "type": "ByteLevel",
    "add_prefix_space": false,
    "trim_offsets": true,
    "use_regex": true
  },
  "post_processor": null,
  "decoder": {
    "type": "ByteLevel",
    "add_prefix_space": true,
    "trim_offsets": true,
    "use_regex": true
  },
  "model": {
    "type": "BPE",
    "dropout": null,
    "unk_token": "<unk>",
    "continuing_subword_prefix": null,
    "end_of_word_suffix": null,
    "fuse_unk": false,
    "byte_fallback": false,
    "ignore_merges": false,
    "vocab": {
      "<pad>": 0,
      "<sos>": 1,
      "<eos>": 2,
      "<unk>": 3,
      "!": 4,
      "\"": 5,
      "#": 6,
      "$": 7,
      "%": 8,
      "&": 9,
      "'": 10,
      "(": 11,
      ")": 12,
      "*": 13,
      "+": 14,
      ",": 15,
      "-": 16,
      ".": 17,
      "/": 18,
      "0": 19,
      "1": 20,
      "2": 21,
      "3": 22,
      "4": 23,
      "5": 24,
      "6": 25,
      "7": 26,
      "8": 27,
      "9": 28,
      ":": 29,
      ";": 30,
      "<": 31,
      "=": 32,
      ">": 33,
      "?": 34,
      "@": 35,
      "A": 36,
      "B": 37,
      "C": 38,
      "D": 39,
      "E": 40,
      "F": 41,
      "G": 42,
      "H": 43,
      "I": 44,
      "J": 45,
      "K": 46,
      "L": 47,
      "M": 48,
      "N": 49,
      "O": 50,
      "P": 51,
      "Q": 52,
      "R": 53,
      "S": 54,
      "T": 55,
      "U": 56,
      "V": 57,
      "W": 58,
      "X": 59,
      "Y": 60,
      "Z": 61,
      "[": 62,
      "\\": 63,
      "]": 64,
      "^": 65,
      "_": 66,
      "`": 67,
      "a": 68,
      "b": 69,
      "c": 70,
      "d": 71,
      "e": 72,
      "f": 73,
      "g": 74,
      "h": 75,
      "i": 76,
      "j": 77,
      "k": 78,
      "l": 79,
      "m": 80,
      "n": 81,
      "o": 82,
      "p": 83,
      "q": 84,
      "r": 85,
      "s": 86,
      "t": 87,
      "u": 88,
      "v": 89,
      "w": 90,
      "x": 91,
      "y": 92,
      "z": 93,
      "{": 94,
      "|": 95,
      "}": 96,
      "~": 97,
      "¡": 98,
      "¢": 99,
      "£": 100,
      "¤": 101,
      "¥": 102,
      "¦": 103,
      "§": 104,
      "¨": 105,
      "©": 106,
      "ª": 107,
      "«": 108,
      "¬": 109,
      "®": 110,
      "¯": 111,
      "°": 112,
      "±": 113,
      "²": 114,
      "³": 115,
      "´": 116,
      "µ": 117,
      "¶": 118,
      "·": 119,
      "¸": 120,
      "¹": 121,
      "º": 122,
      "»": 123,
      "¼": 124,
      "½": 125,
      "¾": 126,
      "¿": 127,
      "À": 128,
      "Á": 129,
      "Â": 130,
      "Ã": 131,
      "Ä": 132,
      "Å": 133,
      "Æ": 134,
      "Ç": 135,
      "È": 136,
      "É": 137,
      "Ê": 138,
      "Ë": 139,
      "Ì": 140,
      "Í": 141,
      "Î": 142,
      "Ï": 143,
      "Ð": 144,
      "Ñ": 145,
      "Ò": 146,
      "Ó": 147,
      "Ô": 148,
      "Õ": 149,
      "Ö": 150,
      "×": 151,
      "Ø": 152,
      "Ù": 153,
      "Ú": 154,
      "Û": 155,
      "Ü": 156,
      "Ý": 157,
      "Þ": 158,
      "ß": 159,
      "à": 160,
      "á": 161,
      "â": 162,
      "ã": 163,
      "ä": 164,
      "å": 165,
      "æ": 166,
      "ç": 167,
      "è": 168,
      "é": 169,
      "ê": 170,
      "ë": 171,
      "ì": 172,
      "í": 173,
      "î": 174,
      "ï": 175,
      "ð": 176,
      "ñ": 177,
      "ò": 178,
      "ó": 179,
      "ô": 180,
      "õ": 181,
      "ö": 182,
      "÷": 183,
      "ø": 184,
      "ù": 185,
      "ú": 186,
      "û": 187,
      "ü": 188,
      "ý": 189,
      "þ": 190,
      "ÿ": 191,
      "Ā": 192,
      "ā": 193,
      "Ă": 194,
      "ă": 195,
      "Ą": 196,
      "ą": 197,
      "Ć": 198,
      "ć": 199,
      "Ĉ": 200,
      "ĉ": 201,
      "Ċ": 202,
      "ċ": 203,
      "Č": 204,
      "č": 205,
      "Ď": 206,
      "ď": 207,
      "Đ": 208,
      "đ": 209,
      "Ē": 210,
      "ē": 211,
      "Ĕ": 212,
      "ĕ": 213,
      "Ė": 214,
      "ė": 215,
      "Ę": 216,
      "ę": 217,
      "Ě": 218,
      "ě": 219,
      "Ĝ": 220,
      "ĝ": 221,
      "Ğ": 222,
      "ğ": 223,
      "Ġ": 224,
      "ġ": 225,
      "Ģ": 226,
      "ģ": 227,
      "Ĥ": 228,
      "ĥ": 229,
      "Ħ": 230,
      "ħ": 231,
      "Ĩ": 232,
      "ĩ": 233,
      "Ī": 234,
      "ī": 235,
      "Ĭ": 236,
      "ĭ": 237,
      "Į": 238,
      "į": 239,
      "İ": 240,
      "ı": 241,
      "Ĳ": 242,
      "ĳ": 243,
      "Ĵ": 244,
      "ĵ": 245,
      "Ķ": 246,
      "ķ": 247,
      "ĸ": 248,
      "Ĺ": 249,
      "ĺ": 250,
      "Ļ": 251,
      "ļ": 252,
      "Ľ": 253,
      "ľ": 254,
      "Ŀ": 255,
      "ŀ": 256,
      "Ł": 257,
      "ł": 258,
      "Ń": 259,
      "á»": 260,
      "áº": 261,
      "Ġt": 262,
      "ng": 263,
      "Ġc": 264,
      "nh": 265,
      "ĠÄ": 266,
      "ĠÄĳ": 267,
      "Ã¡": 268,
      "Ġth": 269,
      "Ãł": 270,
      "Ġv": 271,
      "Æ°": 272,
      "iá»": 273,
      "Ġl": 274,
      "Ġh": 275,
      "Ġb": 276,
      "Ġtr": 277,
      "Ġk": 278,
      "Ġs": 279,
      "Ġm": 280,
      "áº¿": 281,
      "Æ°á»": 282,
      "Ġch": 283,
      "Ġnh": 284,
      "Ãª": 285,
      "Ġd": 286,
      "áº¡": 287,
      "Ġg": 288,
      "Ġp": 289,
      "Ġph": 290,
      "Ġkh": 291,
      "á»ĳ": 292,
      "áº£": 293,
      "Ã³": 294,
      "Ã¢": 295,
      "ĠvÃł": 296,
      "Ġn": 297,
      "iá»ĩ": 298,
      "á»Ļ": 299,
      "á»ĩ": 300,
      "Ġng": 301,
      "Ã¡c": 302,
      "á»©": 303,
      "Ãªn": 304,
      "Æ¡": 305,
      "áº¥": 306,
      "á»ĭ": 307,
      "Ã´": 308,
      "á»ĩnh": 309,
      "ĠcÃ³": 310,
      "áºŃ": 311,
      "qu": 312,
      "Ã¢n": 313,
      "Ġqu": 314,
      "Æ°á»£": 315,
      "Ġ(": 316,
      "Ġthá»": 317,
      "Ġbá»ĩnh": 318,
      "Ġgi": 319,
      "áº§": 320,
      "uy": 321,
      "Æ°á»Ŀ": 322,
      "Ġtá»": 323,
      "ÃŃ": 324,
      "áº¿t": 325,
      "áº·": 326,
      "ĠlÃł": 327,
      "á»§": 328,
      "á»¥": 329,
      "an": 330,
      "ch": 331,
      "Ġx": 332,
      "á»Ľ": 333,
      "áº¿n": 334,
      "Ã¬": 335,
      "ĠcÃ¡c": 336,
      "iá»ģ": 337,
      "ong": 338,
      "iÃªn": 339,
      "Ġr": 340,
      "á»ķ": 341,
      "Äĥ": 342,
      "Æ°á»£c": 343,
      "Æ°Æ¡": 344,
      "Æ°Æ¡ng": 345,
      "Æ°á»Ŀng": 346,
      "Ã´ng": 347,
      "á»Ł": 348,
      "iá»ģu": 349,
      "Ġho": 350,
      "Ġcá»§": 351,
      "Ġcá»§a": 352,
      "ĠnhÃ¢n": 353,
      "áº¥t": 354,
      "Ġ1": 355,
      "Ġti": 356,
      "ĠÄĳÆ°á»£c": 357,
      "Ġhá»": 358,
      "ĠÄĳá»Ļ": 359,
      "áº¡i": 360,
      "iá»ĩn": 361,
      "ĠT": 362,
      "Ġthu": 363,
      "iá»ĥ": 364,
      "Ġtrong": 365,
      "áº§n": 366,
      "Ã¬nh": 367,
      "á»Ľi": 368,
      "Ġ2": 369,
      "áº·c": 370,
      "Ġngh": 371,
      "áº¯": 372,
      "á»ĳi": 373,
      "á»±": 374,
      "Ġvá»Ľi": 375,
      "Ġthá»ĥ": 376,
      "Ġá»Ł": 377,
      "inh": 378,
      "á»©ng": 379,
      "ung": 380,
      "á»ģ": 381,
      "au": 382,
      "Ġtrá»ĭ": 383,
      "á»Ļt": 384,
      "in": 385,
      "ĠC": 386,
      "Ġquáº£": 387,
      "á»ĵ": 388,
      "iá»ĩu": 389,
      "Ãº": 390,
      "Äĥng": 391,
      "ĠphÃ¡": 392,
      "áºŃn": 393,
      "Æ°á»Ľ": 394,
      "Ġsá»ĳ": 395,
      "áº«": 396,
      "á»©c": 397,
      "áºŃt": 398,
      "áº©": 399,
      "á»ķi": 400,
      "ĠkhÃ´ng": 401,
      "Ġcá»©": 402,
      "Ġcá»©u": 403,
      "ao": 404,
      "ĠÄĳiá»ģu": 405,
      "á»¯": 406,
      "Ġmáº¡": 407,
      "Ġdá»¥": 408,
      "Ãłng": 409,
      "Ã¢m": 410,
      "Ã£": 411,
      "ai": 412,
      "ĠN": 413,
      "Ã¹": 414,
      "Ã¡ng": 415,
      "Ġtu": 416,
      "Ġhoáº·c": 417,
      "áº¿u": 418,
      "ĠÄĳáº¿n": 419,
      "Ġmá»Ļt": 420,
      "Ãły": 421,
      "ĠB": 422,
      "Ġchá»©ng": 423,
      "áº§u": 424,
      "Ãªm": 425,
      "oÃ¡": 426,
      "áº±": 427,
      "Ġvi": 428,
      "ĠtÃŃ": 429,
      "ÄĲ": 430,
      "ĠmÃ¡": 431,
      "Ġ3": 432,
      "áº©n": 433,
      "ang": 434,
      "á»ĥ": 435,
      "Ã©": 436,
      "Ġlo": 437,
      "Ã¢y": 438,
      "ĠcÆ¡": 439,
      "ĠH": 440,
      "Ã²": 441,
      "áº«u": 442,
      "£p": 443,
      "Ġcho": 444,
      "Ġhá»£p": 445,
      "á»ĳc": 446,
      "ĠthÆ°á»Ŀng": 447,
      "iá»ĥm": 448,
      "Ġsinh": 449,
      "Ġgiáº£": 450,
      "Ġlá»ĩ": 451,
      "ĠgiÃ¡": 452,
      "Ġtáº¡i": 453,
      "áº¡n": 454,
      "Ġsau": 455,
      "á»Ń": 456,
      "áº¥p": 457,
      ").": 458,
      "Ġkhi": 459,
      "ĠmÃ¡u": 460,
      "Ã¡nh": 461,
      "ĠtrÃªn": 462,
      "ĠthuáºŃt": 463,
      "á»ĳng": 464,
      "Ġdá»¥ng": 465,
      "iá»ħ": 466,
      "Æ°á»£ng": 467,
      "Ġ0": 468,
      "iáº¿n": 469,
      "á»Ļi": 470,
      "á»į": 471,
      "Káº¿t": 472,
      "Ġtá»«": 473,
      "áº±ng": 474,
      "Æ¡n": 475,
      "Ġhiá»ĩn": 476,
      "áº¯t": 477,
      "Ãªu": 478,
      "Æ°á»Ľc": 479,
      "Ã¹ng": 480,
      "Ġy": 481,
      "ĠphÃ¡p": 482,
      "Ġmáº¡ch": 483,
      "Ġquan": 484,
      "am": 485,
      "á»¯ng": 486,
      "ĠÄĲ": 487,
      "ay": 488,
      "Ãłnh": 489,
      "Ġgiá»": 490,
      "ĠÄĳá»ĭ": 491,
      "áº»": 492,
      "eo": 493,
      "Æ°á»Ŀi": 494,
      "ĠnghiÃªn": 495,
      "Ġcao": 496,
      "Ã½": 497,
      "en": 498,
      "Ãłn": 499,
      "Ġcáº£": 500,
      "er": 501,
      "Ġnguy": 502,
      "ĠÄĳá»ĭnh": 503,
      "Ġdo": 504,
      "ĠÄĳá»Ļng": 505,
      "uyáº¿t": 506,
      "ĠngÆ°á»Ŀi": 507,
      "ĠtÃŃnh": 508,
      "ĠM": 509,
      "á»ī": 510,
      "Ġbáº±ng": 511,
      "ĠnhÆ°": 512,
      "on": 513,
      "Ġviá»ĩn": 514,
      "iá»ĩt": 515,
      "ĠtÄĥng": 516,
      "Ġpháº«u": 517,
      "Ġ4": 518,
      "Ã³m": 519,
      "Ġ/": 520,
      "Ġthuá»ĳc": 521,
      "Ġ5": 522,
      "ĠP": 523,
      "á»±c": 524,
      "iá»ĥu": 525,
      "Ġvá»ģ": 526,
      "ĠS": 527,
      "ĠÄĳiá»ĥm": 528,
      "Ġtá»ĳ": 529,
      "Ã¡i": 530,
      "Ŀi": 531,
      "iá»ħm": 532,
      "ĠmÃ´": 533,
      "Ġtuá»ķi": 534,
      "00": 535,
      "Ġsá»Ń": 536,
      "Ġkho": 537,
      "Ġhuyáº¿t": 538,
      "Ġgiáº£m": 539,
      "á»ı": 540,
      "),": 541,
      "Ä©": 542,
      "ĠhÆ¡n": 543,
      "Ġnhá»¯ng": 544,
      "Ãłi": 545,
      "Ġhá»į": 546,
      "Ġra": 547,
      "ĠÄĳá»ĥ": 548,
      "Äĥm": 549,
      "oÃ¡n": 550,
      "ĠphÃ¡t": 551,
      "áº¡ng": 552,
      "á»ĵng": 553,
      "Ġ6": 554,
      "ĠÄĳÆ°á»Ŀng": 555,
      "Ġkáº¿t": 556,
      "Ġbiáº¿n": 557,
      "ĠnhÃ³m": 558,
      "Ġtrung": 559,
      "ĠÄĳoÃ¡n": 560,
      "Ġnhiá»ħm": 561,
      "Ġsá»±": 562,
      "±c": 563,
      "Ġthá»±c": 564,
      "Ãło": 565,
      "Ġhiá»ĩu": 566,
      "á»¥c": 567,
      "ĠtrÆ°á»Ŀng": 568,
      "áº¯c": 569,
      "ĠtiÃªu": 570,
      "á»«": 571,
      "ĠliÃªn": 572,
      "Ġso": 573,
      "Ġdá»ĭ": 574,
      "ĠthÆ°Æ¡ng": 575,
      "ĠsÃłng": 576,
      "Ġtheo": 577,
      "Ġu": 578,
      "ĠgÃ¢y": 579,
      "ĠV": 580,
      "áº¥y": 581,
      "Ġbá»ĭ": 582,
      "ĠbÃ¬nh": 583,
      "ĠviÃªm": 584,
      "Ġtáº¿": 585,
      "ĠÄĳáº§u": 586,
      "ĠlÆ°á»£ng": 587,
      "Ġ-": 588,
      "ĠthÃ¡ng": 589,
      "Ġtráº»": 590,
      "Ġyáº¿u": 591,
      "Ġchi": 592,
      "áº¡t": 593,
      "Ã¡p": 594,
      "ĠTh": 595,
      "ĠkhÃ¡c": 596,
      "Ġchá»ī": 597,
      "áº·t": 598,
      "ĠnÃły": 599,
      "ĠlÃ¢m": 600,
      "01": 601,
      "ĠphÆ°Æ¡ng": 602,
      "Ġthá»Ŀi": 603,
      "Ġhá»įc": 604,
      "anh": 605,
      "ol": 606,
      "ÃŃch": 607,
      "ĠÄĳáº·c": 608,
      "áº¥n": 609,
      "áº£i": 610,
      "Å©": 611,
      "Ġto": 612,
      "Ã²ng": 613,
      "id": 614,
      "em": 615,
      "ĠA": 616,
      "ĠhoÃ¡": 617,
      "áº¹": 618,
      "Ġtá»ķ": 619,
      "ĠD": 620,
      "á»·": 621,
      "ĠhÃ¬nh": 622,
      "ĠnÄĥng": 623,
      "Ġthi": 624,
      "ĠÄĳÃ³": 625,
      "Ġnháº¥t": 626,
      "Ġná»Ļi": 627,
      "ĠK": 628,
      "Ġtim": 629,
      "ĠphÃ¢n": 630,
      "Ġlu": 631,
      "Ġdá»ĭch": 632,
      "áºŃp": 633,
      "Ġnghiá»ĩ": 634,
      "Ã´i": 635,
      "á»£": 636,
      "CÃ¡c": 637,
      "al": 638,
      "áº£n": 639,
      "Ġtá»Ń": 640,
      "ĠÂ": 641,
      "ro": 642,
      "Ġgian": 643,
      "Ġ7": 644,
      "ĠkhÃ¡ng": 645,
      "ĠÄĳá»ģ": 646,
      "áº¿m": 647,
      "Ã©t": 648,
      "%.": 649,
      "ĠlÃłm": 650,
      "ĠthÃłnh": 651,
      "ĠL": 652,
      "ĠnÄĥm": 653,
      "uáº©n": 654,
      "ĠÄĳo": 655,
      "Ġ9": 656,
      "gh": 657,
      "Ġtá»·": 658,
      "Ġcháº¥t": 659,
      "Ġcáº¯t": 660,
      "%,": 661,
      "ĠvÃło": 662,
      "Ġcáº¥p": 663,
      "Ã¡o": 664,
      "ic": 665,
      "Ġâ": 666,
      "at": 667,
      "Ġnhiá»ģu": 668,
      "Ġnghiá»ĩm": 669,
      "iá»ĩc": 670,
      "Ġcháº©n": 671,
      "Ġ8": 672,
      "Ġcáº§u": 673,
      "ĠthÆ°": 674,
      "Ġcáº§n": 675,
      "Ġkinh": 676,
      "ĠngÃły": 677,
      "Ġloáº¡n": 678,
      "áº«n": 679,
      "ĠbÃło": 680,
      "ĠtháºŃn": 681,
      "ĠI": 682,
      "á»ĵm": 683,
      "ĠluáºŃn": 684,
      "ĠÂ±": 685,
      "ĠÄĳÃ£": 686,
      "uáº¥t": 687,
      "ĠlÃ½": 688,
      "Ġphá»ķi": 689,
      "Ġgá»ĵm": 690,
      "áº£o": 691,
      "ĠÃ¡p": 692,
      "áº£y": 693,
      "Ġloáº¡i": 694,
      "ĠtoÃłn": 695,
      "ghiÃªn": 696,
      "Ġtriá»ĩu": 697,
      "ĠtrÆ°á»Ľc": 698,
      "ĠnguyÃªn": 699,
      "ĠCh": 700,
      "ar": 701,
      "Ġá»©ng": 702,
      "Ġbiá»ĩt": 703,
      "áº¡o": 704,
      "Ġung": 705,
      "Ġmá»©c": 706,
      "ĠBá»ĩnh": 707,
      "ĠÄĳau": 708,
      "st": 709,
      "áº£nh": 710,
      "Ġgiá»¯": 711,
      "Ġtráº¡ng": 712,
      "áº¥u": 713,
      "ĠTr": 714,
      "or": 715,
      "Ġtháº¥y": 716,
      "Ãºt": 717,
      "áº·p": 718,
      "Æ°á»Ľi": 719,
      "Ġqua": 720,
      "Ġviá»ĩc": 721,
      "ĠtÃ¡c": 722,
      "ĠG": 723,
      "ĠÄĳá»ĳi": 724,
      "áº£ng": 725,
      "ĠÄĳÃ¡nh": 726,
      "Ġpháº£i": 727,
      "Ġtá»ķn": 728,
      "Ġtháº§n": 729,
      "Ã£o": 730,
      "et": 731,
      "Ġlá»Ľ": 732,
      "iá»ĥn": 733,
      "ĠxÆ°Æ¡ng": 734,
      "ÃŃnh": 735,
      "áº¡ch": 736,
      "Ġláº§n": 737,
      "Ġbao": 738,
      "ĠtÃ¬nh": 739,
      "Ġchá»§": 740,
      "á»ģn": 741,
      "Ãµ": 742,
      "Ġmá»ķ": 743,
      "ĠxÃ¡c": 744,
      "hi": 745,
      "Ġhá»ĵ": 746,
      "ĠthÃ´ng": 747,
      "Ãºng": 748,
      "ĠtÆ°Æ¡ng": 749,
      "Ġgiá»¯a": 750,
      "ac": 751,
      "Ġká»": 752,
      "Ġngo": 753,
      "Ġcháº¿": 754,
      "Ġáº£nh": 755,
      "Ġgan": 756,
      "Ph": 757,
      "Ġsá»ĳng": 758,
      "uyáº¿n": 759,
      "Ľi": 760,
      "Ġrá»ĳi": 761,
      "Ġthai": 762,
      "Ġ<": 763,
      "Ġtá»ī": 764,
      "Ġkhoa": 765,
      "áº·ng": 766,
      "Ġtiáº¿": 767,
      "Ġsuy": 768,
      "Æ°á»Ł": 769,
      "Ġda": 770,
      "ĠdÆ°á»Ľi": 771,
      "Æ°á»Łng": 772,
      "Ch": 773,
      "Ã¡t": 774,
      "Ġgáº·p": 775,
      "Ġnáº·ng": 776,
      "Ġxuáº¥t": 777,
      "ĠÄĳoáº¡n": 778,
      "á»Ĺ": 779,
      "Th": 780,
      "ĠÃ¢m": 781,
      "ĠnÃ£o": 782,
      "Ġtá»±": 783,
      "Ġ10": 784,
      "Tr": 785,
      "ĠtÃ¢m": 786,
      "ĠtÆ°á»£ng": 787,
      "Ġchiáº¿m": 788,
      "Å©ng": 789,
      "Ġpháº§n": 790,
      "ine": 791,
      "Ġthá»©c": 792,
      "Ãºc": 793,
      "ph": 794,
      "Ġná»¯": 795,
      "ĠÃ½": 796,
      "it": 797,
      "Ġquáº£n": 798,
      "as": 799,
      "ĠtÃŃch": 800,
      "Ġphá»¥": 801,
      "Æ°á»¡": 802,
      "Ġdá»±": 803,
      "ĠhÃłnh": 804,
      "Äĥn": 805,
      "ĠxÃ©t": 806,
      "áº©m": 807,
      "Ġkhuáº©n": 808,
      "Ġchuy": 809,
      "uyá»ģn": 810,
      "ĠcÅ©ng": 811,
      "ĠR": 812,
      "ĠâĢ": 813,
      "ĠtrÃ¬nh": 814,
      "ĠtrÃ¹ng": 815,
      "ĠnhÆ°ng": 816,
      "iá»ģn": 817,
      "á»įng": 818,
      "Ġtáº£": 819,
      "Ġ20": 820,
      "Ġvá»ĭ": 821,
      "Ã¢u": 822,
      "Nh": 823,
      "Ġtiáº¿n": 824,
      "%)": 825,
      "ĠnÃªn": 826,
      "ĠnÆ°á»Ľc": 827,
      "Má»¥c": 828,
      "Ġtháº¥p": 829,
      "ĠPh": 830,
      "áº½": 831,
      "vÃŃ": 832,
      "á»įc": 833,
      "Ġdáº«n": 834,
      "Ġtiáº¿p": 835,
      "Ġlá»Ľn": 836,
      "Ġláº¡i": 837,
      "ĠcÃ´ng": 838,
      "Æ°á»¡ng": 839,
      "Ġsoi": 840,
      "Ġtruyá»ģn": 841,
      "ĠsÃ¡t": 842,
      "os": 843,
      "Ġtiá»ĥu": 844,
      "ĠnháºŃn": 845,
      "Ã³c": 846,
      "Ã²n": 847,
      "Ã¡m": 848,
      "Ġmáº·t": 849,
      "ÃŃt": 850,
      "%),": 851,
      "Ġchá»©c": 852,
      "Ġtriá»ĥn": 853,
      "Ġthá»ĳng": 854,
      "Ġtuyáº¿n": 855,
      "iÃªm": 856,
      "201": 857,
      "Ġliá»ĩu": 858,
      "Ġváº¥n": 859,
      "Ġkhá»ĳi": 860,
      "Ġthay": 861,
      "Æ°a": 862,
      "Ġbiá»ĥu": 863,
      "ĠÄĳa": 864,
      "Ġhá»ĵi": 865,
      "ĠÄĳá»ķi": 866,
      "á»Ļc": 867,
      "á»Ľp": 868,
      "ĠkhoÃ¡": 869,
      "Ä©nh": 870,
      "ĠÄĳá»ĵng": 871,
      "Ã©p": 872,
      "Ġhai": 873,
      "Ġmáº¡c": 874,
      "áº±m": 875,
      "ĠX": 876,
      "Ġtrá»įng": 877,
      "ÄĲá»ĳi": 878,
      "Ġdi": 879,
      "Ġgia": 880,
      "Tá»«": 881,
      "á»ĥn": 882,
      "Ġcan": 883,
      "ĠnhiÃªn": 884,
      "Ġ12": 885,
      "Ġkhá»Ľp": 886,
      "im": 887,
      "Ġhá»Ļi": 888,
      "ĠdÃ¹ng": 889,
      "Ġtá»ĳt": 890,
      "Ġcáº£m": 891,
      "Ġthiáº¿u": 892,
      "Ã©o": 893,
      "á»Łi": 894,
      "á»Ļng": 895,
      "Ġthiáº¿t": 896,
      "Ġhá»ĩ": 897,
      "Ġthanh": 898,
      "Ġbá»Ļ": 899,
      "Ġsá»©c": 900,
      "Ġlá»±c": 901,
      "Ġhoáº¡t": 902,
      "Ġgiá»Ľi": 903,
      "Ġdáº¡ng": 904,
      "Ġbáº¥t": 905,
      "iá»ħn": 906,
      "us": 907,
      "Ġtáº¡o": 908,
      "Ġvong": 909,
      "ĠdÆ°á»¡ng": 910,
      "Ġgiai": 911,
      "Ġchuyá»ĥn": 912,
      "ĠhÆ°á»Łng": 913,
      "Kh": 914,
      "ĠtrÃŃ": 915,
      "ĠchÃŃnh": 916,
      "is": 917,
      "ĠdÃłi": 918,
      "ĠphÃ²ng": 919,
      "ĠcÃ¡ch": 920,
      "Ġan": 921,
      "ĠvÃ¹ng": 922,
      "iá»ĩp": 923,
      "20": 924,
      "%).": 925,
      "el": 926,
      "ĠmÃłng": 927,
      "ĠkhÃŃ": 928,
      "uyÃªn": 929,
      "Ġá»ĳng": 930,
      "Ã¡n": 931,
      "iÃªu": 932,
      "ĠNh": 933,
      "ĠcÃ²n": 934,
      "ĠNghiÃªn": 935,
      "Ã³ng": 936,
      "Ä©a": 937,
      "Ġmáº¯c": 938,
      "ĠtiÃªn": 939,
      "áº§m": 940,
      "Ġsáº£n": 941,
      "Ã£n": 942,
      "ĠtÄ©nh": 943,
      "Æ°u": 944,
      "Ġcung": 945,
      "ĠE": 946,
      "á»£i": 947,
      "áº¯n": 948,
      "ĠviÃªn": 949,
      "ĠtÃ¡i": 950,
      "ĠlÃªn": 951,
      "ĠâĢĵ": 952,
      "Ġo": 953,
      "ĠquÃ¡": 954,
      "Ġ201": 955,
      "il": 956,
      "Ġtiá»ģn": 957,
      "Ġkháº£": 958,
      "Ġkiá»ĥm": 959,
      "Æ°á»Ľng": 960,
      "Ġxáº£y": 961,
      "Ġnam": 962,
      "Ġtay": 963,
      "ia": 964,
      "á»ıi": 965,
      "Ġgiáº£i": 966,
      "Ã¨": 967,
      "Ġtháº¿": 968,
      "ĥn": 969,
      "Ġráº¥t": 970,
      "ĠÄĥn": 971,
      "es": 972,
      "Ġthiá»ĩp": 973,
      "uá»Ļt": 974,
      "ĠKh": 975,
      "ĠU": 976,
      "ĠÃŃt": 977,
      "Ġtuáº§n": 978,
      "Ġem": 979,
      "Ġná»ĵng": 980,
      "NghiÃªn": 981,
      "ĠchÃºng": 982,
      "Ġmáº¡n": 983,
      "ĠnghÄ©a": 984,
      "ĠngoÃłi": 985,
      "Ġtháº¥t": 986,
      "á»¥ng": 987,
      "Bá»ĩnh": 988,
      "ĠÄĳá»Ļc": 989,
      "ĠkhÃ¡m": 990,
      "05": 991,
      "Ãºp": 992,
      "Ġnáº¿u": 993,
      "Æ°ng": 994,
      "ĠtrÃłng": 995,
      "Ġthá»Ł": 996,
      "ĠÄĳáº¡i": 997,
      "oÃ¡t": 998,
      "Ġcu": 999,
      "Ġgiá»Ŀ": 1000,
      "lo": 1001,
      "á»ĳt": 1002,
      "ĠgiÃºp": 1003,
      "Ġcá»ķ": 1004,
      "Ġdáº¥u": 1005,
      "Ġphá»ķ": 1006,
      "Ġ>": 1007,
      "ĠÄĳÆ¡n": 1008,
      "Ġliá»ģu": 1009,
      "ĠtÃ´i": 1010,
      "um": 1011,
      "áºŃu": 1012,
      "PhÆ°Æ¡ng": 1013,
      "Ġngang": 1014,
      "Ġchá»ĳng": 1015,
      "Ġmg": 1016,
      "ĠkÃŃch": 1017,
      "ĠhÆ°á»Ľng": 1018,
      "á»Ŀ": 1019,
      "ĠCÃ¡c": 1020,
      "Ġká»³": 1021,
      "Ġká»¹": 1022,
      "á»ĵi": 1023,
      "Ã´n": 1024,
      "á»Ŀi": 1025,
      "ĠhoÃłn": 1026,
      "ĠthÃŃch": 1027,
      "á»Ľm": 1028,
      "ĠF": 1029,
      "Ġuá»ĳng": 1030,
      "Ãµi": 1031,
      "Ġpháº©m": 1032,
      "Ġháº¥p": 1033,
      "Ġsá»Ľm": 1034,
      "Ġniá»ĩu": 1035,
      "ĠsÃ³c": 1036,
      "Ġtiáº¿t": 1037,
      "Trong": 1038,
      "ĠNg": 1039,
      "Ġ=": 1040,
      "Ġbá»¥ng": 1041,
      "ĠdÃµi": 1042,
      "ĠbÃªn": 1043,
      "á»ĵn": 1044,
      "ĠvÃ¬": 1045,
      "á»«a": 1046,
      "ĠÄĳá»ģu": 1047,
      "ĠcÃ¢n": 1048,
      "ĠkÃª": 1049,
      "ĠÄĲÃ¡nh": 1050,
      "á»¥p": 1051,
      "Ġmáº¥t": 1052,
      "ĠtiÃªm": 1053,
      "Ġkhoáº£ng": 1054,
      "Ġtáº¯c": 1055,
      "Ġgen": 1056,
      "Ġtuá»·": 1057,
      "ĠváºŃt": 1058,
      "om": 1059,
      "á»įn": 1060,
      "ĠrÄĥng": 1061,
      "Ġquy": 1062,
      "ĠÄĳá»Ļt": 1063,
      "ĠsÆ¡": 1064,
      "Ġmiá»ħn": 1065,
      "ĠmáºŃt": 1066,
      "ĠthÃ¢n": 1067,
      "Ġmá»ĳi": 1068,
      "Ġngoáº¡i": 1069,
      "ul": 1070,
      "Ġcáº£i": 1071,
      "ĠY": 1072,
      "tr": 1073,
      "ĠdÃły": 1074,
      "ĠmÃł": 1075,
      "Tá»·": 1076,
      "Ġthá»§": 1077,
      "Ġtrá»±c": 1078,
      "th": 1079,
      "Ġ15": 1080,
      "Ġtá»¥": 1081,
      "Å©i": 1082,
      "ĠViá»ĩt": 1083,
      "Ġháº¡n": 1084,
      "Ġmáº¯t": 1085,
      "ĠkhÃ³": 1086,
      "ĠQ": 1087,
      "á»Ĺi": 1088,
      "Ġcháº£y": 1089,
      "Ġnhá»ı": 1090,
      "Ġnhau": 1091,
      "Ġchuáº©n": 1092,
      "yc": 1093,
      "ĠnÃ³": 1094,
      "oc": 1095,
      "ĠnháºŃp": 1096,
      "Ġkhoáº»": 1097,
      "Ng": 1098,
      "ĠÄĳáº¡t": 1099,
      "Ġruá»Ļt": 1100,
      "Ġthá»©": 1101,
      "ĠÄĳi": 1102,
      "Ġbá»Łi": 1103,
      "ĠthÃ¡o": 1104,
      "ĠsiÃªu": 1105,
      "Ġmu": 1106,
      "ĠchÄĥm": 1107,
      "ĠcáºŃn": 1108,
      "ÄĲiá»ģu": 1109,
      "Ġthiá»ĩn": 1110,
      "Ġmáº«u": 1111,
      "ĠchÆ°a": 1112,
      "Ġhay": 1113,
      "Ġquang": 1114,
      "áº¹p": 1115,
      "Ġ11": 1116,
      "ĠgiÃ¡c": 1117,
      "Ġbá»ı": 1118,
      "ÄĲÃ¡nh": 1119,
      "Ġdáº¡": 1120,
      "Ġchá»įn": 1121,
      "ĠNam": 1122,
      "Ãłm": 1123,
      "ĠthÃ¬": 1124,
      "ĠdÆ°Æ¡ng": 1125,
      "Ġngá»±c": 1126,
      "CÃ³": 1127,
      "Ġban": 1128,
      "Ġ30": 1129,
      "yl": 1130,
      "ĠÄĳá»ĵ": 1131,
      "ĠBN": 1132,
      "Ġtinh": 1133,
      "op": 1134,
      "ĠmÅ©i": 1135,
      "Ġca": 1136,
      "ĠchÃ¢n": 1137,
      "ĠthÃªm": 1138,
      "Ġbáº£o": 1139,
      "ĠrÃµ": 1140,
      "Ġá»ķ": 1141,
      "te": 1142,
      "Ġdinh": 1143,
      "áº³": 1144,
      "Ġbáº¡ch": 1145,
      "ĠnÃło": 1146,
      "Ã¡ch": 1147,
      "ip": 1148,
      "%;": 1149,
      "21": 1150,
      "oid": 1151,
      "ĠgiÃ¡p": 1152,
      "ĠÄĳáº·t": 1153,
      "hÃ©p": 1154,
      "ĠsoÃ¡t": 1155,
      "Ġá»©c": 1156,
      "uá»ĵn": 1157,
      "Ġmáº¹": 1158,
      "Ġtrá»£": 1159,
      "ĠÄĳÃ¡i": 1160,
      "Ġâī": 1161,
      "ĠkÃ©o": 1162,
      "á»¡": 1163,
      "Ġkiáº¿n": 1164,
      "áº³ng": 1165,
      "á»ħ": 1166,
      "Ġháº¿t": 1167,
      "áº¥m": 1168,
      "Ġdá»¥c": 1169,
      "Ġnhanh": 1170,
      "Ġcháº¥n": 1171,
      "Ġtai": 1172,
      "Ġxáº¡": 1173,
      "Æ¡i": 1174,
      "Ġphá»¥c": 1175,
      "Ġsáº½": 1176,
      "Tuy": 1177,
      "á»µ": 1178,
      "ĠTrung": 1179,
      "Ġpháº£n": 1180,
      "Ġthá»ĭ": 1181,
      "áº¡y": 1182,
      "ster": 1183,
      "Ġhá»Ĺ": 1184,
      "one": 1185,
      "Ġmang": 1186,
      "ĠphÃ¹": 1187,
      "Ġdá»±a": 1188,
      "áºŃy": 1189,
      "Ġmm": 1190,
      "á»ĭp": 1191,
      "Ġco": 1192,
      "ĠÄĳÃ¡p": 1193,
      "Ġtá»īnh": 1194,
      "á»Ńa": 1195,
      "ter": 1196,
      "Ġchá»¥p": 1197,
      "ĠghÃ©p": 1198,
      "Ġlá»įc": 1199,
      "Ġnháº¹": 1200,
      "ed": 1201,
      "ĠhÃ´": 1202,
      "ĠphÃºt": 1203,
      "Má»Ļt": 1204,
      "ĠthÃ¡i": 1205,
      "ĠváºŃn": 1206,
      "á»¯a": 1207,
      "ir": 1208,
      "ĠcÄĥn": 1209,
      "Ġ100": 1210,
      "iáº¿m": 1211,
      "ĠlÆ°u": 1212,
      "ĠxÆ¡": 1213,
      "Æ°á»£t": 1214,
      "CT": 1215,
      "Ġnháº±m": 1216,
      "á»³": 1217,
      "lu": 1218,
      "ĠtáºŃp": 1219,
      "..": 1220,
      "Ġcá»¥": 1221,
      "ĠcÃ¡o": 1222,
      "Ġpro": 1223,
      "ĠbÃ¡o": 1224,
      "yp": 1225,
      "Ġf": 1226,
      "Ġtrá»Ł": 1227,
      "ĠII": 1228,
      "áº¯ng": 1229,
      "ĠÄĳiá»ĩn": 1230,
      "Ġ50": 1231,
      "ym": 1232,
      "Ġkhu": 1233,
      "Ġa": 1234,
      "iáº¿t": 1235,
      "á»©a": 1236,
      "Ġthuá»Ļc": 1237,
      "Ġtin": 1238,
      "Ã¬m": 1239,
      "Nhá»¯ng": 1240,
      "Ġ24": 1241,
      "Ġsá»ıi": 1242,
      "Ġtra": 1243,
      "Ã£y": 1244,
      "amin": 1245,
      "ĠmÃ¡y": 1246,
      "Ġnháº¡y": 1247,
      "Ġsá»ĳt": 1248,
      "le": 1249,
      "ĠÄĳang": 1250,
      "ĠcÃ¹ng": 1251,
      "ĠÄĳá»§": 1252,
      "ĠdÃ¢y": 1253,
      "Ġnáº±m": 1254,
      "Ġchung": 1255,
      "Ġtá»ķng": 1256,
      "Ġcá»Ļng": 1257,
      "Ġnhi": 1258,
      "Ġ200": 1259,
      "ĠtrÃ¡i": 1260,
      "ĠlÃ¡": 1261,
      "ep": 1262,
      "Ġngá»«a": 1263,
      "ĠsÄ©": 1264,
      "ĠhÃłng": 1265,
      "á»ĳn": 1266,
      "Ġ18": 1267,
      "Ġ13": 1268,
      "ĠÄĳáº¡o": 1269,
      "Ġláº¥y": 1270,
      "ĠláºŃp": 1271,
      "Náº¿u": 1272,
      "Ġxo": 1273,
      "ĠhÃłm": 1274,
      "Ġ14": 1275,
      "Ġváº¿t": 1276,
      "Ġháº¡": 1277,
      "19": 1278,
      "iá»ĩng": 1279,
      "Ġnu": 1280,
      "ĠO": 1281,
      "ĠÆ°Æ¡ng": 1282,
      "Ġmá»Ľi": 1283,
      "ĠvÃ²ng": 1284,
      "Ġ60": 1285,
      "á»±a": 1286,
      "ĠdÃ¢n": 1287,
      "ĠÄĳÃ¢y": 1288,
      "Ġmiá»ĩng": 1289,
      "Ġváº«n": 1290,
      "á»ĩn": 1291,
      "Ġbáº¯t": 1292,
      "TT": 1293,
      "Ġnang": 1294,
      "á»ĩt": 1295,
      "Ġlá»£i": 1296,
      "ase": 1297,
      "xy": 1298,
      "ĠCT": 1299,
      "Ġnhá»ĭp": 1300,
      "Ġâī¥": 1301,
      "ĠQu": 1302,
      "Ġrá»Ļng": 1303,
      "200": 1304,
      "iv": 1305,
      "re": 1306,
      "Äĳ": 1307,
      "Ãºi": 1308,
      "Ġchu": 1309,
      "Ġcon": 1310,
      "Ġtá»¥c": 1311,
      "Ã¨m": 1312,
      "Ġháº¡ch": 1313,
      "Ġmá»Ł": 1314,
      "Ġ25": 1315,
      "Cháº©n": 1316,
      "22": 1317,
      "oa": 1318,
      "ĠbÃłn": 1319,
      "ĠÄĳÃ¡ng": 1320,
      "ÄĲáº·t": 1321,
      "á»¹": 1322,
      "ĠbÃ¡c": 1323,
      "Ġgáº§n": 1324,
      "á»ŀ": 1325,
      "áºŃm": 1326,
      "ID": 1327,
      "Ġkháº£o": 1328,
      "ĠtrÃº": 1329,
      "Ġká»ĥ": 1330,
      "Ġtá»Ľi": 1331,
      "ĠphÃŃ": 1332,
      "ĠkÃ¨m": 1333,
      "Ġtáº¥t": 1334,
      "Ġ16": 1335,
      "Ġxu": 1336,
      "Ġin": 1337,
      "ĠlÆ°á»£t": 1338,
      "ĠtÃ¬m": 1339,
      "Ġvan": 1340,
      "ĠdÃ¹": 1341,
      "áº¡m": 1342,
      "áº§y": 1343,
      "ate": 1344,
      "Ġ19": 1345,
      "10": 1346,
      "Ġ40": 1347,
      "ĠÄĳÃ´i": 1348,
      "ĠÄĲiá»ģu": 1349,
      "Ġtá»ĳi": 1350,
      "ĠÄĳÃ¬nh": 1351,
      "Ġliá»ĩt": 1352,
      "ot": 1353,
      "tein": 1354,
      "Ġvá»ĩ": 1355,
      "Ġkg": 1356,
      "ĠxuyÃªn": 1357,
      "Ġnghi": 1358,
      "Ġlao": 1359,
      "Ġvai": 1360,
      "Ġbu": 1361,
      "Ġmá»Ĺi": 1362,
      "Ġbiáº¿t": 1363,
      "az": 1364,
      "Ġdung": 1365,
      "ri": 1366,
      "Ġtrá»«": 1367,
      "Ġnhu": 1368,
      "ıi": 1369,
      "ĠxÃ¢m": 1370,
      "Ġháº¹p": 1371,
      "Ġghi": 1372,
      "eth": 1373,
      "ĠxÃ£": 1374,
      "Ġsáº¯c": 1375,
      "Ġsá»Ł": 1376,
      "Ġlá»Ľp": 1377,
      "ĠháºŃu": 1378,
      "Ġpháº¿": 1379,
      "12": 1380,
      "ĠthÆ°á»Ľc": 1381,
      "Ġtráº§m": 1382,
      "Ġchá»īnh": 1383,
      "Ġráº±ng": 1384,
      "Ġphá»ĳ": 1385,
      "ĠTH": 1386,
      "ĠcÃłng": 1387,
      "ort": 1388,
      "ĠrÃºt": 1389,
      "ĠvÃłnh": 1390,
      "un": 1391,
      "Ġhá»ıi": 1392,
      "Ġcáº¥y": 1393,
      "Ġ95": 1394,
      "Ġchá»Ĺ": 1395,
      "Ġthá»«": 1396,
      "Ġdiá»ĩn": 1397,
      "ĠsÃ¢u": 1398,
      "Ġmá»¥c": 1399,
      "Ġngá»§": 1400,
      "áº¡p": 1401,
      "Ġbá»ķ": 1402,
      "ĠtÃºi": 1403,
      "Ġhiáº¿m": 1404,
      "Ġthá»«a": 1405,
      "ĠtÆ°": 1406,
      "Ġsuáº¥t": 1407,
      "ĠnhÃł": 1408,
      "Ġbáº£n": 1409,
      "Ġthá»¥": 1410,
      "Ġthang": 1411,
      "Ġphá»ĳi": 1412,
      "Ġcá»©ng": 1413,
      "Thá»Ŀi": 1414,
      "ĠGi": 1415,
      "Ġtháº¯t": 1416,
      "Ġháº§u": 1417,
      "ent": 1418,
      "ĠvÃº": 1419,
      "ĠsÃ¡nh": 1420,
      "Ġxem": 1421,
      "ion": 1422,
      "Ġcá»±c": 1423,
      "Ġtá»ĵ": 1424,
      "ĠTá»·": 1425,
      "Ġml": 1426,
      "ĠnhÄ©": 1427,
      "uyá»ĩn": 1428,
      "ĠphÃ¬": 1429,
      "Ã³p": 1430,
      "áº£m": 1431,
      "la": 1432,
      "Ã³n": 1433,
      "Ġal": 1434,
      "Ġsá»į": 1435,
      "KhÃ´ng": 1436,
      "Ġkáº¿": 1437,
      "ĠÄĳÆ°a": 1438,
      "á»ıng": 1439,
      "ĠxÃºc": 1440,
      "ĠtáºŃt": 1441,
      "ulin": 1442,
      "Ġngay": 1443,
      "ĠÄĳÃ´ng": 1444,
      "est": 1445,
      "Ġ+": 1446,
      "ĠdÃ²ng": 1447,
      "ĠtrÆ°á»Łng": 1448,
      "ĠhÃºt": 1449,
      "Ġtrá»©ng": 1450,
      "Ġchá»§ng": 1451,
      "ĠÆ°u": 1452,
      "ĠÄĳÃºng": 1453,
      "áº¡nh": 1454,
      "Ġoxy": 1455,
      "ĠlÃºc": 1456,
      "ĠmÃ´i": 1457,
      "Ġtá»ĵn": 1458,
      "Ġlá»±a": 1459,
      "Sá»±": 1460,
      "uá»ķi": 1461,
      "Ġcá»ĳ": 1462,
      "Ġmáº¡nh": 1463,
      "ide": 1464,
      "ĠÃŃch": 1465,
      "Ġduy": 1466,
      "ĠbÃ©o": 1467,
      "ĠNá»Ļi": 1468,
      "ĠCO": 1469,
      "Ġof": 1470,
      "Ġmá»ģ": 1471,
      "IV": 1472,
      "ĠdÆ°á»£c": 1473,
      "ĠkÃ©": 1474,
      "Ġthá»Ń": 1475,
      "Ġhu": 1476,
      "Ġ17": 1477,
      "ĠváºŃy": 1478,
      "oster": 1479,
      "Ġtham": 1480,
      "uá»ĳc": 1481,
      "ĠtrÃ¡nh": 1482,
      "001": 1483,
      "ap": 1484,
      ");": 1485,
      "ĠTheo": 1486,
      "Ġkhuyáº¿n": 1487,
      "ĠnghiÃªm": 1488,
      "Ġ[": 1489,
      "od": 1490,
      "ĠgiÃ£n": 1491,
      "ĠlÃ²ng": 1492,
      "Ġngá»Ŀ": 1493,
      "Ġmá»ģm": 1494,
      "ĠW": 1495,
      "Ġtuá»µ": 1496,
      "á»ķng": 1497,
      "ĠgÃ£y": 1498,
      "Ġkim": 1499,
      "Ġcuá»Ļc": 1500,
      "ĠCÃ³": 1501,
      "á»«ng": 1502,
      "áº½n": 1503,
      "Ġngháº½n": 1504,
      "ĠlÃłnh": 1505,
      "Ġnon": 1506,
      "ĠkÃ©m": 1507,
      "ĠnuÃ´i": 1508,
      "ur": 1509,
      "ox": 1510,
      "ĠchÃŃ": 1511,
      "luc": 1512,
      "ĠtrÃ²": 1513,
      "Ġsung": 1514,
      "Ġcá»Ļt": 1515,
      "ĠcÃ¡": 1516,
      "ill": 1517,
      "ĠtrÃ¬": 1518,
      "ĠnÃ´n": 1519,
      "ÄĲáº·c": 1520,
      "ĠMD": 1521,
      "ĠtÃª": 1522,
      "Ġnáº¥m": 1523,
      "og": 1524,
      "ĠThg": 1525,
      "Ġná»ĳi": 1526,
      "Ġprotein": 1527,
      "ĠvÃ´": 1528,
      "Tá»ī": 1529,
      "ĠKáº¿t": 1530,
      "Ġchiá»ģu": 1531,
      "Ġgá»ĳc": 1532,
      "Ġtuy": 1533,
      "TC": 1534,
      "ĠngÄĥn": 1535,
      "Gi": 1536,
      "Ġnhiá»ĩt": 1537,
      "ob": 1538,
      "ĠcÆ°á»Ŀng": 1539,
      "á»įi": 1540,
      "ĠchuyÃªn": 1541,
      "Æ°á»Ľu": 1542,
      "Ġngáº¯n": 1543,
      "ĠbÆ°á»Ľc": 1544,
      "Kháº£o": 1545,
      "ĠÄĲáº¡i": 1546,
      "CR": 1547,
      "Ġvit": 1548,
      "ĠTrong": 1549,
      "ex": 1550,
      "Ġnghá»ĭ": 1551,
      "Ġbáº©m": 1552,
      "ĠkÃŃnh": 1553,
      "act": 1554,
      "áº«y": 1555,
      "ab": 1556,
      "áº©y": 1557,
      "Ġcá»¥c": 1558,
      "Ġlan": 1559,
      "ĠmÃª": 1560,
      "yd": 1561,
      "Ġcm": 1562,
      "Ġbiá»ĩn": 1563,
      "ĠbÃłng": 1564,
      "SA": 1565,
      "ortic": 1566,
      "Ġ21": 1567,
      "ĠmÃ´n": 1568,
      "Ġnhá»ĵi": 1569,
      "ĠXÃ¡c": 1570,
      "NA": 1571,
      "ag": 1572,
      "Ġcáº£nh": 1573,
      "Ġcáº¥u": 1574,
      "ymph": 1575,
      "Ġhá»ĵng": 1576,
      "ĠcÆ¡n": 1577,
      "Ġac": 1578,
      "ec": 1579,
      "Ġkhá»Łi": 1580,
      "Ã¹i": 1581,
      "ĠÄĳiá»ĥn": 1582,
      "ĠCháº©n": 1583,
      "Sau": 1584,
      "Ġvá»±c": 1585,
      "Ġxá»Ń": 1586,
      "Ġxoang": 1587,
      "Ġnguá»ĵn": 1588,
      "ĠcháºŃm": 1589,
      "ĠÄĳÃŃch": 1590,
      "Ġ01": 1591,
      "NG": 1592,
      "Ġkiá»ĩn": 1593,
      "ĠHIV": 1594,
      "ĠphÃ¡c": 1595,
      "ĠloÃ©t": 1596,
      "RI": 1597,
      "Ġvá»¥": 1598,
      "Ġquanh": 1599,
      "iá»ģm": 1600,
      "ĠNhi": 1601,
      "Ġ90": 1602,
      "ers": 1603,
      "ĠlÃ¢y": 1604,
      "Ãģ": 1605,
      "Ġcuá»ĳi": 1606,
      "Ġlymph": 1607,
      "Ġkiá»ĥu": 1608,
      "ĠJ": 1609,
      "ad": 1610,
      "Ġchá»©a": 1611,
      "Ġdá»ħ": 1612,
      "ose": 1613,
      "Ġba": 1614,
      "11": 1615,
      "á»Ļn": 1616,
      "25": 1617,
      "ĠngÃ³n": 1618,
      "atin": 1619,
      "ĠbÃłi": 1620,
      "ĠvÃłi": 1621,
      "Ġláº¥n": 1622,
      "ĠkhÃ¡": 1623,
      "ĠViÃªm": 1624,
      "Ġhiá»ĥu": 1625,
      "Ġnay": 1626,
      "Ġbáº£ng": 1627,
      "ĠngÆ°á»£c": 1628,
      "ĠÄĳáº§y": 1629,
      "ĠtuÃ¢n": 1630,
      "ĠlÆ°ng": 1631,
      "Ġminh": 1632,
      "Ġsá»ĳc": 1633,
      "ĠcháºŃu": 1634,
      "ĠHÃł": 1635,
      "ĠtrÃºc": 1636,
      "quang": 1637,
      "ĠÄĳá»ĳt": 1638,
      "ĠMÃ´": 1639,
      "xem": 1640,
      "ĠÃ¡c": 1641,
      "ĠnÃ³i": 1642,
      "Ġ80": 1643,
      "ĠÄĳá»ı": 1644,
      "TÄĲ": 1645,
      "Ġvitamin": 1646,
      "Ġ35": 1647,
      "Ġtiáº¿ng": 1648,
      "¯u": 1649,
      "Ã¢ng": 1650,
      "Ġdáº§n": 1651,
      "Ġgá»£i": 1652,
      "bin": 1653,
      "Ġ2021": 1654,
      "ĠthuáºŃn": 1655,
      "á»¥n": 1656,
      "ĠmÃłu": 1657,
      "Ġgáº¥p": 1658,
      "Ġthiá»ĥu": 1659,
      "Ġ23": 1660,
      "ĠphÃ³ng": 1661,
      "Ġlip": 1662,
      "Ġtá»«ng": 1663,
      "AS": 1664,
      "Ã²i": 1665,
      "ig": 1666,
      "Ġ31": 1667,
      "Ġ22": 1668,
      "ĠMed": 1669,
      "Ġhuyá»ĩn": 1670,
      "...": 1671,
      "ĠNhá»¯ng": 1672,
      "á»¥t": 1673,
      "ChÃºng": 1674,
      "Ġváº¡t": 1675,
      "ĠhoÃł": 1676,
      "Ġ70": 1677,
      "Ġvir": 1678,
      "ĠÄĳÃ³ng": 1679,
      "Ġlá»Ĺ": 1680,
      "Ġxe": 1681,
      "ĠPhÆ°Æ¡ng": 1682,
      "Ġá»ķn": 1683,
      "Ġgluc": 1684,
      "Ġhá»¯u": 1685,
      "ib": 1686,
      "Ġ48": 1687,
      "áº¹n": 1688,
      "ĠgiáºŃt": 1689,
      "xi": 1690,
      "enz": 1691,
      "Ãªng": 1692,
      "Æ°á»£u": 1693,
      "Khi": 1694,
      "CM": 1695,
      "ĠMinh": 1696,
      "ĠphÃŃa": 1697,
      "áºµ": 1698,
      "Ġ28": 1699,
      "ĠnÃ¢ng": 1700,
      "Ġvá»¡": 1701,
      "Ġcar": 1702,
      "Ġháº¡t": 1703,
      "ype": 1704,
      "ity": 1705,
      "ĠbÃ¡n": 1706,
      "ĠbÆ°á»Ľu": 1707,
      "23": 1708,
      "Ġhá»įng": 1709,
      "ĠBÃ¬nh": 1710,
      "ĠtÃłi": 1711,
      "Viá»ĩc": 1712,
      "Ġváº¯c": 1713,
      "rom": 1714,
      "Ġhoáº¡i": 1715,
      "ĠrÆ°á»£u": 1716,
      "Ġbá»ĳ": 1717,
      "ĠmL": 1718,
      "osph": 1719,
      "Ġtáº§n": 1720,
      "á»£t": 1721,
      "TN": 1722,
      "ĠTP": 1723,
      "50": 1724,
      "Ġcáº£n": 1725,
      "Ġ36": 1726,
      "ĠIII": 1727,
      "ĠniÃªm": 1728,
      "á»ĭch": 1729,
      "Ġquá»µ": 1730,
      "Ġxuá»ĳng": 1731,
      "ĠcÃ¢u": 1732,
      "Ġkhá»ıi": 1733,
      "Ã£ng": 1734,
      "xit": 1735,
      "ĠniÃªn": 1736,
      "ĠtháºŃp": 1737,
      "áº¯p": 1738,
      "000": 1739,
      "OR": 1740,
      "Ġcortic": 1741,
      "Ã³t": 1742,
      "Ġxa": 1743,
      "Ġdá»±ng": 1744,
      "Ġtho": 1745,
      "áº¡c": 1746,
      "vir": 1747,
      "ĠrÃłng": 1748,
      "ĠnhÃ£n": 1749,
      "osteroid": 1750,
      "Ġmuá»ĳn": 1751,
      "Ġam": 1752,
      "Ġbáº¡n": 1753,
      "Ġbuá»ĵng": 1754,
      "ĠgÃ³p": 1755,
      "Ġnghiá»ĩp": 1756,
      "VID": 1757,
      "Ġsang": 1758,
      "Ġpol": 1759,
      "Ġkhuyáº¿t": 1760,
      "ĳng": 1761,
      "ĠChÃŃ": 1762,
      "Ġ45": 1763,
      "áº¿p": 1764,
      "Ã¬n": 1765,
      "azol": 1766,
      "ĠlÃ¢u": 1767,
      "sulin": 1768,
      "ĠKhoa": 1769,
      "13": 1770,
      "ĠHá»ĵ": 1771,
      "BV": 1772,
      "Ġmáº·c": 1773,
      "kin": 1774,
      "Ġsu": 1775,
      "ViÃªm": 1776,
      "Ġphá»©c": 1777,
      "ĠMedic": 1778,
      "ĠUn": 1779,
      "15": 1780,
      "MI": 1781,
      "Ġ33": 1782,
      "ĠhÃłi": 1783,
      "14": 1784,
      "ĠkÃ½": 1785,
      "ĠphÃºc": 1786,
      "ĠCOVID": 1787,
      "Ġchiáº¿t": 1788,
      "ĠtrÆ°ng": 1789,
      "Ġlipid": 1790,
      "BN": 1791,
      "ĠÄĳá»ĭa": 1792,
      "Ġgá»ĳi": 1793,
      "Ġtiá»ĩn": 1794,
      "Ġgiá»ĳng": 1795,
      "ing": 1796,
      "Ġ27": 1797,
      "ĠsÃ¡ng": 1798,
      "ĠnhÃ¡nh": 1799,
      "ĠÄĳá»£t": 1800,
      "PhÃ¢n": 1801,
      "Ġ26": 1802,
      "ĠtrÃłn": 1803,
      "ĠKháº£o": 1804,
      "Pháº«u": 1805,
      "ivers": 1806,
      "Ġlympho": 1807,
      "SS": 1808,
      "Ġgiao": 1809,
      "Ġchá»¯a": 1810,
      "if": 1811,
      "Do": 1812,
      "Ġxin": 1813,
      "Ã³i": 1814,
      "Ġcanxi": 1815,
      "oÃłi": 1816,
      "Ġdiá»ħn": 1817,
      "ĠUnivers": 1818,
      "ĠÎ": 1819,
      "Ġhá»Ļ": 1820,
      "17": 1821,
      "Ġmá»¡": 1822,
      "ĠÄĲM": 1823,
      "ium": 1824,
      "Ã£i": 1825,
      "ĠPháº«u": 1826,
      "18": 1827,
      "Ġhá»¥t": 1828,
      "Ġ32": 1829,
      "ĠUniversity": 1830,
      "atri": 1831,
      "áºµn": 1832,
      "Ã¡y": 1833,
      "áº·n": 1834,
      "ĠÄĲa": 1835,
      "ĠphÃ©p": 1836,
      "eta": 1837,
      "ma": 1838,
      "Ġ2022": 1839,
      "Ġmuá»Ļn": 1840,
      "cin": 1841,
      "Ġvá»«a": 1842,
      "ycin": 1843,
      "16": 1844,
      "ĠAn": 1845,
      "Ġinsulin": 1846,
      "33": 1847,
      "Ġvirus": 1848,
      "Ġquyáº¿t": 1849,
      "ĠbÃł": 1850,
      "TM": 1851,
      "ut": 1852,
      "oÃ¡i": 1853,
      "Ġaxit": 1854,
      "ram": 1855,
      "Ġdá»¯": 1856,
      "ĠÃ©p": 1857,
      "ĠthÆ°á»£ng": 1858,
      "Ġsá»¯a": 1859,
      "ĠmÃ£n": 1860,
      "á»ķn": 1861,
      "ĠMá»Ļt": 1862,
      "kh": 1863,
      "ĠDÆ°á»£c": 1864,
      "Ġ75": 1865,
      "ĠkhÄĥn": 1866,
      "ĠChá»£": 1867,
      "ĠloÃłi": 1868,
      "ne": 1869,
      "Ġchá»ĭ": 1870,
      "lyc": 1871,
      "Ġsáºµn": 1872,
      "ess": 1873,
      "ĠdÃ²": 1874,
      "ĠTá»«": 1875,
      "CC": 1876,
      "Ġglucose": 1877,
      "and": 1878,
      "Ã¨n": 1879,
      "yt": 1880,
      "ĠyÃªu": 1881,
      "2021": 1882,
      "pl": 1883,
      "ĠÄĳÃ¹i": 1884,
      "áº¹o": 1885,
      "ĠnÆ¡i": 1886,
      "Ġmi": 1887,
      "ĠHoa": 1888,
      "ĠIV": 1889,
      "Ġcorticosteroid": 1890,
      "ĠchÆ°Æ¡ng": 1891,
      "ĠRáº«y": 1892,
      "DL": 1893,
      "Ġtháº©m": 1894,
      "Ġchuá»Ļt": 1895,
      "Ġná»ģn": 1896,
      "Ġtáº¡ng": 1897,
      "ĠtÃ¡": 1898,
      "ĠHá»Ļi": 1899,
      "ĠgiÃ¡o": 1900,
      "Ġ29": 1901,
      "Ġsa": 1902,
      "Ã´m": 1903,
      "ĠvÃłng": 1904,
      "oáº¡i": 1905,
      "Ġchia": 1906,
      "Ġhen": 1907,
      "%);": 1908,
      "Ġ65": 1909,
      "Ġsáº¯t": 1910,
      "á»ĭnh": 1911,
      "TH": 1912,
      "Táº¥t": 1913,
      "ist": 1914,
      "ĠgÃ³c": 1915,
      "ĠcÃ¢y": 1916,
      "Ġ37": 1917,
      "Ġmen": 1918,
      "Æ¯": 1919,
      "ĠthoÃ¡t": 1920,
      "67": 1921,
      "Ġbá»ģ": 1922,
      "ĠtrÆ°Æ¡ng": 1923,
      "ans": 1924,
      "Ġhá»Ł": 1925,
      "ĠgÃ¢n": 1926,
      "ĠTriá»ĩu": 1927,
      "Ġgá»įi": 1928,
      "Ġtáº¡p": 1929,
      "Má»Ł": 1930,
      "ĠKá»³": 1931,
      "ĠchÃ³ng": 1932,
      "ĠÃ¡n": 1933,
      "ĠcÄĥng": 1934,
      "95": 1935,
      "Ġchá»ĭu": 1936,
      "TÃ¬nh": 1937,
      "Ġ34": 1938,
      "ĠNguyÃªn": 1939,
      "Ġ38": 1940,
      "ept": 1941,
      "Triá»ĩu": 1942,
      "ĠCI": 1943,
      "Ġcáº¡nh": 1944,
      "):": 1945,
      "ĠbiÃªn": 1946,
      "Ġtype": 1947,
      "ĠbÃ¬": 1948,
      "AC": 1949,
      "NhÃ³m": 1950,
      "ST": 1951,
      "Ġthuá»·": 1952,
      "ef": 1953,
      "Ġloáº¡t": 1954,
      "Ġlá»ĩch": 1955,
      "Ġrá»Ńa": 1956,
      "ĠUng": 1957,
      "75": 1958,
      "ĠThÃ¡i": 1959,
      "Ġkáº½": 1960,
      "rog": 1961,
      "Thuá»ĳc": 1962,
      "ĠphÃ¬nh": 1963,
      "Ġxung": 1964,
      "Ġnatri": 1965,
      "ĠDáº¥u": 1966,
      "ĠtÃ¡n": 1967,
      "ĠnhÃ¬n": 1968,
      "ev": 1969,
      "ĠthoÃ¡i": 1970,
      "of": 1971,
      "Ġthuáº§n": 1972,
      "Tuá»ķi": 1973,
      "II": 1974,
      "Ná»ĵng": 1975,
      "ĠHP": 1976,
      "NgoÃłi": 1977,
      "AP": 1978,
      "Æ¡m": 1979,
      "Ġta": 1980,
      "ĠIg": 1981,
      "Ġsá»£i": 1982,
      "ĠMRI": 1983,
      "ĠbÃ³ng": 1984,
      "LC": 1985,
      "son": 1986,
      "Ġdá»įc": 1987,
      "30": 1988,
      "Ġngá»«ng": 1989,
      "Cáº§n": 1990,
      "Ġtháº£i": 1991,
      "ĠÃ": 1992,
      "Ġacid": 1993,
      "rm": 1994,
      "2020": 1995,
      "MT": 1996,
      "ĠcÃ¡nh": 1997,
      "iÃªng": 1998,
      "Ġtháº³ng": 1999,
      "ĠÄĲá»ĵng": 2000,
      "ĠÄĲTÄĲ": 2001,
      "Thá»±c": 2002,
      "Ġtiá»ģm": 2003,
      "umin": 2004,
      "Ġkhoang": 2005,
      "Ġmong": 2006,
      "ĠrÃ²": 2007,
      "Ġtest": 2008,
      "illin": 2009,
      "Chá»ī": 2010,
      "Ġchá»įc": 2011,
      "á»ħn": 2012,
      "á»ĩm": 2013,
      "Ġnghá»ģ": 2014,
      "DD": 2015,
      "Ġtá»ĳc": 2016,
      "áº©u": 2017,
      "24": 2018,
      "Ġsá»Ńa": 2019,
      "ali": 2020,
      "acter": 2021,
      "ĠÄĳÃło": 2022,
      "Ġ2020": 2023,
      "Ġand": 2024,
      "Ġbáº¡i": 2025,
      "Ġcháº¿t": 2026,
      "Ġtoan": 2027,
      "Ġláº¡nh": 2028,
      "Ġbeta": 2029,
      "100": 2030,
      "Ġtan": 2031,
      "28": 2032,
      "ĠCD": 2033,
      "Hiá»ĩu": 2034,
      "Ġcá»Ńa": 2035,
      "36": 2036,
      "ĠTuá»ķi": 2037,
      "Ġ72": 2038,
      "NH": 2039,
      "Ġrung": 2040,
      "RS": 2041,
      "Ġhorm": 2042,
      "Ãµng": 2043,
      "Ġváº£y": 2044,
      "ĠsÃ³t": 2045,
      "ĠÄĲá»ĳi": 2046,
      "VÃ¬": 2047,
      "rop": 2048,
      "ĠÄĳá»ĩm": 2049,
      "ĠTá»ķng": 2050,
      "ĠâĢĿ": 2051,
      "MÃ´": 2052,
      "ĠtÃ¡ch": 2053,
      "TÃ¡c": 2054,
      "ĠÄĳáº£m": 2055,
      "Ġphosph": 2056,
      "ĠxÃ¢y": 2057,
      "Ġ55": 2058,
      "ĠvÃµng": 2059,
      "ĠIL": 2060,
      "Ġláº¯ng": 2061,
      "osp": 2062,
      "27": 2063,
      "áº¥c": 2064,
      "45": 2065,
      "Ġ39": 2066,
      "ĠHu": 2067,
      "ĠThuá»ĳc": 2068,
      "ĠBV": 2069,
      "XÃ¡c": 2070,
      "Ġtráº¯ng": 2071,
      "TP": 2072,
      "oma": 2073,
      "Ġbuá»ĵn": 2074,
      "occ": 2075,
      "ĠNguá»ĵn": 2076,
      "Ġâī¤": 2077,
      "Háº§u": 2078,
      "oáº£ng": 2079,
      "Ġmá»§": 2080,
      "ĠÃ¡nh": 2081,
      "Ġlá»ĵng": 2082,
      "2019": 2083,
      ".)": 2084,
      "á»īnh": 2085,
      "Ġ44": 2086,
      "ich": 2087,
      "ĠPhÃ²ng": 2088,
      "ella": 2089,
      "ant": 2090,
      "ĠHá»ĵi": 2091,
      "ĠKhÃ´ng": 2092,
      "Theo": 2093,
      "35": 2094,
      "Ġnáº¡p": 2095,
      "Ġ46": 2096,
      "Ġmeth": 2097,
      "Ãªnh": 2098,
      "áº¯m": 2099,
      "ra": 2100,
      "Ġláº·p": 2101,
      "Ġ42": 2102,
      "las": 2103,
      "ĠCáº§n": 2104,
      "ĠPE": 2105,
      "ĠbÆ¡m": 2106,
      "Ġphá»ıng": 2107,
      "Ġsáº¡ch": 2108,
      "Ġcháº·t": 2109,
      "CV": 2110,
      "Ġcol": 2111,
      "Ġquá»ĳc": 2112,
      "60": 2113,
      "ĠkhÃ´": 2114,
      "ĠlÃ¡ch": 2115,
      "Ġtá»ħ": 2116,
      "Ġtrang": 2117,
      "rin": 2118,
      "ens": 2119,
      "Tráº»": 2120,
      "ĠkhÃ¢u": 2121,
      "ydro": 2122,
      "ĠNhiá»ħm": 2123,
      "LT": 2124,
      "Æ°á»¡i": 2125,
      "Ġthuá»³": 2126,
      "ĠnÃ´ng": 2127,
      "Ġxáº¥u": 2128,
      "ĠloÃ£ng": 2129,
      "Ġ41": 2130,
      "Ġtuá»³": 2131,
      "Ġngáº«u": 2132,
      "ĠSch": 2133,
      "azole": 2134,
      "ĠÄĳÆ°Æ¡ng": 2135,
      "ĠhÆ¡i": 2136,
      "Ġchiáº¿u": 2137,
      "phy": 2138,
      "Thi": 2139,
      "53": 2140,
      "Ġcáº¯n": 2141,
      "Ġnáº¿n": 2142,
      "Ġmmol": 2143,
      "PD": 2144,
      "ĠHuáº¿": 2145,
      "Máº·c": 2146,
      "ta": 2147,
      "ĠhÃŃt": 2148,
      "Nhiá»ħm": 2149,
      "Ġná»Ńa": 2150,
      "Ġgáº¯ng": 2151,
      "Ġnháº¯c": 2152,
      "NguyÃªn": 2153,
      "lin": 2154,
      "virus": 2155,
      "bumin": 2156,
      "40": 2157,
      "Ġ43": 2158,
      "ath": 2159,
      "ĠTá»ī": 2160,
      "29": 2161,
      "á»©t": 2162,
      "CD": 2163,
      "Sá»ĳ": 2164,
      "obacter": 2165,
      "VT": 2166,
      "enzym": 2167,
      "Ġhiá»ĥm": 2168,
      "Ġtá»©c": 2169,
      "26": 2170,
      "ĠsÃ³ng": 2171,
      "ĠPCR": 2172,
      "Ġ53": 2173,
      "Ġgiáº¥c": 2174,
      "Ġtuá»ĩ": 2175,
      "ĠâĢľ": 2176,
      "ĠHb": 2177,
      "ĠyÃªn": 2178,
      "65": 2179,
      "Ġhormone": 2180,
      "man": 2181,
      "ĠÄĳáº©y": 2182,
      "Ġvá»ı": 2183,
      "ĠNhÃ³m": 2184,
      "ĠmÃ³ng": 2185,
      "ation": 2186,
      "Ġphim": 2187,
      "ĠriÃªng": 2188,
      "ĠÄĲá»ĭnh": 2189,
      "Ġkali": 2190,
      "ĠMá»¹": 2191,
      "Ġmáº£nh": 2192,
      "Ġ*": 2193,
      "Ġ85": 2194,
      "Xem": 2195,
      "icillin": 2196,
      "Ġsá»¥n": 2197,
      "á»įt": 2198,
      "90": 2199,
      "Ġst": 2200,
      "Ġquay": 2201,
      "ĠQuÃ¢n": 2202,
      "Ġthá»§ng": 2203,
      "TB": 2204,
      "Ġenzym": 2205,
      "ĠÄĳÃ²i": 2206,
      "NÃ³": 2207,
      "Ġcong": 2208,
      "Ġháº¡i": 2209,
      "á»¨": 2210,
      "Ġnha": 2211,
      "ĠcÃ¡i": 2212,
      "Ġrá»ĩt": 2213,
      "loc": 2214,
      "amine": 2215,
      "ĠdÃŃnh": 2216,
      "ov": 2217,
      "ric": 2218,
      "ori": 2219,
      "ĠlÆ°á»¡i": 2220,
      "Ġ47": 2221,
      "Ġ2019": 2222,
      "Sá»Ń": 2223,
      "ĠphÆ¡i": 2224,
      "alc": 2225,
      "osis": 2226,
      "Ġtoáº£": 2227,
      "ĠTHA": 2228,
      "Ġgiun": 2229,
      "Ġ58": 2230,
      "Ġ96": 2231,
      "ĠBMI": 2232,
      "Ġná»ĳt": 2233,
      "Ġ54": 2234,
      "ĠchÃº": 2235,
      "lob": 2236,
      "Ġngá»Ļ": 2237,
      "sterol": 2238,
      "Ġkháº©u": 2239,
      "2015": 2240,
      "04": 2241,
      "iáº¿u": 2242,
      "Ġmá»ıi": 2243,
      "ĠViá»ĩn": 2244,
      "ass": 2245,
      "ĠthÄĥm": 2246,
      "ĠST": 2247,
      "áº§ng": 2248,
      "ĠngÃłnh": 2249,
      "ĠBáº¡ch": 2250,
      "03": 2251,
      "ĠÄĳá»Ļi": 2252,
      "Ġ56": 2253,
      "Ġ64": 2254,
      "2018": 2255,
      "âĢ": 2256,
      "Ġhuá»·": 2257,
      "ĠkÃŃ": 2258,
      "ĠmÃ¹": 2259,
      "ĠchÃ¨n": 2260,
      "ĠHo": 2261,
      "Ġ62": 2262,
      "Ġ108": 2263,
      "ell": 2264,
      "YT": 2265,
      "Ġsp": 2266,
      "Qu": 2267,
      "SH": 2268,
      "ĠCH": 2269,
      "Ġ66": 2270,
      "ThÃ´ng": 2271,
      "Ġ&": 2272,
      "ĠthuyÃªn": 2273,
      "NT": 2274,
      "ĠNK": 2275,
      "ĠTáº": 2276,
      "Vá»Ľi": 2277,
      "Ãłu": 2278,
      "lor": 2279,
      "Ġ57": 2280,
      "Ġcháº¥p": 2281,
      "Báº£ng": 2282,
      "Ġcarb": 2283,
      "80": 2284,
      "ĠngÆ°ng": 2285,
      "Ġsai": 2286,
      "ĠsÃºt": 2287,
      "reatin": 2288,
      "Ġ51": 2289,
      "ĠRá»ĳi": 2290,
      "Ġmuá»ĳi": 2291,
      "ĠMá»¥c": 2292,
      "XÃ©t": 2293,
      "Ġrá»ĳn": 2294,
      "So": 2295,
      "iá»ĩm": 2296,
      "ĠTÄĥng": 2297,
      "Ġcháº±ng": 2298,
      "ĠSc": 2299,
      "CA": 2300,
      "Ġhoáº¡ch": 2301,
      "Ġnghe": 2302,
      "Ġ52": 2303,
      "Ġmc": 2304,
      "áº¢": 2305,
      "Ġ68": 2306,
      "ĠcáºŃy": 2307,
      "ĠCL": 2308,
      "34": 2309,
      "ÄĲá»ĥ": 2310,
      "erg": 2311,
      "Ġpolyp": 2312,
      "Má»©c": 2313,
      "Ġmá»ĩt": 2314,
      "ĠIn": 2315,
      "arc": 2316,
      "73": 2317,
      "Biáº¿n": 2318,
      "Ġtáº§m": 2319,
      "Ġná»ģ": 2320,
      "ĠMedicine": 2321,
      "Ġgiáº£n": 2322,
      "eg": 2323,
      "ii": 2324,
      "Ġlá»ıng": 2325,
      "ĠTÃ": 2326,
      "TÄĥng": 2327,
      "38": 2328,
      "GiÃ¡": 2329,
      "rogen": 2330,
      "ĠsÆ°ng": 2331,
      "áº¿ng": 2332,
      "ĠbÄĥng": 2333,
      "thÆ°á»Ŀng": 2334,
      "70": 2335,
      "ĠÆ°á»Ľc": 2336,
      "ylori": 2337,
      "42": 2338,
      "2017": 2339,
      "2010": 2340,
      "Há»Ļi": 2341,
      "ĠÃ¢u": 2342,
      "Ġstr": 2343,
      "Ġkhai": 2344,
      "Ġtá»Ļc": 2345,
      "Ġbá»ıng": 2346,
      "yst": 2347,
      "ÄĲá»Ļ": 2348,
      "Ġnáº¡n": 2349,
      "43": 2350,
      "ĠÄĲá»©c": 2351,
      "ĠSau": 2352,
      "Ġ61": 2353,
      "á»Ļm": 2354,
      "orm": 2355,
      "Ġteo": 2356,
      "ĠÄĳáº»": 2357,
      "Ġáº©n": 2358,
      "ĠchÃªnh": 2359,
      "ĠhÃ´i": 2360,
      "Ġsáº¹o": 2361,
      "Ġdu": 2362,
      "71": 2363,
      "2012": 2364,
      "85": 2365,
      "31": 2366,
      "ain": 2367,
      "pi": 2368,
      "onin": 2369,
      "Ġcuá»ĳng": 2370,
      "Ġcáº§m": 2371,
      "eter": 2372,
      "ĠÄĳá»Ŀi": 2373,
      "Ġgai": 2374,
      "Ãºm": 2375,
      "ĠHáº£i": 2376,
      "xin": 2377,
      "86": 2378,
      "47": 2379,
      "ĠbÃº": 2380,
      "Ġmáº£ng": 2381,
      "ĠDÃ¢n": 2382,
      "ĠNguy": 2383,
      "Ġgáº¯n": 2384,
      "ĠSá»ĳ": 2385,
      "MC": 2386,
      "Ġchole": 2387,
      "2011": 2388,
      "ĠThÃ´ng": 2389,
      "ĠPhÃ¢n": 2390,
      "48": 2391,
      "99": 2392,
      "Ġ(+": 2393,
      "ĠtÃŃp": 2394,
      "ow": 2395,
      "ĠSá»±": 2396,
      "ĠAR": 2397,
      "32": 2398,
      "76": 2399,
      "Ġ2018": 2400,
      "55": 2401,
      "ĠtÆ°á»Ľi": 2402,
      "Ġnuá»ĳt": 2403,
      "se": 2404,
      "Ġma": 2405,
      "39": 2406,
      "enem": 2407,
      "aser": 2408,
      "Ġáº¥n": 2409,
      "2014": 2410,
      "CG": 2411,
      "Ġ88": 2412,
      "ue": 2413,
      "37": 2414,
      "ĠkÃŃn": 2415,
      "Ġmá»įi": 2416,
      "ĠthÃºc": 2417,
      "CS": 2418,
      "Iá»": 2419,
      "Ã½p": 2420,
      "Ġcoi": 2421,
      "Ġtrá»¥c": 2422,
      "ĠAl": 2423,
      "ĠTiá»ģn": 2424,
      "Ġ76": 2425,
      "Ġ63": 2426,
      "neum": 2427,
      "96": 2428,
      "ĠThÃłnh": 2429,
      "ĠdL": 2430,
      "ĠDNA": 2431,
      "CO": 2432,
      "ĠlÆ°á»£c": 2433,
      "58": 2434,
      "Ġly": 2435,
      "pro": 2436,
      "ĠTrÆ°á»Ŀng": 2437,
      "ool": 2438,
      "Ġá»ŀ": 2439,
      "ĠMai": 2440,
      "Tá»ķn": 2441,
      "Ġ2017": 2442,
      "56": 2443,
      "ĠSinh": 2444,
      "Ġdáº§u": 2445,
      "72": 2446,
      "ĠrÃ£i": 2447,
      "06": 2448,
      "ĠtoÃ¡n": 2449,
      "Ġmá»¹": 2450,
      "2013": 2451,
      "Ġluyá»ĩn": 2452,
      "Ġdao": 2453,
      "2016": 2454,
      "Rá»ĳi": 2455,
      "Nhiá»ģu": 2456,
      "Ġmáº§m": 2457,
      "Ġpha": 2458,
      "Ġ59": 2459,
      "Ġtáº§ng": 2460,
      "ĠÄĳá»©ng": 2461,
      "Ġphá»§": 2462,
      "onia": 2463,
      "occus": 2464,
      "eal": 2465,
      "CH": 2466,
      "uc": 2467,
      "Ġtháº£o": 2468,
      "44": 2469,
      "Ġ83": 2470,
      "Ġbá»Ļt": 2471,
      "art": 2472,
      "Ã²m": 2473,
      "ĠThá»Ŀi": 2474,
      "®T": 2475,
      "lobulin": 2476,
      "arb": 2477,
      "ud": 2478,
      "Ġtáº¯t": 2479,
      "ĠngÆ°á»¡ng": 2480,
      "Ġ71": 2481,
      "Ġ97": 2482,
      "ĠngÃ£": 2483,
      "Ġ67": 2484,
      "acin": 2485,
      "Ġnhá»Ľ": 2486,
      "ĠTR": 2487,
      "57": 2488,
      "CP": 2489,
      "ge": 2490,
      "ÄĲiá»ĥm": 2491,
      "Ġcháº³ng": 2492,
      "46": 2493,
      "LA": 2494,
      "Ġná»ķi": 2495,
      "ĠBáº£ng": 2496,
      "Ġ49": 2497,
      "ran": 2498,
      "ĠÃ´": 2499,
      "Ġ73": 2500,
      "enc": 2501,
      "Ġ87": 2502,
      "Ġchiáº¿n": 2503,
      "phen": 2504,
      "Ġbá»Ŀ": 2505,
      "IDS": 2506,
      "ĠlÃ´ng": 2507,
      "Hg": 2508,
      "Vá»ģ": 2509,
      "Ġvá»¯a": 2510,
      "Ġsao": 2511,
      "Ġhiáº¿n": 2512,
      "Ġnghiá»ĩn": 2513,
      "Ġ86": 2514,
      "ĠÃģ": 2515,
      "52": 2516,
      "ĠtráºŃt": 2517,
      "eng": 2518,
      "ubin": 2519,
      "Ġnáº¯n": 2520,
      "Tá»ķng": 2521,
      "98": 2522,
      "ĠrÃ¡ch": 2523,
      "ycl": 2524,
      "Ġmá»¥n": 2525,
      "Ġ93": 2526,
      "ĠGiang": 2527,
      "lycer": 2528,
      "92": 2529,
      "Ġcreatin": 2530,
      "ĠvÄĥn": 2531,
      "Ġcháº½": 2532,
      "Ġrau": 2533,
      "MP": 2534,
      "ĠTim": 2535,
      "ida": 2536,
      "ĠbÃ¹": 2537,
      "Ġpr": 2538,
      "66": 2539,
      "DS": 2540,
      "pha": 2541,
      "ĠPH": 2542,
      "ĵM": 2543,
      "ĠÄĳÃ¡y": 2544,
      "Ġrá»ħ": 2545,
      "Ġ\"": 2546,
      "Ġá»ĳi": 2547,
      "ĠTáº®T": 2548,
      "itr": 2549,
      "64": 2550,
      "Ġá»©": 2551,
      "ÄĲa": 2552,
      "ĠSchool": 2553,
      "MA": 2554,
      "Ġlá»©a": 2555,
      "Ġ94": 2556,
      "RP": 2557,
      "ĠTÃĵM": 2558,
      "emia": 2559,
      "Ġ92": 2560,
      "Ġ84": 2561,
      "á»Ĳ": 2562,
      "54": 2563,
      "ug": 2564,
      "ÃĢ": 2565,
      "GF": 2566,
      "Ġnghá»ī": 2567,
      "ĠCol": 2568,
      "69": 2569,
      "Ġtáº£i": 2570,
      "ĠluÃ´n": 2571,
      "Ġhuy": 2572,
      "Ġngá»¯": 2573,
      "Ġ82": 2574,
      "Ġty": 2575,
      "NgÆ°á»Ŀi": 2576,
      "Ġhá»Ĺn": 2577,
      "78": 2578,
      "ivac": 2579,
      "Ġcholesterol": 2580,
      "Ġxanh": 2581,
      "ĠÂµ": 2582,
      "88": 2583,
      "Táº¡i": 2584,
      "Ġtriá»ĩt": 2585,
      "ĠÄĳÃªm": 2586,
      "ÄĲÃ¢y": 2587,
      "62": 2588,
      "lobin": 2589,
      "MD": 2590,
      "97": 2591,
      "ĠvÃ¡ch": 2592,
      "Ġná»¯a": 2593,
      "63": 2594,
      "ub": 2595,
      "ĠÄĳá»īnh": 2596,
      "ĠNgh": 2597,
      "Ã©n": 2598,
      "Ġ91": 2599,
      "41": 2600,
      "ĠÎ²": 2601,
      "83": 2602,
      "fer": 2603,
      "Ġpylori": 2604,
      "Ġalbumin": 2605,
      "ospor": 2606,
      "atheter": 2607,
      "enter": 2608,
      "02": 2609,
      "ĠNá»ĵng": 2610,
      "Ġ78": 2611,
      "eph": 2612,
      "arin": 2613,
      "Sinh": 2614,
      "otr": 2615,
      "ok": 2616,
      "Ġqui": 2617,
      "Ġnguyá»ĩt": 2618,
      "49": 2619,
      "Ġngá»Ļt": 2620,
      "59": 2621,
      "Ġamin": 2622,
      "Ġhydro": 2623,
      "ĠHBV": 2624,
      "82": 2625,
      "Ġcha": 2626,
      "Ġbá»įt": 2627,
      "Ġsuá»ĳt": 2628,
      "Ġcai": 2629,
      "ĠhÆ°": 2630,
      "ren": 2631,
      "Ġchuá»Ĺi": 2632,
      "HCM": 2633,
      "Ġphong": 2634,
      "Ġmáº¡ng": 2635,
      "ĠSp": 2636,
      "61": 2637,
      "ĠtÆ°á»Łng": 2638,
      "Ġacet": 2639,
      "Ġhem": 2640,
      "Ġ74": 2641,
      "ilir": 2642,
      "Ġ98": 2643,
      "ĠChá»ī": 2644,
      "Ġ2010": 2645,
      "ard": 2646,
      "mm": 2647,
      "Ġcyt": 2648,
      "Ġnáº¡o": 2649,
      "ĠÄĲá»Ļ": 2650,
      "91": 2651,
      "Ġlaser": 2652,
      "Ġnhuá»Ļm": 2653,
      "ilirubin": 2654,
      "á»ım": 2655,
      "Ġ2012": 2656,
      "81": 2657,
      "Ġcháº¹n": 2658,
      "Ġ06": 2659,
      "ĠÂ°": 2660,
      "Ġ81": 2661,
      "neumonia": 2662,
      "ĠnghÄ©": 2663,
      "ĠHB": 2664,
      "ĠmÃ¬nh": 2665,
      "ĠgiÆ°á»Ŀng": 2666,
      "ĠChÃºng": 2667,
      "ĠNM": 2668,
      "HÃ¬nh": 2669,
      "XH": 2670,
      "ÄĲau": 2671,
      "93": 2672,
      "ti": 2673,
      "Ġnáº¹p": 2674,
      "Ġmá»ĵ": 2675,
      "ĠnÃºt": 2676,
      "iz": 2677,
      "Ġhiá»ĥn": 2678,
      "ĠrÃ©t": 2679,
      "Ġ69": 2680,
      "ĠquáºŃn": 2681,
      "Ġ2013": 2682,
      "87": 2683,
      "ae": 2684,
      "ĠTK": 2685,
      "cm": 2686,
      "NháºŃn": 2687,
      "ĠmÃ£": 2688,
      "ron": 2689,
      "áº¿ch": 2690,
      "ĠXÃ©t": 2691,
      "84": 2692,
      "ĠNguyá»ħn": 2693,
      "ĠNhÃ¢n": 2694,
      "up": 2695,
      "ĠOR": 2696,
      "av": 2697,
      "Ġcoli": 2698,
      "rotein": 2699,
      "2009": 2700,
      "reus": 2701,
      "79": 2702,
      "Ġcatheter": 2703,
      "Ġváº©y": 2704,
      "RA": 2705,
      "ĠgiÃ¡m": 2706,
      "ĠKTC": 2707,
      "Ġstress": 2708,
      "Ġráº¯n": 2709,
      "ĠtÃŃm": 2710,
      "ĠPT": 2711,
      "Ag": 2712,
      "ĠmmHg": 2713,
      "HO": 2714,
      "engue": 2715,
      "ros": 2716,
      "ĠPar": 2717,
      "ĠTT": 2718,
      "ĠMedical": 2719,
      "ew": 2720,
      "ĠÄĳÄ©a": 2721,
      "Ġ2016": 2722,
      "pler": 2723,
      "89": 2724,
      "aine": 2725,
      "ĠvÆ°á»£t": 2726,
      "ĠhÃ¡ng": 2727,
      "74": 2728,
      "ĠAD": 2729,
      "ax": 2730,
      "ĠPhá»¥": 2731,
      "ĠHPV": 2732,
      "ĠBáº¯c": 2733,
      "Ġcarcin": 2734,
      "umab": 2735,
      "Ġláº«n": 2736,
      "Ġgram": 2737,
      "ĠHA": 2738,
      "nhÆ°": 2739,
      "Ġlact": 2740,
      "ĠgiÃ¡n": 2741,
      "ĠnhÆ°á»£c": 2742,
      "ĠAIDS": 2743,
      "áº¾": 2744,
      "ĠÄĳáº£o": 2745,
      "ĠTN": 2746,
      "Ġ77": 2747,
      "SD": 2748,
      "pioid": 2749,
      "cÃ³": 2750,
      "Ġau": 2751,
      "ĠchÃ¢m": 2752,
      "Ġ(>": 2753,
      "Ġmcg": 2754,
      "Äĳáº·c": 2755,
      "RT": 2756,
      "Ġtrai": 2757,
      "Ġxoáº¯n": 2758,
      "Ġquen": 2759,
      "Ġ2015": 2760,
      "ĠHuyáº¿t": 2761,
      "Chá»¥p": 2762,
      "ho": 2763,
      "Ġláº¡c": 2764,
      "ĠdáºŃy": 2765,
      "ĠvÃ²m": 2766,
      "TrÃªn": 2767,
      "94": 2768,
      "Ġpháº¡m": 2769,
      "Æ°á»Ŀn": 2770,
      "Ġxoay": 2771,
      "77": 2772,
      "Kiáº¿n": 2773,
      "ak": 2774,
      "ĠÃ¡i": 2775,
      "ĠthÃ¢m": 2776,
      "Ġhá»ĳc": 2777,
      "ĠphÃ´i": 2778,
      "68": 2779,
      "ĠAm": 2780,
      "IC": 2781,
      "SiÃªu": 2782,
      "Ġcáº³ng": 2783,
      "oh": 2784,
      "Ġlá»ĵi": 2785,
      "ĠthÃŃnh": 2786,
      "Ġká»ĭp": 2787,
      "ĠBá»Ļ": 2788,
      "Ġstent": 2789,
      "ĠGia": 2790,
      "Ġ2011": 2791,
      "ĠTB": 2792,
      "ĠSá»Ń": 2793,
      "ĠcáºŃp": 2794,
      "ĠtÃ½p": 2795,
      "Ġngá»©a": 2796,
      "ulf": 2797,
      "ER": 2798,
      "AB": 2799,
      "ÃĬ": 2800,
      "ĠÄĲau": 2801,
      "Ġflu": 2802,
      "tá»«": 2803,
      "neumoniae": 2804,
      "Ġ(+)": 2805,
      "51": 2806,
      "ĠhÃ´n": 2807,
      "ĠQuá»ĳc": 2808,
      "ĠtÃ³c": 2809,
      "Ġtháº¥u": 2810,
      "can": 2811,
      "Khoáº£ng": 2812,
      "Ġtáº¡m": 2813,
      "Ġtrá»¯": 2814,
      "ect": 2815,
      "Ġviá»ħn": 2816,
      "ĠÄĲÃ´i": 2817,
      "ast": 2818,
      "erp": 2819,
      "oglobin": 2820,
      "ĠcÃ¡n": 2821,
      "Ġcháº¯c": 2822,
      "etin": 2823,
      "ĠtháºŃm": 2824,
      "ĠThu": 2825,
      "ĠNT": 2826,
      "Ġsá»£": 2827,
      "alass": 2828,
      "Ġdanh": 2829,
      "ĠthÃŃ": 2830,
      "ton": 2831,
      "Ġ500": 2832,
      "Ġliá»ģn": 2833,
      "Ġquáº§n": 2834,
      "opr": 2835,
      "osterone": 2836,
      "rit": 2837,
      "HA": 2838,
      "Ġsong": 2839,
      "ĠnhÅ©": 2840,
      "Ġ89": 2841,
      "ĠThiáº¿t": 2842,
      "ĠcÃºm": 2843,
      "ĠsÃ¡n": 2844,
      "Ġas": 2845,
      "Ġkhá»Ń": 2846,
      "eh": 2847,
      "CL": 2848,
      "Ġlai": 2849,
      "Ġtreo": 2850,
      "09": 2851,
      "Ġster": 2852,
      "Ġopioid": 2853,
      "Ġlá»Ŀi": 2854,
      "ĠtrÃło": 2855,
      "omycin": 2856,
      "Ġthá»ĭt": 2857,
      "PE": 2858,
      "Ġche": 2859,
      "ĠdÆ°": 2860,
      "Ġdai": 2861,
      "Ġnong": 2862,
      "ĠThÆ¡": 2863,
      "Ġaureus": 2864,
      "%:": 2865,
      "ĠCLVT": 2866,
      "iglycer": 2867,
      "BL": 2868,
      "Ġest": 2869,
      "ĠsÆ°á»Ŀn": 2870,
      "lox": 2871,
      "Ġbáº¹n": 2872,
      "ĠsÃ¡ch": 2873,
      "ĠbÃ³": 2874,
      "ĠchÃ©o": 2875,
      "ĠZ": 2876,
      "ĠbÃ£o": 2877,
      "07": 2878,
      "ĠSA": 2879,
      "Ġ(<": 2880,
      "ry": 2881,
      "Ġlá»Ļ": 2882,
      "08": 2883,
      "Ġi": 2884,
      "ĠSuy": 2885,
      "Co": 2886,
      "ĠTá»ķn": 2887,
      "ĠnghiÃªng": 2888,
      "ĠnÃ³ng": 2889,
      "Ġad": 2890,
      "ĠHbA": 2891,
      "Ġáº¥u": 2892,
      "Ġxá»©ng": 2893,
      "ĠAP": 2894,
      "eb": 2895,
      "Ġvá»¯ng": 2896,
      "Ġbilirubin": 2897,
      "2008": 2898,
      "ith": 2899,
      "ĠGiáº£m": 2900,
      "ogen": 2901,
      "CI": 2902,
      "ĠAs": 2903,
      "bao": 2904,
      "ein": 2905,
      "Ġlá»ĭch": 2906,
      "khÃ´ng": 2907,
      "ĠbÃ´i": 2908,
      "CN": 2909,
      "Ġdáº³ng": 2910,
      "Ġkhiáº¿m": 2911,
      "alassemia": 2912,
      "ime": 2913,
      "TÃ³m": 2914,
      "ĠgÃ¬": 2915,
      "KhÃ¡m": 2916,
      "ĠcÆ°": 2917,
      "Ġmiá»ģn": 2918,
      "Ġkhuáº¿ch": 2919,
      "ĠChÃ¢u": 2920,
      "Ung": 2921,
      "Ġpneumoniae": 2922,
      "ÄĲM": 2923,
      "trong": 2924,
      "Ġw": 2925,
      "ĠÄĳÃ²n": 2926,
      "Ġbong": 2927,
      "VÃŃ": 2928,
      "ĠcÃ²i": 2929,
      "Ġ79": 2930,
      "ĠNháºŃn": 2931,
      "ĠgiÃ¢y": 2932,
      "epine": 2933,
      "ĠNáº¿u": 2934,
      "ĠhoÃ£n": 2935,
      "ĠkhÃ¡ch": 2936,
      "Ġdoáº¡": 2937,
      "ĠLDL": 2938,
      "ĠPET": 2939,
      "ĠPhi": 2940,
      "Liá»ģu": 2941,
      "ik": 2942,
      "ĠbÃ¡m": 2943,
      "actam": 2944,
      "Æ°Æ¡i": 2945,
      "yn": 2946,
      "gi": 2947,
      "ĠpH": 2948,
      "Ġtia": 2949,
      "ole": 2950,
      "ĠÄĳá»¥c": 2951,
      "ĠgÃ¡nh": 2952,
      "Ġim": 2953,
      "ĠÄĳáºŃu": 2954,
      "Ġgiang": 2955,
      "Ġtráº£": 2956,
      "Ġalpha": 2957,
      "Ġxáº¿p": 2958,
      "2022": 2959,
      "CE": 2960,
      "ĠDop": 2961,
      "Ġchá»£": 2962,
      "Ġ99": 2963,
      "HI": 2964,
      "ĠtÃŃn": 2965,
      "Ġbá»ĥ": 2966,
      "ĠTiÃªu": 2967,
      "á»·u": 2968,
      "áºŃc": 2969,
      "ĠthoÃ¡ng": 2970,
      "Ġmet": 2971,
      "ĠCA": 2972,
      "orph": 2973,
      "Ġcháº·n": 2974,
      "ĠChá»ĳng": 2975,
      "kinson": 2976,
      "Ġsteroid": 2977,
      "ĠtáºŃn": 2978,
      "ĠhÃ£y": 2979,
      "anol": 2980,
      "ethyl": 2981,
      "ovid": 2982,
      "ĠÄĳen": 2983,
      "ÃĬN": 2984,
      "ĠHS": 2985,
      "Thiáº¿u": 2986,
      "Biá»ĥu": 2987,
      "bá»ĩnh": 2988,
      "Ã¨o": 2989,
      "á»³nh": 2990,
      "],": 2991,
      "vÃł": 2992,
      "ond": 2993,
      "TK": 2994,
      "ĠnhÃº": 2995,
      "Ġ03": 2996,
      "ĠSDD": 2997,
      "ĠNgÆ°á»Ŀi": 2998,
      "ĠNgoáº¡i": 2999,
      "Ġ2009": 3000,
      "ĠbáºŃc": 3001,
      "Nguy": 3002,
      "Ġcáº·p": 3003,
      "ĠlÄ©nh": 3004,
      "ĠCáº¯t": 3005,
      "Ġnghá»ĭch": 3006,
      "Giá»": 3007,
      "ĠdÆ°á»Ŀng": 3008,
      "ĠbÃły": 3009,
      "Ġtá»ĳng": 3010,
      "Ġká»·": 3011,
      "Ġsanh": 3012,
      "Ġ(%)": 3013,
      "ĠbÃ¡nh": 3014,
      "ĠdÃłnh": 3015,
      "Ġkhuá»·u": 3016,
      "ĠtÃ¡o": 3017,
      "Ġtráº£i": 3018,
      "á»¥i": 3019,
      "ĠVAS": 3020,
      "ĠThiáº¿u": 3021,
      "ĠvÄ©nh": 3022,
      "Ġsá»Ŀ": 3023,
      "end": 3024,
      "ĠDoppler": 3025,
      "uÃ´i": 3026,
      "Ġhang": 3027,
      "MN": 3028,
      "ĠkhÃŃch": 3029,
      "yr": 3030,
      "áº¹t": 3031,
      "Thiáº¿t": 3032,
      "ĠCRP": 3033,
      "ĠCenter": 3034,
      "ĠpháºŃn": 3035,
      "ĠCan": 3036,
      "ĠQU": 3037,
      "Ġhuáº¥n": 3038,
      "ĠthÃ³i": 3039,
      "ĠchÃły": 3040,
      "ĠCÃ´ng": 3041,
      "phosph": 3042,
      "Má»ĳi": 3043,
      "ff": 3044,
      "ĠÄĳe": 3045,
      "Ġmai": 3046,
      "ĠCÄĥn": 3047,
      "ital": 3048,
      "].": 3049,
      "Ġkiáº¿m": 3050,
      "Ġ05": 3051,
      "Ġáº©m": 3052,
      "Ġtrá»¥": 3053,
      "Ġpar": 3054,
      "Ġ2014": 3055,
      "Ġkháº³ng": 3056,
      "Pháº§n": 3057,
      "ĠlÃ£o": 3058,
      "Ġkhiáº¿n": 3059,
      "ert": 3060,
      "ĠKiá»ĥm": 3061,
      "Ġchá»ĵng": 3062,
      "iá»ħu": 3063,
      "ĠThanh": 3064,
      "Ġ120": 3065,
      "lex": 3066,
      "ĠtÃªn": 3067,
      "Ġráº«y": 3068,
      "Ġgiá»į": 3069,
      "ovirus": 3070,
      "rad": 3071,
      "ĠcÃ´": 3072,
      "iot": 3073,
      "Ġuric": 3074,
      "ĠDÆ°Æ¡ng": 3075,
      "pus": 3076,
      "ys": 3077,
      "Ġbáº¯p": 3078,
      "Ġbá»¥i": 3079,
      "Ġsarc": 3080,
      "ĠÄĲMV": 3081,
      "Ġenzyme": 3082,
      "lav": 3083,
      "Ġtam": 3084,
      "Ġnháº§y": 3085,
      "erpes": 3086,
      "KÃŃch": 3087,
      "TS": 3088,
      "ÄĲÃ´i": 3089,
      "Ġcá»¡": 3090,
      "Ġtri": 3091,
      "á»§ng": 3092,
      "phyloc": 3093,
      "ĠmÃ¹a": 3094,
      "ĠTráº»": 3095,
      "ĠCOPD": 3096,
      "Ġkáº½m": 3097,
      "taphyloc": 3098,
      "Ġfor": 3099,
      "ĠTÃ¢y": 3100,
      "ĠAF": 3101,
      "ĠchÃ³p": 3102,
      "Ġnhá»©c": 3103,
      "ĠÄĳÃ³i": 3104,
      "romycin": 3105,
      "icin": 3106,
      "Hiá»ĩn": 3107,
      "rine": 3108,
      "Ġtriglycer": 3109,
      "LI": 3110,
      "ephal": 3111,
      "Ġmic": 3112,
      "Ġpháº³ng": 3113,
      "Ġkhung": 3114,
      "isol": 3115,
      "ycline": 3116,
      "ĠbÃ³n": 3117,
      "ĠStr": 3118,
      "ĠtÃ¢n": 3119,
      "ĠnÃ¡ch": 3120,
      "bs": 3121,
      "Ġcháº¡y": 3122,
      "BNP": 3123,
      "yclo": 3124,
      "Suy": 3125,
      "Ġno": 3126,
      "ĠNG": 3127,
      "Ġmao": 3128,
      "ĠCS": 3129,
      "hil": 3130,
      "ĠNMCT": 3131,
      "Ġhs": 3132,
      "ĠViá»ĩc": 3133,
      "Ġcef": 3134,
      "Ġthiá»ĩu": 3135,
      "Ġcháº¯n": 3136,
      "áº¬": 3137,
      "MS": 3138,
      "])": 3139,
      "ĠlÃ´": 3140,
      "Ã¡u": 3141,
      "ĠÄĲáº·c": 3142,
      "CÆ¡": 3143,
      "ĠBP": 3144,
      "OS": 3145,
      "ienc": 3146,
      "Ġlev": 3147,
      "Ġvac": 3148,
      "ĠbÃ³p": 3149,
      "Ġtranh": 3150,
      "Ġká»ĭch": 3151,
      "ĠHÃ¬nh": 3152,
      "CB": 3153,
      "Ġsulf": 3154,
      "Ġat": 3155,
      "Ġmá»Ŀ": 3156,
      "Ġmá»ıng": 3157,
      "ĠkhÃºc": 3158,
      "Ġlupus": 3159,
      "ĠdÃłng": 3160,
      "ĠnÃ©n": 3161,
      "all": 3162,
      "ĠhoÃłng": 3163,
      "ĠSo": 3164,
      "chiáº¿m": 3165,
      "pir": 3166,
      "osa": 3167,
      "ĠCháº¥n": 3168,
      "CÄĥn": 3169,
      "Ġe": 3170,
      "Ġkiá»ģm": 3171,
      "ĠSt": 3172,
      "Ġnit": 3173,
      "Ġ150": 3174,
      "loxacin": 3175,
      "AD": 3176,
      "PT": 3177,
      "ĠvÃŃ": 3178,
      "ĠtrÃ¡n": 3179,
      "PV": 3180,
      "Ká»¹": 3181,
      "inol": 3182,
      "Ġlá»ĳi": 3183,
      "ĠTM": 3184,
      "ĠTáº¥t": 3185,
      "Giáº£m": 3186,
      "Ġ02": 3187,
      "ĠthÃ¡ch": 3188,
      "Ġdiá»ĩt": 3189,
      "idine": 3190,
      "ĠCÆ¡": 3191,
      "ĠchÃ¬": 3192,
      "ĠThá»±c": 3193,
      "Ġtrá»ĳng": 3194,
      "á»¯u": 3195,
      "erc": 3196,
      "entan": 3197,
      "TiÃªu": 3198,
      "2007": 3199,
      "ĠScienc": 3200,
      "Ġhá»ĳ": 3201,
      "apenem": 3202,
      "Ġkhe": 3203,
      "ÃĤ": 3204,
      "Ġbá»©c": 3205,
      "ĠHCV": 3206,
      "ĠEn": 3207,
      "Ġhuá»³nh": 3208,
      "TNS": 3209,
      "okine": 3210,
      "NK": 3211,
      "»¿": 3212,
      "ï»¿": 3213,
      "ĠHá»¯u": 3214,
      "rof": 3215,
      "io": 3216,
      "Ġthao": 3217,
      "Ġnhá»Ŀ": 3218,
      "Ġthá»ķ": 3219,
      "SAID": 3220,
      "ĠlÆ°á»Ľi": 3221,
      "ĠlÆ°á»¡ng": 3222,
      "Ġmá»ım": 3223,
      "ĠngÃ´n": 3224,
      "enicillin": 3225,
      "ĠGI": 3226,
      "Ġláº¡m": 3227,
      "Ġnghá»ĩ": 3228,
      "ĠThá»ĭ": 3229,
      "Ġtyp": 3230,
      "ĠNinh": 3231,
      "ĠTruyá»ģn": 3232,
      "PH": 3233,
      "âī": 3234,
      "ĠÄĳá»įng": 3235,
      "Vá»ĭ": 3236,
      "ĠhoÃłnh": 3237,
      "amma": 3238,
      "ĠÂµg": 3239,
      "áº¤": 3240,
      "ĠcÆ°Æ¡ng": 3241,
      "Ġnáº¯ng": 3242,
      "Liá»ĩu": 3243,
      "ĠÄĳÃłn": 3244,
      "Ġdáº¡y": 3245,
      "TV": 3246,
      "Ġkáº¹p": 3247,
      "ĠchÃ¢u": 3248,
      "Ġphen": 3249,
      "ĠHDL": 3250,
      "Ġ103": 3251,
      "ĠSiÃªu": 3252,
      "ĠÃ¡o": 3253,
      "ĠThá»ĳng": 3254,
      "Ġtráº¯c": 3255,
      "ĠgiÃłu": 3256,
      "ĠtÆ°Æ¡i": 3257,
      "ĠDa": 3258,
      "Cháº¥t": 3259,
      "ĠHáº§u": 3260,
      "ĠÃĤ": 3261,
      "GA": 3262,
      "Ġláº»": 3263,
      "ĠsÃłn": 3264,
      "ĠmÃ²n": 3265,
      "Ġnháº§m": 3266,
      "Ġspp": 3267,
      "Vai": 3268,
      "Ġpg": 3269,
      "Ġ300": 3270,
      "andida": 3271,
      "ergic": 3272,
      "Kiá»ĥm": 3273,
      "Tiá»ģn": 3274,
      "NS": 3275,
      "ĠÄĲÃ´ng": 3276,
      "ore": 3277,
      "CoV": 3278,
      "ĠSXH": 3279,
      "NhÃ¢n": 3280,
      "osporin": 3281,
      "Ġtrao": 3282,
      "Ġngá»ĵi": 3283,
      "ameth": 3284,
      "IP": 3285,
      "UC": 3286,
      "ĠChÄĥm": 3287,
      "ĠGram": 3288,
      "Ġex": 3289,
      "iol": 3290,
      "ĠhÃ´ng": 3291,
      "edn": 3292,
      "AT": 3293,
      "ĠHiá»ĩp": 3294,
      "erm": 3295,
      "ĠES": 3296,
      "GFR": 3297,
      "ĠtuÃ½": 3298,
      "ĠMS": 3299,
      "Ġeo": 3300,
      "Ġhoa": 3301,
      "ĠTiÃªn": 3302,
      "onas": 3303,
      "ivacain": 3304,
      "ct": 3305,
      "ĠAL": 3306,
      "ĠTÃ¬nh": 3307,
      "Ġthá»ķi": 3308,
      "Ġsá»«ng": 3309,
      "iáº¿p": 3310,
      "Ġcalc": 3311,
      "ĠÄĳÃ¨": 3312,
      "ĠthÃ´n": 3313,
      "ĠKhi": 3314,
      "unt": 3315,
      "ĠÄĳÃ¡m": 3316,
      "ĠMá»©c": 3317,
      "ĠColle": 3318,
      "Ġbá»¯a": 3319,
      "PCR": 3320,
      "mann": 3321,
      "iáº¿ng": 3322,
      "ĠCollege": 3323,
      "ĠmÃ¹i": 3324,
      "Ġrun": 3325,
      "Ġglobulin": 3326,
      "rox": 3327,
      "amide": 3328,
      "ĠKhÃ¡m": 3329,
      "ĠLong": 3330,
      "Ġmáº«n": 3331,
      "comycin": 3332,
      "ĠVi": 3333,
      "Ġ2023": 3334,
      "erug": 3335,
      "erugin": 3336,
      "ĠCandida": 3337,
      "hoáº·c": 3338,
      "FA": 3339,
      "ost": 3340,
      "phi": 3341,
      "sin": 3342,
      "ĠkÃªnh": 3343,
      "ian": 3344,
      "Ġtrá»Ļi": 3345,
      "ĠCovid": 3346,
      "ĠHá»įc": 3347,
      "ĠÄĲiá»ĥm": 3348,
      "ĠStaphyloc": 3349,
      "Ġráº¡ch": 3350,
      "ĠSL": 3351,
      "ĠAB": 3352,
      "ĠWHO": 3353,
      "ĠHCM": 3354,
      "Ġ04": 3355,
      "PA": 3356,
      "mg": 3357,
      "Ġbuá»ķi": 3358,
      "ĠbÃ©": 3359,
      "Ġbiá»ĥn": 3360,
      "ord": 3361,
      "oprotein": 3362,
      "ĠÄĳá»Ŀ": 3363,
      "ĠgÃ¡i": 3364,
      "ĠVII": 3365,
      "Ġion": 3366,
      "ĠÄĳáº¥t": 3367,
      "ĠtrÃ²n": 3368,
      "ĠgiÃł": 3369,
      "ĠÆ°a": 3370,
      "ĠâĢĻ": 3371,
      "ococcus": 3372,
      "ĠQuáº£ng": 3373,
      "Ġmethyl": 3374,
      "ĠSARS": 3375,
      "OC": 3376,
      "ene": 3377,
      "lock": 3378,
      "ĠdÃ£n": 3379,
      "Ġhuá»ĳng": 3380,
      "EN": 3381,
      "rol": 3382,
      "ocar": 3383,
      "Ġthuyáº¿t": 3384,
      "Ġviá»ĩt": 3385,
      "ĠtrÄĥm": 3386,
      "ĠParkinson": 3387,
      "ĠcarcinÃ´m": 3388,
      "af": 3389,
      "Ġestrogen": 3390,
      "Ġtp": 3391,
      "imer": 3392,
      "Yáº¿u": 3393,
      "form": 3394,
      "Ġbenz": 3395,
      "ĠVP": 3396,
      "osid": 3397,
      "Ġtuyá»ĩt": 3398,
      "Ho": 3399,
      "ĠAnh": 3400,
      "áº¾T": 3401,
      "viÃªm": 3402,
      "ealth": 3403,
      "Ġcytokine": 3404,
      "eruginosa": 3405,
      "á»ĺ": 3406,
      "Ġbáº¯c": 3407,
      "Ġnhiá»ĩm": 3408,
      "ĠÎ±": 3409,
      "ĠthiÃªn": 3410,
      "Ġ400": 3411,
      "ĠGiáº£i": 3412,
      "Ġ'": 3413,
      "Ġbá»įng": 3414,
      "ĠNháº¥t": 3415,
      "ydr": 3416,
      "Ġ2008": 3417,
      "Ġbup": 3418,
      "Ġz": 3419,
      "ĠhÃłn": 3420,
      "ĠÄĲÃ¢y": 3421,
      "Ġbuá»Ļc": 3422,
      "iella": 3423,
      "Ġduá»Ĺi": 3424,
      "mol": 3425,
      "omonas": 3426,
      "Ġnháº¯t": 3427,
      "á»Ľt": 3428,
      "Ġnguyá»ĩn": 3429,
      "Ġ1000": 3430,
      "ĠÄĳá»©t": 3431,
      "ĠbÃ¹ng": 3432,
      "Ġsá»¹": 3433,
      "ĠLo": 3434,
      "orphy": 3435,
      "Ġkem": 3436,
      "ĠHCC": 3437,
      "Ġcreatinine": 3438,
      "AN": 3439,
      "sch": 3440,
      "ÄĲTÄĲ": 3441,
      "ĠRL": 3442,
      "ĠKá»¹": 3443,
      "ĠÄĳeo": 3444,
      "á»ĳm": 3445,
      "ĠkhoÃ¡ng": 3446,
      "ĠDi": 3447,
      "Ġthoáº£": 3448,
      "he": 3449,
      "Ġkháº©n": 3450,
      "Ġtá»ı": 3451,
      "VM": 3452,
      "tá»©c": 3453,
      "Ġrá»¥ng": 3454,
      "ĠDengue": 3455,
      "ĠtÃłn": 3456,
      "Ġtháº¥m": 3457,
      "Ġhist": 3458,
      "Ġgl": 3459,
      "elic": 3460,
      "ansfer": 3461,
      "ĠIgG": 3462,
      "Ġgene": 3463,
      "TiÃªn": 3464,
      "ner": 3465,
      "oro": 3466,
      "Ġáº¥m": 3467,
      "ĠÄĳá»¡": 3468,
      "Ġmon": 3469,
      "ĠChá»¥p": 3470,
      "Thay": 3471,
      "Ġthe": 3472,
      "ĠQua": 3473,
      "Ġcreatinin": 3474,
      "Ġvá»įng": 3475,
      "ĠTiáº¿n": 3476,
      "ĠâĢ¦": 3477,
      "ild": 3478,
      "ĠTPHCM": 3479,
      "ĠvÃ´i": 3480,
      "ĠbáºŃt": 3481,
      "ĠbÃ³c": 3482,
      "pirin": 3483,
      "EP": 3484,
      "rÃºt": 3485,
      "nhÃ³m": 3486,
      "Ġkhuy": 3487,
      "ĠCM": 3488,
      "och": 3489,
      "ĠtrÄ©": 3490,
      "ÄĲÆ°á»Ŀng": 3491,
      "KTC": 3492,
      "ĠVá»Ľi": 3493,
      "Ġháº¯c": 3494,
      "Ġbáº¿": 3495,
      "Ġprop": 3496,
      "âĢľ": 3497,
      "ĠnoÃ£n": 3498,
      "sAg": 3499,
      "Ġngáº¡i": 3500,
      "Ġviáº¿t": 3501,
      "ace": 3502,
      "ĠÎ¼": 3503,
      "PSS": 3504,
      "Ġis": 3505,
      "Ġcl": 3506,
      "ĠkÃ¬": 3507,
      "ĠHoÃ¡": 3508,
      "NÃªn": 3509,
      "ĠvÃ©t": 3510,
      "ĠtrÆ¡n": 3511,
      "ĠnháºŃt": 3512,
      "ĠCP": 3513,
      "ĠSáº£n": 3514,
      "illus": 3515,
      "má»Ļt": 3516,
      "ĠTC": 3517,
      "ĠNA": 3518,
      "Ġháº§m": 3519,
      "odg": 3520,
      "BÆ°á»Ľc": 3521,
      "OT": 3522,
      "lebs": 3523,
      "ĠÄĳá»Ŀm": 3524,
      "DA": 3525,
      "do": 3526,
      "Æ°á»Ľm": 3527,
      "ophil": 3528,
      "Ãģp": 3529,
      "Cáº£": 3530,
      "seud": 3531,
      "ephalosporin": 3532,
      "ĠbÆ°á»Ľm": 3533,
      "Ġglyc": 3534,
      "ĠCK": 3535,
      "á»¨ng": 3536,
      "our": 3537,
      "Ġmiáº¿ng": 3538,
      "entanyl": 3539,
      "Ġmag": 3540,
      "ĠPhD": 3541,
      "CTH": 3542,
      "proBNP": 3543,
      "ĠÄĳá»Ľi": 3544,
      "ĠphiÃªn": 3545,
      "ĠPa": 3546,
      "ĠPhÃº": 3547,
      "áº¢nh": 3548,
      "min": 3549,
      "ĠPTNS": 3550,
      "elicobacter": 3551,
      "VA": 3552,
      "Æł": 3553,
      "Ġ(âī": 3554,
      "CRP": 3555,
      "amp": 3556,
      "Ġox": 3557,
      "Ġcá»ĵn": 3558,
      "Ġdá»«ng": 3559,
      "arr": 3560,
      "DT": 3561,
      "ie": 3562,
      "Ġ07": 3563,
      "ilic": 3564,
      "á»¨U": 3565,
      "lebsiella": 3566,
      "ES": 3567,
      "ospital": 3568,
      "TÆ°Æ¡ng": 3569,
      "Ġláº·n": 3570,
      "ĠngÆ¡i": 3571,
      "LS": 3572,
      "mon": 3573,
      "ĠbÃ´ng": 3574,
      "Ġsh": 3575,
      "RNA": 3576,
      "Ġmorph": 3577,
      "Ġcá»§ng": 3578,
      "ona": 3579,
      "ĠAc": 3580,
      "Ġtá»¥t": 3581,
      "ĠthÆ¡": 3582,
      "Ġsáº¯p": 3583,
      "acet": 3584,
      "ĠCHT": 3585,
      "HIÃĬN": 3586,
      "Ġ2005": 3587,
      "ĠÄĳá»ķ": 3588,
      "ĠkhuyÃªn": 3589,
      "Ġinter": 3590,
      "ĠÃĤu": 3591,
      "ĠÄĲÃ¡i": 3592,
      "Cáº¯t": 3593,
      "alis": 3594,
      "LÆ°á»£ng": 3595,
      "áº¿c": 3596,
      "ĠchÃ¨": 3597,
      "á»Ľn": 3598,
      "ĠKiáº¿n": 3599,
      "Ġvitro": 3600,
      "oin": 3601,
      "Ġcáº©n": 3602,
      "ĠNB": 3603,
      "Hai": 3604,
      "Ġtáº¥n": 3605,
      "lam": 3606,
      "ĠCá»¨U": 3607,
      "ĠRÄĥng": 3608,
      "Ġlá»Ĺi": 3609,
      "Æ¡ng": 3610,
      "á»Ĭ": 3611,
      "Ġbia": 3612,
      "ĠStaphylococcus": 3613,
      "ĠTÃ¢m": 3614,
      "ĠHospital": 3615,
      "Ġfib": 3616,
      "Ġtestosterone": 3617,
      "Ġtá»©": 3618,
      "Ġbáº«y": 3619,
      "Ã£nh": 3620,
      "oxin": 3621,
      "ensin": 3622,
      "Ġnuc": 3623,
      "ĠÄĲIá»": 3624,
      "Ġcá»¥t": 3625,
      "ines": 3626,
      "Ġ250": 3627,
      "iaz": 3628,
      "Ngh": 3629,
      "Ġdá»Ļi": 3630,
      "SC": 3631,
      "Ġtrá»ħ": 3632,
      "SV": 3633,
      "Ġáº£o": 3634,
      "ÄĲT": 3635,
      "ĠHealth": 3636,
      "str": 3637,
      "Ġnáº¿p": 3638,
      "ĠÄĳay": 3639,
      "Ġherpes": 3640,
      "Ãµm": 3641,
      "Ġphosphat": 3642,
      "vá»Ľi": 3643,
      "ĠÄĳá»©a": 3644,
      "ĠmÃ¡c": 3645,
      "ĠLiá»ĩu": 3646,
      "Ġcam": 3647,
      "Ġpenicillin": 3648,
      "Ġcá»Ń": 3649,
      "ĠchÃ¡n": 3650,
      "Ġ08": 3651,
      "isone": 3652,
      "ĠÄĳá»ĵi": 3653,
      "BÃªn": 3654,
      "pr": 3655,
      "ĠTá»ķ": 3656,
      "Ġdop": 3657,
      "HÆ¡n": 3658,
      "Vi": 3659,
      "ĠÆ¯": 3660,
      "ĠvÃŃt": 3661,
      "ĠVÃĢ": 3662,
      "BS": 3663,
      "Ġclo": 3664,
      "ĠdÃ¡n": 3665,
      "Ġ(-": 3666,
      "ĠPro": 3667,
      "OP": 3668,
      "ker": 3669,
      "ĠÃ´ng": 3670,
      "Ġdex": 3671,
      "ĠCáº¥p": 3672,
      "onazole": 3673,
      "ĠTai": 3674,
      "inase": 3675,
      "ThÆ°á»Ŀng": 3676,
      "2005": 3677,
      "ĠcÅ©": 3678,
      "Ġcháº¥m": 3679,
      "phrine": 3680,
      "Ġ2006": 3681,
      "LD": 3682,
      "Ná»Ļi": 3683,
      "Ġeth": 3684,
      "Ã´c": 3685,
      "chol": 3686,
      "Ġxáº¹p": 3687,
      "ĠNa": 3688,
      "ĠChild": 3689,
      "ĠÃ³i": 3690,
      "ary": 3691,
      "Ġthoáº£ng": 3692,
      "ano": 3693,
      "ĠSD": 3694,
      "ick": 3695,
      "NhÆ°": 3696,
      "ux": 3697,
      "Ġbá»ĳn": 3698,
      "Ġlog": 3699,
      "ĠÄĲÆ°á»Ŀng": 3700,
      "TrÆ°á»Ľc": 3701,
      "ish": 3702,
      "Ġ2007": 3703,
      "ery": 3704,
      "TNMT": 3705,
      "ĠlÃŃ": 3706,
      "Ġmy": 3707,
      "khoáº£ng": 3708,
      "izumab": 3709,
      "á»Ĩ": 3710,
      "Ġser": 3711,
      "ĠBÃ¡o": 3712,
      "ĠTÃ¡c": 3713,
      "ĠHLA": 3714,
      "KhÃ¡ng": 3715,
      "MR": 3716,
      "Ġgel": 3717,
      "Ġanti": 3718,
      "LCS": 3719,
      "ithromycin": 3720,
      "ĠÄĳáº³ng": 3721,
      "ĠtháºŃt": 3722,
      "ĠMR": 3723,
      "PhÃ²ng": 3724,
      "Ġ2000": 3725,
      "Æ¯á»": 3726,
      "áºł": 3727,
      "Ġbá»Ļc": 3728,
      "2006": 3729,
      "ACE": 3730,
      "Ġnáº¡": 3731,
      "Ġdoanh": 3732,
      "ĠKlebsiella": 3733,
      "ĠIC": 3734,
      "ĠGÃ£y": 3735,
      "ĠÃĹ": 3736,
      "ĠlÆ°á»Ŀng": 3737,
      "Ġbá»Ľt": 3738,
      "ĠÄĲá»ĥ": 3739,
      "ĠMar": 3740,
      "Ġhuáº¿": 3741,
      "oph": 3742,
      "Ġblock": 3743,
      "idoc": 3744,
      "ĠDá»ĭch": 3745,
      "ĠGiÃ¡": 3746,
      "ĠHoÃł": 3747,
      "ĠNghá»ĩ": 3748,
      "etobacter": 3749,
      "ĠUTB": 3750,
      "Ġfluor": 3751,
      "odgkin": 3752,
      "lactam": 3753,
      "Ġváº¹o": 3754,
      "ĠchÃŃch": 3755,
      "aumann": 3756,
      "0001": 3757,
      "DG": 3758,
      "ĠtÃłu": 3759,
      "itamin": 3760,
      "Bá»Łi": 3761,
      "ler": 3762,
      "Ġbá»ģn": 3763,
      "Ġgáº¡c": 3764,
      "PR": 3765,
      "ĠKS": 3766,
      "TÃ¬m": 3767,
      "ĠbÃ¨": 3768,
      "ĠgÃł": 3769,
      "ĠAd": 3770,
      "Ġhemoglobin": 3771,
      "BÃłi": 3772,
      "Ġnháº«n": 3773,
      "ortisol": 3774,
      "Giai": 3775,
      "ritin": 3776,
      "ÄĲo": 3777,
      "orn": 3778,
      "NB": 3779,
      "US": 3780,
      "Ġtráº¡m": 3781,
      "Ġnhá»ķ": 3782,
      "ophen": 3783,
      "Ġcá»ĳi": 3784,
      "Ġnhá»ĩn": 3785,
      "Ã¹m": 3786,
      "arm": 3787,
      "ome": 3788,
      "lut": 3789,
      "ĠHBsAg": 3790,
      "Giá»Ľi": 3791,
      "gow": 3792,
      "ylo": 3793,
      "ĠTháºŃn": 3794,
      "EA": 3795,
      "Ġchá»Ŀ": 3796,
      "Ġaeruginosa": 3797,
      "ĠIgA": 3798,
      "rel": 3799,
      "PhÃ¡t": 3800,
      "ĠQUáº¢": 3801,
      "NC": 3802,
      "flu": 3803,
      "Ġï": 3804,
      "ĠkhÃ¨": 3805,
      "Ġquai": 3806,
      "ĠHodgkin": 3807,
      "Ġsáº£ng": 3808,
      "Ġdl": 3809,
      "ĠCÃ¡ch": 3810,
      "Ġaz": 3811,
      "ĠARV": 3812,
      "ĠESBL": 3813,
      "Ġsilic": 3814,
      "Ġgamma": 3815,
      "Ġ09": 3816,
      "Ġami": 3817,
      "Ġkhuynh": 3818,
      "Ã´cÃ´m": 3819,
      "KI": 3820,
      "Ġtiá»ĩt": 3821,
      "Ġliá»ħu": 3822,
      "ĠTG": 3823,
      "ĠTSH": 3824,
      "otrex": 3825,
      "iotensin": 3826,
      "iss": 3827,
      "FS": 3828,
      "ĠcÃ£i": 3829,
      "ĠlÃ¡i": 3830,
      "Ġure": 3831,
      "epinephrine": 3832,
      "Há»į": 3833,
      "LP": 3834,
      "cÃ¡c": 3835,
      "ĠkÄ©": 3836,
      "olate": 3837,
      "Trung": 3838,
      "ĠbÃ¬u": 3839,
      "ĠrÃło": 3840,
      "ĠNH": 3841,
      "Ġur": 3842,
      "idin": 3843,
      "BC": 3844,
      "Ġphosphate": 3845,
      "EV": 3846,
      "ial": 3847,
      "Ġá»ĳc": 3848,
      "ĠPR": 3849,
      "Ġap": 3850,
      "ĠmÃ´ng": 3851,
      "Ġmá»įc": 3852,
      "CÃ¡ch": 3853,
      "eparin": 3854,
      "Giáº£i": 3855,
      "orticosteroid": 3856,
      "ivacaine": 3857,
      "áº¬N": 3858,
      "BG": 3859,
      "erritin": 3860,
      "ĠXH": 3861,
      "Ġvirut": 3862,
      "Ġcorticoid": 3863,
      "Qua": 3864,
      "aumannii": 3865,
      "VYT": 3866,
      "Ġbáº¡o": 3867,
      "uyá»ĥn": 3868,
      "Ġgiáº£ng": 3869,
      "Iá»Ĩ": 3870,
      "ĠthÃ¡c": 3871,
      "ĠquÃ¡t": 3872,
      "Äĳá»Ļ": 3873,
      "Ġcáº¡m": 3874,
      "Ġmá»ĳc": 3875,
      "Báº¥t": 3876,
      "CÃ´ng": 3877,
      "EM": 3878,
      "Ġscan": 3879,
      "ĠdÃ£y": 3880,
      "ĠPr": 3881,
      "omas": 3882,
      "Loáº¡i": 3883,
      "TG": 3884,
      "lasgow": 3885,
      "ĠvÃ²i": 3886,
      "ĠNC": 3887,
      "AR": 3888,
      "ĠSPSS": 3889,
      "lasma": 3890,
      "Ġshunt": 3891,
      "ester": 3892,
      "ĠSá»ĳt": 3893,
      "leo": 3894,
      "uá»ĳi": 3895,
      "ĠkhÃ²": 3896,
      "Ġ115": 3897,
      "ÄĳÆ°á»£c": 3898,
      "lamyd": 3899,
      "ĠphÆ°á»Ŀng": 3900,
      "ĠTI": 3901,
      "Ġpoly": 3902,
      "ĠTNF": 3903,
      "ohn": 3904,
      "rac": 3905,
      "Ġcháº¡m": 3906,
      "ĠNSAID": 3907,
      "ĠECG": 3908,
      "ĠHÃłm": 3909,
      "ĠSO": 3910,
      "ĠEGFR": 3911,
      "gin": 3912,
      "ĠphÃ³": 3913,
      "ĠHg": 3914,
      "ive": 3915,
      "Ġgiá»įng": 3916,
      "Ġfibrin": 3917,
      "otrexate": 3918,
      "oth": 3919,
      "ĠlÃµm": 3920,
      "amycin": 3921,
      "ĠÄĲáº·t": 3922,
      "ĠCháº¥t": 3923,
      "Ġvancomycin": 3924,
      "HC": 3925,
      "ĠlÃº": 3926,
      "Ġngá»Ńa": 3927,
      "Ġsá»Łi": 3928,
      "Ġdáº£i": 3929,
      "ĠrÃ¡c": 3930,
      "Ġquyá»ģn": 3931,
      "Ġcarbapenem": 3932,
      "ĠTTT": 3933,
      "á»¦": 3934,
      "ĠmÃło": 3935,
      "ĠTháº§n": 3936,
      "ĠRLC": 3937,
      "2004": 3938,
      "áºµng": 3939,
      "Ġaspirin": 3940,
      "EF": 3941,
      "ĠÄĳem": 3942,
      "ĠRNA": 3943,
      "otype": 3944,
      "SI": 3945,
      "cal": 3946,
      "mer": 3947,
      "Ġlá»ĵ": 3948,
      "ĠVÆ°Æ¡ng": 3949,
      "ĠALT": 3950,
      "á»Ĺng": 3951,
      "ite": 3952,
      "cinetobacter": 3953,
      "BP": 3954,
      "ĠÄĳá»įc": 3955,
      "ata": 3956,
      "ett": 3957,
      "á»ĭt": 3958,
      "ĠHem": 3959,
      "ua": 3960,
      "áº¶": 3961,
      "Ġváº»": 3962,
      "ĠnhÃłng": 3963,
      "Ġnhai": 3964,
      "áº¯k": 3965,
      "ĠTrÆ°á»Ľc": 3966,
      "hing": 3967,
      "Ġkhá»ķng": 3968,
      "ĠTÃ¬m": 3969,
      "ĠÄĲÃł": 3970,
      "Thá»ĥ": 3971,
      "ĠROC": 3972,
      "ult": 3973,
      "Ngá»įc": 3974,
      "ring": 3975,
      "essin": 3976,
      "Ġláº½": 3977,
      "Ġrá»Ŀi": 3978,
      "Ġngháº¹t": 3979,
      "ÄĲá»ĵng": 3980,
      "XÃ¢y": 3981,
      "ood": 3982,
      "á»Ķ": 3983,
      "ĠBH": 3984,
      "elin": 3985,
      "ern": 3986,
      "ĠThay": 3987,
      "stein": 3988,
      "ĠAFP": 3989,
      "gen": 3990,
      "Ġtrá»Ŀi": 3991,
      "ĠStrept": 3992,
      "KT": 3993,
      "ĠquÃ¢n": 3994,
      "ĠBiáº¿n": 3995,
      "angiotensin": 3996,
      "ĠluáºŃt": 3997,
      "Phá»¥": 3998,
      "amethas": 3999,
      "oli": 4000,
      "Ġ2003": 4001,
      "Ġexon": 4002,
      "Ġsá»ķ": 4003,
      "Ġdengue": 4004,
      "Ġro": 4005,
      "alin": 4006,
      "ĠGiá»": 4007,
      "Ġná»Ł": 4008,
      "ĠLoáº¡i": 4009,
      "imab": 4010,
      "ĠER": 4011,
      "BÃ¡o": 4012,
      "NM": 4013,
      "ĠgÃ³t": 4014,
      "ĠNI": 4015,
      "ĠPSA": 4016,
      "ĠWil": 4017,
      "ĠÆ°á»Ľ": 4018,
      "Ġbáº¿p": 4019,
      "Ġtrocar": 4020,
      "Hiáº¿m": 4021,
      "Táº§n": 4022,
      "seudomonas": 4023,
      "Ġhá»ķng": 4024,
      "Ġchlor": 4025,
      "ĠnghÃ¨o": 4026,
      "ĠHT": 4027,
      "TTP": 4028,
      "Lo": 4029,
      "ear": 4030,
      "Ġcortisol": 4031,
      "ĠMáº·c": 4032,
      "Ġsoáº¡n": 4033,
      "Ġsuyá»ħn": 4034,
      "Ġhá»Ļp": 4035,
      "LISA": 4036,
      "Ġethanol": 4037,
      "Ġalb": 4038,
      "iÃª": 4039,
      "ĠSV": 4040,
      "ĠGÃ¢y": 4041,
      "Ġpolym": 4042,
      "opressin": 4043,
      "lamydia": 4044,
      "AL": 4045,
      "HT": 4046,
      "IG": 4047,
      "ĠDD": 4048,
      "ĠYÃªn": 4049,
      "VP": 4050,
      "Ġgh": 4051,
      "ĠSÆ¡n": 4052,
      "Ġuá»ĳn": 4053,
      "Ġcuá»ĳn": 4054,
      "ĠkhÃ³i": 4055,
      "TÃŃnh": 4056,
      "Ġphá»ĵng": 4057,
      "Ġtriglycerid": 4058,
      "ĠBPTNMT": 4059,
      "Ġnháº¡t": 4060,
      "ĠTáº¡i": 4061,
      "ĠBiá»ĥu": 4062,
      "ÄĲá»ģ": 4063,
      "Cho": 4064,
      "ĠkhuÃ´n": 4065,
      "hydro": 4066,
      "ĠÄĳuÃ´i": 4067,
      "trÆ°á»Ľc": 4068,
      "Ġ2004": 4069,
      "last": 4070,
      "obot": 4071,
      "ĠAr": 4072,
      "Ġmuá»Ĺi": 4073,
      "ASI": 4074,
      "ĠgÃºt": 4075,
      "anc": 4076,
      "eton": 4077,
      "ach": 4078,
      "ĠÄĳÃ¨n": 4079,
      "Ġthan": 4080,
      "ĠHá»ĵng": 4081,
      "Ġcholin": 4082,
      "ĠEnter": 4083,
      "Ġ(âī¥": 4084,
      "Chi": 4085,
      "ĤM": 4086,
      "Ġtáº¥m": 4087,
      "ĠCo": 4088,
      "ĠClin": 4089,
      "ĠHelicobacter": 4090,
      "amol": 4091,
      "ĠNhiá»ģu": 4092,
      "Ġpredn": 4093,
      "Ġnhá»ĭ": 4094,
      "ĠmÃ³c": 4095,
      "ĠMáº·t": 4096,
      "ĠVÄĥn": 4097,
      "ĠUT": 4098,
      "omp": 4099,
      "ml": 4100,
      "ĠLe": 4101,
      "Ġnháº¯m": 4102,
      "ĠTuy": 4103,
      "idase": 4104,
      "lot": 4105,
      "aceae": 4106,
      "Há»ĩ": 4107,
      "ĠÄĳÃłi": 4108,
      "Ġve": 4109,
      "ĠvÃ¢n": 4110,
      "ĠtrÆ°á»£t": 4111,
      "ĠgáºŃp": 4112,
      "ĠNew": 4113,
      "ĠBÆ°á»Ľu": 4114,
      "olip": 4115,
      "ĠAcinetobacter": 4116,
      "IS": 4117,
      "Sá»ĳt": 4118,
      "emphi": 4119,
      "ÆłNG": 4120,
      "Can": 4121,
      "Î±": 4122,
      "Ġtet": 4123,
      "ĠtrÃł": 4124,
      "ĠCLCS": 4125,
      "ĠBr": 4126,
      "ĠLÃ¢m": 4127,
      "ĠNgá»įc": 4128,
      "ĠÆ¯Æ¡ng": 4129,
      "á»ĨNH": 4130,
      "ĠbÃŃ": 4131,
      "Ġhoang": 4132,
      "ĠVá»ĭ": 4133,
      "ĠChi": 4134,
      "Ġmua": 4135,
      "DH": 4136,
      "Dá»ĭch": 4137,
      "emphig": 4138,
      "Dáº¥u": 4139,
      "fen": 4140,
      "hex": 4141,
      "ment": 4142,
      "time": 4143,
      "Ġbaumannii": 4144,
      "ĠCá»¦": 4145,
      "ĠBus": 4146,
      "NhÆ°ng": 4147,
      "Ġant": 4148,
      "Ġfentanyl": 4149,
      "Ġcholinergic": 4150,
      "ĠÄĲo": 4151,
      "ile": 4152,
      "ĠCá»¦A": 4153,
      "ĠbÃŃt": 4154,
      "ĠmÃ¡i": 4155,
      "Ġtá»ĳn": 4156,
      "ĠGlasgow": 4157,
      "eryth": 4158,
      "Eq": 4159,
      "FR": 4160,
      "line": 4161,
      "ĠbÃ²": 4162,
      "ĠnÃºi": 4163,
      "Ġnáº¯m": 4164,
      "ork": 4165,
      "ocyst": 4166,
      "Nam": 4167,
      "tÄĥng": 4168,
      "ĠquÃ£ng": 4169,
      "ĠVN": 4170,
      "ĠIm": 4171,
      "sau": 4172,
      "Ġar": 4173,
      "ĠCÃ¢n": 4174,
      "ĠkhÃŃa": 4175,
      "ylase": 4176,
      "táº¡i": 4177,
      "Ġlinh": 4178,
      "ĠmEq": 4179,
      "ĠBá»ĨNH": 4180,
      "ĠACE": 4181,
      "trung": 4182,
      "uron": 4183,
      "Ġmel": 4184,
      "ock": 4185,
      "Báº±ng": 4186,
      "ĠmÃły": 4187,
      "ĠCY": 4188,
      "CÄĲ": 4189,
      "ĠmÃłn": 4190,
      "ĠchÆ°á»Ľng": 4191,
      "Ġná»Ĺ": 4192,
      "Ġru": 4193,
      "ĠCB": 4194,
      "ari": 4195,
      "ML": 4196,
      "ĠÄĳáº¡m": 4197,
      "Ġvá»£": 4198,
      "ĠtrÃŃch": 4199,
      "á»§i": 4200,
      "ofol": 4201,
      "ĠÄĳá»£i": 4202,
      "Ġlidoc": 4203,
      "Ġbang": 4204,
      "ĠCef": 4205,
      "ĠMT": 4206,
      "Ġ|": 4207,
      "Ġtháº§y": 4208,
      "ĠbÃ£": 4209,
      "ĠkÃ©p": 4210,
      "ĠHiá»ĩu": 4211,
      "ĠDá»ĭ": 4212,
      "ĠKim": 4213,
      "Kháº£": 4214,
      "ĠNKH": 4215,
      "Tiáº¿n": 4216,
      "cr": 4217,
      "ĠgÃ³i": 4218,
      "ĠNS": 4219,
      "ĠSS": 4220,
      "ĠÄĳoÃłn": 4221,
      "Huyáº¿t": 4222,
      "NP": 4223,
      "per": 4224,
      "Ġeryth": 4225,
      "Ġviá»ģn": 4226,
      "Ġnano": 4227,
      "ÄĲá»ĭnh": 4228,
      "ĠHER": 4229,
      "Ġdox": 4230,
      "istic": 4231,
      "yloid": 4232,
      "GT": 4233,
      "KTM": 4234,
      "cine": 4235,
      "Ġvu": 4236,
      "ĠdáºŃp": 4237,
      "ĠCal": 4238,
      "NgÆ°á»£c": 4239,
      "ford": 4240,
      "Ġangiotensin": 4241,
      "Ġváº¹n": 4242,
      "Ġchá»¯": 4243,
      "ĠIgM": 4244,
      "Ġhuyá»ĩt": 4245,
      "ĠSciences": 4246,
      "BMI": 4247,
      "GS": 4248,
      "Ġcephalosporin": 4249,
      "Ġper": 4250,
      "ann": 4251,
      "ĠKH": 4252,
      "ĠTri": 4253,
      "istin": 4254,
      "PECT": 4255,
      "PI": 4256,
      "Ġngáº£": 4257,
      "ĠSá»©c": 4258,
      "ĠSal": 4259,
      "ĠAST": 4260,
      "Ġ110": 4261,
      "eptide": 4262,
      "ĠÄĳÃ¡": 4263,
      "Ġráº£i": 4264,
      "ĠmÃ¡t": 4265,
      "theo": 4266,
      "á»Ĳng": 4267,
      "HS": 4268,
      "ĠThang": 4269,
      "ansferase": 4270,
      "Ġtáº©y": 4271,
      "Ġheparin": 4272,
      "Ġná»įc": 4273,
      "ĠPseudomonas": 4274,
      "ica": 4275,
      "Ġald": 4276,
      "DNA": 4277,
      "Ġbá»į": 4278,
      "ĠchÃ¹m": 4279,
      "ĠphÃª": 4280,
      "ĠCao": 4281,
      "ĠBan": 4282,
      "erich": 4283,
      "ĠTháº¿": 4284,
      "ale": 4285,
      "ĠÃģp": 4286,
      "TÆ°": 4287,
      "Ġthuyá»ģn": 4288,
      "Ġdá»©t": 4289,
      "ĠCar": 4290,
      "ĠÄĲD": 4291,
      "ABP": 4292,
      "amethasone": 4293,
      "ĠtrÃ¡ch": 4294,
      "Ġsáº©n": 4295,
      "ĠGl": 4296,
      "Ġxi": 4297,
      "ĠIgE": 4298,
      "ĠBHYT": 4299,
      "Cl": 4300,
      "YHA": 4301,
      "Ġdel": 4302,
      "ĠKhÃ¡ng": 4303,
      "rombin": 4304,
      "Ġet": 4305,
      "ĠxoÃ¡": 4306,
      "ĠÄĳÃłm": 4307,
      "ĠÄĳáºŃm": 4308,
      "ĠláºŃu": 4309,
      "Ġná»©t": 4310,
      "ĠTp": 4311,
      "ĠNáºµng": 4312,
      "ĠMáº¥t": 4313,
      "Ġflav": 4314,
      "Ġphospho": 4315,
      "ĠmcL": 4316,
      "ĠKinh": 4317,
      "ChÄĥm": 4318,
      "ĠâĢĿ.": 4319,
      "Ġaden": 4320,
      "HD": 4321,
      "Ġxá»ĭt": 4322,
      "old": 4323,
      "icot": 4324,
      "ĠSXHD": 4325,
      "ĠmagiÃª": 4326,
      "uÃ¢n": 4327,
      "ĠIU": 4328,
      "Ġká»µ": 4329,
      "actin": 4330,
      "orticoid": 4331,
      "erichia": 4332,
      "eu": 4333,
      "Ġiá»": 4334,
      "ĠCon": 4335,
      "ĠMáº¯t": 4336,
      "onat": 4337,
      "Chiá»ģu": 4338,
      "HCT": 4339,
      "VC": 4340,
      "ix": 4341,
      "ure": 4342,
      "Ġkháº¯c": 4343,
      "Ġngáº¥t": 4344,
      "Ġlui": 4345,
      "iprof": 4346,
      "2002": 4347,
      "oglyc": 4348,
      "Ġthoáº£i": 4349,
      "Ġcyclo": 4350,
      "ĠnÃ¢u": 4351,
      "ĠSGA": 4352,
      "ĠVir": 4353,
      "ĠAUC": 4354,
      "igma": 4355,
      "Máº«u": 4356,
      "Ġque": 4357,
      "ĠNVYT": 4358,
      "lasm": 4359,
      "QuÃ¡": 4360,
      "ĠglÃ´cÃ´m": 4361,
      "oi": 4362,
      "ĠTÆ°": 4363,
      "á»£n": 4364,
      "MRI": 4365,
      "ĠÄĳáºŃp": 4366,
      "Ġhy": 4367,
      "quinol": 4368,
      "ĠLiÃªn": 4369,
      "Ġkiá»ĩt": 4370,
      "ĠmÃŃ": 4371,
      "ĠmÅ©": 4372,
      "ĠSh": 4373,
      "ĠDÅ©": 4374,
      "oxide": 4375,
      "ydrate": 4376,
      "Ġserot": 4377,
      "OH": 4378,
      "Ġtáº¯m": 4379,
      "anth": 4380,
      "ĠPD": 4381,
      "ĠDo": 4382,
      "Ġferritin": 4383,
      "Æ¯ÆłNG": 4384,
      "MB": 4385,
      "ĠtrÆ°á»Ľng": 4386,
      "erase": 4387,
      "idan": 4388,
      "Thang": 4389,
      "ĠPháº¡m": 4390,
      "Ġ180": 4391,
      "app": 4392,
      "Ġháº±ng": 4393,
      "Ġmáº¡i": 4394,
      "ĠBáº£n": 4395,
      "ĠHá»ĩ": 4396,
      "ĠLÃ£o": 4397,
      "asopressin": 4398,
      "ĠQT": 4399,
      "Ġtriglyceride": 4400,
      "formin": 4401,
      "Má»Ĺi": 4402,
      "ĠTáºŃp": 4403,
      "ĠTiÃªm": 4404,
      "ĠMÅ©i": 4405,
      "ĠASA": 4406,
      "iax": 4407,
      "Háº¡": 4408,
      "ĠngÃ¢n": 4409,
      "adone": 4410,
      "Ġandrogen": 4411,
      "Ġepinephrine": 4412,
      "ĳt": 4413,
      "Ġthá»ī": 4414,
      "Ġluá»¹": 4415,
      "ular": 4416,
      "age": 4417,
      "ĠÄĲMC": 4418,
      "Ġcyst": 4419,
      "Ġliá»ģm": 4420,
      "Ġbá»įc": 4421,
      "Ġphiáº¿u": 4422,
      "ĠHÆ°á»Ľng": 4423,
      "ĠVinh": 4424,
      "imp": 4425,
      "ĠEp": 4426,
      "ĠGiai": 4427,
      "feron": 4428,
      "Ġlactate": 4429,
      "Ġj": 4430,
      "itonin": 4431,
      "ĠYáº¿u": 4432,
      "ĠJohn": 4433,
      "max": 4434,
      "Hoáº¡t": 4435,
      "Ġsá»¥t": 4436,
      "ĠNhiá»ĩt": 4437,
      "triax": 4438,
      "but": 4439,
      "oter": 4440,
      "ĠlÆ¡": 4441,
      "Ġniá»ĩm": 4442,
      "Ġngáº¯t": 4443,
      "enn": 4444,
      "rot": 4445,
      "aw": 4446,
      "Ġchá»ım": 4447,
      "ĠNST": 4448,
      "ĠThá»Ń": 4449,
      "ĠXÃ¢y": 4450,
      "ĠEsch": 4451,
      "ĠELISA": 4452,
      "core": 4453,
      "eAg": 4454,
      "land": 4455,
      "Ġkinase": 4456,
      "Ġmar": 4457,
      "Ġcháº£i": 4458,
      "ise": 4459,
      "ĠUTT": 4460,
      "plant": 4461,
      "âĢĵ": 4462,
      "ubella": 4463,
      "olesterol": 4464,
      "ei": 4465,
      "uáºŃn": 4466,
      "ľĵ": 4467,
      "Ġlá»£n": 4468,
      "ĠmÃ©p": 4469,
      "ĠVA": 4470,
      "olin": 4471,
      "Ġâľĵ": 4472,
      "ition": 4473,
      "evof": 4474,
      "ĠÆ°á»Ľt": 4475,
      "NÄĥm": 4476,
      "Ġtrá»ĵng": 4477,
      "Dá»¯": 4478,
      "UT": 4479,
      "2003": 4480,
      "ĠScience": 4481,
      "DÃ¹ng": 4482,
      "FN": 4483,
      "ĠnÆ°á»Ľu": 4484,
      "ĠngÅ©": 4485,
      "Ġngáº¥m": 4486,
      "Ġgiáº¥y": 4487,
      "ical": 4488,
      "odiaz": 4489,
      "Ġruá»ĵi": 4490,
      "ĠKÃŃch": 4491,
      "ĠCháº£y": 4492,
      "ĠGu": 4493,
      "ycycline": 4494,
      "Ġgiá»įt": 4495,
      "Ġthá»īnh": 4496,
      "CÃ¢n": 4497,
      "net": 4498,
      "Ġbá»ĵ": 4499,
      "Ġkhiá»ĥn": 4500,
      "ipenem": 4501,
      "Ġiá»ĳt": 4502,
      "ĠtÃ¬": 4503,
      "Ġkhá»©": 4504,
      "ĠNKQ": 4505,
      "Ġhuynh": 4506,
      "iprofloxacin": 4507,
      "Ġbay": 4508,
      "Ġchá»©": 4509,
      "ĠdÃ¡ng": 4510,
      "ane": 4511,
      "onate": 4512,
      "idazole": 4513,
      "rane": 4514,
      "Ġfluoro": 4515,
      "Ġháº¹n": 4516,
      "ĠTÃ¢n": 4517,
      "onoid": 4518,
      "ĠPTH": 4519,
      "ĠThá»«a": 4520,
      "lucose": 4521,
      "Ġhydroxy": 4522,
      "Ġvaccine": 4523,
      "Ġmorphin": 4524,
      "Xá»Ń": 4525,
      "ĠcÃ³c": 4526,
      "ĠNYHA": 4527,
      "him": 4528,
      "ĠHCCH": 4529,
      "HE": 4530,
      "Tá»Ń": 4531,
      "ĠcÃł": 4532,
      "Ġlam": 4533,
      "Ġháº£i": 4534,
      "Ġbv": 4535,
      "ĠAp": 4536,
      "LE": 4537,
      "damycin": 4538,
      "ech": 4539,
      "ÃĶ": 4540,
      "Ġpyr": 4541,
      "etamine": 4542,
      "Ġ2002": 4543,
      "CMO": 4544,
      "ngh": 4545,
      "ĠlÃ¢n": 4546,
      "ĠchÆ¡i": 4547,
      "ĠÄĲá»Ļt": 4548,
      "Pháº£n": 4549,
      "oside": 4550,
      "ĠNIH": 4551,
      "sen": 4552,
      "ĠÄĳÃ¢m": 4553,
      "ĠBáº¥t": 4554,
      "ĠHiá»ĩn": 4555,
      "ont": 4556,
      "ĠSa": 4557,
      "Ġ140": 4558,
      "ohydrate": 4559,
      "AA": 4560,
      "NR": 4561,
      "lat": 4562,
      "Ã¬a": 4563,
      "ald": 4564,
      "ĠTrÃł": 4565,
      "ChÆ°a": 4566,
      "Thu": 4567,
      "NhÃ¬n": 4568,
      "Ġporphy": 4569,
      "Ġnucleo": 4570,
      "LN": 4571,
      "náº¿u": 4572,
      "perg": 4573,
      "Ġmay": 4574,
      "Ġrá»ī": 4575,
      "á»±ng": 4576,
      "ĠThomas": 4577,
      "aminophen": 4578,
      "uct": 4579,
      "ĠCYP": 4580,
      "Ġserotonin": 4581,
      "Ġcá»Ŀ": 4582,
      "ĠchÃ³": 4583,
      "ĠquÃ½": 4584,
      "iclo": 4585,
      "Nhu": 4586,
      "ĠNháºŃt": 4587,
      "ĠFEV": 4588,
      "Ġ130": 4589,
      "III": 4590,
      "ĠEscherichia": 4591,
      "Ġtháº¡ch": 4592,
      "Ġláº¯p": 4593,
      "Ġtrá»Ļn": 4594,
      "Ġphun": 4595,
      "á»ĭa": 4596,
      "ĠME": 4597,
      "trÃªn": 4598,
      "lit": 4599,
      "ukin": 4600,
      "ĠHáº¡": 4601,
      "ĠThiÃªn": 4602,
      "ĠTRá»Ĭ": 4603,
      "Ġlogistic": 4604,
      "triaxone": 4605,
      "]).": 4606,
      "ĠvÃ¡n": 4607,
      "ĠmÄĥng": 4608,
      "Ġngá»±a": 4609,
      "Ġreal": 4610,
      "ĠTáº¡p": 4611,
      "á»Ńi": 4612,
      "ĠVI": 4613,
      "ĠChÆ°Æ¡ng": 4614,
      "ĠGhÃ©p": 4615,
      "ĠKhoáº£ng": 4616,
      "ĠQuáº£n": 4617,
      "ophilia": 4618,
      "Ghi": 4619,
      "KH": 4620,
      "nal": 4621,
      "ĠÄĳinh": 4622,
      "Ġthá»į": 4623,
      "Ġrá»Ĺng": 4624,
      "ĠPCT": 4625,
      "ĠLÃª": 4626,
      "acillus": 4627,
      "imeth": 4628,
      "ensis": 4629,
      "ĠÎ¼g": 4630,
      "utr": 4631,
      "ĠTD": 4632,
      "Ġ106": 4633,
      "ĠCDC": 4634,
      "Ġmicro": 4635,
      "Di": 4636,
      "LiÃªn": 4637,
      "lan": 4638,
      "ĠtÃ¢y": 4639,
      "Ġthalassemia": 4640,
      "Cháº£y": 4641,
      "ism": 4642,
      "rist": 4643,
      "onde": 4644,
      "Ġmyelin": 4645,
      "Gáº§n": 4646,
      "Máº¥t": 4647,
      "picillin": 4648,
      "uth": 4649,
      "Ġmáº¥u": 4650,
      "Ġgáº§y": 4651,
      "ĠMich": 4652,
      "ement": 4653,
      "Chá»ĳng": 4654,
      "ĠQuáºŃn": 4655,
      "Äĳá»ĥ": 4656,
      "Ġalen": 4657,
      "iac": 4658,
      "Ġhiáº¿u": 4659,
      "ĠÄĲiá»ĩn": 4660,
      "ĠLU": 4661,
      "arf": 4662,
      "oci": 4663,
      "Ġthoáº¡i": 4664,
      "ney": 4665,
      "aem": 4666,
      "á»°": 4667,
      "á»Ļp": 4668,
      "ĠTáº¯c": 4669,
      "ĠPháº§n": 4670,
      "ĠSpO": 4671,
      "giáº£m": 4672,
      "radiol": 4673,
      "ĠïĤ": 4674,
      "TD": 4675,
      "TiÃªm": 4676,
      "Ġcá»ĳt": 4677,
      "Ġvasopressin": 4678,
      "Ġsáº¥p": 4679,
      "ĠchÃªm": 4680,
      "inib": 4681,
      "ĠCN": 4682,
      "ĠPháº£n": 4683,
      "Ġmethotrexate": 4684,
      "fluenz": 4685,
      "eat": 4686,
      "okin": 4687,
      "ĠthÃº": 4688,
      "Ġbáº¡c": 4689,
      "Ġnháº¥n": 4690,
      "Ġngáº¡t": 4691,
      "NgÃły": 4692,
      "FI": 4693,
      "tide": 4694,
      "Ġbá»ĳi": 4695,
      "ĠTV": 4696,
      "ĠGH": 4697,
      "oxicillin": 4698,
      "ehyd": 4699,
      "ĠVIII": 4700,
      "heimer": 4701,
      "ĠPaO": 4702,
      "iness": 4703,
      "ringer": 4704,
      "Tiáº¿p": 4705,
      "ĠsÃ¢m": 4706,
      "Ġneo": 4707,
      "eria": 4708,
      "Chá»©c": 4709,
      "itol": 4710,
      "ococc": 4711,
      "ies": 4712,
      "Ġlá»ģ": 4713,
      "ĠMA": 4714,
      "Ġcá»¥m": 4715,
      "acetamol": 4716,
      "NCT": 4717,
      "ber": 4718,
      "há»Ļi": 4719,
      "ĠÄĳá»±ng": 4720,
      "Ġkháº¯p": 4721,
      "ĠTáº¿": 4722,
      "ĠBa": 4723,
      "erv": 4724,
      "ones": 4725,
      "ican": 4726,
      "ĠTrÃªn": 4727,
      "ĠPharm": 4728,
      "ute": 4729,
      "Ġhá»ķ": 4730,
      "Ġgon": 4731,
      "ĠNCT": 4732,
      "ĠThá»§": 4733,
      "uximab": 4734,
      "Ġdelta": 4735,
      "ple": 4736,
      "ĠtuyÃªn": 4737,
      "ĠÄĳá»©c": 4738,
      "Ġsonde": 4739,
      "Ġrá»§i": 4740,
      "ĠHá»": 4741,
      "ĠHá»įng": 4742,
      "ĠKi": 4743,
      "Ġluá»ĵng": 4744,
      "ĠLiá»ģu": 4745,
      "ater": 4746,
      "asis": 4747,
      "Khá»ĳi": 4748,
      "omy": 4749,
      "oplasma": 4750,
      "FABP": 4751,
      "GÃ£y": 4752,
      "zheimer": 4753,
      "ĠchÃ©p": 4754,
      "Ġkhá»ķ": 4755,
      "ĠnÃºm": 4756,
      "ĠClo": 4757,
      "olic": 4758,
      "omyc": 4759,
      "AST": 4760,
      "ĠMedia": 4761,
      "ĠSpringer": 4762,
      "ĠThuáºŃn": 4763,
      "Ġsyn": 4764,
      "Ġnm": 4765,
      "ĠCarb": 4766,
      "ĠPhÃ¡t": 4767,
      "Ġ125": 4768,
      "ypt": 4769,
      "Ġmast": 4770,
      "ÃĤN": 4771,
      "ĠBusiness": 4772,
      "implex": 4773,
      "Ġá»ĵn": 4774,
      "Ġcáº±m": 4775,
      "Ġláº¥p": 4776,
      "Ġbá»Ļi": 4777,
      "ĠThÆ°á»Ŀng": 4778,
      "epsin": 4779,
      "GB": 4780,
      "Xuáº¥t": 4781,
      "ĠÃ¡m": 4782,
      "Ġnicot": 4783,
      "ĠKáº¾T": 4784,
      "ĠPhÃ¹": 4785,
      "eck": 4786,
      "ez": 4787,
      "Ġsáº»": 4788,
      "Ġrobot": 4789,
      "Ġ101": 4790,
      "ÄĲá»Ļt": 4791,
      "ĠLI": 4792,
      "ĠRh": 4793,
      "ĠHPQ": 4794,
      "Ġcarbon": 4795,
      "ĠHBeAg": 4796,
      "Ġpropofol": 4797,
      "áº¶C": 4798,
      "Ġprednisone": 4799,
      "DR": 4800,
      "GN": 4801,
      "nam": 4802,
      "ĠsÃºc": 4803,
      "Ġnáº¯p": 4804,
      "ĠAS": 4805,
      "Ġ102": 4806,
      "Ngay": 4807,
      "Ġbupivacain": 4808,
      "LÃłm": 4809,
      "calc": 4810,
      "iO": 4811,
      "tá»·": 4812,
      "Ġá»§": 4813,
      "ĠÄĲH": 4814,
      "ĠSI": 4815,
      "ocorticoid": 4816,
      "Ġcarbohydrate": 4817,
      "Ġsarcoid": 4818,
      "LR": 4819,
      "Ġrif": 4820,
      "ĠQRS": 4821,
      "ĠAlzheimer": 4822,
      "UR": 4823,
      "dex": 4824,
      "Ġsigma": 4825,
      "Ġmanh": 4826,
      "Ġchai": 4827,
      "ĠVK": 4828,
      "Å©m": 4829,
      "ĠAt": 4830,
      "rost": 4831,
      "urf": 4832,
      "di": 4833,
      "ĮNH": 4834,
      "Ġbáº©n": 4835,
      "Ġmá»ĳng": 4836,
      "ĠchÅ©m": 4837,
      "ĠrÃ£nh": 4838,
      "ĠNo": 4839,
      "ĠngÃł": 4840,
      "Ġtá»§": 4841,
      "ĠUTP": 4842,
      "rav": 4843,
      "ĠNKBV": 4844,
      "Ġtyros": 4845,
      "ĠÄĲIá»ĤM": 4846,
      "LV": 4847,
      "Ġon": 4848,
      "ĠlÃ³t": 4849,
      "ĠTW": 4850,
      "ĠHO": 4851,
      "albumin": 4852,
      "ley": 4853,
      "ogy": 4854,
      "Ġamidan": 4855,
      "own": 4856,
      "ED": 4857,
      "HB": 4858,
      "NÃ³i": 4859,
      "RH": 4860,
      "coli": 4861,
      "eine": 4862,
      "Ġnhá»±a": 4863,
      "Ġná»ķ": 4864,
      "ĠnghÃ©n": 4865,
      "ĠVitamin": 4866,
      "ĠAKI": 4867,
      "acrol": 4868,
      "Ġhydroc": 4869,
      "racycline": 4870,
      "Ġflavonoid": 4871,
      "ĠmÆ¡": 4872,
      "Ġran": 4873,
      "ĠPol": 4874,
      "icans": 4875,
      "Ġ105": 4876,
      "osine": 4877,
      "Ġ2001": 4878,
      "ĠnitÆ¡": 4879,
      "ĠcÃłi": 4880,
      "ĠÄĳá»Ľn": 4881,
      "Ġkeo": 4882,
      "á»§a": 4883,
      "ÄĲÃ¡p": 4884,
      "ĠÄĲÃ£": 4885,
      "ĠPA": 4886,
      "Ġ600": 4887,
      "ChÆ°Æ¡ng": 4888,
      "ĠXquang": 4889,
      "erson": 4890,
      "ĠHPLC": 4891,
      "Ġhistamine": 4892,
      "ĠStreptococcus": 4893,
      "TQ": 4894,
      "VI": 4895,
      "tuá»ķi": 4896,
      "Ġclin": 4897,
      "Ġceton": 4898,
      "Ġsal": 4899,
      "Æ°á»Ŀm": 4900,
      "ĠTCD": 4901,
      "ĠÄĲá»ģ": 4902,
      "Ġranh": 4903,
      "olol": 4904,
      "Cháº¿": 4905,
      "ThÃłnh": 4906,
      "otrop": 4907,
      "ĠCMV": 4908,
      "ĠSOFA": 4909,
      "arfarin": 4910,
      "GI": 4911,
      "latin": 4912,
      "ĢU": 4913,
      "á»ĳp": 4914,
      "ĠrÃ¬a": 4915,
      "amid": 4916,
      "athi": 4917,
      "atoc": 4918,
      "ĠCho": 4919,
      "ĠXuáº¥t": 4920,
      "Ġbi": 4921,
      "ĠTiáº¿t": 4922,
      "ĠTest": 4923,
      "ocyt": 4924,
      "yme": 4925,
      "Ġprol": 4926,
      "strid": 4927,
      "Ġ(-)": 4928,
      "NO": 4929,
      "PM": 4930,
      "Î²": 4931,
      "Ġanh": 4932,
      "ĠngÃ¢m": 4933,
      "Ġthá»ı": 4934,
      "ĠCl": 4935,
      "enin": 4936,
      "ĠEF": 4937,
      "2000": 4938,
      "Äĳá»ĳi": 4939,
      "Ġhormon": 4940,
      "Ġli": 4941,
      "Ġsimplex": 4942,
      "ĠLew": 4943,
      "test": 4944,
      "Ġaminotr": 4945,
      "axel": 4946,
      "ĠNGHIÃĬN": 4947,
      "FDG": 4948,
      "SM": 4949,
      "Tiáº¿ng": 4950,
      "ps": 4951,
      "Ġmáº½": 4952,
      "Ġrá»ĵi": 4953,
      "ĠNutr": 4954,
      "ÄĲá»Ļc": 4955,
      "ated": 4956,
      "aclit": 4957,
      "Ġcalci": 4958,
      "Dá»±a": 4959,
      "ĠCF": 4960,
      "ÄĲá»Ļng": 4961,
      "005": 4962,
      "aclitaxel": 4963,
      "TÃ¡i": 4964,
      "hn": 4965,
      "įt": 4966,
      "Ġchá»ĳi": 4967,
      "ĠquÃªn": 4968,
      "ĠMeth": 4969,
      "Thá»Ń": 4970,
      "TrÆ°á»Ŀng": 4971,
      "itt": 4972,
      "áº³n": 4973,
      "ĠNIHSS": 4974,
      "ĠLUáº¬N": 4975,
      "ĠCa": 4976,
      "Ġviv": 4977,
      "ĠChá»©ng": 4978,
      "ilis": 4979,
      "ĠYork": 4980,
      "sterase": 4981,
      "Ġhá»Ĺng": 4982,
      "ulinum": 4983,
      "Ġbenzodiaz": 4984,
      "Quy": 4985,
      "oxy": 4986,
      "ĠHF": 4987,
      "ĠDu": 4988,
      "Chá»©ng": 4989,
      "ada": 4990,
      "osporine": 4991,
      "ĠUTBMT": 4992,
      "CÅ©ng": 4993,
      "ĠgÄĥng": 4994,
      "Ġgá»Ńi": 4995,
      "Ġnáº¥u": 4996,
      "ĠSan": 4997,
      "ĠLH": 4998,
      "NGHIÃĬN": 4999,
      "ĠlymphÃ´m": 5000,
      "ultip": 5001,
      "IL": 5002,
      "ĠRT": 5003,
      "Ġcand": 5004,
      "Ġ160": 5005,
      "ĠWill": 5006,
      "ichen": 5007,
      "egal": 5008,
      "Â©": 5009,
      "Ġcáº¯m": 5010,
      "Ġpemphig": 5011,
      "Ġhoáº£ng": 5012,
      "ĠTu": 5013,
      "ĠThalassemia": 5014,
      "opa": 5015,
      "ĠlymphÃ´": 5016,
      "Ġphenyl": 5017,
      "monella": 5018,
      "Dá»ĭ": 5019,
      "NÄĲ": 5020,
      "ck": 5021,
      "tÆ°Æ¡ng": 5022,
      "Ġlá»¥c": 5023,
      "ĠNÄĥm": 5024,
      "ĠBar": 5025,
      "ĠPI": 5026,
      "ĠLi": 5027,
      "ispl": 5028,
      "ĠECMO": 5029,
      "CDC": 5030,
      "Ġimplant": 5031,
      "appa": 5032,
      "AUC": 5033,
      "EC": 5034,
      "UY": 5035,
      "Váº¯c": 5036,
      "á»¤": 5037,
      "ĠnhÃ´": 5038,
      "ĠquÃ¡i": 5039,
      "ĠxÃ¡m": 5040,
      "Ġkhiáº¿t": 5041,
      "TÃªn": 5042,
      "UV": 5043,
      "ioid": 5044,
      "Ġcycl": 5045,
      "Ġmyc": 5046,
      "ĠchÃºt": 5047,
      "ĠVÅ©": 5048,
      "ĠThÃ¡ng": 5049,
      "Ġ109": 5050,
      "Äĳan": 5051,
      "eff": 5052,
      "Ġcolistin": 5053,
      "Ġacetyl": 5054,
      "ĠClinic": 5055,
      "Ġcyclophosph": 5056,
      "Ig": 5057,
      "LÃ½": 5058,
      "ĠthÃ´": 5059,
      "Ġváº¯ng": 5060,
      "ĠsÆ°": 5061,
      "Cháº¥n": 5062,
      "ipt": 5063,
      "actant": 5064,
      "ĠInter": 5065,
      "Ġstrept": 5066,
      "ĠGiá»Ľi": 5067,
      "evoflu": 5068,
      "isplatin": 5069,
      "HM": 5070,
      "Ġbot": 5071,
      "Ġcháº©m": 5072,
      "ĠquÃ¡n": 5073,
      "ĠHáº¹p": 5074,
      "ĠÄĲá»Ļng": 5075,
      "ĠPre": 5076,
      "ĠEx": 5077,
      "ocy": 5078,
      "ĠOMC": 5079,
      "ÃģNH": 5080,
      "ournal": 5081,
      "ĠurÃª": 5082,
      "ĠNutrition": 5083,
      "HÆ°á»Ľng": 5084,
      "hCG": 5085,
      "Ġá»§ng": 5086,
      "Ġmá»ĵi": 5087,
      "Ġpre": 5088,
      "ĠnÃªu": 5089,
      "ĠHol": 5090,
      "Ġtoáº¡": 5091,
      "idazol": 5092,
      "ĠGá»ĵm": 5093,
      "omegal": 5094,
      "ĠCalif": 5095,
      "Al": 5096,
      "LM": 5097,
      "Ġlong": 5098,
      "Ġháº¡ng": 5099,
      "ind": 5100,
      "ĠVÄ©nh": 5101,
      "ison": 5102,
      "lop": 5103,
      "ĠFAC": 5104,
      "ACHE": 5105,
      "ĠGIÃģ": 5106,
      "atocrit": 5107,
      "HR": 5108,
      "báº±ng": 5109,
      "Ġq": 5110,
      "ĠÄĳiá»ģn": 5111,
      "ĠvÃ¡": 5112,
      "Ġbáº§u": 5113,
      "ĠTiáº¿p": 5114,
      "Ġuá»·": 5115,
      "Ġfolate": 5116,
      "ĠHoÃłng": 5117,
      "In": 5118,
      "br": 5119,
      "Ġcal": 5120,
      "Ġval": 5121,
      "ĠTáº§n": 5122,
      "ĠCro": 5123,
      "ĠVá»ģ": 5124,
      "ĠICD": 5125,
      "imus": 5126,
      "apt": 5127,
      "ĠJournal": 5128,
      "Ġamph": 5129,
      "ÃĢNG": 5130,
      "ectin": 5131,
      "Ġestradiol": 5132,
      "ornia": 5133,
      "ĠCalifornia": 5134,
      "BM": 5135,
      "GhÃ©p": 5136,
      "ey": 5137,
      "gÃ¢y": 5138,
      "Ġchá»Ńa": 5139,
      "Ġpháº¥n": 5140,
      "ĠTo": 5141,
      "ĠCEA": 5142,
      "ĠFI": 5143,
      "ĠFran": 5144,
      "Ġalk": 5145,
      "ĠâĢĿ,": 5146,
      "aki": 5147,
      "Ġadren": 5148,
      "áº¤n": 5149,
      "olipid": 5150,
      "Ġaminotransferase": 5151,
      "tam": 5152,
      "ĠÄĳáº¿m": 5153,
      "Ġmá»Ńa": 5154,
      "Ġchá»ĳt": 5155,
      "ĠkhÃłn": 5156,
      "ĠgiÃły": 5157,
      "ĠHÃ¹ng": 5158,
      "ĠVan": 5159,
      "ĠDav": 5160,
      "ĠFood": 5161,
      "ĠNgoÃłi": 5162,
      "fluenzae": 5163,
      "ĠHH": 5164,
      "ĠHKTM": 5165,
      "ĠKhá»ĳi": 5166,
      "openem": 5167,
      "Ġcandida": 5168,
      "ham": 5169,
      "Ġháº³n": 5170,
      "Ġbic": 5171,
      "ĠTMC": 5172,
      "ĠBáº£o": 5173,
      "ĠProtein": 5174,
      "idel": 5175,
      "leukin": 5176,
      "Ġamyloid": 5177,
      "ĠAPACHE": 5178,
      "pergillus": 5179,
      "eropenem": 5180,
      "ional": 5181,
      "ĠARDS": 5182,
      "Ġmetformin": 5183,
      "iel": 5184,
      "ĠmÃ¨o": 5185,
      "ĠFiO": 5186,
      "epr": 5187,
      "Ġsub": 5188,
      "áº¾N": 5189,
      "lactamase": 5190,
      "Ġdoxycycline": 5191,
      "GM": 5192,
      "NSAID": 5193,
      "cumin": 5194,
      "há»įc": 5195,
      "Ġdáº¡i": 5196,
      "ĠphÃº": 5197,
      "Ġhom": 5198,
      "ĠTháº¡ch": 5199,
      "rose": 5200,
      "PhÃ¡c": 5201,
      "Ġwarfarin": 5202,
      "Ġpolymerase": 5203,
      "calcitonin": 5204,
      "EO": 5205,
      "ĠtÃ©": 5206,
      "Ġsan": 5207,
      "ĠTA": 5208,
      "ĠCr": 5209,
      "ituximab": 5210,
      "ĠFSH": 5211,
      "Ġgenotype": 5212,
      "âĢĿ": 5213,
      "BÃ¡c": 5214,
      "ĠÄĳÄĥng": 5215,
      "ĠngÃ¡y": 5216,
      "ĠMáº¡ch": 5217,
      "ĠLV": 5218,
      "ack": 5219,
      "ĠPhá»ķi": 5220,
      "ĠYHCT": 5221,
      "KTBN": 5222,
      "GÃ¢y": 5223,
      "HP": 5224,
      "QÄĲ": 5225,
      "Â®": 5226,
      "Ġai": 5227,
      "Ġdig": 5228,
      "ĠQuang": 5229,
      "Ġacetaminophen": 5230,
      "yclovir": 5231,
      "ĠICU": 5232,
      "ultiplex": 5233,
      "oy": 5234,
      "Ġrs": 5235,
      "ins": 5236,
      "endazole": 5237,
      "Ġdexamethasone": 5238,
      "urfactant": 5239,
      "RD": 5240,
      "SÃłng": 5241,
      "ĠkiÃªng": 5242,
      "Ġglut": 5243,
      "ĠDP": 5244,
      "Ġcur": 5245,
      "thuá»ĳc": 5246,
      "Ġtuyá»ĥn": 5247,
      "omegalovirus": 5248,
      "Ac": 5249,
      "WHO": 5250,
      "gar": 5251,
      "gest": 5252,
      "Ġcomp": 5253,
      "ĠtrÃ¢m": 5254,
      "Ġpp": 5255,
      "ĠBáº±ng": 5256,
      "era": 5257,
      "003": 5258,
      "ĠGP": 5259,
      "acch": 5260,
      "ĠchÃŃn": 5261,
      "roponin": 5262,
      "Ġiod": 5263,
      "choline": 5264,
      "BT": 5265,
      "Ba": 5266,
      "Corticosteroid": 5267,
      "Táº¯c": 5268,
      "UN": 5269,
      "bur": 5270,
      "ca": 5271,
      "Ġá»ĳm": 5272,
      "ĠbÆ¡i": 5273,
      "ĠtrÃ¡m": 5274,
      "ĠBÃ¡c": 5275,
      "ĠDise": 5276,
      "ĠTráº§n": 5277,
      "ota": 5278,
      "TNC": 5279,
      "Ġmethadone": 5280,
      "ikacin": 5281,
      "Ġparacetamol": 5282,
      "ĠamiÄĳan": 5283,
      "Ġfluoroquinol": 5284,
      "Ġethyl": 5285,
      "Ġmin": 5286,
      "ĠML": 5287,
      "arithromycin": 5288,
      "TrÃłn": 5289,
      "Ġproton": 5290,
      "2001": 5291,
      "125": 5292,
      "Ġmicrom": 5293,
      "ient": 5294,
      "vent": 5295,
      "ĠlÃ¡t": 5296,
      "ĠHL": 5297,
      "ĠSá»Ĳ": 5298,
      "ĠVol": 5299,
      "ĠLip": 5300,
      "ushing": 5301,
      "ÄĳÃ´i": 5302,
      "ĠTHU": 5303,
      "ÃģC": 5304,
      "Ġfibrinogen": 5305,
      "Barr": 5306,
      "mÅ©i": 5307,
      "ĠkhÃ³c": 5308,
      "á»Ľc": 5309,
      "ĠThá»į": 5310,
      "ory": 5311,
      "Chá»įc": 5312,
      "ĠRes": 5313,
      "ĠSLE": 5314,
      "ĠÄĲIá»ĢU": 5315,
      "ĠChildren": 5316,
      "co": 5317,
      "Ġep": 5318,
      "ĠcÃ´n": 5319,
      "ĠHCTH": 5320,
      "ĠLA": 5321,
      "ĠChuyÃªn": 5322,
      "THA": 5323,
      "á»ĲI": 5324,
      "ronidazole": 5325,
      "Ġclindamycin": 5326,
      "yrox": 5327,
      "ĪĴ": 5328,
      "ĠkhÃ´n": 5329,
      "ĠTMT": 5330,
      "ĠBTN": 5331,
      "002": 5332,
      "ĠThá»ĥ": 5333,
      "ĠQuy": 5334,
      "ĠÄĳiáº¿c": 5335,
      "obup": 5336,
      "Ġinterferon": 5337,
      "ĠCrohn": 5338,
      "Cao": 5339,
      "Tn": 5340,
      "ÃĮNH": 5341,
      "Ġká»ģ": 5342,
      "áº·m": 5343,
      "ĠMIC": 5344,
      "olid": 5345,
      "acillin": 5346,
      "ĠNgÃły": 5347,
      "Ġchua": 5348,
      "Ġthá»¥t": 5349,
      "SO": 5350,
      "chá»§": 5351,
      "are": 5352,
      "ĠGn": 5353,
      "ĠJJ": 5354,
      "ĠAss": 5355,
      "ĠvuÃ´ng": 5356,
      "Hb": 5357,
      "thi": 5358,
      "ĠbÃªnh": 5359,
      "Ġngá»įt": 5360,
      "ĠBI": 5361,
      "osome": 5362,
      "omat": 5363,
      "CTC": 5364,
      "oz": 5365,
      "ous": 5366,
      "ĠsÃ´ng": 5367,
      "chá»ī": 5368,
      "ĠHC": 5369,
      "ĠSC": 5370,
      "thrombin": 5371,
      "Ġxoa": 5372,
      "ĠOT": 5373,
      "azid": 5374,
      "lad": 5375,
      "atinib": 5376,
      "phenol": 5377,
      "ĠRLCX": 5378,
      "Ġalbicans": 5379,
      "hexidine": 5380,
      "ĠSalmonella": 5381,
      "yroxine": 5382,
      "LQ": 5383,
      "Tai": 5384,
      "ĠVÃ¬": 5385,
      "ĠDC": 5386,
      "ĠDinh": 5387,
      "azine": 5388,
      "oxazole": 5389,
      "ĠTTL": 5390,
      "VÃł": 5391,
      "ke": 5392,
      "Ġnhá»įn": 5393,
      "Ġpháº¿t": 5394,
      "ĠHÃ´": 5395,
      "ĠSÃĢNG": 5396,
      "ĠXÆ¡": 5397,
      "ĠKhÃ¡nh": 5398,
      "oprost": 5399,
      "oglobulin": 5400,
      "off": 5401,
      "itrat": 5402,
      "áº¬T": 5403,
      "An": 5404,
      "BI": 5405,
      "ugh": 5406,
      "Ġá»Ĳng": 5407,
      "Ġáº¤n": 5408,
      "ĠquÃ©t": 5409,
      "ĠHM": 5410,
      "und": 5411,
      "CSF": 5412,
      "Ġhydrox": 5413,
      "Giá»¯": 5414,
      "Ġlá»ģu": 5415,
      "Ġprolactin": 5416,
      "Ġtiá»ħn": 5417,
      "ĠsÃ¹i": 5418,
      "Ġsevoflu": 5419,
      "ĠCushing": 5420,
      "ÄĲiá»ĩn": 5421,
      "ĠMáº«u": 5422,
      "ĠACTH": 5423,
      "ĠIFN": 5424,
      "sterone": 5425,
      "Ġbupivacaine": 5426,
      "KD": 5427,
      "Tu": 5428,
      "Táº¡o": 5429,
      "ĠÃ¹": 5430,
      "ĠxÃł": 5431,
      "Ġxá»ĳp": 5432,
      "ĠNá»¯": 5433,
      "ĠNai": 5434,
      "ĠSG": 5435,
      "PhÃ¹": 5436,
      "asaki": 5437,
      "Ġcuá»Ļn": 5438,
      "Ġcá»ķng": 5439,
      "Ġaminoglyc": 5440,
      "ÃĤM": 5441,
      "Ġlidocaine": 5442,
      "OL": 5443,
      "deo": 5444,
      "nes": 5445,
      "ĠlÆ°Æ¡ng": 5446,
      "ĠTáº¡o": 5447,
      "ĠNatri": 5448,
      "ĠMal": 5449,
      "aco": 5450,
      "Truyá»ģn": 5451,
      "Ġinfluenzae": 5452,
      "ational": 5453,
      "ĠPHÃģ": 5454,
      "ĠHSV": 5455,
      "Kiá»ĥu": 5456,
      "cá»§a": 5457,
      "Ã¶": 5458,
      "ĠÄĳá»ĳm": 5459,
      "icyl": 5460,
      "Thá»§": 5461,
      "ĠPhá»¥c": 5462,
      "esepsin": 5463,
      "upus": 5464,
      "raves": 5465,
      "Ġsáº¥y": 5466,
      "ĠsÃ¡u": 5467,
      "Ġgiáº¥u": 5468,
      "Ġhoáº¡": 5469,
      "ĠBiÃªn": 5470,
      "ĠSte": 5471,
      "ĠâĪĴ": 5472,
      "etic": 5473,
      "TTT": 5474,
      "Ġstatin": 5475,
      "Ġaldosterone": 5476,
      "da": 5477,
      "Ġcop": 5478,
      "Ġciprofloxacin": 5479,
      "Ġrop": 5480,
      "ĠNÄĲ": 5481,
      "ĠDown": 5482,
      "ĠNha": 5483,
      "ĠEnterobacter": 5484,
      "Sáº£n": 5485,
      "ĠtÃłng": 5486,
      "Ġbá»ĳc": 5487,
      "Ġpeptide": 5488,
      "ĠnÆ¡": 5489,
      "anin": 5490,
      "ĠVTC": 5491,
      "roph": 5492,
      "lorua": 5493,
      "Ġphosphatase": 5494,
      "Ġchlorhexidine": 5495,
      "oietin": 5496,
      "Ġsáº©y": 5497,
      "ĠkhÃ¡i": 5498,
      "ĠHai": 5499,
      "Ġampicillin": 5500,
      "CLVT": 5501,
      "Táº¿": 5502,
      "ds": 5503,
      "van": 5504,
      "ĠthÄĥng": 5505,
      "ĠhÆ°ng": 5506,
      "Ġbn": 5507,
      "Ġkia": 5508,
      "ĠGraves": 5509,
      "Ġ131": 5510,
      "ĠWhi": 5511,
      "Ġtráº¥n": 5512,
      "ĠTS": 5513,
      "ĠTiá»ĩp": 5514,
      "ĠBC": 5515,
      "ĠHÆ°ng": 5516,
      "ĠLÃĤM": 5517,
      "Ġ800": 5518,
      "ĠChá»©c": 5519,
      "ĠTrÃłn": 5520,
      "orr": 5521,
      "ĠKhÃ³": 5522,
      "iper": 5523,
      "abine": 5524,
      "agon": 5525,
      "Ġcá»ı": 5526,
      "Ġkáº¹t": 5527,
      "Ġphiá»ĩn": 5528,
      "ĠTAP": 5529,
      "ĠCorticosteroid": 5530,
      "aban": 5531,
      "ĠHoáº¡t": 5532,
      "á»°C": 5533,
      "ael": 5534,
      "ĠhÆ°Æ¡ng": 5535,
      "ĠrÆ¡i": 5536,
      "ĠCC": 5537,
      "ĠLact": 5538,
      "ĠINR": 5539,
      "orona": 5540,
      "otericin": 5541,
      "Ġhomocyst": 5542,
      "Dá»±": 5543,
      "PS": 5544,
      "ovir": 5545,
      "out": 5546,
      "uv": 5547,
      "Ġmal": 5548,
      "cho": 5549,
      "Æ°Æ¡n": 5550,
      "ĠMyc": 5551,
      "ĠSPECT": 5552,
      "ĠKiÃªn": 5553,
      "Ġluá»ĵn": 5554,
      "stit": 5555,
      "Chuyá»ĥn": 5556,
      "Khuyáº¿n": 5557,
      "romb": 5558,
      "Ġvaccin": 5559,
      "Bá»Ļ": 5560,
      "WI": 5561,
      "Â±": 5562,
      "áº¨": 5563,
      "ĠtÃ´n": 5564,
      "ĠvÆ°Æ¡ng": 5565,
      "Ġsurfactant": 5566,
      "ĠdÃ¢m": 5567,
      "ĠkhÃ¡t": 5568,
      "Ġninh": 5569,
      "Ġquá»ĭ": 5570,
      "ina": 5571,
      "ĠVáº¿t": 5572,
      "allot": 5573,
      "ĠCháº¿": 5574,
      "ĠGy": 5575,
      "asc": 5576,
      "ĠRA": 5577,
      "irsch": 5578,
      "Ġmorphine": 5579,
      "BA": 5580,
      "Ġchlamydia": 5581,
      "ĠxÃ¬": 5582,
      "ÄĲH": 5583,
      "ĠHR": 5584,
      "Ġul": 5585,
      "aline": 5586,
      "ĠCKD": 5587,
      "Ġmicromol": 5588,
      "VÃło": 5589,
      "nhiá»ħm": 5590,
      "ĠÄĳai": 5591,
      "ĠlÃŃt": 5592,
      "Ġlá»Ļn": 5593,
      "Ġbis": 5594,
      "Ġgam": 5595,
      "ĠLÃłm": 5596,
      "arum": 5597,
      "esc": 5598,
      "ĠFr": 5599,
      "iotic": 5600,
      "BH": 5601,
      "DI": 5602,
      "aqu": 5603,
      "iat": 5604,
      "part": 5605,
      "ĠcÆ°á»Ŀi": 5606,
      "Ġva": 5607,
      "Ġbáº§m": 5608,
      "Ġphiá»ģn": 5609,
      "isson": 5610,
      "ĠNhá»ĵi": 5611,
      "Ġlipoprotein": 5612,
      "ĠQUAN": 5613,
      "acchar": 5614,
      "DM": 5615,
      "GÄĲ": 5616,
      "Lá»±a": 5617,
      "med": 5618,
      "pt": 5619,
      "ĠÄĳá»¥ng": 5620,
      "ĠlÃµi": 5621,
      "ĠchÆ°á»Ŀm": 5622,
      "Ġtic": 5623,
      "ĠHerpes": 5624,
      "enic": 5625,
      "ĠDM": 5626,
      "uss": 5627,
      "Ġsarcoma": 5628,
      "ĠVirgin": 5629,
      "ĠUTBMTBG": 5630,
      "khi": 5631,
      "Ġkiá»ĩm": 5632,
      "Ġgu": 5633,
      "ĠgÃ¹": 5634,
      "ĠnÃłn": 5635,
      "Ġngáº§m": 5636,
      "ĠrÃ¡t": 5637,
      "Äĥk": 5638,
      "ĠBR": 5639,
      "ĠÄĲá»ĺ": 5640,
      "ĠPASI": 5641,
      "ĠSM": 5642,
      "acb": 5643,
      "omal": 5644,
      "Ġprost": 5645,
      "Äĳiá»ĥm": 5646,
      "ĠInstit": 5647,
      "amethoxazole": 5648,
      "estern": 5649,
      "Ġdigoxin": 5650,
      "Ġtá»ĩ": 5651,
      "Ġhiá»ĩp": 5652,
      "Ġtrop": 5653,
      "ĠnÃ²ng": 5654,
      "ĠNe": 5655,
      "anger": 5656,
      "ĠÄĲáº¯k": 5657,
      "ology": 5658,
      "ĠLa": 5659,
      "ocin": 5660,
      "ĠJeff": 5661,
      "ĠClostrid": 5662,
      "ĠVirginia": 5663,
      "BÃłn": 5664,
      "NI": 5665,
      "biotic": 5666,
      "Ġcr": 5667,
      "Ġnor": 5668,
      "ĠkÃ©n": 5669,
      "ĠAspergillus": 5670,
      "ĠAFB": 5671,
      "ĠNAVA": 5672,
      "Ġnhá»ĭn": 5673,
      "Ġbenzodiazepine": 5674,
      "HÃłm": 5675,
      "SN": 5676,
      "ean": 5677,
      "Ġor": 5678,
      "á»Ģ": 5679,
      "ĠlÆ°Æ¡n": 5680,
      "Ġmá»ı": 5681,
      "ampin": 5682,
      "Ġpolyphenol": 5683,
      "etts": 5684,
      "otropin": 5685,
      "Ġbotulinum": 5686,
      ".,": 5687,
      "XÆ¡": 5688,
      "les": 5689,
      "ms": 5690,
      "xe": 5691,
      "Ġvá»ĳn": 5692,
      "ĠrÃŃt": 5693,
      "ĠTox": 5694,
      "ĠNO": 5695,
      "ĠVID": 5696,
      "Ġbá»ĭt": 5697,
      "ĠKap": 5698,
      "Ġ104": 5699,
      "Ġ175": 5700,
      "utin": 5701,
      "CPAP": 5702,
      "ĠPhim": 5703,
      "Ġceftriaxone": 5704,
      "ĠMRSA": 5705,
      "Ġcurcumin": 5706,
      "ĠVIDEO": 5707,
      "Xáº¡": 5708,
      "Ġáº¥y": 5709,
      "Ġtrans": 5710,
      "Ġket": 5711,
      "Ġsc": 5712,
      "ĠCom": 5713,
      "ĠThai": 5714,
      "ulan": 5715,
      "Ġfluc": 5716,
      "ĠnhuáºŃn": 5717,
      "Ġmethicillin": 5718,
      "Ġdopamine": 5719,
      "ococci": 5720,
      "Diá»ĩn": 5721,
      "YD": 5722,
      "ier": 5723,
      "uch": 5724,
      "Ġong": 5725,
      "Ġenter": 5726,
      "ĠtÆ¡": 5727,
      "ĠchÃłm": 5728,
      "Ġquáº§ng": 5729,
      "ĠCreatin": 5730,
      "ĠMPH": 5731,
      "ice": 5732,
      "ĠXQ": 5733,
      "ĠPEX": 5734,
      "Ġsubt": 5735,
      "vel": 5736,
      "Ġlau": 5737,
      "ĠlÃ£nh": 5738,
      "Ġsá»¥p": 5739,
      "ĠLar": 5740,
      "icol": 5741,
      "osite": 5742,
      "ĠXÆ°Æ¡ng": 5743,
      "ĠKhá»Ľp": 5744,
      "agin": 5745,
      "ingham": 5746,
      "ĠTáºł": 5747,
      "ĠCSF": 5748,
      "Ġkhá»©u": 5749,
      "Ġporphyrin": 5750,
      "Ġbicarb": 5751,
      "Há»ĵi": 5752,
      "IU": 5753,
      "Máº·t": 5754,
      "cer": 5755,
      "ĠxÆ°á»Ľc": 5756,
      "ĠBi": 5757,
      "ĠSTC": 5758,
      "Nhá»ĭp": 5759,
      "ĠPhÃ¡c": 5760,
      "ĠUV": 5761,
      "loro": 5762,
      "Ġ135": 5763,
      "lavulan": 5764,
      "tá»ī": 5765,
      "Ġmá»Ļng": 5766,
      "ĠmRNA": 5767,
      "ĠxÃª": 5768,
      "áº«m": 5769,
      "ĠNuÃ´i": 5770,
      "ames": 5771,
      "004": 5772,
      "Ġ627": 5773,
      "ĠVMD": 5774,
      "Ġtoa": 5775,
      "ChÃŃnh": 5776,
      "ĠPhong": 5777,
      "ansferrin": 5778,
      "ET": 5779,
      "SDD": 5780,
      "ĠÃºng": 5781,
      "Ġtrimeth": 5782,
      "Ġmáº·n": 5783,
      "Ġgiáº¿t": 5784,
      "ÄĲK": 5785,
      "ĠTrá»ĭ": 5786,
      "illa": 5787,
      "Ġproge": 5788,
      "Ġpresepsin": 5789,
      "Káº¾T": 5790,
      "Ġmil": 5791,
      "anine": 5792,
      "Ġres": 5793,
      "ĠTá»ĳt": 5794,
      "ĠBÃłi": 5795,
      "ĠDI": 5796,
      "ĠLupus": 5797,
      "ĠChlamydia": 5798,
      "etro": 5799,
      "rome": 5800,
      "iform": 5801,
      "Ġacetate": 5802,
      "Æ¯á»¢": 5803,
      "Ġtá»§a": 5804,
      "ĠPHÃģP": 5805,
      "Cuá»ĳi": 5806,
      "NN": 5807,
      "berg": 5808,
      "iam": 5809,
      "ĠhÃ£i": 5810,
      "ĠTO": 5811,
      "ĠBá»©c": 5812,
      "Ġvideo": 5813,
      "ĠIB": 5814,
      "ĠFib": 5815,
      "Ġprot": 5816,
      "Äĳiá»ģu": 5817,
      "ĠcmH": 5818,
      "Ġdoppler": 5819,
      "Tiá»ĥu": 5820,
      "láº§n": 5821,
      "ÄĤ": 5822,
      "Ġvs": 5823,
      "Ġla": 5824,
      "Ġbá»ĵn": 5825,
      "ĠVD": 5826,
      "ĠGlucose": 5827,
      "lagen": 5828,
      "ĠInf": 5829,
      "DSK": 5830,
      "ÄĲMV": 5831,
      "Ġgháº¿": 5832,
      "Ġcyclophosphamide": 5833,
      ",...": 5834,
      "OX": 5835,
      "mun": 5836,
      "ĠÄĳáº·n": 5837,
      "Ġláº§m": 5838,
      "ÄĲÃ£": 5839,
      "ĠHE": 5840,
      "ĠMin": 5841,
      "ĠMet": 5842,
      "ĠDVT": 5843,
      "azin": 5844,
      "agland": 5845,
      "ĠNghi": 5846,
      "ĠAmer": 5847,
      "giai": 5848,
      "icketts": 5849,
      "ļI": 5850,
      "Ġtáº£ng": 5851,
      "ĠthÃ¡p": 5852,
      "ĠngÆ°": 5853,
      "Ġrubella": 5854,
      "ĠCR": 5855,
      "ĠCai": 5856,
      "ĠSÃłng": 5857,
      "Ġkhoan": 5858,
      "ĠVater": 5859,
      "ĠLÆ°á»£ng": 5860,
      "odopa": 5861,
      "Ġglucocorticoid": 5862,
      "Ġamip": 5863,
      "ropoietin": 5864,
      "isolone": 5865,
      "oronavirus": 5866,
      "ĠJefferson": 5867,
      "HoÃ¡": 5868,
      "be": 5869,
      "giá»": 5870,
      "ria": 5871,
      "vi": 5872,
      "Ġtháº§m": 5873,
      "Ġhiv": 5874,
      "ĠhÃ£ng": 5875,
      "Ġber": 5876,
      "Ġphi": 5877,
      "Ġrad": 5878,
      "Å©a": 5879,
      "ĠTrÆ°ng": 5880,
      "ĠTrich": 5881,
      "ĠOxy": 5882,
      "Ġlymphoma": 5883,
      "Ġamoxicillin": 5884,
      "ĠThuá»·": 5885,
      "nghÄ©a": 5886,
      "nÄĥm": 5887,
      "Ġá»Ľn": 5888,
      "ĠmÃ¡ng": 5889,
      "Ġniá»ģm": 5890,
      "Ãºa": 5891,
      "ĠHen": 5892,
      "ĠPS": 5893,
      "ĠDO": 5894,
      "ĠIs": 5895,
      "ĠEBV": 5896,
      "thay": 5897,
      "leic": 5898,
      "ĠJames": 5899,
      "ĠADA": 5900,
      "etinoin": 5901,
      "IPS": 5902,
      "á»ĺT": 5903,
      "Loáº¡n": 5904,
      "AG": 5905,
      "As": 5906,
      "ON": 5907,
      "ĠSá»ıi": 5908,
      "Ġkhoeo": 5909,
      "ĠVal": 5910,
      "ĠThoÃ¡t": 5911,
      "atum": 5912,
      "ĠGan": 5913,
      "ĠXáº¡": 5914,
      "ĠUTV": 5915,
      "trol": 5916,
      "Ġhematocrit": 5917,
      "ĠNHÃĤN": 5918,
      "lÃł": 5919,
      "ryl": 5920,
      "vO": 5921,
      "vid": 5922,
      "Ġen": 5923,
      "ĠNÃªn": 5924,
      "ĠMc": 5925,
      "ĠKT": 5926,
      "ĠLao": 5927,
      "ĠGr": 5928,
      "Ġ107": 5929,
      "Ġmáº¹o": 5930,
      "Ġfr": 5931,
      "khÃ¡ng": 5932,
      "Ġphospholipid": 5933,
      "ophilus": 5934,
      "Iá»ĨN": 5935,
      "ĠERCP": 5936,
      "KCT": 5937,
      "by": 5938,
      "gluc": 5939,
      "yro": 5940,
      "Ġham": 5941,
      "Ġhyp": 5942,
      "Ġhá»©a": 5943,
      "ĠbÃª": 5944,
      "Ġkcal": 5945,
      "Ġgáº¡o": 5946,
      "ĠkhÃŃt": 5947,
      "ĠTLT": 5948,
      "ĠCá»Ļng": 5949,
      "ĠNiá»ĩu": 5950,
      "ĠBS": 5951,
      "ĠHer": 5952,
      "ĠPP": 5953,
      "ĠVáºŃt": 5954,
      "ĠLan": 5955,
      "ĠLaser": 5956,
      "Ġ1500": 5957,
      "ĠnÃ³n": 5958,
      "Ġax": 5959,
      "otax": 5960,
      "lorid": 5961,
      "áºª": 5962,
      "Ġtáº¥y": 5963,
      "ĠAV": 5964,
      "ĠChiá»ģu": 5965,
      "ĠGen": 5966,
      "ĠGLS": 5967,
      "aconazole": 5968,
      "Ġ126": 5969,
      "ĠNhá»ĭp": 5970,
      "ocaine": 5971,
      "ĠPEEP": 5972,
      "Ġlevobup": 5973,
      "Ġerythromycin": 5974,
      "ĠHHK": 5975,
      "ĠTHUáº¬T": 5976,
      "AK": 5977,
      "Cáº¥y": 5978,
      "bol": 5979,
      "dáº¥u": 5980,
      "enh": 5981,
      "iro": 5982,
      "pid": 5983,
      "ust": 5984,
      "Ġgá»Ĺ": 5985,
      "Ġquáº·n": 5986,
      "ÃŃn": 5987,
      "ĠPap": 5988,
      "ĠChá»īnh": 5989,
      "Ġcuá»ĵng": 5990,
      "Ġall": 5991,
      "COPD": 5992,
      "astatin": 5993,
      "ĠMichael": 5994,
      "Ġtyrosine": 5995,
      "HH": 5996,
      "To": 5997,
      "Ġle": 5998,
      "ĠNor": 5999,
      "Ġnguyá»ħn": 6000,
      "ĠSNK": 6001,
      "ĠAng": 6002,
      "ĠLymph": 6003,
      "Ġanion": 6004,
      "ĠFallot": 6005,
      "yll": 6006,
      "Ġprothrombin": 6007,
      "ĠOr": 6008,
      "ĠQuÃ¡": 6009,
      "ode": 6010,
      "ĠUTPKTBN": 6011,
      "ĠFACP": 6012,
      "Ban": 6013,
      "CÆ¡n": 6014,
      "kg": 6015,
      "ky": 6016,
      "Ġcs": 6017,
      "Ġcel": 6018,
      "Ġcáº·n": 6019,
      "Ġnhiá»ħu": 6020,
      "ĠViÃªn": 6021,
      "ĠLáº¯k": 6022,
      "att": 6023,
      "ased": 6024,
      "ĠEl": 6025,
      "ĠFDA": 6026,
      "ipin": 6027,
      "epin": 6028,
      "Ġinch": 6029,
      "oto": 6030,
      "Ġmethanol": 6031,
      "alcip": 6032,
      "Ġnhá»Ľt": 6033,
      "ence": 6034,
      "ector": 6035,
      "Ġmarker": 6036,
      "Da": 6037,
      "KA": 6038,
      "ĠthÃ¹": 6039,
      "ĠthÃ´i": 6040,
      "Ġgau": 6041,
      "Ġpaclitaxel": 6042,
      "ĠCáº£": 6043,
      "Ġdock": 6044,
      "ĠATTP": 6045,
      "itis": 6046,
      "ĠXuÃ¢n": 6047,
      "adotropin": 6048,
      "mmHg": 6049,
      "Ġdocking": 6050,
      "liá»ģu": 6051,
      "score": 6052,
      "Ãįt": 6053,
      "Ġel": 6054,
      "ĠÄĳuá»ĳi": 6055,
      "ĠthÃ¨m": 6056,
      "Ġmeropenem": 6057,
      "Ġxen": 6058,
      "Ġxá»ī": 6059,
      "ĠTÃŃnh": 6060,
      "ĠCle": 6061,
      "enia": 6062,
      "ĠMor": 6063,
      "ĠLÃło": 6064,
      "urg": 6065,
      "eptin": 6066,
      "obacterium": 6067,
      "Quan": 6068,
      "ĠDisease": 6069,
      "1000": 6070,
      "IA": 6071,
      "dÆ°á»Ľi": 6072,
      "iasis": 6073,
      "pylori": 6074,
      "rb": 6075,
      "Ġkhan": 6076,
      "ĠTÃ¡i": 6077,
      "ÄĲÃ¡i": 6078,
      "ĠHiáº¿m": 6079,
      "enoid": 6080,
      "ĠMÃ£": 6081,
      "acizumab": 6082,
      "isoprost": 6083,
      "ĠEd": 6084,
      "illo": 6085,
      "ĠFor": 6086,
      "Ġ117": 6087,
      "ĠOS": 6088,
      "ryth": 6089,
      "ĠTTTC": 6090,
      "ĠCarbapenem": 6091,
      "ĠGnRH": 6092,
      "isoprostol": 6093,
      "HáºŃu": 6094,
      "Láº¥y": 6095,
      "Pro": 6096,
      "ah": 6097,
      "uz": 6098,
      "ĠnÃ©": 6099,
      "Ġnmol": 6100,
      "Ġdiff": 6101,
      "epam": 6102,
      "ramine": 6103,
      "ermat": 6104,
      "ĠUTBM": 6105,
      "ĠAmerican": 6106,
      "LÆ°u": 6107,
      "benz": 6108,
      "ver": 6109,
      "Ġmultiplex": 6110,
      "ĠkhÃ´i": 6111,
      "ĠTá»": 6112,
      "ÄĲP": 6113,
      "ĠSw": 6114,
      "ĠLuáºŃn": 6115,
      "atz": 6116,
      "ask": 6117,
      "Ġ124": 6118,
      "ĠNgá»Ļ": 6119,
      "Ġduyá»ĩt": 6120,
      "odium": 6121,
      "ERD": 6122,
      "Ġtetracycline": 6123,
      "Ġprogesterone": 6124,
      "alciparum": 6125,
      "%-": 6126,
      "Háº¹p": 6127,
      "dimer": 6128,
      "gan": 6129,
      "Ġii": 6130,
      "Ġtransferrin": 6131,
      "Ġde": 6132,
      "ĠgÃ¡y": 6133,
      "quine": 6134,
      "áº±n": 6135,
      "ĠchoÃ¡ng": 6136,
      "ĠPer": 6137,
      "ĠVáº¯c": 6138,
      "ĠChuyá»ĥn": 6139,
      "aria": 6140,
      "Tráº§m": 6141,
      "ĠRI": 6142,
      "Ġ121": 6143,
      "Ġprogest": 6144,
      "ÄĳÆ°á»Ŀng": 6145,
      "ĠWell": 6146,
      "Ġcollagen": 6147,
      "ĠAlbumin": 6148,
      "ĠABO": 6149,
      "athiopr": 6150,
      "Ab": 6151,
      "Ca": 6152,
      "LÃ¢m": 6153,
      "Váº¿t": 6154,
      "báº£ng": 6155,
      "nd": 6156,
      "ĠÄĳÃ´": 6157,
      "ĠthÅ©ng": 6158,
      "Ġlang": 6159,
      "Ġbiáº¿ng": 6160,
      "ĠCV": 6161,
      "ĠVáº¡t": 6162,
      "ulose": 6163,
      "thal": 6164,
      "Ġab": 6165,
      "ington": 6166,
      "Ġmetronidazole": 6167,
      "predn": 6168,
      "Ġazithromycin": 6169,
      "RR": 6170,
      "Ġcáº¥t": 6171,
      "ĠcÃ²m": 6172,
      "ĠÄĳáº¡p": 6173,
      "ĠhÃ¡i": 6174,
      "Ġbáº¯n": 6175,
      "Ġrá»«ng": 6176,
      "ĠTÃłi": 6177,
      "ĠCamp": 6178,
      "ĠSF": 6179,
      "ĠSCI": 6180,
      "ĠThe": 6181,
      "ĠLev": 6182,
      "ĠLyme": 6183,
      "icile": 6184,
      "aric": 6185,
      "ĠEV": 6186,
      "Ġ112": 6187,
      "aminase": 6188,
      "ivir": 6189,
      "evacizumab": 6190,
      "Ġcyclosporine": 6191,
      "Ġcalo": 6192,
      "Liá»ĩt": 6193,
      "Æ¯u": 6194,
      "Ġol": 6195,
      "Ġcell": 6196,
      "Ġsay": 6197,
      "Ġms": 6198,
      "ĠÄĲRT": 6199,
      "ĠAML": 6200,
      "ĠReg": 6201,
      "oper": 6202,
      "Ġprocalcitonin": 6203,
      "ofovir": 6204,
      "Ġclarithromycin": 6205,
      "athioprine": 6206,
      "CÆ°á»Ŀng": 6207,
      "MÃ¡u": 6208,
      "NuÃ´i": 6209,
      "na": 6210,
      "ngÆ°á»Ŀi": 6211,
      "Ġcá»ĳng": 6212,
      "Ġcá»į": 6213,
      "ĠÄĳÅ©a": 6214,
      "Ġven": 6215,
      "Ġláº¡": 6216,
      "ĠhÃł": 6217,
      "ĠCephalosporin": 6218,
      "ÄĲÃģNH": 6219,
      "amate": 6220,
      "ĠMo": 6221,
      "ĠMic": 6222,
      "ĠNháº±m": 6223,
      "Ġgentam": 6224,
      "osteron": 6225,
      "arcoma": 6226,
      "Ġnucleic": 6227,
      "Æ¯á»ľ": 6228,
      "ĠHemoglobin": 6229,
      "Ġsevoflurane": 6230,
      "Ġdifficile": 6231,
      "Sá»ıi": 6232,
      "Ġsap": 6233,
      "ĠTiá»ĥu": 6234,
      "inc": 6235,
      "ĠCá»ķ": 6236,
      "ĠHep": 6237,
      "ĠHaem": 6238,
      "ĠMI": 6239,
      "ĠDÃ¹ng": 6240,
      "umb": 6241,
      "Ġtá»ĵi": 6242,
      "ĠVPBV": 6243,
      "Dáº¡ng": 6244,
      "Is": 6245,
      "KS": 6246,
      "Sa": 6247,
      "ĠÄĳÃ¡o": 6248,
      "ĠÄĳáº¡c": 6249,
      "ĠlÃ²": 6250,
      "ĠngÃ´i": 6251,
      "ĠTÄĲ": 6252,
      "ĠCÆ°á»Ŀng": 6253,
      "ĠHar": 6254,
      "ĠDSA": 6255,
      "ĠLai": 6256,
      "ĠTráºŃt": 6257,
      "ĠGBS": 6258,
      "Ġlactic": 6259,
      "ehr": 6260,
      "Ġimipenem": 6261,
      "Ġzona": 6262,
      "ĠGlisson": 6263,
      "Ġpemphigus": 6264,
      "ĠDavid": 6265,
      "vention": 6266,
      "Ġgauge": 6267,
      "Cáº£nh": 6268,
      "cÃ²n": 6269,
      "Ġcáº¡n": 6270,
      "ĠtrÃ²ng": 6271,
      "Ġtrá»įn": 6272,
      "Ġsáº·c": 6273,
      "ĠmÆ°Æ¡i": 6274,
      "Ġphaco": 6275,
      "ĠBo": 6276,
      "ĠBacillus": 6277,
      "ĠÄĲT": 6278,
      "ĠÄĲá»Ļc": 6279,
      "ĠATP": 6280,
      "ĠLá»ĵng": 6281,
      "Ġchuyá»ĩn": 6282,
      "ĠAnd": 6283,
      "ovidone": 6284,
      "Ġlevof": 6285,
      "ĠLoáº¡n": 6286,
      "ĠPaCO": 6287,
      "ehydrogen": 6288,
      "ĠWilliam": 6289,
      "ĠHKTMS": 6290,
      "Ġcomposite": 6291,
      "ĠTáºłI": 6292,
      "HL": 6293,
      "SP": 6294,
      "ĠcÆ°á»¡ng": 6295,
      "Ġsáº£y": 6296,
      "Ġgom": 6297,
      "Ġrenin": 6298,
      "ĠBÆ°á»Ľc": 6299,
      "ÄĲáº¡i": 6300,
      "ĠMÃ¡u": 6301,
      "ĠDá»±": 6302,
      "ĠCholesterol": 6303,
      "inez": 6304,
      "ĠEP": 6305,
      "ĠEt": 6306,
      "Ġ+,": 6307,
      "131": 6308,
      "Ġzoster": 6309,
      "Ġinterleukin": 6310,
      "ishman": 6311,
      "Ġïģ": 6312,
      "ĠInstitute": 6313,
      "Ġtroponin": 6314,
      "áºªU": 6315,
      "Ġgentamicin": 6316,
      "Ġáº¢nh": 6317,
      "Ġlichen": 6318,
      "ĠchÃ¡y": 6319,
      "ĠgÆ°Æ¡ng": 6320,
      "anag": 6321,
      "ĠHÃºt": 6322,
      "ĠSUV": 6323,
      "Chá»įn": 6324,
      "Thá»ĭ": 6325,
      "Ġprote": 6326,
      "Ġtrach": 6327,
      "ried": 6328,
      "mmun": 6329,
      "Ġcytokin": 6330,
      "Ġcytomegalovirus": 6331,
      "Ġlevodopa": 6332,
      "ĠXHTH": 6333,
      "OM": 6334,
      "QD": 6335,
      "Test": 6336,
      "mi": 6337,
      "Ġne": 6338,
      "ĠTÆ°Æ¡ng": 6339,
      "ĠMÃ¡y": 6340,
      "onic": 6341,
      "emoglobin": 6342,
      "roc": 6343,
      "ĠLR": 6344,
      "Phá»¥c": 6345,
      "low": 6346,
      "Ġ111": 6347,
      "ĠScale": 6348,
      "omatis": 6349,
      "veland": 6350,
      "ĠVMDÆ¯": 6351,
      "Ġlevofloxacin": 6352,
      "ehydrogenase": 6353,
      "RAS": 6354,
      "Váº¥n": 6355,
      "]),": 6356,
      "lip": 6357,
      "Ġcá»ĳc": 6358,
      "ĠkhÃ©p": 6359,
      "Ġquáº¥n": 6360,
      "ĠTá»Ń": 6361,
      "ĠCyt": 6362,
      "Ġ320": 6363,
      "ĠHáºŃu": 6364,
      "ĠSe": 6365,
      "Ġchiáº¿c": 6366,
      "emc": 6367,
      "ĠDan": 6368,
      "ĠLC": 6369,
      "acil": 6370,
      "Thalassemia": 6371,
      "ĠRN": 6372,
      "Ġclip": 6373,
      "ĠWilson": 6374,
      "Ġcystatin": 6375,
      "Ġgonadotropin": 6376,
      "ĠBTNT": 6377,
      "Diá»ħn": 6378,
      "HÃºt": 6379,
      "RY": 6380,
      "gá»ĵm": 6381,
      "so": 6382,
      "uk": 6383,
      "Ġá»¨ng": 6384,
      "Ġnáº¡ng": 6385,
      "ĠBL": 6386,
      "ĠBTM": 6387,
      "ĠBCH": 6388,
      "Ã©c": 6389,
      "ĠMon": 6390,
      "ĠMLT": 6391,
      "ĠTrÃ¬nh": 6392,
      "ĠRoch": 6393,
      "ĠPhÃ¡p": 6394,
      "Ġhemophilia": 6395,
      "Ġcarcinoid": 6396,
      "Ġaspart": 6397,
      "Ġnicotin": 6398,
      "Ġprostagland": 6399,
      "ĠCleveland": 6400,
      "IR": 6401,
      "MV": 6402,
      "Ná»¯": 6403,
      "ce": 6404,
      "Ġgrad": 6405,
      "Ġrib": 6406,
      "ĠtuÃ½p": 6407,
      "ĠBáº¿n": 6408,
      "ĠBur": 6409,
      "ÄĲMP": 6410,
      "ĠGR": 6411,
      "ĠRob": 6412,
      "Ġom": 6413,
      "ilin": 6414,
      "Ġ118": 6415,
      "ipine": 6416,
      "ĠTHCS": 6417,
      "roglobulin": 6418,
      "phenyl": 6419,
      "ĠNaCl": 6420,
      "ĠEpstein": 6421,
      "Ġamphotericin": 6422,
      "Ġsubtilis": 6423,
      "ĠÄĲRTKCT": 6424,
      "famethoxazole": 6425,
      "rá»ĳi": 6426,
      "ĠtrÅ©ng": 6427,
      "ĠdÃ¡t": 6428,
      "Ġdes": 6429,
      "ĠgáºŃy": 6430,
      "Ġngáº·t": 6431,
      "ĠgiáºŃn": 6432,
      "ĠÄĲÆ¡n": 6433,
      "eor": 6434,
      "ĠPl": 6435,
      "idney": 6436,
      "ĠLiá»ĩt": 6437,
      "acy": 6438,
      "Ġdis": 6439,
      "ĠNhÃł": 6440,
      "uman": 6441,
      "ypsin": 6442,
      "oxif": 6443,
      "obactam": 6444,
      "ization": 6445,
      "Ġcarcinoma": 6446,
      "PET": 6447,
      "Ġsarcom": 6448,
      "Ġlidocain": 6449,
      "Ġrifampin": 6450,
      "idelines": 6451,
      "Ġulfamethoxazole": 6452,
      "Ġtrachomatis": 6453,
      "MMN": 6454,
      "ONG": 6455,
      "TR": 6456,
      "VáºŃt": 6457,
      "avir": 6458,
      "gá»įi": 6459,
      "rat": 6460,
      "trose": 6461,
      "Ġthoa": 6462,
      "ĠgÃ²": 6463,
      "uyá»ħn": 6464,
      "aud": 6465,
      "erol": 6466,
      "ĠPPV": 6467,
      "ĠShi": 6468,
      "ĠThÃ¡p": 6469,
      "ĠDÃ¢y": 6470,
      "ĠGM": 6471,
      "ele": 6472,
      "opri": 6473,
      "Ġ240": 6474,
      "odar": 6475,
      "ĠWestern": 6476,
      "RADS": 6477,
      "ĠTMTQ": 6478,
      "Bá»ķ": 6479,
      "Ġvang": 6480,
      "Ġváº½": 6481,
      "Ġgal": 6482,
      "Ġphá»ĳt": 6483,
      "Ġráº»": 6484,
      "ĠCáº£nh": 6485,
      "ĠCyst": 6486,
      "ĠNN": 6487,
      "ĠBÃł": 6488,
      "ĠDung": 6489,
      "osin": 6490,
      "ĠBNP": 6491,
      "Ġfolic": 6492,
      "ctin": 6493,
      "ginine": 6494,
      "Ġbicarbonate": 6495,
      "ĠGRACE": 6496,
      "bu": 6497,
      "lant": 6498,
      "tazid": 6499,
      "Ġes": 6500,
      "Ġtáº·ng": 6501,
      "ĠdB": 6502,
      "Ġdáº§m": 6503,
      "ĠphÃ´": 6504,
      "ĠrÃ£": 6505,
      "ĠMang": 6506,
      "ĠAN": 6507,
      "ĠChá»įc": 6508,
      "elen": 6509,
      "Ġ+)": 6510,
      "oxic": 6511,
      "ogra": 6512,
      "inger": 6513,
      "CCP": 6514,
      "Ġphosphor": 6515,
      "ĠHoÃłn": 6516,
      "ĠInsulin": 6517,
      "ĠADN": 6518,
      "ika": 6519,
      "ysacchar": 6520,
      "ĠCPAP": 6521,
      "Ġgháº»": 6522,
      "HCV": 6523,
      "Pol": 6524,
      "RF": 6525,
      "ĠlÃª": 6526,
      "ĠphÃłn": 6527,
      "Ġrec": 6528,
      "ĠTL": 6529,
      "ĠBá»ķ": 6530,
      "ĠLÃł": 6531,
      "ĠXanh": 6532,
      "elphi": 6533,
      "Ngá»Ļ": 6534,
      "Ġ113": 6535,
      "ogrel": 6536,
      "ĠÂµm": 6537,
      "Ġweb": 6538,
      "oley": 6539,
      "Ġerythropoietin": 6540,
      "Con": 6541,
      "HCC": 6542,
      "Protein": 6543,
      "fa": 6544,
      "nit": 6545,
      "Ġtháº£m": 6546,
      "ĠvÃ£": 6547,
      "ĠvÅ©": 6548,
      "Ġbáº¥m": 6549,
      "ĠngáºŃm": 6550,
      "Ġrh": 6551,
      "Ġrituximab": 6552,
      "ĠCÄĲ": 6553,
      "Ġquáº£ng": 6554,
      "amm": 6555,
      "ĠÄĲáº§u": 6556,
      "ĠVG": 6557,
      "ĠVT": 6558,
      "ĠDá»±a": 6559,
      "ĠLáº¥y": 6560,
      "ĠTrÃ¡nh": 6561,
      "Ġ123": 6562,
      "ĠWest": 6563,
      "ĠScan": 6564,
      "ĠADR": 6565,
      "Ġ(âī¤": 6566,
      "Nghi": 6567,
      "IGO": 6568,
      "ĠïĤ±": 6569,
      "Ġvivo": 6570,
      "ĠDPPH": 6571,
      "cÆ¡": 6572,
      "iaceae": 6573,
      "rus": 6574,
      "sá»±": 6575,
      "Ãĵ": 6576,
      "Ġá»ī": 6577,
      "ngÃły": 6578,
      "ĠbÃºi": 6579,
      "Ġdehydrogenase": 6580,
      "ĠTes": 6581,
      "ĠBu": 6582,
      "Ġdá»ĭu": 6583,
      "ĠImmun": 6584,
      "Thai": 6585,
      "ThoÃ¡t": 6586,
      "ĠFe": 6587,
      "ĠFlu": 6588,
      "eps": 6589,
      "ĠJAK": 6590,
      "ormone": 6591,
      "profen": 6592,
      "prung": 6593,
      "Iá»ĨU": 6594,
      "latch": 6595,
      "eckel": 6596,
      "ĠLewis": 6597,
      "Ġaminoglycosid": 6598,
      "Æ¯á»¢NG": 6599,
      "XA": 6600,
      "bactam": 6601,
      "methyl": 6602,
      "sprung": 6603,
      "Ġtráº§n": 6604,
      "ĠCá»Ń": 6605,
      "ÄĲÃ³": 6606,
      "ĠHct": 6607,
      "ides": 6608,
      "ĠIM": 6609,
      "phyl": 6610,
      "ĠReal": 6611,
      "isomy": 6612,
      "ĠoC": 6613,
      "loáº¡i": 6614,
      "Ġamikacin": 6615,
      "ĠCancer": 6616,
      "lasmosis": 6617,
      "ĠVancomycin": 6618,
      "otavirus": 6619,
      "irschsprung": 6620,
      "FT": 6621,
      "Ráº¥t": 6622,
      "hÃ¬nh": 6623,
      "sal": 6624,
      "Ġiv": 6625,
      "ĠtÃ³m": 6626,
      "Ġcer": 6627,
      "Ġleo": 6628,
      "Ġtá»³": 6629,
      "ĠBá»ıng": 6630,
      "ĠMá»Ł": 6631,
      "Ġkhoáº£n": 6632,
      "ĠIA": 6633,
      "PhÃ¬nh": 6634,
      "Ġcag": 6635,
      "edes": 6636,
      "ĠGiÃ¡o": 6637,
      "adren": 6638,
      "Ġmono": 6639,
      "Ġsalicyl": 6640,
      "Ġradio": 6641,
      "inezolid": 6642,
      "con": 6643,
      "ĠnÃ©t": 6644,
      "chin": 6645,
      "aul": 6646,
      "ĠBIS": 6647,
      "ĠÄĲá»Ľi": 6648,
      "ara": 6649,
      "Ġdihydro": 6650,
      "KhÃŃ": 6651,
      "thá»Ŀi": 6652,
      "thalassemia": 6653,
      "Ġ145": 6654,
      "ĠOCT": 6655,
      "Ġ2500": 6656,
      "azepam": 6657,
      "ĠÃĿ": 6658,
      "ĠPHáºªU": 6659,
      "itrate": 6660,
      "ardia": 6661,
      "Ġnhá»Ŀn": 6662,
      "Ġapo": 6663,
      "ĠTIMI": 6664,
      "ĠJohnson": 6665,
      "otaxime": 6666,
      "Cáº£i": 6667,
      "bÃ©o": 6668,
      "sá»Ń": 6669,
      "ĠgÃµ": 6670,
      "ĠNÃ´ng": 6671,
      "ÄĲáº§u": 6672,
      "Ġ00": 6673,
      "ĠMa": 6674,
      "ĠMod": 6675,
      "ĠSÃ³c": 6676,
      "ĠDNT": 6677,
      "Ġ157": 6678,
      "apent": 6679,
      "ĠmiRNA": 6680,
      "STL": 6681,
      "lass": 6682,
      "udine": 6683,
      "Ġsulfate": 6684,
      "áº¤N": 6685,
      "Ġacetylcholine": 6686,
      "illain": 6687,
      "ĠRegional": 6688,
      "Ġsaponin": 6689,
      "ĠHaemophilus": 6690,
      "Báº¡n": 6691,
      "Sp": 6692,
      "TáºŃp": 6693,
      "ki": 6694,
      "máº·t": 6695,
      "Ġcáº¡o": 6696,
      "Ġsá»©": 6697,
      "Ġsáº§n": 6698,
      "Ġchay": 6699,
      "Ġná»Ĺi": 6700,
      "Ġneu": 6701,
      "ĠNáº¥m": 6702,
      "ĠBup": 6703,
      "ĠHCO": 6704,
      "idis": 6705,
      "ĠTre": 6706,
      "ety": 6707,
      "TrÃ¡nh": 6708,
      "phÃ¢n": 6709,
      "itabine": 6710,
      "ĠYAG": 6711,
      "Nguá»ĵn": 6712,
      "Ġform": 6713,
      "Ġnucleotide": 6714,
      "ocyte": 6715,
      "ĠHolter": 6716,
      "asedow": 6717,
      "CF": 6718,
      "ĠÄĳáº¯p": 6719,
      "Æ°á»£n": 6720,
      "Ġthá»£": 6721,
      "ĠTá»īnh": 6722,
      "ĠTMP": 6723,
      "ĠCE": 6724,
      "Ġtub": 6725,
      "ĠMil": 6726,
      "ĠVM": 6727,
      "ĠAb": 6728,
      "etri": 6729,
      "itz": 6730,
      "ĠRSV": 6731,
      "ĠPhÆ°á»Ľc": 6732,
      "Ġ127": 6733,
      "ĠNhu": 6734,
      "ĠKháº£": 6735,
      "treo": 6736,
      "opol": 6737,
      "Äĳau": 6738,
      "Ġglucagon": 6739,
      "ĠBVM": 6740,
      "ĠARB": 6741,
      "izer": 6742,
      "Ġimmun": 6743,
      "awasaki": 6744,
      "ĠAssoci": 6745,
      "ĠLarry": 6746,
      "ishmania": 6747,
      "fizer": 6748,
      "Ġkáº¹o": 6749,
      "Ġgá»įn": 6750,
      "Ġgiáº¡ng": 6751,
      "Ġtá»ıi": 6752,
      "ĠTem": 6753,
      "ĠTak": 6754,
      "ĠÄĲáº¶C": 6755,
      "ĠSá»ĳc": 6756,
      "ĠIR": 6757,
      "ĠICP": 6758,
      "ĠPhÃ¬nh": 6759,
      "Ġ128": 6760,
      "ĠUI": 6761,
      "trá»«": 6762,
      "lein": 6763,
      "Ġvá»¥n": 6764,
      "ubicin": 6765,
      "otretinoin": 6766,
      "ĠNMN": 6767,
      "ĠADC": 6768,
      "ĠlÃºn": 6769,
      "ĠÄĲHYD": 6770,
      "Ġbisphosph": 6771,
      "Há»įc": 6772,
      "PTNS": 6773,
      "arox": 6774,
      "máº¥t": 6775,
      "Ġclavulan": 6776,
      "Ġhelicobacter": 6777,
      "ĠCá»§": 6778,
      "amic": 6779,
      "erap": 6780,
      "ĠMel": 6781,
      "ĠDuy": 6782,
      "ĠDent": 6783,
      "ĠLD": 6784,
      "stra": 6785,
      "ĠPhÃºc": 6786,
      "ortisone": 6787,
      "romat": 6788,
      "eptor": 6789,
      "lycerin": 6790,
      "ornell": 6791,
      "GC": 6792,
      "VN": 6793,
      "ly": 6794,
      "Ġtá»Ļi": 6795,
      "ĠmÃ¢m": 6796,
      "Ġmá»±c": 6797,
      "Ġdáº»": 6798,
      "ĠBD": 6799,
      "ema": 6800,
      "ĠAz": 6801,
      "ĠACR": 6802,
      "ĠKiá»ĥu": 6803,
      "Ġanth": 6804,
      "rion": 6805,
      "SATTP": 6806,
      "kins": 6807,
      "lasmin": 6808,
      "ystem": 6809,
      "ĠViet": 6810,
      "ĠlÃºa": 6811,
      "ĠMTX": 6812,
      "ĠGuillain": 6813,
      "á»¤NG": 6814,
      "ĠPrevention": 6815,
      "burgh": 6816,
      "illoma": 6817,
      "ĠBCHTT": 6818,
      "latchford": 6819,
      "150": 6820,
      "SR": 6821,
      "iqu": 6822,
      "Ġib": 6823,
      "Ġhá»©ng": 6824,
      "ĠnhÃ¡t": 6825,
      "ĠnhÄĥn": 6826,
      "Ġglobin": 6827,
      "Ġgá»Ļp": 6828,
      "ĠrÃ¡y": 6829,
      "ĠTTP": 6830,
      "ĠHÃĮNH": 6831,
      "ĠSÆ¡": 6832,
      "ĠAg": 6833,
      "Ġthiamin": 6834,
      "ĠKAP": 6835,
      "ĠTriglycer": 6836,
      "ĠUá»·": 6837,
      "ulbactam": 6838,
      "oplatin": 6839,
      "ĠQuan": 6840,
      "ranolol": 6841,
      "SDP": 6842,
      "phosphate": 6843,
      "ĠNGH": 6844,
      "ĠStev": 6845,
      "Ġropivacain": 6846,
      "Ad": 6847,
      "BRA": 6848,
      "Cáº¥u": 6849,
      "IT": 6850,
      "aec": 6851,
      "mat": 6852,
      "oL": 6853,
      "uros": 6854,
      "Ġcoronavirus": 6855,
      "ĠÄĳá»ĳc": 6856,
      "ĠlÄĥng": 6857,
      "Ġnhuyá»ħn": 6858,
      "Ġnai": 6859,
      "Ġ(Â±": 6860,
      "ĠBay": 6861,
      "ÄĲÆ°á»£c": 6862,
      "ĠMen": 6863,
      "ĠMáºł": 6864,
      "ĠSyn": 6865,
      "ĠThÆ°": 6866,
      "orb": 6867,
      "ors": 6868,
      "itinib": 6869,
      "ases": 6870,
      "ĠFentanyl": 6871,
      "thá»±c": 6872,
      "Ġ116": 6873,
      "TCC": 6874,
      "ife": 6875,
      "ific": 6876,
      "ramingham": 6877,
      "istry": 6878,
      "ĠADHD": 6879,
      "ĠHOMA": 6880,
      "eprazole": 6881,
      "loroquine": 6882,
      "Cá»¥": 6883,
      "Dáº«n": 6884,
      "FP": 6885,
      "NQ": 6886,
      "NÄĥng": 6887,
      "Str": 6888,
      "bert": 6889,
      "cis": 6890,
      "Ġbr": 6891,
      "ĠtrÃºng": 6892,
      "ĠdÅ©": 6893,
      "Ġpovidone": 6894,
      "á»ĭn": 6895,
      "Ġgiáº¥m": 6896,
      "ĠBe": 6897,
      "ĠHe": 6898,
      "ĠHá»Ĺ": 6899,
      "erin": 6900,
      "Ġ450": 6901,
      "ĠPCI": 6902,
      "008": 6903,
      "ĠVIá»ĨN": 6904,
      "ĠAch": 6905,
      "ĠChar": 6906,
      "ĠGer": 6907,
      "ĠRV": 6908,
      "ĠkhoÃ¡i": 6909,
      "ĠFT": 6910,
      "trá»±c": 6911,
      "Ġ119": 6912,
      "ĠCTX": 6913,
      "Quáº£n": 6914,
      "ĠPHOT": 6915,
      "Ġsulfon": 6916,
      "ENCE": 6917,
      "Tuá»³": 6918,
      "iperacillin": 6919,
      "ĠPHOTO": 6920,
      "Báº¡ch": 6921,
      "PC": 6922,
      "XN": 6923,
      "XÄĲ": 6924,
      "beta": 6925,
      "mel": 6926,
      "Ġhyd": 6927,
      "Ġnhá»£t": 6928,
      "ĠTroponin": 6929,
      "ĠCd": 6930,
      "ĠCu": 6931,
      "ĠMá»ĳi": 6932,
      "ĠPb": 6933,
      "ĠPÄĲ": 6934,
      "ĠSTM": 6935,
      "009": 6936,
      "ĠGC": 6937,
      "etal": 6938,
      "ashing": 6939,
      "Ġind": 6940,
      "urinol": 6941,
      "ĠSTAT": 6942,
      "ĠIndex": 6943,
      "ÃĢN": 6944,
      "ection": 6945,
      "ĠHSTC": 6946,
      "ASIK": 6947,
      "ance": 6948,
      "Ġnicotine": 6949,
      "ĠLIBRA": 6950,
      "ĠAtlant": 6951,
      "ĠBarth": 6952,
      "Ġppm": 6953,
      "ĠSCIENCE": 6954,
      "ĠcagA": 6955,
      "Ġtuberc": 6956,
      "ashington": 6957,
      "ĠLIBRARY": 6958,
      "Pa": 6959,
      "ulo": 6960,
      "ĠÄĳáº¯ng": 6961,
      "ĠvÃ£ng": 6962,
      "ĠlÆ°á»£n": 6963,
      "ĠtrÃ³c": 6964,
      "ÃŃp": 6965,
      "ĠxÃ¡t": 6966,
      "ĠCÃł": 6967,
      "ĠCáº£m": 6968,
      "ĠBri": 6969,
      "amil": 6970,
      "ĠMay": 6971,
      "ĠPCA": 6972,
      "alb": 6973,
      "ico": 6974,
      "ĠEryth": 6975,
      "esby": 6976,
      "ĠFlor": 6977,
      "Ġháº¡nh": 6978,
      "reat": 6979,
      "azobactam": 6980,
      "á»¨C": 6981,
      "ĠScvO": 6982,
      "á»ĺI": 6983,
      "isher": 6984,
      "ĠVirus": 6985,
      "pidogrel": 6986,
      "500": 6987,
      "Cá»¡": 6988,
      "HF": 6989,
      "LuáºŃn": 6990,
      "OA": 6991,
      "Vá»¡": 6992,
      "carb": 6993,
      "suy": 6994,
      "Ãī": 6995,
      "Ġcisplatin": 6996,
      "Ġláº·ng": 6997,
      "Ġhao": 6998,
      "Ġhcm": 6999,
      "ĠbÃ¢y": 7000,
      "Ġchá»ĵn": 7001,
      "Ġnáº¡t": 7002,
      "ÄĲB": 7003,
      "ĠcÆ¡m": 7004,
      "ĠHÃłn": 7005,
      "ĠVL": 7006,
      "Ġchim": 7007,
      "ĠEm": 7008,
      "Ġfalciparum": 7009,
      "Ġbuá»ĳt": 7010,
      "ĠWashington": 7011,
      "Ġacetat": 7012,
      "Ġazathioprine": 7013,
      "ĠBRCA": 7014,
      "Ġfluconazole": 7015,
      "Ġceliac": 7016,
      "elphia": 7017,
      "ĠTemple": 7018,
      "CÃ²n": 7019,
      "IN": 7020,
      "MH": 7021,
      "PL": 7022,
      "gren": 7023,
      "ois": 7024,
      "par": 7025,
      "tu": 7026,
      "Ġá»¨": 7027,
      "ĠtÃ´": 7028,
      "nguy": 7029,
      "ĠmIU": 7030,
      "ĠmÃºa": 7031,
      "ĠTU": 7032,
      "ĠBeta": 7033,
      "ĠPC": 7034,
      "ĠSn": 7035,
      "ĠIX": 7036,
      "ĠTráº§m": 7037,
      "orte": 7038,
      "ette": 7039,
      "ThÄĥm": 7040,
      "ĠRock": 7041,
      "Ġoxit": 7042,
      "ĠKhuyáº¿n": 7043,
      "ivudine": 7044,
      "ĠGiÃ£n": 7045,
      "Ġoxidase": 7046,
      "lopurinol": 7047,
      "TnT": 7048,
      "Ġcopies": 7049,
      "EE": 7050,
      "MÃ¡y": 7051,
      "Sá»©c": 7052,
      "los": 7053,
      "mium": 7054,
      "scan": 7055,
      "tos": 7056,
      "Ġáº¢": 7057,
      "ĠmÆ°a": 7058,
      "ĠNPV": 7059,
      "ÄĲTN": 7060,
      "ĠTháº¥t": 7061,
      "Ġprobiotic": 7062,
      "Ġ132": 7063,
      "1999": 7064,
      "SSRI": 7065,
      "ĠÃĶ": 7066,
      "Ġ(+),": 7067,
      "ĠNghá»ĭ": 7068,
      "entanil": 7069,
      "Ġcalcium": 7070,
      "othyroxine": 7071,
      "áº¶T": 7072,
      "ĠCBCT": 7073,
      "Ġprostaglandin": 7074,
      "\",": 7075,
      "EMI": 7076,
      "MáºŃt": 7077,
      "Tá»ĳc": 7078,
      "VÃ¹ng": 7079,
      "eis": 7080,
      "hyd": 7081,
      "por": 7082,
      "va": 7083,
      "ĠvÃ¹i": 7084,
      "Ġkit": 7085,
      "Ġpap": 7086,
      "ĠNCPAP": 7087,
      "ĠBÃłn": 7088,
      "amphen": 7089,
      "ĠPÃ´n": 7090,
      "ĠPAP": 7091,
      "ĠVGB": 7092,
      "ĠAI": 7093,
      "ĠDIC": 7094,
      "ĠDá»¤NG": 7095,
      "ĠKawasaki": 7096,
      "orubicin": 7097,
      "Ġ170": 7098,
      "ĠPHÆ¯ÆłNG": 7099,
      "ĠPhilad": 7100,
      "ĠSSRI": 7101,
      "Ġtrimethopri": 7102,
      "Æ¯á»ľNG": 7103,
      "odarone": 7104,
      "BÆ°á»Ľu": 7105,
      "St": 7106,
      "UTB": 7107,
      "XT": 7108,
      "drome": 7109,
      "máº·c": 7110,
      "sh": 7111,
      "Ġthiá»ĩt": 7112,
      "Ġher": 7113,
      "ĠPorphy": 7114,
      "007": 7115,
      "ĠThoÃ¡i": 7116,
      "ĠDia": 7117,
      "ĠKappa": 7118,
      "alpha": 7119,
      "ĠGO": 7120,
      "etil": 7121,
      "Nhá»ĵi": 7122,
      "Ġ122": 7123,
      "KhÃ³": 7124,
      "trin": 7125,
      "odex": 7126,
      "180": 7127,
      "ĠTRONG": 7128,
      "Ġlactat": 7129,
      "ĠTNM": 7130,
      "ĠBPTT": 7131,
      "formans": 7132,
      "Ġoxal": 7133,
      "itts": 7134,
      "ĠDCCT": 7135,
      "Ġprotease": 7136,
      "ĠRochester": 7137,
      "ĠAssociation": 7138,
      "120": 7139,
      "Am": 7140,
      "BR": 7141,
      "Báº¯t": 7142,
      "Gen": 7143,
      "Par": 7144,
      "QI": 7145,
      "RL": 7146,
      "TSH": 7147,
      "Váº¡t": 7148,
      "fentanil": 7149,
      "hÃłnh": 7150,
      "má»©c": 7151,
      "vec": 7152,
      "ĮC": 7153,
      "ĠtÆ°á»Ŀng": 7154,
      "Ġváº£i": 7155,
      "ĠhCG": 7156,
      "ĠsÃ³n": 7157,
      "Ġgast": 7158,
      "ĠBA": 7159,
      "ĠHD": 7160,
      "ĠÄĲK": 7161,
      "ĠÄĲQ": 7162,
      "ĠPfizer": 7163,
      "ĠVSATTP": 7164,
      "ĠDT": 7165,
      "ĠLM": 7166,
      "ĠÄĳÃ£i": 7167,
      "Ġcarot": 7168,
      "Ġtrá»£t": 7169,
      "Ġcod": 7170,
      "ĠIIB": 7171,
      "ĠTHPT": 7172,
      "Æ¯á»Ľc": 7173,
      "Ġsulfat": 7174,
      "ADH": 7175,
      "ĠImipenem": 7176,
      "ĠApgar": 7177,
      "ĠLewy": 7178,
      "Ġprogestin": 7179,
      "amphenicol": 7180,
      "Gy": 7181,
      "MM": 7182,
      "OD": 7183,
      "Per": 7184,
      "fl": 7185,
      "ĠvÃ©c": 7186,
      "Ġhung": 7187,
      "Ġtrich": 7188,
      "Ġsáº¡n": 7189,
      "enofovir": 7190,
      "ĠDE": 7191,
      "ĠDen": 7192,
      "ĠDex": 7193,
      "ĠLS": 7194,
      "ght": 7195,
      "pháº«u": 7196,
      "ĠRan": 7197,
      "ĠXa": 7198,
      "Ġdioxide": 7199,
      "Ġfaec": 7200,
      "ICU": 7201,
      "ABG": 7202,
      "áºłNG": 7203,
      "iclovir": 7204,
      "glucosid": 7205,
      "ĠDaniel": 7206,
      "ĠPhiladelphia": 7207,
      "Há»ĵ": 7208,
      "Lá»£i": 7209,
      "NF": 7210,
      "bach": 7211,
      "ft": 7212,
      "oáº¯n": 7213,
      "Âµ": 7214,
      "Ġá»£": 7215,
      "Ġct": 7216,
      "nhá»ı": 7217,
      "Ġtháº§u": 7218,
      "ĠchÄĥn": 7219,
      "Ġnitrat": 7220,
      "Ġgiáº¿ng": 7221,
      "cholesterol": 7222,
      "Äĥc": 7223,
      "ĠTam": 7224,
      "ĠTic": 7225,
      "ĠTur": 7226,
      "Ġ210": 7227,
      "ĠCox": 7228,
      "ĠNÆ°á»Ľc": 7229,
      "ÄĲX": 7230,
      "ĠHas": 7231,
      "ĠHirschsprung": 7232,
      "ĠMeckel": 7233,
      "ĠPN": 7234,
      "ĠDR": 7235,
      "ĠDS": 7236,
      "aluron": 7237,
      "ĠGFR": 7238,
      "ĠNhÃłn": 7239,
      "Ġkháº£m": 7240,
      "ĠKhÃŃ": 7241,
      "ĠNgÃ£i": 7242,
      "ule": 7243,
      "oides": 7244,
      "ĠxuÃ´i": 7245,
      "aparin": 7246,
      "cinÃ´m": 7247,
      "Ġcholest": 7248,
      "itrypsin": 7249,
      "ismuth": 7250,
      "acrolimus": 7251,
      "Ġdáº»o": 7252,
      "\".": 7253,
      "BD": 7254,
      "vÃ¬": 7255,
      "ĠtÃºc": 7256,
      "ĠnhÃ´m": 7257,
      "Ġpmol": 7258,
      "Ġrá»Ļp": 7259,
      "Ġretro": 7260,
      "ĠTIPS": 7261,
      "ÄĲáº¶C": 7262,
      "006": 7263,
      "Ġsorb": 7264,
      "ĠDe": 7265,
      "aloid": 7266,
      "ĠGERD": 7267,
      "ThÃªm": 7268,
      "phÃºt": 7269,
      "ĠPhá»ĳ": 7270,
      "Ġoxi": 7271,
      "Ġcut": 7272,
      "Ngoáº¡i": 7273,
      "illip": 7274,
      "ytic": 7275,
      "ĠTBMMN": 7276,
      "Ġparkinson": 7277,
      "Ġclon": 7278,
      "ĠKimmel": 7279,
      "irovec": 7280,
      "anagement": 7281,
      "ography": 7282,
      "ĠDentistry": 7283,
      "ittsburgh": 7284,
      "))": 7285,
      ")).": 7286,
      "EL": 7287,
      "JS": 7288,
      "SG": 7289,
      "gra": 7290,
      "áº¦": 7291,
      "Ġtel": 7292,
      "ĠlÃ¡c": 7293,
      "Ġsáº«m": 7294,
      "ĠmÃłi": 7295,
      "Ġpos": 7296,
      "Ġná»¥": 7297,
      "ĠTa": 7298,
      "ĠÄĲá»Ģ": 7299,
      "ĠÂ³": 7300,
      "Ġ156": 7301,
      "Ġcaff": 7302,
      "reen": 7303,
      "aze": 7304,
      "azÆ¡": 7305,
      "ign": 7306,
      "COS": 7307,
      "ĠchÃ¬a": 7308,
      "ĠNKHHC": 7309,
      "Ġjirovec": 7310,
      "Ġneoformans": 7311,
      "ĠPolyp": 7312,
      "Ġamyloidosis": 7313,
      "ĠCrypt": 7314,
      "GÃ³c": 7315,
      "HPV": 7316,
      "Kinh": 7317,
      "Ġend": 7318,
      "ĠnhÃły": 7319,
      "ĠTQ": 7320,
      "ĠBasedow": 7321,
      "ĠSidney": 7322,
      "ĠDel": 7323,
      "ĠluÃ¢n": 7324,
      "ĠGamma": 7325,
      "ithi": 7326,
      "ĠRF": 7327,
      "usc": 7328,
      "Ġ139": 7329,
      "Ġacyclovir": 7330,
      "plas": 7331,
      "Soi": 7332,
      "ĠCMTH": 7333,
      "Ġglycoprotein": 7334,
      "á»ĶI": 7335,
      "himoto": 7336,
      "ĠPharmD": 7337,
      "Ġlevobupivacain": 7338,
      "DÆ°á»£c": 7339,
      "KN": 7340,
      "Tc": 7341,
      "des": 7342,
      "fan": 7343,
      "mid": 7344,
      "tá»ķn": 7345,
      "tocin": 7346,
      "ĠÄĳÃŃnh": 7347,
      "Ġkhá»§ng": 7348,
      "Ġngon": 7349,
      "ĠráºŃm": 7350,
      "Ġretin": 7351,
      "inin": 7352,
      "ĠCáº£i": 7353,
      "ĠBao": 7354,
      "ĠBilirubin": 7355,
      "ĠMCV": 7356,
      "ĠKar": 7357,
      "ĠISO": 7358,
      "Ġvá»ĭt": 7359,
      "NgÆ°á»¡ng": 7360,
      "ifed": 7361,
      "ĠAnti": 7362,
      "ations": 7363,
      "ĠCanxi": 7364,
      "Ġisotretinoin": 7365,
      "DAI": 7366,
      "ĠControl": 7367,
      "ĠCreatinin": 7368,
      "ĠRIF": 7369,
      "Ġreceptor": 7370,
      "CáºŃn": 7371,
      "Há»Ĺ": 7372,
      "Na": 7373,
      "pple": 7374,
      "rug": 7375,
      "uro": 7376,
      "ĠÄĳá»±c": 7377,
      "ĠnhÃ©t": 7378,
      "Ġpháº©u": 7379,
      "ĠTÃŃch": 7380,
      "Ġ220": 7381,
      "ÄĲD": 7382,
      "ĠÄĲÃ¡p": 7383,
      "ĠÄĲá»ĭa": 7384,
      "entr": 7385,
      "enec": 7386,
      "emis": 7387,
      "ĠAedes": 7388,
      "ĠDAS": 7389,
      "ĠKali": 7390,
      "ĠKillip": 7391,
      "ĠLDH": 7392,
      "ates": 7393,
      "TrÃ¬nh": 7394,
      "ĠRo": 7395,
      "ĠRubella": 7396,
      "thÃ´ng": 7397,
      "thá»ĥ": 7398,
      "edic": 7399,
      "Ġ136": 7400,
      "urv": 7401,
      "adolin": 7402,
      "roglycerin": 7403,
      "CHT": 7404,
      "ĠTKDT": 7405,
      "ĠAPRI": 7406,
      "Nghiá»ĩm": 7407,
      "ĠGPB": 7408,
      "ĠFlorida": 7409,
      "AIDS": 7410,
      "Cung": 7411,
      "Dung": 7412,
      "Má»¥n": 7413,
      "TÃºi": 7414,
      "VáºŃn": 7415,
      "uri": 7416,
      "vitamin": 7417,
      "vastatin": 7418,
      "Ġcocaine": 7419,
      "ĠÄĳiá»ĩu": 7420,
      "ĠÄĳáº¥u": 7421,
      "Ġthromb": 7422,
      "ĠmÃ¬": 7423,
      "Ġnhung": 7424,
      "Ġngá»įn": 7425,
      "ĠgiÃ³": 7426,
      "ĠTCM": 7427,
      "ĠCung": 7428,
      "ĠCase": 7429,
      "Ã©m": 7430,
      "eoxy": 7431,
      "ĠMá»¥n": 7432,
      "ĠPenicillin": 7433,
      "ĠVáº¤N": 7434,
      "ĠAVM": 7435,
      "ĠKST": 7436,
      "ĠKHO": 7437,
      "Æ°á»Łi": 7438,
      "Thá»īnh": 7439,
      "ĠRD": 7440,
      "osi": 7441,
      "ĠFried": 7442,
      "ĠCTG": 7443,
      "iff": 7444,
      "eptid": 7445,
      "ĠAlpha": 7446,
      "ĠTRáºłNG": 7447,
      "Ġdopamin": 7448,
      "Ġdextrose": 7449,
      "ophenolate": 7450,
      "LoÃ©t": 7451,
      "fenac": 7452,
      "ĠHCTHTP": 7453,
      "prednisolone": 7454,
      "glucosidase": 7455,
      "TuÃ¢n": 7456,
      "VR": 7457,
      "cyst": 7458,
      "ee": 7459,
      "káº¿t": 7460,
      "ket": 7461,
      "pox": 7462,
      "ÃĿ": 7463,
      "Ġcate": 7464,
      "ĠbÃ¡ng": 7465,
      "Ġbol": 7466,
      "Ġchá»ĵi": 7467,
      "Ġdá»ĳc": 7468,
      "Ġgá»¡": 7469,
      "ĠTet": 7470,
      "ĠCob": 7471,
      "ĠBÃ©o": 7472,
      "ĠBUN": 7473,
      "ĠAT": 7474,
      "row": 7475,
      "ĠIGF": 7476,
      "ĠGDSK": 7477,
      "Chuáº©n": 7478,
      "ThÆ°Æ¡ng": 7479,
      "Khá»Łi": 7480,
      "ĠFDG": 7481,
      "....": 7482,
      "Ġ165": 7483,
      "ĠxuÃ¢n": 7484,
      "azide": 7485,
      "ado": 7486,
      "ytoin": 7487,
      "ĠvacA": 7488,
      "ĠABI": 7489,
      "ocara": 7490,
      "Ġclopidogrel": 7491,
      "uronium": 7492,
      "ontan": 7493,
      "ĠPharmacy": 7494,
      "omycosis": 7495,
      "Ġalkaloid": 7496,
      "ĠaxÃŃt": 7497,
      "ĠHashimoto": 7498,
      "adolinium": 7499,
      "600": 7500,
      "Cu": 7501,
      "DP": 7502,
      "GE": 7503,
      "Nang": 7504,
      "SXH": 7505,
      "UTP": 7506,
      "WH": 7507,
      "];": 7508,
      "bÃªn": 7509,
      "car": 7510,
      "li": 7511,
      "mycin": 7512,
      "mRS": 7513,
      "pg": 7514,
      "sá»ĳ": 7515,
      "Ġcá»±": 7516,
      "ĠÄĳáº¹p": 7517,
      "Ġtrá»ı": 7518,
      "Ġmá»ĭn": 7519,
      "Ġpin": 7520,
      "ĠngÃ¡ch": 7521,
      "ĠTá»Ķ": 7522,
      "ĠTrÄĥng": 7523,
      "Phá»ıng": 7524,
      "phá»ķ": 7525,
      "ĠXem": 7526,
      "ulosis": 7527,
      "Ġ134": 7528,
      "obacillus": 7529,
      "exas": 7530,
      "ĠJo": 7531,
      "Ġ350": 7532,
      "ĠÄĲTÄĲTK": 7533,
      "rick": 7534,
      "Ġwith": 7535,
      "ĠCanada": 7536,
      "Ġglycol": 7537,
      "ĠAcet": 7538,
      "Ġadenosine": 7539,
      "idazolam": 7540,
      "HÃłnh": 7541,
      "POS": 7542,
      "WF": 7543,
      "ĠcÃ¡ng": 7544,
      "ĠÄĳÃł": 7545,
      "ĠbÃ¡ch": 7546,
      "Ġdá»ĩt": 7547,
      "ĠráºŃn": 7548,
      "Ġhoáº£": 7549,
      "Ġhá»ı": 7550,
      "ĠCá»¥c": 7551,
      "ĠBlatchford": 7552,
      "ĠHist": 7553,
      "ĠÄĲÃło": 7554,
      "ĠProp": 7555,
      "ĠVÃ´": 7556,
      "ĠVá»¡": 7557,
      "ĠThÆ°Æ¡ng": 7558,
      "ĠKehr": 7559,
      "ĠKRAS": 7560,
      "ĠChia": 7561,
      "oric": 7562,
      "hiáº¿m": 7563,
      "TráºŃt": 7564,
      "ision": 7565,
      "ĠFramingham": 7566,
      "Ġ153": 7567,
      "Ġcovid": 7568,
      "terian": 7569,
      "RIS": 7570,
      "ĠNKVM": 7571,
      "Nghe": 7572,
      "ĠamiÄĥng": 7573,
      "ĠFrank": 7574,
      "aricella": 7575,
      "ĠRobert": 7576,
      "tazidime": 7577,
      "ECG": 7578,
      "Háº¡n": 7579,
      "Má»ķ": 7580,
      "NÃ¢ng": 7581,
      "UNG": 7582,
      "dison": 7583,
      "ni": 7584,
      "uprofen": 7585,
      "vard": 7586,
      "Ġ%": 7587,
      "ĠtÃ´m": 7588,
      "Ġclorua": 7589,
      "ĠgÅ©i": 7590,
      "Ġkháº¡c": 7591,
      "ĠTexas": 7592,
      "ĠMCH": 7593,
      "ĠPittsburgh": 7594,
      "ĠSj": 7595,
      "ĠAC": 7596,
      "rob": 7597,
      "ĠICH": 7598,
      "TháºŃn": 7599,
      "itor": 7600,
      "opy": 7601,
      "Ġ138": 7602,
      "abin": 7603,
      "ense": 7604,
      "ega": 7605,
      "ogenes": 7606,
      "orphine": 7607,
      "Ġhistamin": 7608,
      "ĠAcid": 7609,
      "Ġfluoroquinolone": 7610,
      "ĠTOF": 7611,
      "bola": 7612,
      "Ġbolus": 7613,
      "Lá»įc": 7614,
      "Pugh": 7615,
      "Scan": 7616,
      "eae": 7617,
      "lÃłm": 7618,
      "oC": 7619,
      "sinh": 7620,
      "ĠtÃ¹ng": 7621,
      "ĠcÃłnh": 7622,
      "nhÆ°ng": 7623,
      "Ġtháº»": 7624,
      "Ġmacrol": 7625,
      "Ġquin": 7626,
      "ĠTum": 7627,
      "ĠBCR": 7628,
      "ĠBart": 7629,
      "ĠHill": 7630,
      "ĠHoáº¡i": 7631,
      "ĠMáºŃt": 7632,
      "ĠMá»ĺT": 7633,
      "ĠSK": 7634,
      "ĠSÃłi": 7635,
      "ĠKD": 7636,
      "alm": 7637,
      "ĠXuyÃªn": 7638,
      "ĠKhá»Łi": 7639,
      "tráº»": 7640,
      "Ġ155": 7641,
      "oplasmosis": 7642,
      "ĠOx": 7643,
      "ivarox": 7644,
      "ott": 7645,
      "obarb": 7646,
      "Ġmax": 7647,
      "áº¾U": 7648,
      "ĠStrand": 7649,
      "ĠCSGN": 7650,
      "Ġnitric": 7651,
      "afil": 7652,
      "ĠAddison": 7653,
      "eatoma": 7654,
      "omyces": 7655,
      "brand": 7656,
      "ĠMLCT": 7657,
      "ĠShig": 7658,
      "esbyterian": 7659,
      "Ġhá»ıng": 7660,
      "ivaroxaban": 7661,
      "HDL": 7662,
      "SLE": 7663,
      "hcm": 7664,
      "nm": 7665,
      "port": 7666,
      "sa": 7667,
      "tid": 7668,
      "Ġitr": 7669,
      "ĴNG": 7670,
      "Ġcáº¥m": 7671,
      "ĠthÆ¡m": 7672,
      "Ġláº¯c": 7673,
      "Ġtrá»ĩ": 7674,
      "Ġtrisomy": 7675,
      "Ġpent": 7676,
      "ĠngÃ¢y": 7677,
      "ĠxÃŃch": 7678,
      "ĠCÆ¡n": 7679,
      "ĠCVP": 7680,
      "ail": 7681,
      "ĠBRA": 7682,
      "ĠHuy": 7683,
      "ĠÄĲTT": 7684,
      "ĠLiá»ħu": 7685,
      "ĠGA": 7686,
      "ĠKhmer": 7687,
      "omib": 7688,
      "Äĳá»Ļng": 7689,
      "ĠÃ°": 7690,
      "ardi": 7691,
      "CNS": 7692,
      "Ġantitrypsin": 7693,
      "thiáº¿u": 7694,
      "ĠClostridium": 7695,
      "ĠHarvard": 7696,
      "Ġgastrin": 7697,
      "ithium": 7698,
      "En": 7699,
      "ci": 7700,
      "cao": 7701,
      "cus": 7702,
      "Ïĩ": 7703,
      "Ġdáº§y": 7704,
      "Ġrutin": 7705,
      "ĠType": 7706,
      "ĠNá»ĺI": 7707,
      "ĠBCL": 7708,
      "ĠchoÃłng": 7709,
      "amaz": 7710,
      "ĠMO": 7711,
      "ĠVÃ¹ng": 7712,
      "ĠChÆ°a": 7713,
      "ĠRicketts": 7714,
      "ĠFA": 7715,
      "thu": 7716,
      "yclin": 7717,
      "Ġ114": 7718,
      "ipr": 7719,
      "ĠOC": 7720,
      "Ġ190": 7721,
      "urine": 7722,
      "TÄĲTT": 7723,
      "Ġ(+).": 7724,
      "ugada": 7725,
      "ĠTBS": 7726,
      "ebo": 7727,
      "Ġlevothyroxine": 7728,
      "earch": 7729,
      "Ġadrenalin": 7730,
      "HbA": 7731,
      "ĠMalley": 7732,
      "ĠGrand": 7733,
      "Ġjirovecii": 7734,
      "obarbital": 7735,
      "NÆ°á»Ľc": 7736,
      "aeruginosa": 7737,
      "gá»£i": 7738,
      "oang": 7739,
      "ngoáº¡i": 7740,
      "ĠÄĳáº¯t": 7741,
      "ĠlÄĥn": 7742,
      "Ġlinezolid": 7743,
      "Ġbil": 7744,
      "ĠtrÃ´ng": 7745,
      "ĠnhiÃªu": 7746,
      "Ġxáº»": 7747,
      "ĠTYT": 7748,
      "ĠBCC": 7749,
      "ĠHV": 7750,
      "ĠMAC": 7751,
      "ĠMMP": 7752,
      "ĠPneum": 7753,
      "Ġsol": 7754,
      "ĠVE": 7755,
      "012": 7756,
      "ĠAU": 7757,
      "ĠLinh": 7758,
      "ĠTrang": 7759,
      "Phá»ĳi": 7760,
      "ĠRay": 7761,
      "Nhiá»ĩt": 7762,
      "Ġdiph": 7763,
      "ĠFVC": 7764,
      "ula": 7765,
      "Ġ152": 7766,
      "reg": 7767,
      "Ġchuá»Ļng": 7768,
      "azone": 7769,
      "urin": 7770,
      "oxyl": 7771,
      "agl": 7772,
      "igra": 7773,
      "ĠHBW": 7774,
      "ĠLee": 7775,
      "Ġarginine": 7776,
      "iclofenac": 7777,
      "Ġgonorr": 7778,
      "ĠHá»ĮC": 7779,
      "ĠMethotrexate": 7780,
      "Ġibuprofen": 7781,
      "ĠGOLD": 7782,
      "Ġretrovirus": 7783,
      "Cáº£m": 7784,
      "Gan": 7785,
      "OB": 7786,
      "cá»ķ": 7787,
      "cáº¯t": 7788,
      "eak": 7789,
      "huyáº¿t": 7790,
      "lÃªn": 7791,
      "mic": 7792,
      "táº¿": 7793,
      "ĠÆ¡": 7794,
      "Ġlá»ħ": 7795,
      "Ġgáº¡n": 7796,
      "Ġgáº¯p": 7797,
      "Ġpcr": 7798,
      "Ġnal": 7799,
      "á»©u": 7800,
      "ĠTÃłu": 7801,
      "ÄĲáº¶T": 7802,
      "ĠPDA": 7803,
      "Ġ750": 7804,
      "ĠLam": 7805,
      "ĠLá»±a": 7806,
      "ĠGS": 7807,
      "ĠGÃ³c": 7808,
      "ĠGGT": 7809,
      "ĠEbola": 7810,
      "Ġ142": 7811,
      "abapent": 7812,
      "ĠIIIB": 7813,
      "Ġaceton": 7814,
      "ynch": 7815,
      "ermectin": 7816,
      "Ġbenzo": 7817,
      "ĠLoÃ©t": 7818,
      "urea": 7819,
      "eatment": 7820,
      "ĠLister": 7821,
      "ĠFrancis": 7822,
      "HPLC": 7823,
      "Ġhomocysteine": 7824,
      "ĠCharles": 7825,
      "abapentin": 7826,
      "NE": 7827,
      "Sch": 7828,
      "Sá»ĳc": 7829,
      "ien": 7830,
      "mine": 7831,
      "to": 7832,
      "tÄ©nh": 7833,
      "urox": 7834,
      "Ġ~": 7835,
      "Ġcis": 7836,
      "Ġláº©y": 7837,
      "Ġbáº£": 7838,
      "Ġcháº¥y": 7839,
      "Ã¢t": 7840,
      "ĠTCV": 7841,
      "Ã¹n": 7842,
      "ĠHop": 7843,
      "ĠMM": 7844,
      "ĠMá»ķ": 7845,
      "ĠPi": 7846,
      "ĠPSD": 7847,
      "ĠVá»ĩ": 7848,
      "ĠANA": 7849,
      "ĠKing": 7850,
      "ices": 7851,
      "ĠGhi": 7852,
      "osyl": 7853,
      "ĠEM": 7854,
      "lebrand": 7855,
      "Ġ162": 7856,
      "Ġ1990": 7857,
      "TMC": 7858,
      "ĠÂ°.": 7859,
      "CIST": 7860,
      "ĠJohns": 7861,
      "ĠToÃłn": 7862,
      "Ġallele": 7863,
      "ĠHopkins": 7864,
      "450": 7865,
      "niá»ĩu": 7866,
      "Ġ#": 7867,
      "Ġart": 7868,
      "ĠtÄĥm": 7869,
      "Ġcat": 7870,
      "Ġvá»Ŀi": 7871,
      "Ġsch": 7872,
      "qua": 7873,
      "quin": 7874,
      "Ġthá»Ŀ": 7875,
      "anide": 7876,
      "cháº¥t": 7877,
      "auc": 7878,
      "ĠCáº§u": 7879,
      "ĠNang": 7880,
      "ĠBarr": 7881,
      "ÄĲÄĲ": 7882,
      "ĠHTK": 7883,
      "ĠVÃ²ng": 7884,
      "ĠVac": 7885,
      "ĠChung": 7886,
      "ĠChá»įn": 7887,
      "ĠRe": 7888,
      "Nháº±m": 7889,
      "ĠNhÃ¬n": 7890,
      "esia": 7891,
      "ĠUB": 7892,
      "ulase": 7893,
      "thÃ¡ng": 7894,
      "thÃłnh": 7895,
      "irus": 7896,
      "Ġag": 7897,
      "Ġ147": 7898,
      "rias": 7899,
      "illes": 7900,
      "actice": 7901,
      "aben": 7902,
      "ĠJr": 7903,
      "occid": 7904,
      "ĠCHA": 7905,
      "Iá»Ħ": 7906,
      "ĠÃ´xy": 7907,
      "ephrine": 7908,
      "hoeae": 7909,
      "CEA": 7910,
      "Ġcefotaxime": 7911,
      "Ġamiodarone": 7912,
      "isseria": 7913,
      "NMK": 7914,
      "Ġvui": 7915,
      "Ġnorepinephrine": 7916,
      "Ġenterovirus": 7917,
      "ĠNorth": 7918,
      "ĠMicros": 7919,
      "eorge": 7920,
      "Ġitraconazole": 7921,
      "PP": 7922,
      "cg": 7923,
      "ld": 7924,
      "ss": 7925,
      "Ä¨": 7926,
      "Ġec": 7927,
      "Ġtang": 7928,
      "Ġtáº©m": 7929,
      "nhá»¯ng": 7930,
      "Ġlym": 7931,
      "ĠhÃ¡": 7932,
      "ĠsÃªn": 7933,
      "Ġsen": 7934,
      "Ġnáº£y": 7935,
      "ani": 7936,
      "Ġráº·n": 7937,
      "ĠTÆ¯": 7938,
      "ĠTiáº¿ng": 7939,
      "ĠCam": 7940,
      "ĠCÃ¡t": 7941,
      "ĠNit": 7942,
      "eon": 7943,
      "ĠMit": 7944,
      "ĠPag": 7945,
      "ĠVMN": 7946,
      "ĠThÃ¢n": 7947,
      "015": 7948,
      "ĠChuáº©n": 7949,
      "Chá»§": 7950,
      "itin": 7951,
      "%):": 7952,
      "ĠKhu": 7953,
      "omide": 7954,
      "CTT": 7955,
      "Ġallopurinol": 7956,
      "Ġ[>": 7957,
      "GiÃ¡o": 7958,
      "ĠPHCN": 7959,
      "ĠTNTT": 7960,
      "eber": 7961,
      "Nguyá»ħn": 7962,
      "CBC": 7963,
      "ĠBrugada": 7964,
      "ocystis": 7965,
      "ĠCeftriaxone": 7966,
      "iximab": 7967,
      "Ġrealtime": 7968,
      "Ġmicroalbumin": 7969,
      "ĠLipid": 7970,
      "aginalis": 7971,
      "urosem": 7972,
      "Ġgonorrhoeae": 7973,
      "Tá»ĳi": 7974,
      "bet": 7975,
      "pert": 7976,
      "Ġlá»Ł": 7977,
      "Ġmol": 7978,
      "Ġnhá»Ł": 7979,
      "Ġnháº¥m": 7980,
      "Ġgáº·m": 7981,
      "Ġplasmin": 7982,
      "Ġxáº¥p": 7983,
      "Ġrong": 7984,
      "oni": 7985,
      "ĠThá»Ł": 7986,
      "011": 7987,
      "ĠDermat": 7988,
      "ĠKQ": 7989,
      "ĠKSDP": 7990,
      "ĠRR": 7991,
      "ĠRung": 7992,
      "ĠFisher": 7993,
      "rey": 7994,
      "Ġ1999": 7995,
      "106": 7996,
      "ĠcÃ¡u": 7997,
      "Giáº£": 7998,
      "occi": 7999
    },
    "merges": [
      [
        "á",
        "»"
      ],
      [
        "á",
        "º"
      ],
      [
        "Ġ",
        "t"
      ],
      [
        "n",
        "g"
      ],
      [
        "Ġ",
        "c"
      ],
      [
        "n",
        "h"
      ],
      [
        "Ġ",
        "Ä"
      ],
      [
        "ĠÄ",
        "ĳ"
      ],
      [
        "Ã",
        "¡"
      ],
      [
        "Ġt",
        "h"
      ],
      [
        "Ã",
        "ł"
      ],
      [
        "Ġ",
        "v"
      ],
      [
        "Æ",
        "°"
      ],
      [
        "i",
        "á»"
      ],
      [
        "Ġ",
        "l"
      ],
      [
        "Ġ",
        "h"
      ],
      [
        "Ġ",
        "b"
      ],
      [
        "Ġt",
        "r"
      ],
      [
        "Ġ",
        "k"
      ],
      [
        "Ġ",
        "s"
      ],
      [
        "Ġ",
        "m"
      ],
      [
        "áº",
        "¿"
      ],
      [
        "Æ°",
        "á»"
      ],
      [
        "Ġc",
        "h"
      ],
      [
        "Ġ",
        "nh"
      ],
      [
        "Ã",
        "ª"
      ],
      [
        "Ġ",
        "d"
      ],
      [
        "áº",
        "¡"
      ],
      [
        "Ġ",
        "g"
      ],
      [
        "Ġ",
        "p"
      ],
      [
        "Ġp",
        "h"
      ],
      [
        "Ġk",
        "h"
      ],
      [
        "á»",
        "ĳ"
      ],
      [
        "áº",
        "£"
      ],
      [
        "Ã",
        "³"
      ],
      [
        "Ã",
        "¢"
      ],
      [
        "Ġv",
        "Ãł"
      ],
      [
        "Ġ",
        "n"
      ],
      [
        "iá»",
        "ĩ"
      ],
      [
        "á»",
        "Ļ"
      ],
      [
        "á»",
        "ĩ"
      ],
      [
        "Ġ",
        "ng"
      ],
      [
        "Ã¡",
        "c"
      ],
      [
        "á»",
        "©"
      ],
      [
        "Ãª",
        "n"
      ],
      [
        "Æ",
        "¡"
      ],
      [
        "áº",
        "¥"
      ],
      [
        "á»",
        "ĭ"
      ],
      [
        "Ã",
        "´"
      ],
      [
        "á»ĩ",
        "nh"
      ],
      [
        "Ġc",
        "Ã³"
      ],
      [
        "áº",
        "Ń"
      ],
      [
        "q",
        "u"
      ],
      [
        "Ã¢",
        "n"
      ],
      [
        "Ġ",
        "qu"
      ],
      [
        "Æ°á»",
        "£"
      ],
      [
        "Ġ",
        "("
      ],
      [
        "Ġth",
        "á»"
      ],
      [
        "Ġb",
        "á»ĩnh"
      ],
      [
        "Ġg",
        "i"
      ],
      [
        "áº",
        "§"
      ],
      [
        "u",
        "y"
      ],
      [
        "Æ°á»",
        "Ŀ"
      ],
      [
        "Ġt",
        "á»"
      ],
      [
        "Ã",
        "Ń"
      ],
      [
        "áº¿",
        "t"
      ],
      [
        "áº",
        "·"
      ],
      [
        "Ġl",
        "Ãł"
      ],
      [
        "á»",
        "§"
      ],
      [
        "á»",
        "¥"
      ],
      [
        "a",
        "n"
      ],
      [
        "c",
        "h"
      ],
      [
        "Ġ",
        "x"
      ],
      [
        "á»",
        "Ľ"
      ],
      [
        "áº¿",
        "n"
      ],
      [
        "Ã",
        "¬"
      ],
      [
        "Ġc",
        "Ã¡c"
      ],
      [
        "iá»",
        "ģ"
      ],
      [
        "o",
        "ng"
      ],
      [
        "i",
        "Ãªn"
      ],
      [
        "Ġ",
        "r"
      ],
      [
        "á»",
        "ķ"
      ],
      [
        "Ä",
        "ĥ"
      ],
      [
        "Æ°á»£",
        "c"
      ],
      [
        "Æ°",
        "Æ¡"
      ],
      [
        "Æ°Æ¡",
        "ng"
      ],
      [
        "Æ°á»Ŀ",
        "ng"
      ],
      [
        "Ã´",
        "ng"
      ],
      [
        "á»",
        "Ł"
      ],
      [
        "iá»ģ",
        "u"
      ],
      [
        "Ġh",
        "o"
      ],
      [
        "Ġc",
        "á»§"
      ],
      [
        "Ġcá»§",
        "a"
      ],
      [
        "Ġnh",
        "Ã¢n"
      ],
      [
        "áº¥",
        "t"
      ],
      [
        "Ġ",
        "1"
      ],
      [
        "Ġt",
        "i"
      ],
      [
        "ĠÄĳ",
        "Æ°á»£c"
      ],
      [
        "Ġh",
        "á»"
      ],
      [
        "ĠÄĳ",
        "á»Ļ"
      ],
      [
        "áº¡",
        "i"
      ],
      [
        "iá»ĩ",
        "n"
      ],
      [
        "Ġ",
        "T"
      ],
      [
        "Ġth",
        "u"
      ],
      [
        "iá»",
        "ĥ"
      ],
      [
        "Ġtr",
        "ong"
      ],
      [
        "áº§",
        "n"
      ],
      [
        "Ã¬",
        "nh"
      ],
      [
        "á»Ľ",
        "i"
      ],
      [
        "Ġ",
        "2"
      ],
      [
        "áº·",
        "c"
      ],
      [
        "Ġng",
        "h"
      ],
      [
        "áº",
        "¯"
      ],
      [
        "á»ĳ",
        "i"
      ],
      [
        "á»",
        "±"
      ],
      [
        "Ġv",
        "á»Ľi"
      ],
      [
        "Ġthá»",
        "ĥ"
      ],
      [
        "Ġ",
        "á»Ł"
      ],
      [
        "i",
        "nh"
      ],
      [
        "á»©",
        "ng"
      ],
      [
        "u",
        "ng"
      ],
      [
        "á»",
        "ģ"
      ],
      [
        "a",
        "u"
      ],
      [
        "Ġtr",
        "á»ĭ"
      ],
      [
        "á»Ļ",
        "t"
      ],
      [
        "i",
        "n"
      ],
      [
        "Ġ",
        "C"
      ],
      [
        "Ġqu",
        "áº£"
      ],
      [
        "á»",
        "ĵ"
      ],
      [
        "iá»ĩ",
        "u"
      ],
      [
        "Ã",
        "º"
      ],
      [
        "Äĥ",
        "ng"
      ],
      [
        "Ġph",
        "Ã¡"
      ],
      [
        "áºŃ",
        "n"
      ],
      [
        "Æ°á»",
        "Ľ"
      ],
      [
        "Ġs",
        "á»ĳ"
      ],
      [
        "áº",
        "«"
      ],
      [
        "á»©",
        "c"
      ],
      [
        "áºŃ",
        "t"
      ],
      [
        "áº",
        "©"
      ],
      [
        "á»ķ",
        "i"
      ],
      [
        "Ġkh",
        "Ã´ng"
      ],
      [
        "Ġc",
        "á»©"
      ],
      [
        "Ġcá»©",
        "u"
      ],
      [
        "a",
        "o"
      ],
      [
        "ĠÄĳ",
        "iá»ģu"
      ],
      [
        "á»",
        "¯"
      ],
      [
        "Ġm",
        "áº¡"
      ],
      [
        "Ġd",
        "á»¥"
      ],
      [
        "Ãł",
        "ng"
      ],
      [
        "Ã¢",
        "m"
      ],
      [
        "Ã",
        "£"
      ],
      [
        "a",
        "i"
      ],
      [
        "Ġ",
        "N"
      ],
      [
        "Ã",
        "¹"
      ],
      [
        "Ã¡",
        "ng"
      ],
      [
        "Ġt",
        "u"
      ],
      [
        "Ġho",
        "áº·c"
      ],
      [
        "áº¿",
        "u"
      ],
      [
        "ĠÄĳ",
        "áº¿n"
      ],
      [
        "Ġm",
        "á»Ļt"
      ],
      [
        "Ãł",
        "y"
      ],
      [
        "Ġ",
        "B"
      ],
      [
        "Ġch",
        "á»©ng"
      ],
      [
        "áº§",
        "u"
      ],
      [
        "Ãª",
        "m"
      ],
      [
        "o",
        "Ã¡"
      ],
      [
        "áº",
        "±"
      ],
      [
        "Ġv",
        "i"
      ],
      [
        "Ġt",
        "ÃŃ"
      ],
      [
        "Ä",
        "Ĳ"
      ],
      [
        "Ġm",
        "Ã¡"
      ],
      [
        "Ġ",
        "3"
      ],
      [
        "áº©",
        "n"
      ],
      [
        "a",
        "ng"
      ],
      [
        "á»",
        "ĥ"
      ],
      [
        "Ã",
        "©"
      ],
      [
        "Ġl",
        "o"
      ],
      [
        "Ã¢",
        "y"
      ],
      [
        "Ġc",
        "Æ¡"
      ],
      [
        "Ġ",
        "H"
      ],
      [
        "Ã",
        "²"
      ],
      [
        "áº«",
        "u"
      ],
      [
        "£",
        "p"
      ],
      [
        "Ġch",
        "o"
      ],
      [
        "Ġhá»",
        "£p"
      ],
      [
        "á»ĳ",
        "c"
      ],
      [
        "Ġth",
        "Æ°á»Ŀng"
      ],
      [
        "iá»ĥ",
        "m"
      ],
      [
        "Ġs",
        "inh"
      ],
      [
        "Ġgi",
        "áº£"
      ],
      [
        "Ġl",
        "á»ĩ"
      ],
      [
        "Ġgi",
        "Ã¡"
      ],
      [
        "Ġt",
        "áº¡i"
      ],
      [
        "áº¡",
        "n"
      ],
      [
        "Ġs",
        "au"
      ],
      [
        "á»",
        "Ń"
      ],
      [
        "áº¥",
        "p"
      ],
      [
        ")",
        "."
      ],
      [
        "Ġkh",
        "i"
      ],
      [
        "ĠmÃ¡",
        "u"
      ],
      [
        "Ã¡",
        "nh"
      ],
      [
        "Ġtr",
        "Ãªn"
      ],
      [
        "Ġthu",
        "áºŃt"
      ],
      [
        "á»ĳ",
        "ng"
      ],
      [
        "Ġdá»¥",
        "ng"
      ],
      [
        "iá»",
        "ħ"
      ],
      [
        "Æ°á»£",
        "ng"
      ],
      [
        "Ġ",
        "0"
      ],
      [
        "i",
        "áº¿n"
      ],
      [
        "á»Ļ",
        "i"
      ],
      [
        "á»",
        "į"
      ],
      [
        "K",
        "áº¿t"
      ],
      [
        "Ġtá»",
        "«"
      ],
      [
        "áº±",
        "ng"
      ],
      [
        "Æ¡",
        "n"
      ],
      [
        "Ġh",
        "iá»ĩn"
      ],
      [
        "áº¯",
        "t"
      ],
      [
        "Ãª",
        "u"
      ],
      [
        "Æ°á»Ľ",
        "c"
      ],
      [
        "Ã¹",
        "ng"
      ],
      [
        "Ġ",
        "y"
      ],
      [
        "ĠphÃ¡",
        "p"
      ],
      [
        "Ġmáº¡",
        "ch"
      ],
      [
        "Ġqu",
        "an"
      ],
      [
        "a",
        "m"
      ],
      [
        "á»¯",
        "ng"
      ],
      [
        "ĠÄ",
        "Ĳ"
      ],
      [
        "a",
        "y"
      ],
      [
        "Ãł",
        "nh"
      ],
      [
        "Ġg",
        "iá»"
      ],
      [
        "ĠÄĳ",
        "á»ĭ"
      ],
      [
        "áº",
        "»"
      ],
      [
        "e",
        "o"
      ],
      [
        "Æ°á»Ŀ",
        "i"
      ],
      [
        "Ġngh",
        "iÃªn"
      ],
      [
        "Ġc",
        "ao"
      ],
      [
        "Ã",
        "½"
      ],
      [
        "e",
        "n"
      ],
      [
        "Ãł",
        "n"
      ],
      [
        "Ġc",
        "áº£"
      ],
      [
        "e",
        "r"
      ],
      [
        "Ġng",
        "uy"
      ],
      [
        "ĠÄĳá»ĭ",
        "nh"
      ],
      [
        "Ġd",
        "o"
      ],
      [
        "ĠÄĳá»Ļ",
        "ng"
      ],
      [
        "uy",
        "áº¿t"
      ],
      [
        "Ġng",
        "Æ°á»Ŀi"
      ],
      [
        "ĠtÃŃ",
        "nh"
      ],
      [
        "Ġ",
        "M"
      ],
      [
        "á»",
        "ī"
      ],
      [
        "Ġb",
        "áº±ng"
      ],
      [
        "Ġnh",
        "Æ°"
      ],
      [
        "o",
        "n"
      ],
      [
        "Ġv",
        "iá»ĩn"
      ],
      [
        "iá»ĩ",
        "t"
      ],
      [
        "Ġt",
        "Äĥng"
      ],
      [
        "Ġph",
        "áº«u"
      ],
      [
        "Ġ",
        "4"
      ],
      [
        "Ã³",
        "m"
      ],
      [
        "Ġ",
        "/"
      ],
      [
        "Ġthu",
        "á»ĳc"
      ],
      [
        "Ġ",
        "5"
      ],
      [
        "Ġ",
        "P"
      ],
      [
        "á»±",
        "c"
      ],
      [
        "iá»ĥ",
        "u"
      ],
      [
        "Ġv",
        "á»ģ"
      ],
      [
        "Ġ",
        "S"
      ],
      [
        "ĠÄĳ",
        "iá»ĥm"
      ],
      [
        "Ġt",
        "á»ĳ"
      ],
      [
        "Ã¡",
        "i"
      ],
      [
        "Ŀ",
        "i"
      ],
      [
        "iá»ħ",
        "m"
      ],
      [
        "Ġm",
        "Ã´"
      ],
      [
        "Ġtu",
        "á»ķi"
      ],
      [
        "0",
        "0"
      ],
      [
        "Ġs",
        "á»Ń"
      ],
      [
        "Ġkh",
        "o"
      ],
      [
        "Ġh",
        "uyáº¿t"
      ],
      [
        "Ġgiáº£",
        "m"
      ],
      [
        "á»",
        "ı"
      ],
      [
        ")",
        ","
      ],
      [
        "Ä",
        "©"
      ],
      [
        "Ġh",
        "Æ¡n"
      ],
      [
        "Ġnh",
        "á»¯ng"
      ],
      [
        "Ãł",
        "i"
      ],
      [
        "Ġhá»",
        "į"
      ],
      [
        "Ġr",
        "a"
      ],
      [
        "ĠÄĳ",
        "á»ĥ"
      ],
      [
        "Äĥ",
        "m"
      ],
      [
        "oÃ¡",
        "n"
      ],
      [
        "ĠphÃ¡",
        "t"
      ],
      [
        "áº¡",
        "ng"
      ],
      [
        "á»ĵ",
        "ng"
      ],
      [
        "Ġ",
        "6"
      ],
      [
        "ĠÄĳ",
        "Æ°á»Ŀng"
      ],
      [
        "Ġk",
        "áº¿t"
      ],
      [
        "Ġb",
        "iáº¿n"
      ],
      [
        "Ġnh",
        "Ã³m"
      ],
      [
        "Ġtr",
        "ung"
      ],
      [
        "ĠÄĳ",
        "oÃ¡n"
      ],
      [
        "Ġnh",
        "iá»ħm"
      ],
      [
        "Ġs",
        "á»±"
      ],
      [
        "±",
        "c"
      ],
      [
        "Ġthá»",
        "±c"
      ],
      [
        "Ãł",
        "o"
      ],
      [
        "Ġh",
        "iá»ĩu"
      ],
      [
        "á»¥",
        "c"
      ],
      [
        "Ġtr",
        "Æ°á»Ŀng"
      ],
      [
        "áº¯",
        "c"
      ],
      [
        "Ġti",
        "Ãªu"
      ],
      [
        "á»",
        "«"
      ],
      [
        "Ġl",
        "iÃªn"
      ],
      [
        "Ġs",
        "o"
      ],
      [
        "Ġd",
        "á»ĭ"
      ],
      [
        "Ġth",
        "Æ°Æ¡ng"
      ],
      [
        "Ġs",
        "Ãłng"
      ],
      [
        "Ġth",
        "eo"
      ],
      [
        "Ġ",
        "u"
      ],
      [
        "Ġg",
        "Ã¢y"
      ],
      [
        "Ġ",
        "V"
      ],
      [
        "áº¥",
        "y"
      ],
      [
        "Ġb",
        "á»ĭ"
      ],
      [
        "Ġb",
        "Ã¬nh"
      ],
      [
        "Ġvi",
        "Ãªm"
      ],
      [
        "Ġt",
        "áº¿"
      ],
      [
        "ĠÄĳ",
        "áº§u"
      ],
      [
        "Ġl",
        "Æ°á»£ng"
      ],
      [
        "Ġ",
        "-"
      ],
      [
        "Ġth",
        "Ã¡ng"
      ],
      [
        "Ġtr",
        "áº»"
      ],
      [
        "Ġy",
        "áº¿u"
      ],
      [
        "Ġch",
        "i"
      ],
      [
        "áº¡",
        "t"
      ],
      [
        "Ã¡",
        "p"
      ],
      [
        "ĠT",
        "h"
      ],
      [
        "Ġkh",
        "Ã¡c"
      ],
      [
        "Ġch",
        "á»ī"
      ],
      [
        "áº·",
        "t"
      ],
      [
        "Ġn",
        "Ãły"
      ],
      [
        "Ġl",
        "Ã¢m"
      ],
      [
        "0",
        "1"
      ],
      [
        "Ġph",
        "Æ°Æ¡ng"
      ],
      [
        "Ġthá»",
        "Ŀi"
      ],
      [
        "Ġhá»į",
        "c"
      ],
      [
        "a",
        "nh"
      ],
      [
        "o",
        "l"
      ],
      [
        "ÃŃ",
        "ch"
      ],
      [
        "ĠÄĳ",
        "áº·c"
      ],
      [
        "áº¥",
        "n"
      ],
      [
        "áº£",
        "i"
      ],
      [
        "Å",
        "©"
      ],
      [
        "Ġt",
        "o"
      ],
      [
        "Ã²",
        "ng"
      ],
      [
        "i",
        "d"
      ],
      [
        "e",
        "m"
      ],
      [
        "Ġ",
        "A"
      ],
      [
        "Ġho",
        "Ã¡"
      ],
      [
        "áº",
        "¹"
      ],
      [
        "Ġtá»",
        "ķ"
      ],
      [
        "Ġ",
        "D"
      ],
      [
        "á»",
        "·"
      ],
      [
        "Ġh",
        "Ã¬nh"
      ],
      [
        "Ġn",
        "Äĥng"
      ],
      [
        "Ġth",
        "i"
      ],
      [
        "ĠÄĳ",
        "Ã³"
      ],
      [
        "Ġnh",
        "áº¥t"
      ],
      [
        "Ġn",
        "á»Ļi"
      ],
      [
        "Ġ",
        "K"
      ],
      [
        "Ġti",
        "m"
      ],
      [
        "Ġph",
        "Ã¢n"
      ],
      [
        "Ġl",
        "u"
      ],
      [
        "Ġdá»ĭ",
        "ch"
      ],
      [
        "áºŃ",
        "p"
      ],
      [
        "Ġngh",
        "iá»ĩ"
      ],
      [
        "Ã´",
        "i"
      ],
      [
        "á»",
        "£"
      ],
      [
        "C",
        "Ã¡c"
      ],
      [
        "a",
        "l"
      ],
      [
        "áº£",
        "n"
      ],
      [
        "Ġtá»",
        "Ń"
      ],
      [
        "Ġ",
        "Â"
      ],
      [
        "r",
        "o"
      ],
      [
        "Ġgi",
        "an"
      ],
      [
        "Ġ",
        "7"
      ],
      [
        "Ġkh",
        "Ã¡ng"
      ],
      [
        "ĠÄĳ",
        "á»ģ"
      ],
      [
        "áº¿",
        "m"
      ],
      [
        "Ã©",
        "t"
      ],
      [
        "%",
        "."
      ],
      [
        "ĠlÃł",
        "m"
      ],
      [
        "Ġth",
        "Ãłnh"
      ],
      [
        "Ġ",
        "L"
      ],
      [
        "Ġn",
        "Äĥm"
      ],
      [
        "u",
        "áº©n"
      ],
      [
        "ĠÄĳ",
        "o"
      ],
      [
        "Ġ",
        "9"
      ],
      [
        "g",
        "h"
      ],
      [
        "Ġtá»",
        "·"
      ],
      [
        "Ġch",
        "áº¥t"
      ],
      [
        "Ġc",
        "áº¯t"
      ],
      [
        "%",
        ","
      ],
      [
        "ĠvÃł",
        "o"
      ],
      [
        "Ġc",
        "áº¥p"
      ],
      [
        "Ã¡",
        "o"
      ],
      [
        "i",
        "c"
      ],
      [
        "Ġ",
        "â"
      ],
      [
        "a",
        "t"
      ],
      [
        "Ġnh",
        "iá»ģu"
      ],
      [
        "Ġnghiá»ĩ",
        "m"
      ],
      [
        "iá»ĩ",
        "c"
      ],
      [
        "Ġch",
        "áº©n"
      ],
      [
        "Ġ",
        "8"
      ],
      [
        "Ġc",
        "áº§u"
      ],
      [
        "Ġth",
        "Æ°"
      ],
      [
        "Ġc",
        "áº§n"
      ],
      [
        "Ġk",
        "inh"
      ],
      [
        "Ġng",
        "Ãły"
      ],
      [
        "Ġlo",
        "áº¡n"
      ],
      [
        "áº«",
        "n"
      ],
      [
        "Ġb",
        "Ãło"
      ],
      [
        "Ġth",
        "áºŃn"
      ],
      [
        "Ġ",
        "I"
      ],
      [
        "á»ĵ",
        "m"
      ],
      [
        "Ġlu",
        "áºŃn"
      ],
      [
        "ĠÂ",
        "±"
      ],
      [
        "ĠÄĳ",
        "Ã£"
      ],
      [
        "u",
        "áº¥t"
      ],
      [
        "Ġl",
        "Ã½"
      ],
      [
        "Ġph",
        "á»ķi"
      ],
      [
        "Ġg",
        "á»ĵm"
      ],
      [
        "áº£",
        "o"
      ],
      [
        "Ġ",
        "Ã¡p"
      ],
      [
        "áº£",
        "y"
      ],
      [
        "Ġlo",
        "áº¡i"
      ],
      [
        "Ġto",
        "Ãłn"
      ],
      [
        "gh",
        "iÃªn"
      ],
      [
        "Ġtr",
        "iá»ĩu"
      ],
      [
        "Ġtr",
        "Æ°á»Ľc"
      ],
      [
        "Ġnguy",
        "Ãªn"
      ],
      [
        "ĠC",
        "h"
      ],
      [
        "a",
        "r"
      ],
      [
        "Ġ",
        "á»©ng"
      ],
      [
        "Ġb",
        "iá»ĩt"
      ],
      [
        "áº¡",
        "o"
      ],
      [
        "Ġ",
        "ung"
      ],
      [
        "Ġm",
        "á»©c"
      ],
      [
        "ĠB",
        "á»ĩnh"
      ],
      [
        "ĠÄĳ",
        "au"
      ],
      [
        "s",
        "t"
      ],
      [
        "áº£",
        "nh"
      ],
      [
        "Ġgiá»",
        "¯"
      ],
      [
        "Ġtr",
        "áº¡ng"
      ],
      [
        "áº¥",
        "u"
      ],
      [
        "ĠT",
        "r"
      ],
      [
        "o",
        "r"
      ],
      [
        "Ġth",
        "áº¥y"
      ],
      [
        "Ãº",
        "t"
      ],
      [
        "áº·",
        "p"
      ],
      [
        "Æ°á»Ľ",
        "i"
      ],
      [
        "Ġqu",
        "a"
      ],
      [
        "Ġv",
        "iá»ĩc"
      ],
      [
        "Ġt",
        "Ã¡c"
      ],
      [
        "Ġ",
        "G"
      ],
      [
        "ĠÄĳ",
        "á»ĳi"
      ],
      [
        "áº£",
        "ng"
      ],
      [
        "ĠÄĳ",
        "Ã¡nh"
      ],
      [
        "Ġph",
        "áº£i"
      ],
      [
        "Ġtá»ķ",
        "n"
      ],
      [
        "Ġth",
        "áº§n"
      ],
      [
        "Ã£",
        "o"
      ],
      [
        "e",
        "t"
      ],
      [
        "Ġl",
        "á»Ľ"
      ],
      [
        "iá»ĥ",
        "n"
      ],
      [
        "Ġx",
        "Æ°Æ¡ng"
      ],
      [
        "ÃŃ",
        "nh"
      ],
      [
        "áº¡",
        "ch"
      ],
      [
        "Ġl",
        "áº§n"
      ],
      [
        "Ġb",
        "ao"
      ],
      [
        "Ġt",
        "Ã¬nh"
      ],
      [
        "Ġch",
        "á»§"
      ],
      [
        "á»ģ",
        "n"
      ],
      [
        "Ã",
        "µ"
      ],
      [
        "Ġm",
        "á»ķ"
      ],
      [
        "Ġx",
        "Ã¡c"
      ],
      [
        "h",
        "i"
      ],
      [
        "Ġhá»",
        "ĵ"
      ],
      [
        "Ġth",
        "Ã´ng"
      ],
      [
        "Ãº",
        "ng"
      ],
      [
        "Ġt",
        "Æ°Æ¡ng"
      ],
      [
        "Ġgiá»¯",
        "a"
      ],
      [
        "a",
        "c"
      ],
      [
        "Ġk",
        "á»"
      ],
      [
        "Ġng",
        "o"
      ],
      [
        "Ġch",
        "áº¿"
      ],
      [
        "Ġ",
        "áº£nh"
      ],
      [
        "Ġg",
        "an"
      ],
      [
        "P",
        "h"
      ],
      [
        "Ġsá»ĳ",
        "ng"
      ],
      [
        "uy",
        "áº¿n"
      ],
      [
        "Ľ",
        "i"
      ],
      [
        "Ġr",
        "á»ĳi"
      ],
      [
        "Ġth",
        "ai"
      ],
      [
        "Ġ",
        "<"
      ],
      [
        "Ġtá»",
        "ī"
      ],
      [
        "Ġkho",
        "a"
      ],
      [
        "áº·",
        "ng"
      ],
      [
        "Ġti",
        "áº¿"
      ],
      [
        "Ġs",
        "uy"
      ],
      [
        "Æ°á»",
        "Ł"
      ],
      [
        "Ġd",
        "a"
      ],
      [
        "Ġd",
        "Æ°á»Ľi"
      ],
      [
        "Æ°á»Ł",
        "ng"
      ],
      [
        "C",
        "h"
      ],
      [
        "Ã¡",
        "t"
      ],
      [
        "Ġg",
        "áº·p"
      ],
      [
        "Ġn",
        "áº·ng"
      ],
      [
        "Ġx",
        "uáº¥t"
      ],
      [
        "ĠÄĳo",
        "áº¡n"
      ],
      [
        "á»",
        "Ĺ"
      ],
      [
        "T",
        "h"
      ],
      [
        "Ġ",
        "Ã¢m"
      ],
      [
        "Ġn",
        "Ã£o"
      ],
      [
        "Ġtá»",
        "±"
      ],
      [
        "Ġ1",
        "0"
      ],
      [
        "T",
        "r"
      ],
      [
        "Ġt",
        "Ã¢m"
      ],
      [
        "Ġt",
        "Æ°á»£ng"
      ],
      [
        "Ġchi",
        "áº¿m"
      ],
      [
        "Å©",
        "ng"
      ],
      [
        "Ġph",
        "áº§n"
      ],
      [
        "in",
        "e"
      ],
      [
        "Ġth",
        "á»©c"
      ],
      [
        "Ãº",
        "c"
      ],
      [
        "p",
        "h"
      ],
      [
        "Ġn",
        "á»¯"
      ],
      [
        "Ġ",
        "Ã½"
      ],
      [
        "i",
        "t"
      ],
      [
        "Ġquáº£",
        "n"
      ],
      [
        "a",
        "s"
      ],
      [
        "ĠtÃŃ",
        "ch"
      ],
      [
        "Ġph",
        "á»¥"
      ],
      [
        "Æ°á»",
        "¡"
      ],
      [
        "Ġd",
        "á»±"
      ],
      [
        "Ġh",
        "Ãłnh"
      ],
      [
        "Äĥ",
        "n"
      ],
      [
        "Ġx",
        "Ã©t"
      ],
      [
        "áº©",
        "m"
      ],
      [
        "Ġkh",
        "uáº©n"
      ],
      [
        "Ġch",
        "uy"
      ],
      [
        "uy",
        "á»ģn"
      ],
      [
        "Ġc",
        "Å©ng"
      ],
      [
        "Ġ",
        "R"
      ],
      [
        "Ġâ",
        "Ģ"
      ],
      [
        "Ġtr",
        "Ã¬nh"
      ],
      [
        "Ġtr",
        "Ã¹ng"
      ],
      [
        "ĠnhÆ°",
        "ng"
      ],
      [
        "iá»ģ",
        "n"
      ],
      [
        "á»į",
        "ng"
      ],
      [
        "Ġt",
        "áº£"
      ],
      [
        "Ġ2",
        "0"
      ],
      [
        "Ġv",
        "á»ĭ"
      ],
      [
        "Ã¢",
        "u"
      ],
      [
        "N",
        "h"
      ],
      [
        "Ġti",
        "áº¿n"
      ],
      [
        "%",
        ")"
      ],
      [
        "Ġn",
        "Ãªn"
      ],
      [
        "Ġn",
        "Æ°á»Ľc"
      ],
      [
        "M",
        "á»¥c"
      ],
      [
        "Ġth",
        "áº¥p"
      ],
      [
        "ĠP",
        "h"
      ],
      [
        "áº",
        "½"
      ],
      [
        "v",
        "ÃŃ"
      ],
      [
        "á»į",
        "c"
      ],
      [
        "Ġd",
        "áº«n"
      ],
      [
        "Ġtiáº¿",
        "p"
      ],
      [
        "Ġlá»Ľ",
        "n"
      ],
      [
        "Ġl",
        "áº¡i"
      ],
      [
        "Ġc",
        "Ã´ng"
      ],
      [
        "Æ°á»¡",
        "ng"
      ],
      [
        "Ġso",
        "i"
      ],
      [
        "Ġtr",
        "uyá»ģn"
      ],
      [
        "Ġs",
        "Ã¡t"
      ],
      [
        "o",
        "s"
      ],
      [
        "Ġt",
        "iá»ĥu"
      ],
      [
        "Ġnh",
        "áºŃn"
      ],
      [
        "Ã³",
        "c"
      ],
      [
        "Ã²",
        "n"
      ],
      [
        "Ã¡",
        "m"
      ],
      [
        "Ġm",
        "áº·t"
      ],
      [
        "ÃŃ",
        "t"
      ],
      [
        "%",
        "),"
      ],
      [
        "Ġch",
        "á»©c"
      ],
      [
        "Ġtr",
        "iá»ĥn"
      ],
      [
        "Ġth",
        "á»ĳng"
      ],
      [
        "Ġt",
        "uyáº¿n"
      ],
      [
        "i",
        "Ãªm"
      ],
      [
        "2",
        "01"
      ],
      [
        "Ġl",
        "iá»ĩu"
      ],
      [
        "Ġv",
        "áº¥n"
      ],
      [
        "Ġkh",
        "á»ĳi"
      ],
      [
        "Ġth",
        "ay"
      ],
      [
        "Æ°",
        "a"
      ],
      [
        "Ġb",
        "iá»ĥu"
      ],
      [
        "ĠÄĳ",
        "a"
      ],
      [
        "Ġhá»ĵ",
        "i"
      ],
      [
        "ĠÄĳ",
        "á»ķi"
      ],
      [
        "á»Ļ",
        "c"
      ],
      [
        "á»Ľ",
        "p"
      ],
      [
        "Ġkh",
        "oÃ¡"
      ],
      [
        "Ä©",
        "nh"
      ],
      [
        "ĠÄĳ",
        "á»ĵng"
      ],
      [
        "Ã©",
        "p"
      ],
      [
        "Ġh",
        "ai"
      ],
      [
        "Ġmáº¡",
        "c"
      ],
      [
        "áº±",
        "m"
      ],
      [
        "Ġ",
        "X"
      ],
      [
        "Ġtr",
        "á»įng"
      ],
      [
        "ÄĲ",
        "á»ĳi"
      ],
      [
        "Ġd",
        "i"
      ],
      [
        "Ġgi",
        "a"
      ],
      [
        "T",
        "á»«"
      ],
      [
        "á»ĥ",
        "n"
      ],
      [
        "Ġc",
        "an"
      ],
      [
        "Ġnh",
        "iÃªn"
      ],
      [
        "Ġ1",
        "2"
      ],
      [
        "Ġkh",
        "á»Ľp"
      ],
      [
        "i",
        "m"
      ],
      [
        "Ġh",
        "á»Ļi"
      ],
      [
        "Ġd",
        "Ã¹ng"
      ],
      [
        "Ġtá»ĳ",
        "t"
      ],
      [
        "Ġcáº£",
        "m"
      ],
      [
        "Ġthi",
        "áº¿u"
      ],
      [
        "Ã©",
        "o"
      ],
      [
        "á»Ł",
        "i"
      ],
      [
        "á»Ļ",
        "ng"
      ],
      [
        "Ġthi",
        "áº¿t"
      ],
      [
        "Ġh",
        "á»ĩ"
      ],
      [
        "Ġth",
        "anh"
      ],
      [
        "Ġb",
        "á»Ļ"
      ],
      [
        "Ġs",
        "á»©c"
      ],
      [
        "Ġl",
        "á»±c"
      ],
      [
        "Ġho",
        "áº¡t"
      ],
      [
        "Ġgiá»",
        "Ľi"
      ],
      [
        "Ġd",
        "áº¡ng"
      ],
      [
        "Ġb",
        "áº¥t"
      ],
      [
        "iá»ħ",
        "n"
      ],
      [
        "u",
        "s"
      ],
      [
        "Ġt",
        "áº¡o"
      ],
      [
        "Ġv",
        "ong"
      ],
      [
        "Ġd",
        "Æ°á»¡ng"
      ],
      [
        "Ġgi",
        "ai"
      ],
      [
        "Ġchuy",
        "á»ĥn"
      ],
      [
        "Ġh",
        "Æ°á»Łng"
      ],
      [
        "K",
        "h"
      ],
      [
        "Ġtr",
        "ÃŃ"
      ],
      [
        "Ġch",
        "ÃŃnh"
      ],
      [
        "i",
        "s"
      ],
      [
        "Ġd",
        "Ãłi"
      ],
      [
        "Ġph",
        "Ã²ng"
      ],
      [
        "ĠcÃ¡c",
        "h"
      ],
      [
        "Ġ",
        "an"
      ],
      [
        "Ġv",
        "Ã¹ng"
      ],
      [
        "iá»ĩ",
        "p"
      ],
      [
        "2",
        "0"
      ],
      [
        "%",
        ")."
      ],
      [
        "e",
        "l"
      ],
      [
        "Ġm",
        "Ãłng"
      ],
      [
        "Ġkh",
        "ÃŃ"
      ],
      [
        "uy",
        "Ãªn"
      ],
      [
        "Ġ",
        "á»ĳng"
      ],
      [
        "Ã¡",
        "n"
      ],
      [
        "i",
        "Ãªu"
      ],
      [
        "ĠN",
        "h"
      ],
      [
        "Ġc",
        "Ã²n"
      ],
      [
        "ĠN",
        "ghiÃªn"
      ],
      [
        "Ã³",
        "ng"
      ],
      [
        "Ä©",
        "a"
      ],
      [
        "Ġm",
        "áº¯c"
      ],
      [
        "Ġt",
        "iÃªn"
      ],
      [
        "áº§",
        "m"
      ],
      [
        "Ġs",
        "áº£n"
      ],
      [
        "Ã£",
        "n"
      ],
      [
        "Ġt",
        "Ä©nh"
      ],
      [
        "Æ°",
        "u"
      ],
      [
        "Ġc",
        "ung"
      ],
      [
        "Ġ",
        "E"
      ],
      [
        "á»£",
        "i"
      ],
      [
        "áº¯",
        "n"
      ],
      [
        "Ġv",
        "iÃªn"
      ],
      [
        "Ġt",
        "Ã¡i"
      ],
      [
        "Ġl",
        "Ãªn"
      ],
      [
        "ĠâĢ",
        "ĵ"
      ],
      [
        "Ġ",
        "o"
      ],
      [
        "Ġqu",
        "Ã¡"
      ],
      [
        "Ġ2",
        "01"
      ],
      [
        "i",
        "l"
      ],
      [
        "Ġt",
        "iá»ģn"
      ],
      [
        "Ġkh",
        "áº£"
      ],
      [
        "Ġk",
        "iá»ĥm"
      ],
      [
        "Æ°á»Ľ",
        "ng"
      ],
      [
        "Ġx",
        "áº£y"
      ],
      [
        "Ġn",
        "am"
      ],
      [
        "Ġt",
        "ay"
      ],
      [
        "i",
        "a"
      ],
      [
        "á»ı",
        "i"
      ],
      [
        "Ġgiáº£",
        "i"
      ],
      [
        "Ã",
        "¨"
      ],
      [
        "Ġth",
        "áº¿"
      ],
      [
        "ĥ",
        "n"
      ],
      [
        "Ġr",
        "áº¥t"
      ],
      [
        "ĠÄ",
        "ĥn"
      ],
      [
        "e",
        "s"
      ],
      [
        "Ġth",
        "iá»ĩp"
      ],
      [
        "u",
        "á»Ļt"
      ],
      [
        "ĠK",
        "h"
      ],
      [
        "Ġ",
        "U"
      ],
      [
        "Ġ",
        "ÃŃt"
      ],
      [
        "Ġtu",
        "áº§n"
      ],
      [
        "Ġ",
        "em"
      ],
      [
        "Ġn",
        "á»ĵng"
      ],
      [
        "N",
        "ghiÃªn"
      ],
      [
        "Ġch",
        "Ãºng"
      ],
      [
        "Ġmáº¡",
        "n"
      ],
      [
        "Ġngh",
        "Ä©a"
      ],
      [
        "Ġngo",
        "Ãłi"
      ],
      [
        "Ġth",
        "áº¥t"
      ],
      [
        "á»¥",
        "ng"
      ],
      [
        "B",
        "á»ĩnh"
      ],
      [
        "ĠÄĳá»Ļ",
        "c"
      ],
      [
        "Ġkh",
        "Ã¡m"
      ],
      [
        "0",
        "5"
      ],
      [
        "Ãº",
        "p"
      ],
      [
        "Ġn",
        "áº¿u"
      ],
      [
        "Æ°",
        "ng"
      ],
      [
        "Ġtr",
        "Ãłng"
      ],
      [
        "Ġthá»",
        "Ł"
      ],
      [
        "ĠÄĳ",
        "áº¡i"
      ],
      [
        "oÃ¡",
        "t"
      ],
      [
        "Ġc",
        "u"
      ],
      [
[...]
